<unk>	0
<s>	0
</s>	0
▁de	-2.7613
▁van	-3.01552
▁	-3.12821
,	-3.44134
.	-3.87843
▁het	-3.9418
▁en	-3.99952
1	-4.00345
▁in	-4.01791
0	-4.13286
2	-4.16515
)	-4.32527
9	-4.45605
▁een	-4.51026
▁voor	-4.60426
/	-4.62909
▁(	-4.66578
▁op	-4.71942
3	-4.74953
▁die	-4.80301
▁worden	-4.87795
▁te	-4.87923
▁dat	-4.88446
▁met	-4.94627
4	-4.97405
e	-5.00931
5	-5.0414
▁of	-5.05294
-	-5.10691
7	-5.1463
8	-5.15314
6	-5.17965
▁artikel	-5.20399
▁is	-5.21088
▁zijn	-5.21916
▁De	-5.31188
▁aan	-5.32078
▁wordt	-5.35666
▁deze	-5.3805
;	-5.38794
▁door	-5.50324
▁bij	-5.5261
▁tot	-5.56515
▁lid	-5.5915
▁Commissie	-5.72308
EG	-5.72422
▁nr	-5.7261
▁niet	-5.77557
EEG	-5.85151
▁Verordening	-5.87184
▁om	-5.92241
▁Gemeenschap	-6.01804
:	-6.05003
▁uit	-6.1011
▁als	-6.13469
▁onder	-6.17306
▁Raad	-6.21182
▁"	-6.27257
▁toepassing	-6.31996
▁bijlage	-6.33133
▁Lid	-6.33839
),	-6.34654
▁-	-6.34893
▁lidstaten	-6.35031
▁andere	-6.39732
▁bedoelde	-6.4067
▁moet	-6.42627
▁Richtlijn	-6.43966
▁Overwegende	-6.44959
s	-6.45765
▁overeenkomstig	-6.47847
▁heeft	-6.48042
▁maatregelen	-6.48826
▁kan	-6.49537
_	-6.52012
▁kunnen	-6.53935
en	-6.54047
▁ten	-6.54305
▁over	-6.55229
BAR	-6.56783
▁betreffende	-6.574
▁_	-6.60066
▁moeten	-6.61721
▁dan	-6.62725
▁vastgesteld	-6.64831
▁bepalingen	-6.64979
▁betrokken	-6.65047
▁dit	-6.65768
▁Europese	-6.66191
▁zij	-6.69032
(	-6.69269
▁bepaalde	-6.6992
▁In	-6.70195
▁a	-6.7058
▁inzake	-6.71498
▁b	-6.72274
▁richtlijn	-6.73566
▁verordening	-6.73815
▁Het	-6.75984
Staten	-6.7914
▁hebben	-6.81529
"	-6.81626
▁alle	-6.83343
▁naar	-6.85622
▁hun	-6.87578
▁lidstaat	-6.91584
▁ge	-6.92185
▁geen	-6.92344
▁gegevens	-6.93485
▁na	-6.94683
▁gewijzigd	-6.95886
▁name	-6.98706
▁bevoegde	-7.02037
▁tussen	-7.03036
'	-7.03562
▁ter	-7.04644
▁betrekking	-7.08642
▁invoer	-7.13544
▁volgende	-7.1535
▁producten	-7.15454
▁voorwaarden	-7.1721
▁uitvoering	-7.18596
▁gebruik	-7.18649
▁indien	-7.18971
▁Deze	-7.19677
▁dient	-7.21823
▁meer	-7.21877
▁geval	-7.22328
▁derde	-7.22807
▁procedure	-7.23052
▁c	-7.25032
▁communautaire	-7.25916
▁informatie	-7.26457
Staat	-7.2763
▁%	-7.28892
▁I	-7.29595
▁jaar	-7.30443
▁vaststelling	-7.30585
▁kader	-7.31469
▁voorschriften	-7.3217
▁landen	-7.33087
▁nationale	-7.33351
▁binnen	-7.33352
▁eerste	-7.35511
▁stellen	-7.35627
▁welke	-7.35967
▁wanneer	-7.36262
▁volgens	-7.3651
▁Verdrag	-7.39891
▁markt	-7.41939
▁bedoeld	-7.44269
▁er	-7.45807
▁autoriteiten	-7.46464
▁grond	-7.46577
▁zich	-7.46746
▁haar	-7.46755
▁overeenkomst	-7.47101
▁Comité	-7.47557
▁onderzoek	-7.47897
▁genoemde	-7.48544
▁ook	-7.48893
▁steun	-7.4926
▁handel	-7.49337
▁vastgestelde	-7.50755
▁december	-7.51442
▁vervangen	-7.52666
▁rekening	-7.53463
▁goederen	-7.53611
▁Voor	-7.53763
▁toe	-7.54996
▁gebied	-7.55027
▁datum	-7.55719
▁recht	-7.5774
▁opgenomen	-7.57972
▁nemen	-7.59526
▁Gelet	-7.59789
▁waarin	-7.60021
de	-7.60187
▁mogen	-7.60706
▁punt	-7.6134
▁zoals	-7.61537
▁werd	-7.61663
▁overeenstemming	-7.61873
▁leden	-7.61957
▁controle	-7.62465
▁II	-7.63052
▁kennis	-7.63329
▁waarvan	-7.63484
▁verband	-7.63502
▁per	-7.63511
▁houdende	-7.64032
▁besluit	-7.64199
▁genomen	-7.64292
▁nodig	-7.64512
▁nieuwe	-7.64892
▁land	-7.65241
▁brengen	-7.65833
▁basis	-7.65858
▁periode	-7.66248
▁oorsprong	-7.6648
▁bepaald	-7.66788
▁voldoen	-7.66875
▁artikelen	-7.66945
▁wijziging	-7.6702
▁verzoek	-7.67468
▁dienen	-7.68055
▁[	-7.68207
▁gebruikt	-7.6833
▁alinea	-7.69233
▁waarop	-7.69294
▁produkten	-7.69739
▁deel	-7.70315
▁DE	-7.70343
▁regeling	-7.70589
▁Wanneer	-7.70785
▁VAN	-7.71163
▁termijn	-7.7133
▁beschikking	-7.7164
▁alsmede	-7.71672
▁juni	-7.71706
▁Indien	-7.72953
▁elke	-7.73016
▁financiële	-7.74507
▁mag	-7.74778
▁waarvoor	-7.75421
▁daarvan	-7.76015
▁uitvoer	-7.76305
▁Europees	-7.76747
▁vast	-7.78328
meenschappelijke	-7.78608
▁technische	-7.79004
▁Overeenkomst	-7.79303
▁d	-7.79648
▁Beschikking	-7.8141
▁januari	-7.8149
▁waar	-7.81634
▁Bij	-7.82612
▁hoeveelheden	-7.83515
▁partijen	-7.83644
▁betreft	-7.83798
▁A	-7.83986
▁lijst	-7.84088
▁één	-7.8448
▁ingediend	-7.85061
▁tegen	-7.85111
▁specifieke	-7.85729
▁mogelijk	-7.85777
▁juli	-7.86633
▁minste	-7.86823
▁laatstelijk	-7.86898
▁Republiek	-7.86991
▁werking	-7.87143
▁vóór	-7.88368
▁programma	-7.88652
▁aanzien	-7.89176
▁zo	-7.89427
▁productie	-7.89626
▁maken	-7.89796
▁Artikel	-7.9013
▁elk	-7.90239
▁Unie	-7.90255
▁wijze	-7.90646
▁ontwikkeling	-7.91195
▁stoffen	-7.9241
▁bedrag	-7.92428
▁stelt	-7.92684
▁nodige	-7.9319
▁grondgebied	-7.93535
▁vermeld	-7.93708
▁bescherming	-7.93906
▁twee	-7.9413
▁was	-7.94155
▁diensten	-7.945
▁maanden	-7.9489
▁oog	-7.96109
▁kosten	-7.96712
▁ervan	-7.96767
▁aantal	-7.97877
▁product	-7.98203
▁autoriteit	-7.98257
▁tweede	-7.9834
▁ondernemingen	-7.98347
▁hij	-7.99369
▁derhalve	-7.99475
▁zin	-7.99691
▁dieren	-8.00051
▁waarbij	-8.00561
▁slechts	-8.00883
▁rechten	-8.00905
▁zal	-8.01333
▁uiterlijk	-8.01666
▁staat	-8.02013
▁advies	-8.03318
▁Parlement	-8.0393
▁bijzondere	-8.05857
▁gehouden	-8.06016
▁sector	-8.06594
▁samenwerking	-8.06645
▁dergelijke	-8.07287
▁krachtens	-8.08471
▁dezelfde	-8.08952
▁Dit	-8.09511
▁houden	-8.09542
▁gebracht	-8.09593
▁zou	-8.10159
▁wat	-8.10637
▁hoeveelheid	-8.10724
▁algemene	-8.11009
▁gesteld	-8.12102
▁aanmerking	-8.12175
▁voorzien	-8.13104
▁noodzakelijk	-8.13208
▁toegepast	-8.1331
▁instantie	-8.13341
▁vermelde	-8.14364
▁zonder	-8.14366
▁producenten	-8.16343
of	-8.16527
▁drie	-8.16582
▁Op	-8.16798
▁III	-8.17458
▁plaats	-8.17841
▁C	-8.18507
▁partij	-8.18531
▁beheer	-8.18599
▁personen	-8.19238
▁eisen	-8.19245
▁onderneming	-8.19314
▁volgt	-8.19386
▁gevallen	-8.19771
▁komen	-8.20305
▁controles	-8.20344
▁procedures	-8.20649
▁vergunning	-8.20718
▁EUR	-8.20982
▁B	-8.21024
▁uitgevoerd	-8.21037
▁verleend	-8.21735
▁Verenigd	-8.22089
▁Een	-8.23079
▁vorm	-8.23649
▁wetgeving	-8.24211
▁verkoop	-8.24994
▁bedrijf	-8.26551
▁activiteiten	-8.26632
▁internationale	-8.2669
te	-8.27473
▁vervoer	-8.27492
▁regels	-8.27643
▁Gemeenschappen	-8.27875
▁oktober	-8.2798
▁evenwel	-8.28343
▁vertegenwoordig	-8.28653
▁werden	-8.28838
▁onderhavige	-8.29033
":	-8.29251
▁certificaat	-8.2977
▁doen	-8.29784
▁vanaf	-8.29797
▁der	-8.30183
▁Besluit	-8.30302
▁niveau	-8.3096
▁instanties	-8.31056
▁genoemd	-8.31065
▁aanpassing	-8.31154
▁totale	-8.31509
▁toezicht	-8.31746
▁geldt	-8.31862
▁mei	-8.3214
▁waarde	-8.33014
▁verkeer	-8.33044
▁belang	-8.33129
▁bestemd	-8.33658
▁;	-8.33799
▁maart	-8.33849
▁einde	-8.33892
▁wel	-8.34104
▁gelden	-8.34302
]	-8.3433
▁afgegeven	-8.34814
▁zorgen	-8.35278
▁prijzen	-8.35302
▁bedrijfstak	-8.36263
▁Zij	-8.36831
▁alleen	-8.36935
▁dag	-8.37294
▁Om	-8.37911
▁verslag	-8.38247
▁wettelijke	-8.38769
▁nog	-8.38993
▁omschreven	-8.39161
.".	-8.39361
▁ingang	-8.39407
▁veiligheid	-8.39732
sbepalingen	-8.40016
▁inbegrip	-8.40026
▁verschillende	-8.40194
▁tijdens	-8.40384
▁officiële	-8.40639
▁passende	-8.40971
▁toegevoegd	-8.41823
▁ervoor	-8.42076
▁gezondheid	-8.42209
▁maar	-8.42245
meenschappelijk	-8.42264
▁wijzigingen	-8.43045
▁waren	-8.43114
▁voorkomen	-8.43204
▁bedragen	-8.43262
▁verplichtingen	-8.43351
▁economische	-8.43374
▁gedurende	-8.43386
▁milieu	-8.43516
▁echter	-8.4386
▁hoofde	-8.44659
▁aanvraag	-8.44992
▁risico	-8.45174
▁delen	-8.46231
▁redenen	-8.46238
▁hetzij	-8.46628
▁bestaande	-8.46931
▁douane	-8.47056
▁tekst	-8.47065
▁april	-8.47148
▁criteria	-8.47398
er	-8.47542
▁goedkeuring	-8.4801
▁verkregen	-8.48297
▁vlees	-8.48592
▁bijlagen	-8.48936
▁Er	-8.49305
▁gevolgen	-8.49573
▁gemaakt	-8.4984
▁verstrekt	-8.49964
▁verricht	-8.50622
▁goedgekeurd	-8.50682
▁oprichting	-8.50928
▁aanvullende	-8.5099
▁bijzonder	-8.51206
▁werkzaamheden	-8.51412
maatregelen	-8.51453
▁comité	-8.51844
▁toegang	-8.52227
▁voldaan	-8.52298
▁middelen	-8.52343
▁besluiten	-8.52417
▁eigen	-8.52598
▁november	-8.52884
▁gaan	-8.53267
▁voorkomend	-8.53561
ing	-8.5388
▁uitsluitend	-8.53913
▁uitgaven	-8.54325
▁aangegeven	-8.54412
▁veterinair	-8.54586
▁L	-8.54719
▁beschouwd	-8.55145
▁V	-8.55505
▁Koninkrijk	-8.55511
overeenkomst	-8.55649
▁teneinde	-8.56001
▁Met	-8.56476
▁persoon	-8.56547
▁al	-8.56559
▁verwerking	-8.56657
▁geven	-8.56786
▁passen	-8.56794
▁gebieden	-8.56871
▁levensmiddelen	-8.57481
▁gevolg	-8.5813
▁aard	-8.58242
▁afwijking	-8.58534
▁resultaten	-8.58803
▁ontvangen	-8.59127
▁i	-8.59182
▁kennisgeving	-8.59392
▁bepalen	-8.59447
▁hand	-8.59608
▁vallen	-8.59727
▁voorlopige	-8.59944
▁overeenkomsten	-8.60097
▁uitzondering	-8.60182
▁vervat	-8.60261
▁situatie	-8.60524
▁september	-8.60566
▁via	-8.61541
▁waarborgen	-8.61727
▁aangewezen	-8.61906
▁vrije	-8.62027
▁ingetrokken	-8.62092
▁bedrijven	-8.62431
▁voorstel	-8.62719
▁instelling	-8.63046
▁hoofdstuk	-8.63189
▁behandeling	-8.63266
▁markten	-8.63289
▁omstandigheden	-8.63487
▁Bureau	-8.64582
wetenschappelijk	-8.64645
▁beoordeling	-8.65038
▁doelstellingen	-8.65469
▁toegekend	-8.65654
▁maand	-8.65851
▁reeds	-8.66296
▁desbetreffende	-8.66297
▁schade	-8.66601
▁documenten	-8.66767
▁soorten	-8.66895
ne	-8.67076
▁laatste	-8.67858
▁februari	-8.67904
▁ingevoerd	-8.68141
▁zullen	-8.68485
▁regelingen	-8.68501
▁zekerheid	-8.68502
▁belasting	-8.68542
▁bis	-8.68615
▁dagen	-8.68827
▁inzonderheid	-8.68869
▁voeren	-8.69032
▁middel	-8.69289
heid	-8.69293
▁inschrijving	-8.69338
▁gegeven	-8.69376
▁ingesteld	-8.6956
inwerkingtreding	-8.69572
▁verlenen	-8.69669
verantwoordelijk	-8.69892
▁inachtneming	-8.70103
▁streepje	-8.70163
▁landbouw	-8.70393
▁stof	-8.70405
▁geacht	-8.7065
▁begroting	-8.70709
▁bestemming	-8.71115
▁geldende	-8.71406
▁doel	-8.71636
▁openbare	-8.71937
▁communautair	-8.72026
▁naam	-8.72138
▁voldoet	-8.72232
▁ton	-8.72372
▁mogelijkheid	-8.72563
▁normen	-8.72635
▁relevante	-8.72755
▁voldoende	-8.73017
▁betaling	-8.73141
▁visserij	-8.73232
▁prijs	-8.73538
▁IV	-8.7357
▁opgesteld	-8.7365
▁f	-8.73796
▁bevatten	-8.74572
▁toegestaan	-8.75004
▁iedere	-8.75462
E	-8.75837
▁minder	-8.75841
▁certificaten	-8.75959
▁gaat	-8.76111
▁verstrekken	-8.76327
▁aangebracht	-8.76396
▁erkenning	-8.76415
▁vaststellen	-8.76813
▁interne	-8.77141
▁eventuele	-8.77295
▁handelsverkeer	-8.77707
▁onderworpen	-8.78054
▁administratieve	-8.78124
▁instellingen	-8.78355
▁voorwaarde	-8.78383
▁dienst	-8.78714
▁T	-8.78985
▁blijkt	-8.79083
▁kwaliteit	-8.79091
▁acht	-8.79145
▁bestaat	-8.79297
▁blijven	-8.7939
▁:	-8.79701
▁gemiddelde	-8.79787
▁verrichten	-8.80011
▁erkend	-8.8063
▁af	-8.80793
▁gesloten	-8.80985
▁vormen	-8.81082
▁mits	-8.81444
▁producent	-8.81805
autoriteiten	-8.82168
.";	-8.82377
▁Onverminderd	-8.82378
▁overleg	-8.82481
▁onverwijld	-8.82602
basisverordening	-8.82694
▁werknemers	-8.83587
▁neemt	-8.83597
▁rechtstreeks	-8.83819
▁beroep	-8.84281
▁//	-8.8431
lang	-8.8447
▁Protocol	-8.84509
▁volledig	-8.84607
▁bevat	-8.84878
▁normale	-8.85406
n	-8.85522
▁systeem	-8.86001
▁buiten	-8.86651
▁erop	-8.86716
▁organisatie	-8.8721
lijke	-8.87231
▁verzoeken	-8.87829
▁Na	-8.8815
▁bestrijding	-8.88192
▁COMMISSIE	-8.88605
▁respectievelijk	-8.88678
▁Nr	-8.88695
▁bijdrage	-8.88745
▁GN	-8.88762
▁eventueel	-8.88871
▁VERORDENING	-8.88934
▁ii	-8.89079
▁verklaring	-8.89797
▁financiering	-8.90491
▁krediet	-8.90617
▁geheel	-8.90639
▁vermelding	-8.90722
▁bestaan	-8.90734
▁produktie	-8.90963
▁bijstand	-8.91139
nuitvoerlegging	-8.91251
▁referentie	-8.91631
▁mee	-8.91933
▁acties	-8.92002
▁bepaling	-8.92147
▁aanvragen	-8.92206
▁natuurlijke	-8.92266
▁zouden	-8.92369
▁ontvangst	-8.92583
▁organisaties	-8.92675
▁had	-8.92901
▁bedraagt	-8.9318
▁verkoopseizoen	-8.93505
▁daartoe	-8.9392
▁ander	-8.94315
▁vrijstelling	-8.94425
▁gelijk	-8.94438
▁kenmerken	-8.94553
▁zover	-8.94717
▁vrij	-8.94729
▁Economische	-8.94971
▁beginselen	-8.9523
▁titel	-8.95347
▁groep	-8.95368
▁werkzame	-8.95728
▁bekendmaking	-8.95867
▁Overeenkomstig	-8.95899
▁overige	-8.96017
▁document	-8.96351
▁voertuigen	-8.96609
▁treedt	-8.97026
▁vereiste	-8.97323
▁grens	-8.9738
▁voorzover	-8.97554
▁erkende	-8.97704
onderzoektijdvak	-8.9791
▁onderlinge	-8.97952
▁staan	-8.9801
▁omdat	-8.98074
rechtelijke	-8.98285
▁eveneens	-8.9853
▁beschikbaar	-8.98664
▁enkele	-8.98761
m	-8.9898
▁taken	-8.99112
▁ordening	-8.99341
▁produkt	-8.99343
▁inlichtingen	-8.99498
▁hierna	-8.99512
▁algemeen	-8.99746
],	-8.99819
▁opnieuw	-8.99995
▁maatregel	-9.00158
▁mededeling	-9.00254
▁goed	-9.00272
▁co	-9.00307
▁aangepast	-9.00454
re	-9.00569
▁sociale	-9.00628
▁vereist	-9.00926
▁voorzitter	-9.01036
onderneming	-9.01091
▁punten	-9.01201
▁dienstig	-9.01295
▁beperkt	-9.01387
a	-9.01989
▁vijf	-9.02198
code	-9.02327
▁China	-9.02412
▁hoogste	-9.02455
▁afkomstig	-9.02598
▁namens	-9.02681
▁tenzij	-9.02767
▁model	-9.02925
▁restitutie	-9.03038
▁toestemming	-9.03044
▁vergezeld	-9.03283
▁verbonden	-9.036
▁herkomst	-9.03612
▁categorie	-9.03699
▁protocol	-9.04256
▁kracht	-9.04454
);	-9.04766
▁afgifte	-9.04923
▁bewijs	-9.05021
▁stand	-9.05021
▁zowel	-9.05036
▁dragen	-9.05273
▁gehele	-9.05914
▁indiening	-9.05956
▁geleverd	-9.06089
▁zes	-9.06137
▁onmiddellijk	-9.06164
▁bestuursrechte	-9.06166
▁hoogte	-9.06325
▁uitoefening	-9.06419
▁komt	-9.06661
▁nummer	-9.06905
▁maximum	-9.07256
▁waaronder	-9.07331
".	-9.07582
▁volledige	-9.07681
▁Gezi	-9.07901
▁gedaan	-9.08013
▁voorgeschreven	-9.08261
▁miljoen	-9.08322
▁duidelijk	-9.08986
▁ieder	-9.0903
▁tevens	-9.09208
▁beschikbare	-9.09323
▁bestuur	-9.09504
▁g	-9.09595
▁noch	-9.09657
▁Publicatieblad	-9.0969
▁behoren	-9.09872
",	-9.10043
▁waaraan	-9.10377
▁goede	-9.10454
▁aangenomen	-9.11162
▁EN	-9.11235
▁levering	-9.11499
▁verplichting	-9.11821
ers	-9.12079
t	-9.12251
▁dumping	-9.1233
▁onverminderd	-9.12394
▁definitieve	-9.12568
▁stelsel	-9.12636
▁berekening	-9.12684
▁gebruiken	-9.12792
▁vallende	-9.13072
▁E	-9.13384
▁zodat	-9.13519
▁Volgens	-9.13617
▁concurrentie	-9.13668
▁Elke	-9.13841
▁richtsnoeren	-9.13879
▁omvang	-9.13883
▁treden	-9.14038
▁ingevoerde	-9.1411
▁Aan	-9.14428
▁suiker	-9.14486
▁menselijke	-9.14603
▁gebaseerd	-9.1462
▁leiden	-9.14658
▁richtlijnen	-9.14715
▁licht	-9.14881
▁feit	-9.14915
le	-9.15194
▁geneesmiddelen	-9.15302
▁minimum	-9.1536
▁regionale	-9.15475
▁gestelde	-9.15666
▁tijdstip	-9.15697
▁aanvrager	-9.15738
▁registratie	-9.15962
▁hoger	-9.16037
▁hen	-9.16607
▁stemmen	-9.1666
▁melk	-9.16703
▁berekend	-9.16736
▁EER	-9.16902
▁brengt	-9.17037
▁verbetering	-9.17256
▁sommige	-9.17282
▁v	-9.1744
▁personeel	-9.17523
▁Ten	-9.17559
▁doet	-9.17598
▁voorafgaande	-9.17613
▁betaald	-9.17694
▁ontwerp	-9.17832
▁verstaan	-9.17959
▁daarom	-9.18012
▁doeleinden	-9.18075
▁type	-9.18084
▁anderzijds	-9.18173
▁zulks	-9.18194
▁opmerkingen	-9.18604
▁behoeve	-9.18863
▁opslag	-9.18987
▁verzekerings	-9.1901
▁toekenning	-9.19676
▁categorieën	-9.19677
▁hem	-9.19721
▁enerzijds	-9.19722
▁waarmee	-9.19738
▁samen	-9.19913
▁maakt	-9.20087
▁treffen	-9.20245
▁voorziet	-9.20572
▁officieel	-9.20592
▁werken	-9.20689
sluitende	-9.20719
▁bijdragen	-9.21076
▁methoden	-9.21231
▁verplicht	-9.21735
▁verpakking	-9.21744
▁soort	-9.21747
▁vaartuigen	-9.21762
▁tijd	-9.21882
▁geeft	-9.21991
▁evaluatie	-9.22006
▁geschrapt	-9.22037
▁gebruikte	-9.22216
hierna	-9.22386
▁nadat	-9.22595
▁weg	-9.22888
ondernemingen	-9.22944
▁getroffen	-9.23248
▁toetreding	-9.23254
▁wetgevingen	-9.23414
Verdrag	-9.23542
▁publiek	-9.23577
▁zelf	-9.23577
▁blz	-9.23694
▁belangrijke	-9.23706
▁runderen	-9.24017
▁RAAD	-9.24025
▁gericht	-9.24351
▁Bijlage	-9.24479
▁bestemde	-9.24558
d	-9.25028
▁omvat	-9.2512
▁zien	-9.25254
▁p	-9.25345
sprocedure	-9.25345
producenten	-9.25492
▁bekend	-9.25565
▁dekking	-9.25646
▁zodanig	-9.25675
▁jaarlijkse	-9.25708
▁elektronische	-9.25735
▁gemachtigd	-9.25759
▁mede	-9.25946
▁nationaal	-9.25987
▁contract	-9.26145
▁onderzoeken	-9.2621
▁vergoeding	-9.2624
▁inrichtingen	-9.26241
▁statistische	-9.26311
▁verwezen	-9.26515
▁opleiding	-9.266
▁regio	-9.269
▁beperkingen	-9.27204
▁sluiting	-9.2726
ve	-9.27292
▁dierlijke	-9.27534
▁toestaan	-9.27553
▁meegedeeld	-9.27726
▁grote	-9.27951
▁beslissing	-9.28165
▁sub	-9.28406
▁identificatie	-9.28463
novereenkomstig	-9.28556
].	-9.28848
▁optreden	-9.28883
▁levende	-9.29139
▁voorstellen	-9.29484
▁verschillen	-9.29571
▁huidige	-9.29625
▁houdend	-9.29653
▁Duitsland	-9.29865
▁beleid	-9.29937
smaatregelen	-9.30001
▁bevestigd	-9.30022
▁toegelaten	-9.30024
▁Frankrijk	-9.30029
▁hetzelfde	-9.30291
▁vers	-9.30405
▁elkaar	-9.30492
▁tijdelijke	-9.3054
▁gevaar	-9.30938
▁Zo	-9.31226
▁nomenclatuur	-9.31429
▁laten	-9.31554
▁enige	-9.31612
▁residuen	-9.31688
▁aangifte	-9.31705
▁houdt	-9.32383
▁mate	-9.3243
▁augustus	-9.32609
▁consumptie	-9.32662
▁ingevoegd	-9.32726
▁D	-9.3285
▁waardoor	-9.32925
▁gezien	-9.33221
▁verdere	-9.33685
▁bevoegd	-9.33704
▁aanvaard	-9.33752
▁naleving	-9.33768
▁waaruit	-9.33787
▁effecten	-9.34027
";	-9.34048
▁materiaal	-9.34084
▁individuele	-9.3426
▁intrekking	-9.34293
▁aanleiding	-9.34517
▁Permanent	-9.34598
▁VI	-9.34625
▁vervaardiging	-9.34697
▁varkens	-9.34763
▁antidumping	-9.34766
▁speciale	-9.34836
▁pluimvee	-9.34969
▁binnenlandse	-9.35028
▁verder	-9.35128
o	-9.35226
▁onderzocht	-9.35336
▁beide	-9.35377
tariefcontingent	-9.35428
▁zorg	-9.35517
▁werk	-9.3566
▁belast	-9.35707
▁voertuig	-9.35765
▁bevorderen	-9.35924
▁geografische	-9.35951
▁deskundigen	-9.36067
▁begunstigde	-9.36419
▁schriftelijk	-9.36834
▁Bovendien	-9.36919
▁ingestelde	-9.36942
▁beperken	-9.37003
▁mededinging	-9.37424
programma	-9.37444
▁leggen	-9.37744
▁vooruitgang	-9.37776
▁dus	-9.37809
▁O	-9.37893
▁be	-9.38134
▁houder	-9.38406
▁ertoe	-9.3842
▁meerderheid	-9.38432
▁gevestigd	-9.38526
▁woorden	-9.38971
▁ziekte	-9.39065
▁beginsel	-9.39292
▁schepen	-9.39615
▁wenselijk	-9.39635
▁verleende	-9.39715
▁vier	-9.39885
▁extra	-9.3992
▁tarief	-9.39943
▁Euratom	-9.40029
▁Als	-9.40061
▁activa	-9.40168
▁bevoegdheid	-9.40187
▁geschied	-9.40249
▁percentage	-9.40289
al	-9.40352
▁ernstige	-9.40443
▁vormt	-9.40539
▁EU	-9.40762
▁jaren	-9.40932
▁garanderen	-9.40966
▁langer	-9.41034
▁raad	-9.41074
▁ongeacht	-9.41335
▁dossier	-9.4137
▁beschreven	-9.41531
▁Spanje	-9.41863
▁ervaring	-9.41866
▁ze	-9.41986
▁gevaarlijke	-9.41994
▁verstrekte	-9.42029
voercertificaten	-9.42039
▁directeur	-9.42095
▁verzending	-9.42126
▁verkocht	-9.42371
▁zaad	-9.42623
▁gelijkwaardig	-9.42651
▁taal	-9.42662
zelfde	-9.43142
▁indeling	-9.43183
▁verbruik	-9.43384
▁dier	-9.43397
▁consument	-9.43398
▁vennootschap	-9.43434
el	-9.43465
▁blijft	-9.43512
▁invloed	-9.43512
generaal	-9.43648
▁verzocht	-9.44048
▁fabrikant	-9.44281
▁afdeling	-9.44491
▁noodzakelijke	-9.44602
▁eieren	-9.44654
▁aangeboden	-9.44672
▁Alle	-9.44791
▁indienen	-9.44948
▁projecten	-9.45384
▁gedeelte	-9.45562
ële	-9.45624
▁duur	-9.45654
▁beschikken	-9.46004
maatschappij	-9.46171
▁bevoegdheden	-9.46323
vergemakkelijken	-9.46509
▁opgericht	-9.46714
▁bereikt	-9.46779
▁wijzigen	-9.46826
▁bovendien	-9.46895
▁belangen	-9.46981
producten	-9.4712
r	-9.47145
▁betalingen	-9.47395
▁bieden	-9.47529
▁Uit	-9.47566
▁investeringen	-9.47623
▁verboden	-9.47674
▁kleine	-9.47806
▁soortgelijke	-9.4794
▁raadpleging	-9.48201
▁bovengenoemde	-9.48295
▁toelating	-9.48364
▁wijn	-9.48405
▁G	-9.48427
▁methode	-9.48453
tracommunautair	-9.48572
▁jaarlijks	-9.486
▁deelneming	-9.48697
▁kapitaal	-9.48782
▁gelezen	-9.49095
▁namelijk	-9.49125
▁bekendgemaakt	-9.49314
▁centrale	-9.49334
▁Europa	-9.49745
▁bijgevolg	-9.49887
▁PB	-9.49907
▁hiervan	-9.49959
▁daarbij	-9.50115
▁verlengd	-9.50178
▁luchtvaart	-9.50239
Volksrepubliek	-9.50249
▁regelgeving	-9.505
▁register	-9.50913
▁landbouwproduct	-9.50924
▁gelijke	-9.51079
▁bevordering	-9.51282
▁Voorts	-9.51355
▁legt	-9.51378
▁mogelijke	-9.51584
▁uitwisseling	-9.51651
▁afzonderlijke	-9.51671
▁Franse	-9.51822
▁ingevolge	-9.51958
▁gevestigde	-9.52032
▁overweging	-9.52394
▁HOOFDSTUK	-9.52491
▁voorlopig	-9.52549
▁behalve	-9.52579
▁uitgedrukt	-9.52615
▁voortvloeien	-9.52899
▁vak	-9.52956
▁HET	-9.53047
antidumpingrecht	-9.53329
▁overeenkomstige	-9.53642
▁lager	-9.5383
▁afvalstoffen	-9.53908
▁ambtenaren	-9.54176
▁verdrag	-9.542
▁controleren	-9.54207
▁particuliere	-9.54434
▁motorvoertuigen	-9.54447
▁tabel	-9.54545
▁ECB	-9.54554
▁sancties	-9.54587
▁spoedig	-9.54651
codes	-9.54687
▁kg	-9.54752
▁compenserend	-9.54775
▁wie	-9.54801
▁plaatse	-9.54866
▁steeds	-9.55083
▁bezit	-9.55199
▁toepassen	-9.55324
sgebied	-9.55401
▁geplaatst	-9.55407
▁uitvoeren	-9.55434
▁orgaan	-9.55438
▁twaalf	-9.55442
▁maximaal	-9.55494
▁vermeldingen	-9.55542
▁invoering	-9.55543
svoorschriften	-9.55554
▁betalen	-9.5556
▁omvatten	-9.55693
▁uitgevoerde	-9.55768
▁verschil	-9.55981
▁termijnen	-9.56037
▁overdracht	-9.56056
▁gecombineerde	-9.56333
▁wegens	-9.56342
▁geharmoniseerde	-9.56418
▁mens	-9.56491
▁marktaandeel	-9.5665
▁staten	-9.56762
▁h	-9.56829
▁gedeeltelijk	-9.56838
▁verantwoorde	-9.56844
▁instrumenten	-9.57093
▁verkrijgen	-9.5711
▁vervaardigd	-9.57209
▁inhoud	-9.5721
▁vooraf	-9.57242
▁aangezien	-9.57325
▁vergadering	-9.57424
▁gewicht	-9.57484
▁kon	-9.576
▁zeer	-9.57645
▁ecu	-9.57658
▁besloten	-9.57787
▁gewasbescherm	-9.58068
▁nadere	-9.58164
▁importeurs	-9.582
▁enkel	-9.58216
▁analyse	-9.58365
▁exploitatie	-9.58366
▁eerst	-9.58455
voorschriften	-9.58603
activiteiten	-9.58734
▁nieuw	-9.58833
▁ACS	-9.58959
▁douanetarief	-9.58968
▁wijzen	-9.59025
▁verwerkt	-9.59133
▁onderdelen	-9.59142
▁toegewezen	-9.59177
▁vastgelegd	-9.59573
▁planten	-9.59621
smiddelen	-9.59792
▁gezondheids	-9.60032
▁iii	-9.60127
▁daadwerkelijk	-9.60217
▁heffing	-9.60357
▁onderdanen	-9.60383
wel	-9.60384
▁begrotingsjaar	-9.60485
▁oorspronkelijke	-9.60502
▁passend	-9.60781
▁verbieden	-9.60892
in	-9.60958
▁granen	-9.6101
▁verspreiding	-9.61264
▁verbod	-9.61353
▁chemische	-9.6143
bescherming	-9.61479
dat	-9.61578
▁conclusies	-9.61666
▁bereiken	-9.61868
▁geproduceerd	-9.61896
▁belanghebbende	-9.6197
▁leveren	-9.61997
▁geldigheidsduur	-9.62025
▁post	-9.62234
regeling	-9.62418
▁voorgestelde	-9.6249
rdinatie	-9.62541
onderhandelingen	-9.62752
▁adres	-9.62835
▁S	-9.62892
▁afhankelijk	-9.62921
▁daarin	-9.62932
▁verklaard	-9.63025
▁vergunningen	-9.63226
▁verschuldigd	-9.63274
▁geregistreerd	-9.63316
▁contracten	-9.63378
PB	-9.63617
▁initiatief	-9.63742
▁bepaalt	-9.63753
▁definitie	-9.63762
▁grenzen	-9.63848
▁behoeften	-9.6412
▁boord	-9.64156
▁ongeveer	-9.64161
▁materialen	-9.64253
▁Portugal	-9.64331
▁plaatsvindt	-9.6442
▁daarvoor	-9.64421
▁draagt	-9.64507
▁beleggings	-9.64639
▁opdracht	-9.6469
▁garanties	-9.64691
▁etikettering	-9.64841
▁Wat	-9.64967
▁oordeel	-9.65136
▁voorgelegd	-9.65184
▁meest	-9.65452
▁geldig	-9.65505
▁laat	-9.65601
▁Aangezien	-9.65767
▁euro	-9.65826
▁ondertekend	-9.66066
▁overheid	-9.66116
▁valt	-9.66128
▁verontreiniging	-9.66131
▁ingedeeld	-9.66299
▁toegezonden	-9.66362
▁beperking	-9.66489
▁elementen	-9.66789
▁ingeschreven	-9.66842
▁aanwezigheid	-9.66897
▁installaties	-9.67054
▁schrijven	-9.67081
▁daarmee	-9.67169
▁karakter	-9.67322
▁lijsten	-9.67358
diensten	-9.67428
instellingen	-9.67479
▁Gemengd	-9.67483
▁Oostenrijk	-9.67567
▁zee	-9.67687
▁hoog	-9.67694
▁opgeslagen	-9.67825
▁vaartuig	-9.67827
▁schadelijke	-9.6783
▁Onder	-9.6813
▁aandelen	-9.6815
▁VII	-9.6815
▁olijfolie	-9.68242
▁Naties	-9.68257
procedure	-9.68305
▁deelt	-9.68319
▁vraag	-9.68343
▁vaste	-9.68412
▁onderling	-9.68417
▁vermogen	-9.68439
▁samenstelling	-9.68508
▁daar	-9.68663
▁Hof	-9.68711
▁ontwikkelingen	-9.68768
▁Zweden	-9.68818
▁aanzienlijke	-9.68943
▁overgelegd	-9.68982
▁Denemarken	-9.692
GBVB	-9.69217
▁consumenten	-9.69247
▁transacties	-9.69325
▁oppervlakte	-9.69457
▁aangevraagd	-9.69695
▁nader	-9.69721
▁benaming	-9.69933
▁Ieder	-9.70028
▁anders	-9.70043
▁behandeld	-9.7034
▁behouden	-9.70378
▁verwerkte	-9.70519
▁dergelijk	-9.70588
▁voordat	-9.70748
▁krijgen	-9.70994
▁terwijl	-9.70998
▁activiteit	-9.71001
▁dien	-9.71066
▁regering	-9.71159
▁sluiten	-9.71212
▁ex	-9.71452
▁aanbesteden	-9.71454
▁hadden	-9.71529
exporteurs	-9.71663
▁hoofd	-9.7176
▁herziening	-9.71785
▁inrichting	-9.71906
A	-9.722
▁water	-9.72356
▁vissersvaartuig	-9.7238
▁alsook	-9.72618
▁aanduiding	-9.72655
▁gekwalificeerde	-9.72689
▁goedgekeurde	-9.72702
▁fruit	-9.72809
▁voorgaande	-9.7286
▁verhouding	-9.73079
▁instandhouding	-9.73169
▁Italië	-9.73416
▁geschiedt	-9.73536
▁taak	-9.73581
▁afbreuk	-9.73612
▁commerciële	-9.73771
▁Noorwegen	-9.7379
▁openbaar	-9.73811
▁uitoefenen	-9.73889
▁reglement	-9.73915
▁moeilijkheden	-9.73962
▁verstrijken	-9.7398
systeem	-9.74018
het	-9.74377
▁verbeteren	-9.74444
sche	-9.74533
▁plaatsvinden	-9.74534
▁capaciteit	-9.74539
▁harmonisatie	-9.74561
▁rechtstreekse	-9.74577
▁rechtspersoon	-9.74605
overschrijdende	-9.74606
▁aanzienlijk	-9.7476
▁problemen	-9.74865
▁gebleken	-9.74909
▁hetgeen	-9.75003
▁tien	-9.75066
▁volksgezondheid	-9.75101
▁douanegebied	-9.75291
▁wil	-9.75295
▁hoge	-9.75351
▁vervolgens	-9.75473
▁overwegingen	-9.75486
▁vergelijking	-9.75603
▁komende	-9.75749
b	-9.75781
▁definitief	-9.75858
▁inspectie	-9.76214
▁aangetoond	-9.76214
▁gelegen	-9.76216
▁exporteurs	-9.76242
enqu	-9.76291
▁onverlet	-9.76308
▁grondstoffen	-9.76343
▁uniforme	-9.76713
pelijk	-9.76744
▁Staten	-9.76767
▁afzet	-9.77188
▁orde	-9.77535
▁zijnde	-9.77617
▁gecontroleerd	-9.77732
▁plaatsen	-9.77876
▁premie	-9.77905
▁gebruikers	-9.7794
▁Finland	-9.7803
▁groepen	-9.78165
▁specificaties	-9.78198
▁doelstelling	-9.78561
▁verwijzing	-9.78585
organisaties	-9.78664
▁aanvaarding	-9.78938
▁diervoeders	-9.78971
▁organen	-9.7902
▁waarschijnlijk	-9.79145
▁specifiek	-9.79208
▁rundvlees	-9.79226
▁groenten	-9.79271
▁vermindering	-9.79373
▁teeltmateriaal	-9.79378
▁uitgesloten	-9.79378
capaciteit	-9.79436
▁marktdeelnemers	-9.79471
▁groot	-9.79495
▁aangevuld	-9.79566
▁afwijkingen	-9.79606
▁vereisten	-9.79677
▁wederzijdse	-9.79808
▁beschikt	-9.80016
produkten	-9.80016
▁exporteur	-9.80039
terventiebureau	-9.80127
▁uur	-9.80416
▁aanduidingen	-9.80496
▁handelingen	-9.80549
speriode	-9.80582
▁kolom	-9.80588
▁opstelling	-9.80637
▁gefinancierd	-9.80651
▁verrichte	-9.80667
▁plaatsgevonden	-9.80738
▁financieel	-9.80754
▁wateren	-9.80894
▁opzichte	-9.81022
▁begin	-9.81027
▁Daarom	-9.81035
▁formulier	-9.81207
▁handhaven	-9.81216
▁standpunt	-9.81299
▁interventie	-9.81366
▁Richtlijnen	-9.81468
▁voorts	-9.81542
▁ondersteuning	-9.81676
▁sectoren	-9.8175
▁verzonden	-9.81852
S	-9.81943
▁doch	-9.82027
voercertificaat	-9.82067
▁bevindingen	-9.82075
▁zaaizaad	-9.82161
▁%.	-9.82508
▁groter	-9.82575
Artikel	-9.8267
▁aanbeveling	-9.82861
▁Fonds	-9.82966
▁geconstateerd	-9.82977
▁rijst	-9.83022
▁IN	-9.83074
diergeneeskundig	-9.83133
▁resultaat	-9.83175
▁belangrijkste	-9.8334
▁regelmatig	-9.83476
▁Internationale	-9.83527
▁mening	-9.83664
▁on	-9.83695
ingsmiddelen	-9.83708
▁feiten	-9.83719
▁verlenging	-9.83769
▁totaal	-9.83866
▁kwantitatieve	-9.83952
▁winst	-9.83974
▁vierde	-9.83982
▁aankoop	-9.84045
▁schapen	-9.84061
▁systemen	-9.84113
▁doeltreffende	-9.84164
▁geopend	-9.84172
C	-9.84213
▁eenheid	-9.84308
▁Polen	-9.84309
▁("	-9.84349
▁staatssteun	-9.84356
▁lucht	-9.84396
▁status	-9.84419
▁Derhalve	-9.8445
▁overeengekomen	-9.8445
▁noemen	-9.84552
▁hoe	-9.84587
▁aldus	-9.84659
▁verlaagd	-9.84714
certificaat	-9.84848
▁aanvulling	-9.84948
▁vennootschappen	-9.8506
▁briefwisseling	-9.85066
▁gevolgd	-9.85387
▁etiket	-9.85393
▁effect	-9.85488
ten	-9.85492
▁verbintenis	-9.85534
▁uitbreiding	-9.85536
▁aanpassingen	-9.85684
▁afzonderlijk	-9.85758
▁belanghebbenden	-9.85806
▁geregistreerde	-9.85825
▁onderdeel	-9.85975
▁ondergaan	-9.86104
▁Agentschap	-9.86442
▁importeur	-9.86665
stelling	-9.86758
▁gewogen	-9.86947
▁verordeningen	-9.87017
totstandbrenging	-9.87143
▁derden	-9.87221
▁factoren	-9.87224
▁vervoerd	-9.87233
▁kwestie	-9.87241
▁zaak	-9.87442
▁voorzieningen	-9.87478
▁m	-9.87564
▁Hongarije	-9.87586
▁vestiging	-9.87596
svoorwaarden	-9.87602
▁schriftelijke	-9.87618
▁o	-9.8763
▁keuze	-9.87713
▁toekomen	-9.87749
▁essenti	-9.87909
▁industriële	-9.87976
▁aanneming	-9.88015
▁onafhankelijke	-9.88035
▁weer	-9.88108
▁boter	-9.88279
▁tijdelijk	-9.88294
▁Ierland	-9.88405
▁rekenen	-9.88416
bare	-9.88501
▁subsidie	-9.88514
▁gehalte	-9.88555
▁vrijgesteld	-9.88581
▁boven	-9.88633
▁alcohol	-9.88815
▁vervanging	-9.8883
▁noodzaak	-9.88837
▁inleiding	-9.88867
▁technisch	-9.88888
▁ontstaan	-9.88944
I	-9.89013
▁grondslag	-9.89239
▁juridische	-9.89278
▁representatieve	-9.89327
▁verenigbaar	-9.89396
▁inclusief	-9.89398
▁verwezenlijking	-9.89479
▁zetel	-9.89539
▁beoogde	-9.89663
▁mond	-9.89667
▁later	-9.89694
▁verbintenissen	-9.89774
▁diens	-9.89777
▁voordeel	-9.89778
▁aspecten	-9.89788
▁waarover	-9.89808
▁ras	-9.89823
▁betrokkene	-9.8993
▁[...]	-9.89953
▁deelnemen	-9.90067
herstructurering	-9.90098
▁aanbevelingen	-9.90104
▁leidt	-9.90359
▁gewaarborgd	-9.90451
▁rassen	-9.90513
▁toepasselijke	-9.90756
▁economisch	-9.90773
▁contingent	-9.90815
▁personeelsleden	-9.90855
▁daling	-9.90949
▁opneming	-9.90975
▁terug	-9.91056
▁gerechtvaardigd	-9.91095
maatschappijen	-9.91098
overgangsperiode	-9.91157
▁rechterlijke	-9.9119
▁weigeren	-9.91323
▁Totaal	-9.91432
▁India	-9.91446
▁kantoor	-9.91569
▁overgedragen	-9.91652
▁apparatuur	-9.9179
▁opstellen	-9.91929
▁gehecht	-9.91976
▁uitrusting	-9.92007
▁onderwijs	-9.92035
▁netwerk	-9.92057
▁kalenderjaar	-9.921
f	-9.92173
▁bijgestaan	-9.92319
▁herzien	-9.92421
▁doeltreffend	-9.92669
▁biologische	-9.9285
▁zake	-9.92944
ens	-9.92947
▁secretariaat	-9.93162
▁rekeningen	-9.93188
▁distributie	-9.93236
▁voorbehoud	-9.93289
▁steekproef	-9.9329
srecht	-9.9342
▁monsters	-9.9351
▁verlaging	-9.93546
▁terugbetaling	-9.93819
hoeveelheid	-9.93939
▁werkgelegenheid	-9.93986
▁proeven	-9.94007
▁vorige	-9.94244
▁vergaderingen	-9.94307
kennisgeving	-9.94349
▁samenhang	-9.9439
▁tests	-9.94611
▁bewijsstukken	-9.94663
▁vervuld	-9.94676
▁visserijproduct	-9.94856
▁VOOR	-9.94953
▁voortvloeiend	-9.95001
▁wet	-9.95082
▁ziekten	-9.95132
▁eind	-9.95164
▁traditionele	-9.95168
▁uitgebracht	-9.95173
▁vergelijkbaar	-9.95177
▁praktijken	-9.95248
▁Daar	-9.9527
▁medewerking	-9.95317
▁deelnemende	-9.954
▁verhoogd	-9.95481
▁teksten	-9.95522
▁installatie	-9.95765
▁ontvangende	-9.95856
▁BE	-9.95885
▁R	-9.95924
▁organismen	-9.95997
▁zodra	-9.9616
bedrijven	-9.96407
▁geregeld	-9.96408
▁verleent	-9.9649
▁ver	-9.96508
▁verminderd	-9.96687
▁Van	-9.96714
▁statistieken	-9.96878
▁verslagen	-9.96879
▁werkdagen	-9.9716
lersverenigingen	-9.97346
▁machtiging	-9.97435
▁gelegenheid	-9.97468
▁internationaal	-9.97487
▁geboden	-9.97651
▁verpakkingen	-9.97703
▁beter	-9.97801
▁structuur	-9.97812
▁aangemerkt	-9.97959
▁restituties	-9.97976
▁duurzame	-9.98035
▁toewijzing	-9.98076
▁heffingen	-9.98077
lijkheid	-9.98343
sprogramma	-9.98403
▁talen	-9.98448
▁geschikt	-9.98489
▁bleek	-9.98704
▁Autoriteit	-9.98713
▁M	-9.9875
▁Chinese	-9.98756
▁verzekering	-9.98778
organisatie	-9.98917
▁betrekkingen	-9.98943
▁vlag	-9.9895
▁Publikatieblad	-9.99191
▁actie	-9.99203
▁werkelijke	-9.99249
▁gedetailleerde	-9.99298
▁veiligheids	-9.99563
▁RICHTLIJN	-9.99648
Wetenschappelijk	-9.99663
▁NCB	-9.99814
▁gedefinieerd	-9.99837
▁belastingen	-9.9987
▁Turkije	-9.99874
▁communicatie	-9.99934
▁regel	-9.99972
▁totdat	-10.0021
▁rechtspersonen	-10.0033
▁voorraden	-10.0045
▁rente	-10.0052
▁blootstelling	-10.0064
▁afwacht	-10.0064
▁t	-10.0068
overeenkomsten	-10.0093
▁paardachtigen	-10.0097
voegingsmiddelen	-10.011
▁Roemenië	-10.0114
▁zelfs	-10.0122
▁gepubliceerd	-10.0136
▁positie	-10.0148
▁project	-10.0162
▁vanuit	-10.0164
▁valuta	-10.017
▁Bank	-10.017
▁plantaardige	-10.0187
▁omschrijving	-10.0189
▁adequate	-10.0199
▁gevolge	-10.02
▁beoordelen	-10.0206
▁Verordeningen	-10.0216
▁geslachte	-10.0224
▁verliezen	-10.0234
▁conclusie	-10.024
▁definities	-10.0258
▁operationele	-10.0263
▁douanevervoer	-10.0281
▁beschermde	-10.0289
▁welk	-10.029
▁vervallen	-10.0292
▁gewezen	-10.0294
▁IJsland	-10.0299
▁reserve	-10.0301
▁Justitie	-10.0306
▁redelijke	-10.0307
▁opdrachten	-10.0309
▁geweest	-10.0329
▁geneesmiddel	-10.033
▁lange	-10.0335
▁zodanige	-10.0338
▁aannemen	-10.0342
▁deelname	-10.0349
▁vorderingen	-10.0359
▁opening	-10.0363
▁snel	-10.037
▁geslacht	-10.0377
persoonsgegevens	-10.0381
▁zaken	-10.0403
▁beoordeeld	-10.041
▁Die	-10.0416
▁voordelen	-10.0417
▁Amerika	-10.0426
▁voeding	-10.0426
▁contingenten	-10.0436
▁hele	-10.0449
▁vergelijkbare	-10.0454
▁Centrum	-10.0456
▁plaatselijke	-10.0462
▁veroorzaakt	-10.0463
gereglementeerde	-10.0479
▁stijging	-10.0479
▁eerder	-10.0488
▁leverancier	-10.0489
▁loop	-10.0519
▁certificering	-10.0529
▁Griekenland	-10.0531
▁verzekeren	-10.0541
▁medegedeeld	-10.0549
p	-10.0562
▁voornemens	-10.0562
▁Cyprus	-10.058
▁beschermen	-10.0585
▁lopende	-10.0594
exporteur	-10.0595
▁feitelijke	-10.0599
▁inbreuk	-10.0605
▁herstructurer	-10.0605
▁l	-10.0608
▁zone	-10.061
Voor	-10.0611
▁industrie	-10.0618
▁werkingssfeer	-10.0629
▁rol	-10.0632
▁beëindiging	-10.0657
ok	-10.0659
▁intern	-10.0661
▁Litouwen	-10.0694
▁commissie	-10.0694
▁beperkte	-10.0698
▁functie	-10.0721
met	-10.0728
B	-10.0731
▁daarop	-10.0732
G	-10.0737
▁mogelijkheden	-10.0738
▁nageleefd	-10.0744
▁diervoeding	-10.0745
▁verscheidene	-10.0771
▁compensatie	-10.0771
▁VIII	-10.0782
▁verzoekt	-10.0782
▁hierboven	-10.0783
▁verlaten	-10.0796
▁schip	-10.0797
▁kopie	-10.0801
▁leveringen	-10.0852
▁bewijzen	-10.0863
steunmaatregelen	-10.0869
▁haven	-10.0871
▁binnengebracht	-10.0874
▁onafhankelijk	-10.0887
▁Oekra	-10.0891
▁Akte	-10.0893
periode	-10.0906
▁cijfers	-10.0926
▁aanwezig	-10.0938
▁merk	-10.0947
ontwikkeling	-10.0959
▁resolutie	-10.0963
▁maximumgehalten	-10.0979
▁Voorzitter	-10.0986
▁sprake	-10.0986
▁vooral	-10.0999
▁geiten	-10.1003
▁daalde	-10.1003
▁dierenarts	-10.1004
▁steunregeling	-10.1006
▁geleden	-10.1007
▁standaard	-10.1036
▁actieve	-10.1043
▁voorkoming	-10.1045
▁Bulgarije	-10.1051
telecommunicatie	-10.1058
veel	-10.1059
▁Estland	-10.106
systemen	-10.1068
▁gekozen	-10.1072
▁zorgt	-10.1073
▁gevraagde	-10.1081
▁uitzonderlijke	-10.1084
▁vraagstukken	-10.1088
▁Binnen	-10.1088
▁aandeel	-10.1092
▁klacht	-10.1098
▁grenswaarden	-10.1104
▁energie	-10.1113
▁pas	-10.1125
▁externe	-10.1126
i	-10.1136
▁Tot	-10.1139
▁beveiliging	-10.1141
▁uitgeoefend	-10.1151
▁offertes	-10.1176
instelling	-10.1177
▁overschreden	-10.1178
▁daardoor	-10.1178
▁kennen	-10.1191
▁geschieden	-10.1194
c	-10.1209
voorwaarden	-10.1225
▁vertrek	-10.1226
▁laboratorium	-10.1234
▁toegesta	-10.1248
▁statistiek	-10.1249
▁trekken	-10.1249
sniveau	-10.1261
▁gelegd	-10.1262
▁F	-10.1266
▁verdeling	-10.1282
▁techniek	-10.1312
▁inkomsten	-10.1332
▁voornaamste	-10.1341
▁Ter	-10.1361
▁mm	-10.1363
▁beslissingen	-10.1367
▁kredieten	-10.1385
▁volgen	-10.1387
▁ruwe	-10.1391
nummer	-10.1392
▁Malta	-10.1399
▁olie	-10.1399
▁voorwerpen	-10.1402
▁schorsing	-10.1432
procedures	-10.1436
▁onderstaande	-10.1442
▁zetten	-10.1442
markt	-10.1488
▁eigendom	-10.1498
▁bilaterale	-10.1506
▁maximale	-10.1509
▁naast	-10.1513
▁bovenstaande	-10.1524
▁vissen	-10.1543
permanente	-10.1544
▁respectieve	-10.1546
▁toepassingen	-10.1546
sprakelijkheid	-10.1553
▁samengesteld	-10.1555
▁verwijdering	-10.1573
▁plan	-10.1577
▁Uiterlijk	-10.1583
▁thans	-10.1599
beoordeling	-10.1601
▁afnemers	-10.1609
▁benamingen	-10.1615
▁gelet	-10.1617
sector	-10.1631
▁bevinden	-10.1641
▁landbouwbeleid	-10.1646
▁gewone	-10.1659
▁objectieve	-10.1661
▁arbeids	-10.1665
▁beschrijving	-10.1674
▁gelijkwaardige	-10.1675
▁douanekantoor	-10.1684
▁Letland	-10.1704
▁werkprogramma	-10.1704
▁landbouwprodukt	-10.1704
▁uitmaken	-10.1705
▁concentratie	-10.1706
▁konden	-10.1717
▁kwartaal	-10.1719
▁latere	-10.1719
▁jaarrekening	-10.1725
kosten	-10.1729
▁handhaving	-10.1747
▁afstand	-10.1753
▁aquacultuur	-10.1762
▁landbouwers	-10.1766
▁eenheden	-10.1773
▁infrastructuur	-10.1779
▁betaalde	-10.178
▁dochter	-10.1802
▁eigenschappen	-10.1806
▁mandaat	-10.1818
▁beantwoorden	-10.1819
▁deelnemers	-10.183
▁wijst	-10.183
▁waartoe	-10.183
▁norm	-10.1834
▁vaststelt	-10.1845
De	-10.1853
▁opgave	-10.1862
▁stukken	-10.1863
▁gegarandeerd	-10.1868
▁verkopen	-10.1872
▁ontvangsten	-10.1873
prijzen	-10.1875
▁toekomstige	-10.1875
▁Reglement	-10.1889
▁afloop	-10.1901
▁vragen	-10.1907
▁geproduceerde	-10.191
▁vervullen	-10.1917
▁opdat	-10.1931
▁zendt	-10.1931
▁hierbij	-10.1931
▁uiterste	-10.1934
▁zuivelproducten	-10.1934
▁opgelegd	-10.1937
▁zeggen	-10.1945
▁Krachten	-10.1945
▁sterk	-10.1958
▁ontvangt	-10.1964
▁voorziening	-10.1974
▁onderhoud	-10.1977
▁Slovenië	-10.2005
▁aanvrage	-10.2014
▁verlening	-10.2019
▁enig	-10.202
▁biedt	-10.2033
▁veredeling	-10.2052
▁fase	-10.2078
▁overeen	-10.208
▁stadium	-10.2105
▁H	-10.2105
certificaten	-10.2106
▁diergezondheid	-10.2106
▁overlegging	-10.2107
▁verificatie	-10.2116
▁terzake	-10.2122
▁ligt	-10.213
▁diploma	-10.2138
▁toegevoegde	-10.2143
▁boekhouding	-10.2144
▁aangezocht	-10.2145
▁modellen	-10.215
▁preparaten	-10.2152
▁verklaringen	-10.2159
EN	-10.2165
aanvragen	-10.2177
▁brief	-10.2181
▁aangelegenheden	-10.2192
▁Door	-10.2216
▁verwijzingen	-10.2217
▁reden	-10.2219
▁tijde	-10.2223
▁bureau	-10.2232
▁uiteengezet	-10.2233
▁toegekende	-10.2233
▁bereid	-10.2282
▁behulp	-10.2285
▁geconcludeerd	-10.2285
▁vindt	-10.23
▁verzamelen	-10.23
z	-10.2305
doeltreffendheid	-10.2305
▁vis	-10.2309
▁dumpingmarge	-10.2315
▁douanerechten	-10.2322
▁dranken	-10.2333
▁leningen	-10.2363
▁gezamenlijke	-10.2365
▁verwerkend	-10.2365
▁bedrijfs	-10.2366
▁vinden	-10.2373
▁daaraan	-10.2375
▁Rekenkamer	-10.238
▁uiteindelijk	-10.2384
▁begrip	-10.239
▁verhoging	-10.2401
▁steeg	-10.2421
▁statuten	-10.2423
▁lijkt	-10.2431
▁fundamentele	-10.2451
▁Atoomenergie	-10.2482
▁toegepaste	-10.2484
▁aantonen	-10.2497
▁garantie	-10.2499
▁beschermende	-10.252
▁bijkomende	-10.2524
▁overgang	-10.2535
▁authentiek	-10.2538
▁associatie	-10.2551
▁functionarissen	-10.2551
▁aandacht	-10.2556
telersvereniging	-10.2558
bij	-10.2564
▁geschikte	-10.2564
▁verlies	-10.2569
▁België	-10.2571
▁varkenspest	-10.2576
▁secretaris	-10.2595
▁belangrijk	-10.2596
als	-10.2599
▁Raadgevend	-10.2615
▁landbouwer	-10.2619
▁zending	-10.2622
▁n	-10.2623
▁momenteel	-10.2627
▁luchthaven	-10.263
▁gevoegd	-10.2639
▁Taiwan	-10.266
▁gehandhaafd	-10.266
▁materieel	-10.2683
▁persoonlijke	-10.2684
▁integratie	-10.2687
▁overschrijden	-10.2698
▁genoeg	-10.2698
▁afschrift	-10.2703
▁hulp	-10.2706
▁gekomen	-10.2709
▁gevraagd	-10.2727
▁verblijf	-10.2746
▁emissies	-10.2755
▁laste	-10.2757
▁strijd	-10.2764
ge	-10.2772
▁moment	-10.2777
R	-10.2784
▁uitgebreid	-10.2789
▁tarieven	-10.279
▁ernstig	-10.2822
▁Italiaanse	-10.2829
▁praktijk	-10.2846
▁oefenen	-10.2856
▁bewijsmateriaal	-10.2857
verklaring	-10.2859
gegevens	-10.2867
▁uitdrukkelijk	-10.2869
▁medewerkende	-10.2879
nregelmatigheden	-10.2882
▁k	-10.2896
▁nauwe	-10.2912
w	-10.2912
▁vergoedingen	-10.2913
▁Duitse	-10.2913
▁forfaitaire	-10.292
▁toestand	-10.2933
▁bericht	-10.2935
▁werkelijk	-10.2936
▁sperma	-10.294
▁gemachtigde	-10.2957
▁oppervlakten	-10.2974
▁daadwerkelijke	-10.2975
▁tijdvak	-10.2989
▁sinds	-10.3016
▁OP	-10.3018
▁visbestanden	-10.302
▁klauwzeer	-10.3029
▁genetisch	-10.303
▁Daartoe	-10.3032
▁verwerker	-10.3036
▁directe	-10.3036
▁verrichtingen	-10.3043
▁uitroeiing	-10.3053
▁recente	-10.3054
▁bewaking	-10.306
▁verlangen	-10.3065
▁actief	-10.3065
▁Hij	-10.3069
▁missie	-10.3077
staten	-10.3101
▁verplichte	-10.3113
▁N	-10.3117
▁voorschot	-10.3118
▁bank	-10.3132
▁veel	-10.3143
nomenclatuur	-10.3145
▁beëindigd	-10.3146
▁vermelden	-10.3149
▁K	-10.3152
▁vragenlijst	-10.3156
sregeling	-10.3162
▁instemming	-10.3165
▁vrijwarings	-10.3167
▁hogere	-10.317
▁invoerrechten	-10.3175
T	-10.3176
▁steunbedrag	-10.3178
▁begrepen	-10.3183
▁bronnen	-10.3191
▁diverse	-10.3201
▁voordoen	-10.3205
▁uitgekeerd	-10.3214
▁bijvoorbeeld	-10.3242
▁dossiers	-10.3242
▁ma	-10.3247
▁typegoedkeuring	-10.3251
▁aanwijzing	-10.3253
▁luiden	-10.3255
▁preferentiële	-10.3258
▁koper	-10.3274
▁bezwaar	-10.3278
▁Slowakije	-10.3279
▁data	-10.3286
▁bijgewerkt	-10.3298
▁BTW	-10.331
▁antwoord	-10.3311
▁begunstigden	-10.332
▁vrijgegeven	-10.3328
▁vertrouwelijk	-10.3339
▁afval	-10.3349
▁Korea	-10.335
▁juiste	-10.3355
▁banken	-10.3362
▁medische	-10.337
▁opleveren	-10.3379
▁grotere	-10.3392
▁geconsolideerde	-10.3406
▁werknemer	-10.3417
▁zones	-10.342
▁korte	-10.3423
▁gecertificeerd	-10.3442
▁langs	-10.3446
▁woonplaats	-10.3448
▁Canada	-10.3452
tes	-10.3473
▁elektriciteit	-10.3474
▁verwezenlijkt	-10.3479
▁partners	-10.3481
▁inspecties	-10.3488
▁Rusland	-10.3492
▁blijken	-10.3498
▁looptijd	-10.3504
▁mededelingen	-10.3534
▁geraadpleegd	-10.3546
▁praktische	-10.3561
▁Algemene	-10.3562
▁bevindt	-10.3581
▁bouw	-10.3585
D	-10.3591
▁benoemd	-10.3593
▁BESCHIKKING	-10.3598
▁Zwitserland	-10.3603
▁overbrenging	-10.3623
▁versie	-10.3639
▁direct	-10.3645
▁vastgelegde	-10.3656
▁functioneren	-10.366
sprocedures	-10.3661
aanvraag	-10.3675
▁Bijgevolg	-10.3684
sautoriteit	-10.3686
▁Kroatië	-10.3692
▁Hier	-10.3693
▁voorwerp	-10.3708
▁tijdig	-10.3709
▁passagiers	-10.3713
▁onderscheiden	-10.3731
▁identiteit	-10.3733
"-	-10.3737
beroepsopleiding	-10.375
▁aangemelde	-10.3766
gevende	-10.3772
▁exploitant	-10.3785
▁uitgegaan	-10.3789
▁gezamenlijk	-10.3792
▁verkochte	-10.3794
▁negatieve	-10.3813
▁embryo	-10.3826
▁Thailand	-10.3829
▁zenden	-10.3848
")	-10.3848
▁aanvaarden	-10.3849
plichtige	-10.3862
▁leven	-10.3874
▁weekdieren	-10.3875
▁geconstateerde	-10.3876
dentificeerd	-10.3895
▁alvorens	-10.3897
▁opgeda	-10.3902
▁beslist	-10.391
▁ondertekening	-10.3912
▁subsidies	-10.3922
▁structurele	-10.3927
▁plannen	-10.3928
▁studies	-10.3928
▁sedert	-10.3928
▁verwezenlijken	-10.3946
▁entiteiten	-10.3946
▁Zwitserse	-10.3948
▁onderwerpen	-10.3953
▁apparaten	-10.3968
▁evenwicht	-10.3982
▁bestanddelen	-10.3985
▁boekjaar	-10.3987
▁volle	-10.4
voegingsmiddel	-10.4001
▁nagegaan	-10.4017
▁Economisch	-10.4022
▁Central	-10.4022
▁transactie	-10.4027
▁plattelands	-10.4031
▁indicatie	-10.4031
▁bereiding	-10.4037
▁neergelegde	-10.4039
▁geleid	-10.4045
▁oplossing	-10.4048
▁Statuut	-10.4056
▁and	-10.4084
▁rapporteur	-10.4089
▁vanwege	-10.4093
▁opgestelde	-10.4096
▁Financie	-10.4135
▁waarden	-10.4156
goedkeuring	-10.4162
▁P	-10.4171
▁technologische	-10.4194
▁instrument	-10.4202
▁preventie	-10.4205
▁correctie	-10.4207
▁werkdag	-10.4213
▁net	-10.4214
▁moest	-10.4219
▁comités	-10.4221
▁produceren	-10.4253
▁Luxemburg	-10.4259
▁gebouwen	-10.4262
▁Organisatie	-10.4264
▁allen	-10.4269
▁j	-10.4275
▁leveranciers	-10.4287
▁Spaanse	-10.4294
▁melding	-10.4298
▁Nederland	-10.4299
▁offerte	-10.4301
▁klasse	-10.4329
Euratom	-10.4329
noemde	-10.433
▁voorgenomen	-10.4332
▁verbinden	-10.4343
▁nu	-10.4346
▁titels	-10.436
▁ontwikkelen	-10.438
staande	-10.4381
▁Behoud	-10.4385
▁voert	-10.439
scertificaat	-10.4397
▁geworden	-10.44
Kennisgeving	-10.4405
▁maxima	-10.4416
▁eis	-10.4418
▁goederenverkeer	-10.4419
▁inschrijvingen	-10.4426
▁adviezen	-10.4428
▁wild	-10.4432
▁merken	-10.4439
▁fiscale	-10.4443
▁rubriek	-10.4446
▁fysieke	-10.445
▁Japan	-10.4451
▁Brussel	-10.4457
▁ID	-10.4459
▁%,	-10.4463
▁herverzekerings	-10.4465
hoeveelheden	-10.4465
▁politieke	-10.4466
▁ogenblik	-10.4473
▁Sociaal	-10.4474
▁BBP	-10.4481
▁overzicht	-10.4481
▁beschermd	-10.4486
▁analysemethoden	-10.4486
▁degene	-10.4491
▁betere	-10.4505
▁evenals	-10.4511
▁verschaffen	-10.4512
▁lokale	-10.4516
eneinde	-10.4517
▁EGKS	-10.4524
▁afgewezen	-10.453
▁groei	-10.453
▁discriminatie	-10.4543
▁waarbinnen	-10.4548
▁agentschap	-10.455
▁balans	-10.4555
▁ruimte	-10.4557
▁vijfde	-10.4559
▁Elk	-10.456
verplichtingen	-10.457
▁overeenkomt	-10.4586
y	-10.4588
▁militaire	-10.4592
▁verwerken	-10.4597
▁varkensvlees	-10.4602
▁minstens	-10.461
▁liggen	-10.4617
▁proces	-10.4623
▁strategie	-10.4629
▁kinderen	-10.463
▁regelgevende	-10.4634
▁laboratoria	-10.4634
l	-10.4652
onderzoek	-10.4655
▁representatief	-10.4662
▁vordering	-10.4662
on	-10.4669
▁reeks	-10.4677
▁bevestiging	-10.468
▁gebrek	-10.4682
slanden	-10.4683
▁Tsjechische	-10.4683
▁origineel	-10.4707
▁contact	-10.4712
▁kandidaat	-10.4722
▁ingeval	-10.4725
▁Staat	-10.4742
▁olijven	-10.4742
▁bedroeg	-10.4743
▁daaropvolgende	-10.4745
▁bewaard	-10.475
▁Toetreding	-10.4765
▁havens	-10.4769
▁onderscheid	-10.4772
▁overschrijding	-10.4774
▁overschrijdt	-10.4776
speciaal	-10.4777
▁relevant	-10.4788
▁posten	-10.4795
▁gezorgd	-10.4796
▁premies	-10.4806
▁Landbouw	-10.481
▁geleidelijk	-10.4817
▁prestaties	-10.4822
lkens	-10.484
▁douanewetboek	-10.4854
▁aviaire	-10.486
▁banden	-10.4863
▁Veterinair	-10.4865
middelen	-10.4868
▁overmacht	-10.4874
▁gebruikmaking	-10.4874
▁Tsjechië	-10.4877
▁bezien	-10.4893
▁weken	-10.4903
▁reclame	-10.4907
ntegreerde	-10.4912
▁influenza	-10.4914
verzekering	-10.4919
▁bevolking	-10.4925
▁Stichting	-10.4932
▁voorzitterschap	-10.4942
▁administratie	-10.4944
▁emissie	-10.4949
▁hiertoe	-10.4951
▁beheerd	-10.4954
▁Andere	-10.4959
▁berekende	-10.4968
▁export	-10.4969
▁aanvullend	-10.4969
artikel	-10.497
▁verdeeld	-10.4979
▁moeder	-10.4986
▁aldaar	-10.4991
▁Niet	-10.4996
▁iv	-10.4996
▁betrokkenen	-10.5
▁verse	-10.5003
▁toekomst	-10.5006
▁woord	-10.5009
▁tussentijds	-10.5025
heidsopdrachten	-10.5026
▁behoud	-10.5036
▁vogels	-10.5037
▁ijzer	-10.5052
Gemeenschapsmerk	-10.5055
▁formulieren	-10.5061
▁collectieve	-10.507
▁ziet	-10.5076
▁Aanvullend	-10.5077
▁overeenkomen	-10.5086
▁publicatie	-10.5087
▁gehanteerd	-10.5089
▁verlengen	-10.509
▁treft	-10.5092
▁werkzaam	-10.5092
▁aanmelding	-10.5092
▁hulpmiddelen	-10.5107
▁ofwel	-10.5109
▁eilanden	-10.5121
▁afgesloten	-10.5129
▁Portugese	-10.513
▁LGO	-10.5146
▁Noord	-10.5148
▁verloop	-10.5156
g	-10.5168
▁omtrent	-10.5169
▁invoeren	-10.5177
▁voltooiing	-10.5189
▁toezichthoudend	-10.5191
O	-10.5193
▁geschillen	-10.5206
▁keuring	-10.5208
▁namen	-10.5209
▁Wetboek	-10.5217
▁GGO	-10.522
▁bevroren	-10.5224
▁gemodificeerde	-10.5226
▁versterking	-10.5231
▁lening	-10.5247
▁verhogen	-10.5256
▁uitvoerend	-10.5258
▁witte	-10.5273
lidstaten	-10.5278
▁ondertekende	-10.5284
▁steunregelingen	-10.5284
▁tegelijkertijd	-10.529
▁geoogst	-10.529
▁Gibraltar	-10.5294
▁functies	-10.5307
▁binnenbrengen	-10.531
beginsel	-10.5311
▁voorrang	-10.5311
▁Zuid	-10.532
▁geld	-10.5337
▁uitsluiting	-10.5339
▁beroeps	-10.5343
▁stemming	-10.5345
▁Russische	-10.5354
▁onderzochte	-10.5391
▁niveaus	-10.5393
▁druk	-10.5397
▁voorbereiding	-10.54
▁ongevallen	-10.5404
▁geringe	-10.5407
▁verontreinigend	-10.5414
▁gunste	-10.5433
▁technologie	-10.5433
▁statutair	-10.5433
▁Conferentie	-10.5441
▁teelt	-10.5446
▁arbeid	-10.5448
▁registers	-10.5453
▁contractuele	-10.5472
▁onverenigbaar	-10.5474
▁overname	-10.5485
▁neergelegd	-10.549
▁snelle	-10.5494
▁vereenvoudiging	-10.5498
▁Noorse	-10.5498
ende	-10.5507
▁Partijen	-10.5507
▁constructie	-10.5516
▁onderzoekt	-10.5517
▁vertrouwelijke	-10.5522
▁primaire	-10.5542
zij	-10.5553
▁aanbod	-10.5558
▁toegankelijk	-10.556
▁bestuurs	-10.5566
▁ingrediënten	-10.558
▁vrijheid	-10.558
▁omzet	-10.5586
▁eenmaal	-10.5594
▁combinatie	-10.5596
▁dekken	-10.5599
▁oliën	-10.56
▁oogst	-10.5604
voerrestituties	-10.5611
▁menselijk	-10.5618
▁voornoemd	-10.5618
omstandigheden	-10.5629
▁herstel	-10.564
▁productiekosten	-10.5647
▁ingevuld	-10.566
▁geboekt	-10.5664
▁fabrikanten	-10.5671
▁doorvoer	-10.5675
▁steunaanvraag	-10.5678
▁kennisgevingen	-10.5682
▁normaal	-10.5687
▁voortgezet	-10.5693
▁exemplaar	-10.5699
▁ingeleid	-10.5704
▁vergeleken	-10.5727
▁hoofdzakelijk	-10.5741
▁ondertekenen	-10.5746
▁zendingen	-10.5754
▁raming	-10.5756
▁voerde	-10.5766
▁gedroogde	-10.5768
▁inspanningen	-10.5772
▁multilaterale	-10.5773
▁aanpak	-10.5781
▁voltooid	-10.5786
Overeenkomst	-10.5806
▁inhouden	-10.5809
▁geweigerd	-10.581
▁tabak	-10.5816
▁element	-10.582
▁vermoeden	-10.5827
▁daaruit	-10.5832
▁overgenomen	-10.5832
▁beste	-10.5838
▁hop	-10.586
▁eigenaar	-10.5872
▁Vóór	-10.5877
▁actieprogramma	-10.5879
waarden	-10.5884
▁onderdaan	-10.5892
▁verwachte	-10.5895
▁vermijden	-10.5896
▁resterend	-10.5898
▁belaste	-10.5914
▁gebrachte	-10.5915
▁materiële	-10.5923
▁VS	-10.5927
▁geraamde	-10.5929
▁gewijzigde	-10.5935
▁verminderen	-10.5939
▁aanhangwagens	-10.5941
▁gedragingen	-10.5941
▁bescheiden	-10.5953
▁behoort	-10.596
▁wereldmarkt	-10.5979
▁behoefte	-10.6003
bedrijf	-10.6019
▁betekent	-10.6026
▁voornemen	-10.604
▁Marokko	-10.6045
q	-10.6046
rechten	-10.6058
▁vervaardigde	-10.6058
▁uitzonderingen	-10.6067
▁bestreken	-10.6069
▁grootste	-10.6086
▁formaliteiten	-10.6099
▁heer	-10.6109
▁verzameld	-10.6114
▁illegale	-10.6117
▁onmiddellijke	-10.6148
▁overeenstemt	-10.6157
▁verlangd	-10.6157
▁bovenbedoelde	-10.6162
▁zeven	-10.6166
controle	-10.6178
▁geheven	-10.6183
▁exploitanten	-10.6197
▁lage	-10.6197
▁vereenvoudigde	-10.621
▁nauwkeurig	-10.621
▁opgegeven	-10.6216
▁bemonstering	-10.6219
▁operatie	-10.6233
▁werkgever	-10.6245
▁Bondsstaat	-10.6246
ntegreerd	-10.6246
▁omzetting	-10.6249
sactiviteiten	-10.6258
▁opheffing	-10.6258
▁gevangen	-10.627
▁klanten	-10.6273
▁geschorst	-10.6291
▁inbreuken	-10.63
▁gemeld	-10.6312
▁opbrengst	-10.6318
markering	-10.6323
▁manier	-10.6336
sregelingen	-10.634
▁voorgesteld	-10.6362
▁voormalige	-10.6374
▁handels	-10.6391
▁voorafgaand	-10.6393
▁ontbreken	-10.6398
▁week	-10.6412
▁bijeen	-10.6413
ste	-10.642
▁Hoe	-10.6429
▁houders	-10.6435
sbevoegdheden	-10.6438
▁dienstverlening	-10.6445
▁autonom	-10.6449
▁voorschrijven	-10.6451
▁conform	-10.6451
▁reserves	-10.6462
netwerken	-10.6468
▁akkoord	-10.6472
▁oogpunt	-10.6473
▁CE	-10.6483
▁aankomst	-10.6484
▁getreden	-10.65
▁gewoonlijk	-10.65
▁vervoermiddelen	-10.6506
op	-10.6507
▁Bosnië	-10.6525
▁monetaire	-10.6528
▁verklaren	-10.6542
▁Ingeval	-10.6548
▁marktdeelnemer	-10.6553
▁machines	-10.6558
▁OT	-10.6563
▁code	-10.6567
▁inhoudt	-10.6572
▁netto	-10.6577
▁SCE	-10.6578
▁rapport	-10.6588
▁benodigd	-10.659
▁veroorzaken	-10.6595
productie	-10.6598
▁handeling	-10.6602
▁achteraf	-10.6604
▁aangesloten	-10.6604
▁bananen	-10.6606
▁anti	-10.6629
▁terugbetaald	-10.6633
▁Optreden	-10.6656
▁normalisatie	-10.6656
▁formele	-10.6661
▁versterken	-10.6679
▁behandelingen	-10.6696
▁veranderingen	-10.6698
▁verstande	-10.6705
producerende	-10.6706
▁rendement	-10.6709
▁gespecificeerd	-10.6709
▁vermoedelijk	-10.6711
▁kwaliteits	-10.673
▁oorspronkelijk	-10.6736
▁bijbehorend	-10.6744
▁omkleed	-10.6748
▁verwacht	-10.6756
▁begeleidend	-10.6761
▁behoeft	-10.6762
▁behoeven	-10.677
▁gedistilleerd	-10.6773
▁Eurostat	-10.6774
▁fabriek	-10.6774
▁duidelijkheid	-10.6788
▁buitenlandse	-10.6789
▁gemaakte	-10.6791
▁culturele	-10.6793
▁Oriëntatie	-10.6801
▁laatstgenoemde	-10.6804
▁erkennen	-10.6814
ijdens	-10.6815
▁frequentie	-10.6817
▁uitkeringen	-10.6818
▁lasten	-10.6818
▁hiervoor	-10.682
▁grondstof	-10.6822
▁essentieel	-10.6824
▁Beschikkingen	-10.6837
▁behorende	-10.6838
▁tomaten	-10.6839
▁gekweekt	-10.6839
▁steunmaatregel	-10.684
▁toevoeging	-10.6846
supplement	-10.6848
▁gehechte	-10.6849
▁vrouwen	-10.685
▁ad	-10.6851
▁verkoopprijzen	-10.6851
▁gerechtelijke	-10.6852
▁voedergewassen	-10.6869
▁potentiële	-10.6895
▁gemeten	-10.6897
▁situaties	-10.6898
▁juist	-10.6903
▁telers	-10.6907
▁Indonesië	-10.6914
▁breiden	-10.6915
▁gedekt	-10.6925
▁gezag	-10.6927
▁lichamen	-10.6929
▁veilig	-10.6934
▁veredelings	-10.6938
▁evenmin	-10.6939
▁verwijderd	-10.6939
▁percelen	-10.6939
▁winstgevendheid	-10.694
zie	-10.6946
▁civiele	-10.6953
verontreiniging	-10.6956
terventiebureaus	-10.6957
▁bron	-10.6964
▁voorkomt	-10.6965
▁hulpbronnen	-10.6973
▁bindende	-10.6981
▁Canari	-10.6989
▁voortzetting	-10.699
▁Eurojust	-10.6991
▁Samenwerkings	-10.7007
▁binnenkomst	-10.7011
▁lagere	-10.7015
▁quater	-10.7019
▁levensvatbaar	-10.7025
▁bestanden	-10.7026
▁documentatie	-10.7028
regelingen	-10.703
▁bruto	-10.7033
▁aanwijzingen	-10.7033
▁investering	-10.7033
▁aanmerkelijke	-10.7042
▁bezwaren	-10.7043
▁weigering	-10.7047
▁uitmaakt	-10.7049
▁bezitten	-10.7061
▁Wa	-10.7061
discriminerende	-10.7062
doeleinden	-10.7066
evaluatieverslag	-10.7077
▁slachthuis	-10.7083
▁toename	-10.7084
L	-10.7087
Richtlijn	-10.7107
▁tijdschema	-10.7107
▁pensioen	-10.7112
▁uitvoerende	-10.7122
▁wezenlijk	-10.7153
▁verstreken	-10.7156
▁beantwoordt	-10.7156
▁zuivelprodukten	-10.7157
▁transport	-10.717
▁gescheiden	-10.717
▁exporterend	-10.7171
▁Schengenacquis	-10.718
▁gehoord	-10.7181
▁minimumprijs	-10.7184
▁saldo	-10.719
▁indirect	-10.7191
▁gas	-10.7193
▁nuttige	-10.7194
▁aftrek	-10.7201
▁alternatieve	-10.7203
▁evenredig	-10.7206
▁statuut	-10.7209
▁levensmiddel	-10.7225
▁overeenstemmen	-10.7234
▁voedsel	-10.724
▁nationaliteit	-10.7245
▁cif	-10.7252
▁aangekocht	-10.7254
▁tweekleppige	-10.7255
▁gewassen	-10.7256
▁GATT	-10.7256
▁analyses	-10.7258
verdrag	-10.7265
▁akte	-10.7266
k	-10.7269
▁geschil	-10.7287
gespecialiseerde	-10.7293
▁tekort	-10.7301
▁WTO	-10.7302
minimale	-10.7305
▁verblijfplaats	-10.7306
klassieke	-10.7307
▁lengte	-10.7308
▁aangevoerd	-10.7319
▁genetische	-10.7321
gezette	-10.7326
rdineerd	-10.7328
▁W	-10.7344
▁EUROPESE	-10.7353
▁wier	-10.7366
▁geldigheid	-10.7373
▁prioriteiten	-10.7374
▁brandstof	-10.7375
▁lossen	-10.7382
▁even	-10.7388
▁Indiase	-10.7404
▁spoorweg	-10.7406
▁argument	-10.7416
▁betreffen	-10.7422
▁TOTAAL	-10.7428
ssysteem	-10.743
▁levert	-10.7439
▁gekregen	-10.7453
▁vergewissen	-10.7453
▁uitbetaald	-10.7458
▁plaatsing	-10.746
▁geco	-10.7472
textielproducten	-10.7477
▁Standpunt	-10.7478
▁exemplaren	-10.7486
▁distillatie	-10.7492
▁gedeeltelijke	-10.7499
▁studie	-10.7508
▁gemakkelijk	-10.7508
▁Garantie	-10.751
▁verdragen	-10.7512
▁concentraties	-10.7521
▁statistisch	-10.7522
▁geplande	-10.7528
▁betekenis	-10.7529
gstmogelijkheden	-10.7534
ale	-10.7545
▁gebruikelijke	-10.7549
▁onvoldoende	-10.7554
▁betaalt	-10.7554
▁gebreke	-10.7566
▁verzoekend	-10.7566
▁netwerken	-10.7567
▁stuk	-10.7571
▁ongeval	-10.7572
▁stempel	-10.7576
▁TITEL	-10.7577
▁BESLUIT	-10.7582
▁hygiëne	-10.7585
▁volume	-10.7588
▁initiatieven	-10.7594
vermogen	-10.7606
▁subsidiabel	-10.7619
▁opbrengsten	-10.7622
▁voorgedaan	-10.7631
▁aanbevolen	-10.7632
▁Toetredingsakte	-10.7634
▁wensen	-10.7636
▁kiezen	-10.7637
▁factuur	-10.7647
▁correcties	-10.7653
▁aanbrengen	-10.7659
▁beschikkingen	-10.7662
▁fusie	-10.7665
▁aansprakelijk	-10.7677
▁Ge	-10.7681
▁som	-10.7691
▁spoor	-10.7699
▁helft	-10.7702
Europese	-10.7709
▁Slowaakse	-10.771
eenheden	-10.7713
▁benoeming	-10.7722
▁kennisgever	-10.7727
economische	-10.7731
▁departementen	-10.774
▁vermeldt	-10.7752
h	-10.7755
▁gevoerd	-10.7758
kwaliteit	-10.7759
▁motor	-10.7759
▁voorraad	-10.7769
▁vleesproducten	-10.78
▁protocollen	-10.7803
▁toelichting	-10.7803
▁aandeelhouders	-10.7803
omrekeningskoers	-10.7808
▁ontwikkeld	-10.781
▁overwogen	-10.7812
exemplaar	-10.7819
▁afgeven	-10.7826
▁klinische	-10.7829
▁samenvatting	-10.7831
▁interpretatie	-10.7835
▁Garantiefonds	-10.7838
▁vereniging	-10.7839
▁cooerdinatie	-10.784
▁crisisbeheer	-10.7842
▁verworven	-10.7864
▁buitengewo	-10.7866
▁broedeieren	-10.7868
methoden	-10.7873
ingsplan	-10.7889
▁vangsten	-10.7889
▁Joegoslavisch	-10.7891
▁SE	-10.7901
▁elektrische	-10.7916
▁daarna	-10.7918
▁dialoog	-10.792
▁vangst	-10.7922
▁stimuleren	-10.7923
▁tijdvakken	-10.7931
▁basiszaad	-10.7934
▁instellen	-10.7944
▁opeenvolgend	-10.7945
▁periodieke	-10.7949
▁territoriale	-10.7956
▁besmetting	-10.7959
▁regelmatige	-10.796
▁Macedonië	-10.7969
▁uitoefent	-10.7969
▁rechtvaardigen	-10.797
▁IJslandse	-10.797
▁wilde	-10.7972
▁positieve	-10.7975
▁transparantie	-10.7981
▁bewerking	-10.7985
▁gerecht	-10.7993
▁rechter	-10.801
▁verpakt	-10.8022
▁tevoren	-10.8023
▁voortvloeit	-10.8023
▁loopt	-10.8029
▁bevestigen	-10.803
▁selectie	-10.803
▁duidelijke	-10.8031
▁aanbesteding	-10.8035
arnemingscentrum	-10.8039
▁hectare	-10.8051
▁continu	-10.8053
communicatie	-10.8057
▁strikt	-10.8062
verkoopseizoenen	-10.8068
producent	-10.8068
▁koop	-10.8075
▁begonnen	-10.8078
▁aanvang	-10.8083
▁zware	-10.8087
▁Gerecht	-10.8089
▁onmogelijk	-10.8095
▁marien	-10.8103
▁effectieve	-10.8129
▁geëvalueerd	-10.813
▁Brazilië	-10.813
▁toch	-10.8132
▁ondanks	-10.8132
▁genieten	-10.8138
ternationaal	-10.8143
▁handelen	-10.815
▁verstrijkt	-10.8157
▁milieukeur	-10.817
▁aanbieden	-10.8186
▁toereikend	-10.8196
▁concessies	-10.8207
sbeleid	-10.8208
▁druivenmost	-10.8211
▁toezending	-10.8212
▁zesde	-10.8217
▁betrouwbaarheid	-10.8225
▁sterke	-10.823
teroperabiliteit	-10.8238
▁Co	-10.8238
▁laag	-10.8246
▁elektriciteits	-10.8251
▁zeggenschap	-10.8251
▁Albanië	-10.8254
▁liter	-10.8272
▁steunaanvragen	-10.8276
▁SA	-10.8276
▁uitwerking	-10.8276
▁termen	-10.8281
▁entiteit	-10.8283
▁overheids	-10.8283
typegoedkeuring	-10.8289
▁aanverwant	-10.8293
▁netten	-10.8296
▁toeslagrechten	-10.8301
▁aangiften	-10.8301
▁twijfel	-10.8313
▁belemmeringen	-10.8321
Ierland	-10.8321
▁Griekse	-10.8324
▁herziene	-10.8329
▁redelijk	-10.8331
mechanismen	-10.8343
▁steunverlening	-10.8349
▁aangegaan	-10.8351
dra	-10.8361
werkzaamheden	-10.8361
V	-10.8366
▁meeste	-10.8367
▁Te	-10.8373
▁enz	-10.8377
▁willen	-10.8378
▁Nieuw	-10.8378
▁uitgegeven	-10.8379
▁boeken	-10.8382
▁vooruitzichten	-10.8383
▁gezinsleden	-10.8383
ssystemen	-10.8391
▁maximumbedrag	-10.8393
▁kleur	-10.8393
▁partnerschap	-10.8395
▁nominale	-10.841
▁eerdere	-10.8412
▁werkgroepen	-10.8417
▁context	-10.8433
▁heffen	-10.8435
▁technieken	-10.8435
▁minimaal	-10.8436
▁nauw	-10.8438
van	-10.8447
gebied	-10.8454
▁Ltd	-10.8457
▁streven	-10.846
▁nagekomen	-10.8461
N	-10.8467
▁prospectus	-10.8467
▁gerichte	-10.8474
▁nadelige	-10.8484
▁voort	-10.8484
▁anderszins	-10.8486
▁stelde	-10.8496
plichtigen	-10.8496
▁vrijstellingen	-10.8502
▁verenigingen	-10.8505
▁personeelslid	-10.8514
▁doordat	-10.8514
▁lijn	-10.8517
sovereenkomst	-10.8518
▁tijden	-10.854
▁ontheffing	-10.8541
▁gewaarmerkt	-10.8543
▁Dergelijk	-10.8544
▁gronden	-10.8552
▁administratief	-10.8556
▁leeftijd	-10.8558
▁EOGFL	-10.8562
▁gebaseerde	-10.8579
▁quota	-10.8581
▁geassocieerde	-10.8584
▁argumenten	-10.8586
▁drempel	-10.8588
▁geadresseerde	-10.8592
▁sociaal	-10.8598
▁boekhoudkundig	-10.8599
installaties	-10.8599
▁optredende	-10.8599
▁opgeheven	-10.8599
▁vermeerderd	-10.8599
▁kilogram	-10.8601
▁deskundige	-10.8607
us	-10.8614
▁micro	-10.8615
▁Staal	-10.8627
▁juistheid	-10.8628
▁regionaal	-10.8635
▁fraude	-10.8637
interventieprijs	-10.8637
▁permanent	-10.8642
▁bijproducten	-10.8644
▁miljard	-10.8655
▁behandelen	-10.8655
▁wisselkoers	-10.8668
▁deelnemer	-10.8683
▁bijzonderheden	-10.8684
▁wenst	-10.8686
v	-10.8687
▁intrekken	-10.8691
se	-10.8692
▁mengvoeders	-10.8695
▁afgestemde	-10.8699
▁bekrachtiging	-10.871
▁begint	-10.8715
▁kleiner	-10.8721
▁Uruguay	-10.8723
▁Zee	-10.8726
formaliteiten	-10.8731
nd	-10.8735
voedingsmiddelen	-10.8736
▁gevaren	-10.8738
▁verandering	-10.8738
▁liquidatie	-10.8742
▁programmering	-10.8742
▁rentabiliteit	-10.8743
▁vervulling	-10.8745
▁perioden	-10.8747
▁vleesprodukten	-10.8747
▁Kol	-10.8747
▁samenhangende	-10.8753
▁gunstig	-10.8767
▁hoofdkantoor	-10.8769
smodel	-10.8773
▁laagste	-10.8776
▁inventaris	-10.8783
▁open	-10.8785
▁jaarverslag	-10.8794
▁eindigt	-10.8798
▁omrekening	-10.8802
naleving	-10.8806
▁indient	-10.8815
▁gebonden	-10.8818
▁kortingen	-10.8819
▁dagelijkse	-10.8821
▁krijgt	-10.8826
▁waarom	-10.8828
▁test	-10.883
▁gelijkgesteld	-10.8831
▁slachten	-10.8842
apparatuur	-10.885
maal	-10.8853
▁kenbaar	-10.8855
informatie	-10.8856
percentage	-10.8857
sbenamingen	-10.8859
gangsmaatregelen	-10.8872
stelsel	-10.8879
▁Oceaan	-10.8884
▁paarden	-10.8902
▁kaderregeling	-10.8902
▁geharmoniseerd	-10.8908
Europa	-10.8909
▁MRL	-10.891
gouvernementele	-10.8913
▁geleidelijke	-10.8916
▁gunstige	-10.8921
IV	-10.8929
▁Israël	-10.893
▁indirecte	-10.8935
▁verplaatsing	-10.8935
▁aanbieding	-10.8948
▁verstoring	-10.8948
singsoperatie	-10.8956
▁ontoereikend	-10.8957
▁ondernemers	-10.8958
▁Over	-10.8963
landen	-10.8963
▁opgelegde	-10.8964
▁ontvanger	-10.8969
▁EEN	-10.8971
▁andersluidend	-10.8972
▁gepleegd	-10.8972
▁keuren	-10.8972
▁geregelde	-10.8972
▁maritieme	-10.8974
▁vetten	-10.8977
M	-10.8979
▁uitgesplitst	-10.8982
▁gedrag	-10.8983
▁Rekening	-10.8986
▁berust	-10.8987
▁afwijken	-10.8995
comité	-10.8998
beleid	-10.8998
▁maal	-10.9002
▁voorlichting	-10.9006
▁lichaam	-10.901
▁slachtpluimvee	-10.9012
▁schaal	-10.9018
▁voorschrift	-10.903
▁opgeschort	-10.903
▁effectief	-10.9042
▁codes	-10.9043
▁verlaagde	-10.9045
▁weten	-10.9046
▁werkzaamheid	-10.9055
▁opgezet	-10.9059
▁beperkende	-10.9062
▁volgorde	-10.9063
▁afgeleide	-10.907
ro	-10.9075
industrie	-10.9078
▁Regio	-10.9085
▁schema	-10.909
▁onderhouden	-10.9091
voervergunningen	-10.9095
vergunning	-10.9096
▁eicellen	-10.9096
▁indicatoren	-10.91
▁PET	-10.9112
▁weinig	-10.9119
▁Federatie	-10.9119
▁Interim	-10.9119
▁openbaarmaking	-10.9119
▁gegrond	-10.9123
").	-10.9133
▁mindering	-10.9136
▁verbeterd	-10.9144
▁hoedanigheid	-10.9151
sregels	-10.9158
▁bestuurders	-10.9163
▁aanhangsel	-10.9163
vertegenwoordigd	-10.9165
▁verantwoord	-10.9172
netwerk	-10.9175
▁centrum	-10.9178
voor	-10.9179
kg	-10.9184
▁correcte	-10.919
▁klein	-10.9192
▁verbinding	-10.9192
▁nauwkeurige	-10.9192
▁toen	-10.9195
▁beslissen	-10.9196
▁groepering	-10.9208
▁operationeel	-10.9211
▁vrijwillige	-10.9216
▁verstrekking	-10.9218
▁verbindt	-10.9239
▁afnemer	-10.9249
▁aangaande	-10.9251
▁strengere	-10.9254
▁overtreding	-10.926
▁mondeling	-10.9269
materiaal	-10.928
▁hervorming	-10.9283
▁vervoerder	-10.9296
▁GEMEENSCHAP	-10.9297
▁eenparig	-10.9299
▁beroepen	-10.9301
▁meststoffen	-10.9303
▁belemmering	-10.9319
▁uitkering	-10.9321
▁enigerlei	-10.933
▁individueel	-10.9331
▁OVERWEGENDE	-10.9332
▁ramingen	-10.9333
▁insolventie	-10.9335
▁winstmarge	-10.9344
▁billijke	-10.9345
▁bijkantoor	-10.9349
II	-10.935
▁aankondiging	-10.9354
▁stabiliteit	-10.9357
▁afschaffing	-10.936
▁tegelijk	-10.9364
▁gelaten	-10.9371
▁obligaties	-10.9371
▁verlagen	-10.9372
▁voornamelijk	-10.9376
▁functionaris	-10.9377
elijke	-10.9387
inspanning	-10.939
▁verklaart	-10.939
▁verificaties	-10.939
▁kleuren	-10.9393
▁voegen	-10.9397
preferenties	-10.9414
▁antwoorden	-10.9417
▁geverifieerd	-10.9421
▁druiven	-10.9427
▁warmte	-10.9432
▁uitgebreide	-10.9434
▁zaden	-10.9439
▁naleven	-10.944
▁tonen	-10.9462
▁goederenvervoer	-10.9465
onderverdelingen	-10.947
▁reis	-10.9476
▁lijden	-10.9482
mageremelkpoeder	-10.9483
▁et	-10.9483
''	-10.9486
▁temperatuur	-10.9486
▁diervoeder	-10.949
▁verifiëren	-10.9513
▁papier	-10.9519
▁significante	-10.9524
prijs	-10.9533
▁gebruiker	-10.9538
▁aangeduid	-10.9541
nvloeden	-10.9553
▁term	-10.9558
loze	-10.9564
▁afgelopen	-10.9575
▁bewaren	-10.9575
▁aanvragers	-10.9577
▁hieronder	-10.9577
▁tariefcontingen	-10.9584
▁politie	-10.9597
Verordening	-10.9606
▁evalueren	-10.9606
▁opgedaan	-10.9607
▁uitgerust	-10.9608
▁la	-10.9609
▁betrouwbare	-10.961
▁Maleisië	-10.9616
▁aanbiedingsvorm	-10.9624
naar	-10.9624
▁bekende	-10.9631
:"	-10.9637
transacties	-10.9638
▁zekerheden	-10.9639
▁past	-10.964
▁schuldvordering	-10.964
▁opleggen	-10.9641
▁aanwezige	-10.9642
verordening	-10.9642
▁gecorrigeerd	-10.9646
▁afgerond	-10.9648
▁verbeurd	-10.9651
den	-10.9654
▁economie	-10.9655
▁beleggers	-10.9655
Afrika	-10.9661
▁aardappelen	-10.9662
▁belet	-10.9668
▁vertonen	-10.9669
▁beheren	-10.9669
▁reële	-10.9669
▁vernietiging	-10.967
▁letter	-10.9675
restitutie	-10.9691
▁visserijprodukt	-10.9698
▁berekenen	-10.97
verwerking	-10.9707
▁mobiele	-10.9721
▁nuttig	-10.9721
▁aangemeld	-10.9728
▁afgeweken	-10.9732
▁optreedt	-10.9732
▁visserijbeleid	-10.9734
▁maandelijkse	-10.9737
▁voorschotten	-10.974
F	-10.9748
▁ontworpen	-10.9764
▁opgesomd	-10.9764
▁vernietigd	-10.9764
▁helpen	-10.9764
▁wederuitvoer	-10.9764
tegen	-10.9765
▁achten	-10.9766
▁Nederlandse	-10.9771
▁indiener	-10.9773
▁Herzegovina	-10.978
stransacties	-10.9784
▁Afrikaans	-10.9792
▁voedselketen	-10.9795
ische	-10.9797
▁verkoper	-10.9797
▁onrechtmatig	-10.9798
▁belemmeren	-10.9799
▁mechanisme	-10.9801
▁kapitein	-10.9815
P	-10.9816
▁luchthavens	-10.9825
▁gestegen	-10.9827
▁fytosanitaire	-10.9828
▁hiernaar	-10.9829
▁voorleggen	-10.9831
▁medisch	-10.9834
▁J	-10.9839
groep	-10.9841
▁vlak	-10.9842
▁geheimhouding	-10.9843
▁Argentinië	-10.9848
▁trans	-10.985
▁inschrijver	-10.9856
organismen	-10.9862
activiteit	-10.9863
▁MET	-10.9864
▁aangever	-10.9869
▁gecontroleerde	-10.9873
▁opzicht	-10.9878
▁tegenover	-10.988
▁burgers	-10.9881
▁nucleaire	-10.989
DE	-10.9894
Zeeland	-10.9896
▁rechtmatig	-10.9899
voorraden	-10.9903
▁typen	-10.9907
▁concurrerende	-10.991
▁gering	-10.9918
▁ongewijzigde	-10.992
▁gehad	-10.9923
▁intellectuele	-10.9931
▁fabricage	-10.9933
onregelmatigheid	-10.9938
▁dubbele	-10.9941
▁vol	-10.9943
▁opsporing	-10.9951
▁mededingings	-10.9951
▁beëindigen	-10.9956
▁overlijden	-10.9956
▁rechthebbende	-10.9964
skosten	-10.9967
▁beheers	-10.9976
instantie	-10.9982
▁Egypte	-10.9984
▁voortdurend	-10.9987
▁onroerend	-10.9988
▁overgebracht	-10.9997
▁Partij	-11.001
▁gemengde	-11.0013
▁geconcentreerd	-11.0015
▁km	-11.0016
▁uitslag	-11.0018
▁nagaan	-11.0021
▁luchtvaartuigen	-11.0026
▁monster	-11.0033
▁franco	-11.0041
▁schuld	-11.0044
▁melden	-11.0052
▁licentie	-11.0064
geautomatiseerde	-11.0069
editerrane	-11.0074
evens	-11.0078
ast	-11.0086
▁meerdere	-11.0087
▁verschaft	-11.0089
▁vergelijkende	-11.0098
▁overzees	-11.0101
▁vullen	-11.0101
mogelijkheden	-11.0105
ton	-11.0111
▁case	-11.0111
gedifferentieerd	-11.0119
▁opschorting	-11.0119
▁wille	-11.0122
▁Madeira	-11.0123
▁motoren	-11.0143
▁scheppen	-11.0145
▁CD	-11.015
▁hierdoor	-11.0151
▁douaneregeling	-11.0153
▁gerectificeerd	-11.0154
▁Middellandse	-11.0155
▁concurrenten	-11.0157
somstandigheden	-11.0158
▁ministerie	-11.0172
▁prioritaire	-11.0172
▁gro	-11.0179
▁men	-11.0189
▁instructies	-11.02
ense	-11.0201
▁rapportage	-11.0204
▁contacten	-11.0209
▁verwachten	-11.021
▁verloren	-11.0217
▁dienstige	-11.0223
▁rapporten	-11.0226
▁aardgas	-11.0233
▁misbruik	-11.0239
▁terreinen	-11.0247
▁besluitvorming	-11.0251
▁wielen	-11.0251
▁akten	-11.0253
▁kopieën	-11.0262
▁marktordening	-11.027
▁urgentie	-11.0284
▁vergroten	-11.0284
▁verleden	-11.0287
voorziening	-11.03
▁Australië	-11.0301
▁conformiteit	-11.0303
▁zelfstandige	-11.0305
▁organisme	-11.0311
▁Resolutie	-11.0311
▁relatie	-11.0314
gebieden	-11.0314
▁uiteenlopend	-11.0317
▁eerbiediging	-11.0317
▁junct	-11.0318
nakoming	-11.0319
▁bloed	-11.0329
▁wetenschap	-11.0334
ar	-11.0335
▁mengsels	-11.0336
▁zeevervoer	-11.0339
▁inspecteurs	-11.034
uit	-11.0343
▁dreigt	-11.0351
▁oplevert	-11.0354
▁richten	-11.036
▁Deense	-11.0373
waarde	-11.0373
▁for	-11.0376
▁negen	-11.0384
boterconcentraat	-11.0386
▁voerden	-11.0387
▁elektronisch	-11.0397
III	-11.0409
▁erin	-11.0409
▁uniform	-11.0411
tv	-11.0412
▁klassen	-11.0416
▁versterkt	-11.0422
ingsmiddel	-11.0423
▁negatief	-11.0425
▁efficiënte	-11.0427
▁stabilisatie	-11.0438
▁subsidiariteits	-11.0451
▁Azoren	-11.0452
▁plegen	-11.0458
▁vertrouwen	-11.0458
▁EUPM	-11.046
teit	-11.0469
▁zulk	-11.0471
▁mensenrechten	-11.0487
▁vereisen	-11.0487
▁ARTIKEL	-11.0489
▁tarwe	-11.0497
▁mg	-11.0507
▁vruchten	-11.0512
▁gemiddeld	-11.0518
▁toelatingen	-11.0521
▁leiding	-11.0523
▁EVA	-11.0523
wetgeving	-11.0524
▁Regeling	-11.0529
▁hoofdstukken	-11.0536
▁Naar	-11.0547
▁organiseren	-11.0555
▁overgegaan	-11.0556
▁volgnummer	-11.0562
▁apparaat	-11.0569
nvloed	-11.0571
▁wetten	-11.0578
▁tabellen	-11.058
▁motorvoertuig	-11.0582
▁huur	-11.0583
▁evenredigheid	-11.0586
▁afwezigheid	-11.0589
▁jeg	-11.0591
▁gezonden	-11.0595
▁voorziene	-11.0598
▁automatisch	-11.06
▁terrein	-11.0602
▁reizigers	-11.0604
▁gunning	-11.0608
▁verwerkers	-11.0608
▁jurisdictie	-11.0613
▁coëfficiënt	-11.062
▁Europol	-11.0623
▁aangewend	-11.0624
▁vaccinatie	-11.0631
▁BEPALINGEN	-11.0637
▁aanwijzen	-11.064
oedselveiligheid	-11.0641
▁redelijkerwij	-11.0643
▁luchtvervoer	-11.0647
▁voorkeur	-11.0655
▁luchtvervoerder	-11.0656
▁vroegere	-11.0658
▁uitgesproken	-11.0659
▁ambtstermijn	-11.0659
▁Bestuur	-11.0661
▁Verwijzing	-11.0661
▁schuldeisers	-11.0663
▁omschakeling	-11.0664
scriteria	-11.0664
▁staal	-11.0668
▁vluchtelingen	-11.0676
▁verenigbaarheid	-11.0692
▁gepreciseerd	-11.0693
▁BNFL	-11.0695
▁daalden	-11.0697
bepalingen	-11.0699
▁Schengen	-11.0728
▁staalproducten	-11.0729
▁herstellen	-11.0732
▁voeder	-11.0736
overdraagbare	-11.0741
▁verkoopprijs	-11.0745
▁verplaatsingen	-11.0745
▁verzekerd	-11.0754
▁parameters	-11.0761
▁dwingende	-11.0761
▁toetsing	-11.0762
▁Hiertoe	-11.0763
ingssteun	-11.0764
▁uitspraak	-11.0765
▁Dat	-11.0768
▁accijns	-11.0772
▁Technisch	-11.0773
▁Newcastle	-11.0773
▁aanleg	-11.0782
▁Chili	-11.0783
▁kamer	-11.079
▁moesten	-11.079
urobankbiljetten	-11.0797
kwaliteitsnormen	-11.0797
▁besmet	-11.0799
▁faciliteiten	-11.0805
▁klimaat	-11.0814
▁agenda	-11.082
dane	-11.0822
Atlantisch	-11.0833
▁koers	-11.0834
laboratorium	-11.0844
gaande	-11.0857
▁monitoring	-11.0864
▁agentia	-11.0868
▁mocht	-11.0869
▁gegevensbestand	-11.0872
▁doorzichtigheid	-11.0872
▁voedermiddelen	-11.0881
▁daaronder	-11.0883
▁marktprijzen	-11.0883
maatregel	-11.0887
▁werkt	-11.0897
▁aangehouden	-11.0907
▁etiketten	-11.0911
methode	-11.0913
▁ECU	-11.0915
▁eenvormige	-11.0919
▁gedragen	-11.0924
sverordening	-11.0927
▁handtekening	-11.0931
▁beschikbaarheid	-11.0934
▁Bijzondere	-11.0936
▁blootgesteld	-11.094
▁bestuurder	-11.0942
gehalte	-11.0946
▁ambtenaar	-11.0952
▁nettogewicht	-11.0973
▁ondersteunen	-11.0975
▁meedelen	-11.0975
▁douanewaarde	-11.0976
▁voordoet	-11.0976
▁slotte	-11.0977
"),	-11.0986
▁kleurstoffen	-11.0988
▁DAT	-11.099
▁aanvoer	-11.0991
▁percentages	-11.0994
▁bindend	-11.0994
praktijken	-11.1001
besluit	-11.1011
▁wiens	-11.1011
formulier	-11.1012
▁voorhanden	-11.1014
▁the	-11.1021
onderdelen	-11.103
marge	-11.1036
vertegenwoordigt	-11.1043
▁RTP	-11.1047
▁geëist	-11.1047
▁toegenomen	-11.1048
▁middellange	-11.105
▁afzender	-11.1053
▁terugvordering	-11.1054
▁Twee	-11.1056
▁Midden	-11.1058
▁wijnen	-11.1058
kundig	-11.1062
▁ringband	-11.1062
▁overtredingen	-11.1064
▁entrepot	-11.1065
▁probleem	-11.1066
▁aanvankelijk	-11.1083
▁bestrijden	-11.1083
▁ondernomen	-11.1083
▁voorgezeten	-11.1083
▁ontstaat	-11.1083
▁Ruimte	-11.1084
▁periodiek	-11.109
dom	-11.109
▁hier	-11.11
uitwisseling	-11.1101
;";	-11.1106
▁laden	-11.1107
▁vervolging	-11.1109
▁trekker	-11.1112
▁depositaris	-11.112
▁lopen	-11.1126
swetgeving	-11.113
▁zitting	-11.1132
▁stuks	-11.1133
▁Belarus	-11.1157
▁juridisch	-11.1162
▁solvabiliteits	-11.1164
▁massa	-11.1166
▁degenen	-11.1179
▁polyester	-11.119
▁adequaat	-11.1192
▁BIJ	-11.1192
▁bosbouw	-11.1192
▁minimumeisen	-11.1193
▁afvallen	-11.1201
▁overheidsdienst	-11.1204
▁aanspraak	-11.1205
▁farmaceutisch	-11.1206
▁natuurlijk	-11.1208
▁tonijn	-11.1209
▁bodem	-11.1221
▁zakelijke	-11.1222
▁gedaald	-11.1229
▁moeilijk	-11.1232
▁verkrijging	-11.1233
▁wettelijk	-11.1236
▁AG	-11.1236
▁kust	-11.1237
lijk	-11.1243
▁scheepvaart	-11.1255
▁keer	-11.1258
▁opgemerkt	-11.1261
▁welzijn	-11.1268
▁Joegoslavië	-11.127
▁Ecu	-11.1273
anaf	-11.1287
▁vertraging	-11.1292
verdragsluitend	-11.1298
▁DIE	-11.1301
▁verzameling	-11.1302
▁Daarnaast	-11.1302
▁Democratische	-11.1303
▁verbindingen	-11.1303
▁volgend	-11.1307
▁Oost	-11.1307
publiek	-11.1309
▁toepasselijk	-11.1311
▁onjuiste	-11.1312
▁veroorzaakte	-11.1313
▁OF	-11.132
communautaire	-11.1321
▁fok	-11.1329
sbeoordeling	-11.133
▁verwerving	-11.1331
heidsinstanties	-11.1337
▁exportprijs	-11.134
▁Geen	-11.1341
▁binnenwateren	-11.1343
é	-11.1345
▁dagelijks	-11.1347
▁huishoudelijke	-11.1357
▁kind	-11.1359
▁verwijzen	-11.1371
▁ernst	-11.1377
▁behelst	-11.1377
▁proef	-11.1379
▁hulpstukken	-11.1383
▁BGB	-11.1385
▁Al	-11.1386
▁merkt	-11.1387
▁France	-11.1398
▁droge	-11.1406
▁hout	-11.1409
sdoeleinden	-11.1409
▁AAN	-11.1415
▁evaluaties	-11.1418
▁zekere	-11.1418
▁Nadat	-11.142
bestrijding	-11.142
▁arbeidsplaatsen	-11.1424
EGKS	-11.1425
▁gemengd	-11.1432
▁rest	-11.1435
▁vistuig	-11.1437
▁inter	-11.1439
▁terrorisme	-11.1451
▁tezamen	-11.1451
▁oplossingen	-11.1452
▁ouder	-11.1452
▁criterium	-11.1452
▁wijnoogstjaar	-11.1454
▁ongewenste	-11.1458
▁verzoeker	-11.1463
▁ZIJN	-11.1465
▁"-	-11.1468
sbelemmeringen	-11.1475
▁asielzoeker	-11.1479
▁bevredigende	-11.1486
RTGS	-11.1489
▁gegund	-11.1489
▁verwerven	-11.1489
▁bedrijfsleven	-11.1489
▁vervaardigen	-11.1489
▁beambte	-11.1499
eenheid	-11.152
▁bevestigt	-11.1527
▁spp	-11.1527
▁bezettingsgraad	-11.1527
▁besmettelijke	-11.153
▁potentieel	-11.1537
▁beoogd	-11.1538
▁douanerecht	-11.1552
erende	-11.1554
▁conformiteits	-11.1563
▁cm	-11.1564
▁Eilanden	-11.1565
▁integrerend	-11.1567
▁specimens	-11.1569
▁ervaringen	-11.1571
▁efficiënt	-11.1572
▁institutionele	-11.1572
aire	-11.1577
▁stelsels	-11.1586
▁deposito	-11.1597
▁cijfer	-11.16
▁Sommige	-11.1603
▁constateert	-11.1603
▁vereenvoudigen	-11.1603
▁GmbH	-11.1605
▁financieren	-11.1607
▁consolidatie	-11.1608
▁inzage	-11.1613
um	-11.162
▁handelsnormen	-11.1621
technische	-11.1639
JBZ	-11.1641
▁jaarrekeningen	-11.1645
▁Informatie	-11.1647
▁organisch	-11.1653
sanitaire	-11.1655
▁aankopen	-11.1659
▁aangevraagde	-11.1665
▁TE	-11.167
▁verbranding	-11.1675
▁vervoermiddel	-11.1678
▁gedrukt	-11.1678
▁overleggen	-11.1681
▁vi	-11.1696
▁schaden	-11.1697
▁opzetten	-11.1698
structuur	-11.1698
In	-11.1703
▁openen	-11.1712
▁pro	-11.1717
▁Kyoto	-11.1719
▁Groep	-11.1724
▁beveiligings	-11.1724
▁forfaitair	-11.1729
▁gecombineerd	-11.1731
▁transmissie	-11.1736
▁tegenprestatie	-11.174
▁uitbraak	-11.174
▁ontwerpen	-11.1755
▁strijdig	-11.1757
▁DEM	-11.1765
▁letters	-11.1777
strafrechtelijke	-11.1777
▁onderverdeling	-11.1786
statistieken	-11.1788
▁notering	-11.1792
▁burgerlijk	-11.1794
▁levend	-11.1795
▁hierop	-11.1795
edurende	-11.1805
lidstaat	-11.1824
▁achter	-11.1832
▁kaas	-11.1832
▁hoeft	-11.1834
▁hierover	-11.1834
pongiform	-11.1835
plaatsvervangend	-11.1835
▁reactie	-11.1836
▁standpunten	-11.1837
▁samenwerken	-11.1843
▁geteeld	-11.1846
▁overheden	-11.1848
▁no	-11.1851
▁vlucht	-11.1854
▁VN	-11.1868
▁bijwerking	-11.1868
▁voren	-11.1868
▁gepaard	-11.1873
▁formaat	-11.1877
▁gewichtspercent	-11.1888
▁identificeren	-11.1912
▁Koreaanse	-11.1912
▁opgemaakt	-11.1915
▁invoerrecht	-11.1915
▁Behalve	-11.1918
▁langere	-11.192
▁maaswijdte	-11.1925
▁oliehoudend	-11.1927
document	-11.1947
▁herhaling	-11.1955
▁kaderprogramma	-11.1959
▁georganiseerd	-11.1964
▁lading	-11.1969
▁fysische	-11.1973
▁radioactieve	-11.1976
▁markteconomie	-11.1981
▁beschouwen	-11.1991
▁kosmetisch	-11.1994
▁handelt	-11.1996
▁hergebruik	-11.2006
▁dimensie	-11.2014
▁eerlijke	-11.2017
▁containers	-11.202
scoëfficiënt	-11.2022
▁aanvaarde	-11.2023
voorzieningen	-11.2024
▁behoorlijk	-11.2032
▁luchtruim	-11.2034
▁douaneschuld	-11.2034
▁commercieel	-11.2036
iene	-11.2038
▁gedeelten	-11.2039
▁tegoeden	-11.2042
▁doorgegeven	-11.2042
▁Hoofdstuk	-11.2047
sovereenkomsten	-11.205
▁visum	-11.206
▁toekennen	-11.2071
▁mannen	-11.2071
▁pootaardappelen	-11.2071
▁raszuiver	-11.2072
▁bijdraagt	-11.2074
▁been	-11.2074
▁stappen	-11.2088
▁bestemmingen	-11.2088
▁belope	-11.2089
▁technologieën	-11.2093
▁ontstaansfeit	-11.2096
▁brandstoffen	-11.21
▁Tunesië	-11.2103
▁Samenwerking	-11.2103
▁uitvoert	-11.2105
▁werkwijze	-11.2109
▁afgeschaft	-11.2111
▁hanteren	-11.2111
▁bijgedragen	-11.2111
▁Helle	-11.2111
▁waarborg	-11.2114
textielprodukten	-11.2125
▁sluit	-11.2132
▁CCAMLR	-11.2134
▁beletsel	-11.2134
sformulier	-11.2134
groeperingen	-11.2138
▁verplichten	-11.2152
▁bevattende	-11.2155
▁productiviteit	-11.216
▁minst	-11.2168
▁actieplan	-11.2175
▁onderwerp	-11.2182
rdineren	-11.2185
▁deelneemt	-11.2191
▁verwijderen	-11.2191
▁MobilCom	-11.2192
▁gastland	-11.2194
▁levens	-11.2196
▁schorsen	-11.2208
▁passiva	-11.221
▁gelijktijdig	-11.2213
douaneautoriteit	-11.2224
koolwaterstoffen	-11.2229
▁marktsituatie	-11.2235
▁Lidstaten	-11.2235
nietigverklaring	-11.2238
▁beneden	-11.2253
▁strenge	-11.2255
▁kwekersrecht	-11.2258
smethoden	-11.2259
▁BSE	-11.2263
▁gevonden	-11.2272
▁hoeven	-11.2272
▁uitnodiging	-11.2272
infrastructuur	-11.2276
▁bijkantoren	-11.2279
▁gunstiger	-11.2281
▁gekoppeld	-11.2286
▁handelaren	-11.2287
▁uitbrengen	-11.229
contracten	-11.229
▁Amerikaanse	-11.229
▁metingen	-11.2302
▁stroom	-11.2305
▁afgeleid	-11.2307
▁voorbeeld	-11.2309
▁geldige	-11.2309
methyl	-11.2312
▁principe	-11.2317
▁grootte	-11.2318
▁gevoelige	-11.2326
▁duurzaam	-11.2333
▁icbe	-11.2335
▁geëxploiteerd	-11.2354
▁NR	-11.2354
folie	-11.2362
▁gebruikmaken	-11.2368
▁wereld	-11.237
▁strafba	-11.2382
▁strijdkrachten	-11.2385
▁aanstekers	-11.239
▁erkent	-11.2395
▁gevormd	-11.2395
▁nagestreefd	-11.2395
▁ermee	-11.2396
▁overheidssteun	-11.24
▁Maatregelen	-11.2406
burgerluchtvaart	-11.2408
▁virus	-11.2409
▁invordering	-11.2412
staat	-11.2412
▁Wijzigingen	-11.2416
▁schadelijk	-11.2418
▁toereikende	-11.2421
gevolge	-11.2435
▁mechanismen	-11.2437
▁bijgehouden	-11.244
▁veilige	-11.2441
▁kleinere	-11.2444
laboratoria	-11.2451
controles	-11.2456
sbenaming	-11.2463
▁vezels	-11.2463
▁computer	-11.2478
▁vervalt	-11.2478
▁omgezet	-11.248
▁dumpingmarges	-11.248
▁beslag	-11.2481
vereisten	-11.2486
▁spelen	-11.2492
▁areaal	-11.2492
▁gedetacheerd	-11.2501
houdende	-11.2503
▁verrichting	-11.2505
▁drempels	-11.2513
▁bov	-11.2517
▁berekeningen	-11.2519
▁Bondsre	-11.2521
▁Alstom	-11.2523
▁di	-11.2523
▁presentatie	-11.2524
▁stabiel	-11.2535
▁delegatie	-11.2545
tische	-11.2545
▁waartegen	-11.2548
niveau	-11.255
▁beheersing	-11.2553
H	-11.2556
▁registreren	-11.2561
▁satelliet	-11.2564
▁automatische	-11.2566
▁quarantaine	-11.2566
▁voedselhulp	-11.2571
▁productiegebied	-11.2573
▁gebreken	-11.2578
▁vergemakkelijk	-11.2591
▁besteed	-11.2603
▁weliswaar	-11.2603
voervergunning	-11.2614
scontrole	-11.2618
▁aanvaardbaar	-11.2619
referentiebedrag	-11.2625
Taric	-11.2629
▁wezenlijke	-11.2636
▁databank	-11.2639
▁correct	-11.2639
swerkzaamheden	-11.2645
▁grotendeels	-11.2646
▁Voorzover	-11.2646
▁geoordeeld	-11.2646
▁zwarte	-11.2669
▁fasen	-11.267
▁raadgevend	-11.2671
▁vertaling	-11.2675
regels	-11.2676
▁corresponderend	-11.2677
▁afmetingen	-11.2686
▁wonen	-11.2688
▁publiceert	-11.2688
▁beletten	-11.2689
▁gratis	-11.2691
▁onderverdeeld	-11.2693
inrichtingen	-11.2695
▁deskundigheid	-11.2697
verenigingen	-11.2702
belasting	-11.2704
ssituatie	-11.2705
▁geboren	-11.2715
▁bezoldiging	-11.2721
positie	-11.2721
▁nota	-11.2722
▁procédés	-11.2724
▁Ontwikkeling	-11.2726
▁bleef	-11.2731
▁opgedragen	-11.2731
▁noorderbreedte	-11.2731
▁vaak	-11.2735
▁digitale	-11.2739
▁gesubsidieerd	-11.2739
spercentage	-11.2764
onrechte	-11.2773
▁altijd	-11.2774
▁energiebronnen	-11.2776
▁verdovend	-11.2779
▁minimumnormen	-11.2784
▁kopen	-11.279
▁voorrechten	-11.2797
▁echtheid	-11.2802
▁factor	-11.2804
▁diagnose	-11.2814
▁Plantenziekte	-11.2816
▁dierziekten	-11.2817
▁zalm	-11.2822
▁exclusief	-11.2824
▁Belgische	-11.2829
▁marktgericht	-11.2832
zijn	-11.2834
▁afgestemd	-11.2836
▁bagage	-11.2843
▁inning	-11.2855
raad	-11.2856
▁gekenmerkt	-11.2859
▁Wereldhandelso	-11.2859
▁oud	-11.2866
▁kwijtschelding	-11.287
▁opnemen	-11.2883
▁geraamd	-11.2884
▁gram	-11.2885
▁totaalbedrag	-11.2888
▁gehalten	-11.2889
▁vakken	-11.289
▁wapens	-11.2895
▁componenten	-11.2895
svraagstukken	-11.2898
rganisatie	-11.29
▁publiceren	-11.2903
▁raadplegen	-11.2903
▁vergemakkelijkt	-11.2904
▁ondervinden	-11.2904
▁afgelegd	-11.2905
▁katoen	-11.2905
▁schulden	-11.2915
▁controlesysteem	-11.2916
LE	-11.2919
▁branche	-11.292
▁stijgen	-11.2923
▁eenvoudige	-11.2929
▁verspreid	-11.293
financiering	-11.2934
installatie	-11.2936
▁uitgewerkt	-11.2936
▁dalen	-11.2944
ECB	-11.2944
▁verhinderen	-11.2946
▁vorderen	-11.2946
▁cosmetische	-11.2948
▁toepast	-11.2949
normen	-11.2958
sbelasting	-11.296
▁inschrijvers	-11.2968
▁doelmatigheid	-11.2968
instanties	-11.2971
▁fondsen	-11.2979
▁sporen	-11.2986
▁landbouwgrond	-11.2988
▁Associatieraad	-11.299
▁douanetoezicht	-11.299
▁besmette	-11.2991
technologie	-11.2991
▁hectaren	-11.2992
▁Berlijn	-11.2993
▁bijhouden	-11.2995
▁gereguleerd	-11.2995
▁aangeven	-11.2997
▁verbruikt	-11.2997
▁vloeibare	-11.2997
▁gerechtigd	-11.2997
▁stadia	-11.2998
▁recipiënten	-11.2999
formatiesysteem	-11.301
▁TSE	-11.3032
▁bevonden	-11.3037
▁overdragen	-11.3038
▁afdoend	-11.3041
ze	-11.3044
▁wederzijds	-11.3055
▁feitelijk	-11.3056
▁beginnen	-11.3064
belastingheffing	-11.3066
dministratieve	-11.3066
▁vrijheden	-11.3079
▁inklaring	-11.3079
▁Voormalig	-11.3081
▁wisselen	-11.3083
▁Euro	-11.309
▁peil	-11.3092
▁qua	-11.3105
▁Veiligheidsraad	-11.311
voerrestitutie	-11.3113
▁opzegging	-11.3113
▁bemonsterings	-11.3121
▁VOLGENDE	-11.3122
▁rapporterend	-11.3124
▁luchtdiensten	-11.3129
▁Overige	-11.3133
▁kwijting	-11.314
▁preparaat	-11.3145
▁epizo	-11.315
▁georganiseerde	-11.3153
▁rekenplichtige	-11.3165
▁verdient	-11.3166
▁Vietnam	-11.3168
▁tranche	-11.3168
▁mengsel	-11.3171
▁passieve	-11.3172
stoeslagregeling	-11.3173
▁verbeteringen	-11.3174
▁universele	-11.3182
▁Ver	-11.3182
▁gemotiveerd	-11.3189
▁houdbaarheid	-11.319
▁asielverzoek	-11.3202
▁afgezet	-11.3209
▁audiovisuele	-11.3211
▁Monetair	-11.3212
▁immuniteiten	-11.3216
door	-11.3217
▁FAO	-11.3219
▁afgezien	-11.3219
▁systematisch	-11.3221
▁ongunstige	-11.3228
oneerlijke	-11.3234
schadevergoeding	-11.3241
▁ICES	-11.3243
lijkheden	-11.3246
▁bekwaamheid	-11.3253
raking	-11.3256
▁vuursteentje	-11.3256
▁bestek	-11.3256
up	-11.3265
land	-11.3266
▁hygiënische	-11.3266
▁ISO	-11.3276
▁regeringen	-11.3283
▁radio	-11.3288
▁fonds	-11.3292
sproces	-11.3299
▁humanitair	-11.3301
▁voetnoot	-11.3301
▁werkgevers	-11.3305
▁mannelijke	-11.3307
▁aanvaardt	-11.3309
▁stemrechten	-11.331
▁stav	-11.3315
▁interim	-11.3322
▁hebbende	-11.3323
fdeling	-11.3326
▁UIT	-11.3327
▁soortgelijk	-11.3334
▁boeking	-11.3342
▁verstoren	-11.3343
▁verspreiden	-11.3344
▁Verder	-11.3346
▁verzamelde	-11.3346
▁waarborgt	-11.3347
▁rentevoet	-11.3354
▁metalen	-11.3354
▁bestand	-11.3375
▁inbreng	-11.3382
▁procentpunten	-11.3397
▁ultraperife	-11.3403
▁kort	-11.3407
▁transparante	-11.3414
▁dreigen	-11.3415
▁Regering	-11.3423
▁beschouwing	-11.3425
es	-11.3433
▁jonge	-11.3435
▁ressorteert	-11.3437
▁loopvogels	-11.3437
▁uitgewisseld	-11.3438
▁toezien	-11.3438
▁verstoringen	-11.3439
▁beeld	-11.3442
▁hiermee	-11.3449
▁invoergoederen	-11.3449
▁gezonde	-11.3455
▁prestatie	-11.3459
entrepots	-11.3471
▁opname	-11.3478
▁Eén	-11.3483
▁Japanse	-11.3484
▁inkomen	-11.3485
▁additieven	-11.3487
administratie	-11.349
▁getoetst	-11.3493
▁productengroep	-11.3511
▁zetmeel	-11.3512
certificering	-11.3512
▁geografisch	-11.3516
grens	-11.3521
▁aantoont	-11.3529
▁vergezellen	-11.3529
▁deelgenomen	-11.353
▁spreekt	-11.353
▁aangelegenheid	-11.3531
szekerheid	-11.3536
▁belegging	-11.354
▁grondrechten	-11.3541
▁los	-11.3547
▁Engelse	-11.3551
▁kaderbesluit	-11.3551
▁criminaliteit	-11.3552
traditionele	-11.3555
▁maximumgehalte	-11.3559
▁binden	-11.3568
▁aanpassen	-11.3576
▁bestrijkt	-11.3576
▁normaliter	-11.3576
sbesprekingen	-11.3579
▁ligging	-11.3581
▁genoteerd	-11.3586
dienst	-11.3589
▁niettemin	-11.3597
▁gerubriceerde	-11.3606
▁geschiktheid	-11.3606
lvorens	-11.361
▁ontwikkelde	-11.361
▁non	-11.3622
▁stegen	-11.3623
▁ingeënt	-11.3627
▁oorzaak	-11.3627
▁introductie	-11.3628
▁bewaring	-11.363
▁vraagstuk	-11.3632
▁groeperingen	-11.364
▁midden	-11.3641
▁motivering	-11.3656
ri	-11.3656
▁conserven	-11.3657
▁inderdaad	-11.3669
▁gebeurt	-11.3669
▁weergegeven	-11.3669
▁emissierechten	-11.3669
▁Groenland	-11.3673
▁waargenomen	-11.3673
▁Groot	-11.3674
▁gerechtigde	-11.3685
▁Verdragen	-11.3687
▁room	-11.3688
▁bulk	-11.3702
stermijn	-11.3707
▁gestaafd	-11.3716
▁ingestemd	-11.3716
▁vermeden	-11.3716
▁exclusieve	-11.3717
▁positief	-11.3718
▁opslagplaats	-11.372
▁nakomen	-11.3723
▁aroma	-11.374
▁Communautair	-11.3745
bijlage	-11.3746
suiker	-11.3751
heidsinstantie	-11.3756
▁bewerkstelligen	-11.3763
kkerbouwgewassen	-11.3766
▁besprekingen	-11.3772
▁vervangende	-11.3773
▁gemotiveerde	-11.3788
▁controleur	-11.3797
ex	-11.3803
instrumenten	-11.3809
product	-11.3811
▁meting	-11.3812
▁waarnemers	-11.3818
▁richtsnoer	-11.3832
▁Akkoord	-11.3835
▁beleggingen	-11.3835
▁oproep	-11.3836
▁classificatie	-11.3836
actieve	-11.3838
sinstrumenten	-11.3839
▁wegen	-11.3853
▁onuitwisbaar	-11.3858
▁dienaangaande	-11.3858
▁investerings	-11.3861
▁vermenigvuldigd	-11.3861
▁slacht	-11.3862
▁kwam	-11.3867
nstverrichting	-11.3869
▁zichtbaar	-11.3875
▁zevende	-11.3881
erkenningsnummer	-11.3882
▁Steun	-11.3885
▁gearomatiseerd	-11.389
kzij	-11.3895
gegane	-11.3895
▁EOF	-11.3896
▁kwesties	-11.3897
▁gespecificeerde	-11.3899
▁behelzen	-11.3906
▁ordonnateur	-11.3908
▁tekortkomingen	-11.3908
▁munteenheid	-11.3909
▁omzetbelasting	-11.3917
tariefinlichting	-11.3918
recht	-11.3923
▁berusten	-11.3923
▁actoren	-11.3929
▁omgerekend	-11.3933
▁nummers	-11.3933
▁afsluiting	-11.3953
▁modernisering	-11.3954
▁U	-11.3958
▁sanctie	-11.3966
▁consequenties	-11.3966
▁verstrekkingen	-11.3979
▁rond	-11.3983
▁gedetailleerd	-11.3985
▁IMO	-11.3992
▁geniet	-11.3998
▁scheepsbouw	-11.3998
▁AFDELING	-11.4001
▁deelnemingen	-11.4003
▁vetgehalte	-11.4006
▁wijnmarkt	-11.4006
▁lozingen	-11.4026
▁getrokken	-11.4034
▁centra	-11.4036
▁ruimten	-11.4044
Brittannië	-11.4051
▁gebleven	-11.4051
▁algehele	-11.4051
ed	-11.4057
▁buitensporige	-11.406
▁Inter	-11.406
▁implementatie	-11.4061
▁conventione	-11.4063
▁aanbieder	-11.4063
▁asbest	-11.4066
▁planning	-11.4071
▁Toepassing	-11.4074
▁structuren	-11.408
▁reparatie	-11.4096
▁veranderen	-11.4099
▁concrete	-11.41
▁daarentegen	-11.41
▁geschaad	-11.4101
▁binnengrenzen	-11.4102
▁preventieve	-11.4102
▁referentieland	-11.4105
▁TSI	-11.4106
▁geactualiseerd	-11.4107
▁Singapore	-11.4112
▁TIR	-11.4119
▁uitkomsten	-11.4119
projecten	-11.412
niet	-11.4122
▁benadering	-11.4126
▁stimulering	-11.4137
▁diende	-11.4148
▁gebeuren	-11.4148
datum	-11.4151
▁zelfstandigen	-11.4154
▁aanstelling	-11.4166
▁gezondheidszorg	-11.4175
sverband	-11.4178
behandeling	-11.419
▁bevorderd	-11.4198
▁totstandkoming	-11.4198
▁arrest	-11.42
▁tweemaal	-11.4204
▁CELF	-11.4208
▁arts	-11.4209
▁Liechtenstein	-11.4209
▁begrotings	-11.4213
▁rang	-11.4223
af	-11.4225
sbesluiten	-11.4227
▁segment	-11.4231
▁fax	-11.4232
▁ureum	-11.4232
▁maximumwaarde	-11.4242
▁ontduiking	-11.4242
rope	-11.4246
▁immers	-11.4247
▁begaan	-11.4247
▁globale	-11.4248
▁aangaan	-11.4249
▁evenwichtige	-11.4268
▁bijeenkomst	-11.4268
doelstellingen	-11.4268
▁geselecteerd	-11.4275
▁goedkeuringen	-11.4275
▁voorbehouden	-11.4289
▁loondienst	-11.4297
▁bosbouwtrekkers	-11.4298
▁pretoetredings	-11.43
Comité	-11.4309
▁cliënten	-11.431
▁persoonlijk	-11.431
▁ongunstig	-11.4328
▁eindproduct	-11.4333
▁aantekening	-11.4335
▁Servië	-11.4338
▁aanhangig	-11.4347
▁exploiteren	-11.4347
▁slachthuizen	-11.4347
▁ingelicht	-11.4347
▁blijvend	-11.4359
commerciële	-11.4361
▁bleken	-11.4363
▁dringende	-11.4364
▁certificatie	-11.4364
▁West	-11.4368
▁deeltjes	-11.4371
▁aankoopprijs	-11.4372
▁inputs	-11.4386
▁verwachting	-11.4387
▁gekocht	-11.4397
▁schuldenaar	-11.4397
▁milieucriteria	-11.4398
restitutiebedrag	-11.4401
▁nam	-11.4403
▁seizoen	-11.4413
inlichtingenblad	-11.4415
sdocumenten	-11.4416
vergunninghouder	-11.4416
▁oude	-11.4432
▁aanmerkelijk	-11.4434
▁stamboek	-11.4437
▁trekkers	-11.4439
▁vervoeren	-11.4444
inrichting	-11.4446
▁strafbaar	-11.4446
ORDEN	-11.4448
▁vertoont	-11.4448
▁gegadigden	-11.4448
▁verblijven	-11.4451
▁witwassen	-11.4451
▁deelstaat	-11.4453
▁drugs	-11.446
▁circ	-11.4465
scoëfficiënten	-11.4468
▁vernieuwing	-11.4469
▁leesbaar	-11.4478
▁schatting	-11.4478
▁eindapparatuur	-11.4481
goedkeuringsmerk	-11.4488
▁grondig	-11.4496
▁zuigelingen	-11.4496
▁moedigen	-11.4499
▁toenemen	-11.4499
▁onnodig	-11.45
navulbare	-11.45
▁verstoord	-11.4502
▁buitenland	-11.4513
▁Taric	-11.4518
eigendomsrechten	-11.4519
▁verbindend	-11.4538
▁Social	-11.4543
einde	-11.4544
▁kunstmatig	-11.4549
▁GICP	-11.4549
nstalleerd	-11.455
▁goedkeuren	-11.455
▁gevangenschap	-11.455
▁herhaaldelijk	-11.4551
▁afdelingen	-11.4552
▁premierechten	-11.4554
▁aangetast	-11.4555
▁uitgesteld	-11.4556
▁Montenegro	-11.4558
▁ontvankelijk	-11.4558
▁vet	-11.4563
▁eerstgenoemde	-11.4563
▁steunen	-11.4569
▁OESO	-11.4591
▁behandelde	-11.4595
▁ingrediënt	-11.4596
▁route	-11.4599
▁gevolmachtigde	-11.46
status	-11.46
▁verhelpen	-11.4602
onder	-11.4608
▁flexibiliteit	-11.4611
▁afwijkende	-11.4616
▁vermoed	-11.4624
▁Visserij	-11.463
▁uitgenodigd	-11.4635
▁verhandeld	-11.4637
sinstanties	-11.4638
▁uitgezonderd	-11.4638
▁aanbiedingen	-11.4644
is	-11.465
▁San	-11.4651
▁voorfixatie	-11.4652
▁paragraaf	-11.4652
▁toestaat	-11.4659
▁tafelwijn	-11.466
▁rijkdommen	-11.4663
▁nietig	-11.4663
entrepot	-11.4665
▁gekoeld	-11.4668
▁strekt	-11.4686
▁ging	-11.4688
▁psychot	-11.4688
▁valse	-11.4689
▁keurmerk	-11.4698
▁afwikkeling	-11.4702
▁experimentele	-11.4704
▁beroepsgeheim	-11.4705
▁toestellen	-11.471
▁president	-11.4715
▁eindproducten	-11.4723
▁subsidiëring	-11.4724
▁lokaal	-11.4734
Eurostat	-11.4735
sverplichtingen	-11.4737
▁REPUBLIEK	-11.4739
an	-11.4742
▁Directeur	-11.4744
▁reizen	-11.4748
▁toezichtsgebied	-11.4749
▁uittreksel	-11.475
▁steunbedragen	-11.4754
▁bestrijken	-11.4756
▁CO	-11.4758
▁tentoonstelling	-11.476
▁Zweedse	-11.4764
categorieën	-11.4768
▁gerst	-11.4768
▁vragenlijsten	-11.4768
▁bestanddeel	-11.4773
statistiek	-11.4795
▁...	-11.4797
▁resoluties	-11.4808
▁toevertrouwd	-11.4809
▁LID	-11.4809
▁zichzelf	-11.4812
▁eraan	-11.4813
▁rechtszekerheid	-11.4815
▁lichte	-11.4818
▁handelaar	-11.4819
rekening	-11.4827
licht	-11.4829
trekkende	-11.483
▁basisproduct	-11.4833
▁accountants	-11.4834
vaartuigen	-11.4838
▁mest	-11.4846
▁rassenlijst	-11.4847
▁vorming	-11.4847
▁arbeidsmarkt	-11.4848
▁desgevraagd	-11.485
▁afvalwater	-11.4854
▁mensen	-11.4854
die	-11.4855
▁originele	-11.486
▁GBP	-11.4861
snormen	-11.4865
▁teken	-11.4866
vervoer	-11.4869
beheer	-11.4876
institutioneel	-11.489
▁Libanon	-11.4892
▁mobiliteit	-11.4899
▁overlading	-11.4907
▁geparafeerd	-11.4914
▁beoogt	-11.4914
▁ruim	-11.4918
▁nalatigheid	-11.492
▁aansluiting	-11.4922
▁perziken	-11.4922
▁Aanbeveling	-11.4927
▁Eurosysteem	-11.4936
▁inkomens	-11.4936
▁specificatie	-11.4937
▁invoerregeling	-11.4946
▁lijnen	-11.4948
▁prioriteit	-11.495
▁afschrijving	-11.4953
▁gedrang	-11.4967
▁hoeverre	-11.4967
▁verwerkingen	-11.4968
▁analytische	-11.4972
▁diersoorten	-11.4974
▁agrarische	-11.4985
▁marktprijs	-11.4991
▁korting	-11.4994
▁attest	-11.4995
▁onjuist	-11.5006
▁richt	-11.5007
▁quotum	-11.5011
▁profiteren	-11.5021
▁wijten	-11.5021
▁bedoeling	-11.5021
▁Onderzoek	-11.5021
▁varen	-11.5022
▁aquatisch	-11.5022
▁controleert	-11.5023
▁gewenst	-11.503
▁vluchten	-11.5033
veroorzakende	-11.5036
▁PRODUKTEN	-11.5037
▁bijstaan	-11.504
▁aangevoerde	-11.504
▁r	-11.5045
▁volwassen	-11.5054
▁concern	-11.5061
▁kennisgevers	-11.5062
▁eindverbruiker	-11.5065
▁fouten	-11.5067
▁concurreren	-11.5069
▁vijftien	-11.507
technieken	-11.5072
▁harmoniseren	-11.5075
▁gebeurtenissen	-11.5075
▁serologisch	-11.5075
▁grondige	-11.5077
▁herinnerd	-11.5078
▁vice	-11.5083
▁Federal	-11.5088
▁omgeving	-11.5101
▁notulen	-11.5106
envoedergewassen	-11.5106
▁Besluiten	-11.5107
inspectiepost	-11.5108
▁marge	-11.5117
additieven	-11.5124
▁areaalbetaling	-11.5124
▁hectoliter	-11.5126
▁strekking	-11.5129
▁handelsstromen	-11.5129
▁abnorma	-11.5133
▁grenswaarde	-11.5134
▁IS	-11.5135
▁aangepaste	-11.5137
▁NAFO	-11.5148
▁televisie	-11.5149
▁zachte	-11.5156
▁bureaus	-11.5171
K	-11.5178
▁vervalsen	-11.5183
▁budgettair	-11.5183
▁gesteund	-11.5183
▁tenminste	-11.5187
▁vorengenoemd	-11.5188
▁gang	-11.5191
grote	-11.5194
▁ziektegevoelig	-11.5196
▁kunstmatige	-11.52
sdoelstellingen	-11.5204
▁aangesteld	-11.5205
▁enkelvoudig	-11.5211
▁scenario	-11.5214
▁isoglucose	-11.5219
▁risicoanalyse	-11.5223
▁PCB	-11.5224
▁publieke	-11.5236
▁bewezen	-11.5238
▁daarover	-11.5238
bedrijfstak	-11.5239
▁gewas	-11.5257
▁consortium	-11.5274
▁media	-11.5276
▁HE	-11.5278
▁instandhoudings	-11.5279
▁horizonta	-11.5287
▁betrouwbaar	-11.5288
▁binnenland	-11.5291
▁wijken	-11.5293
▁absolu	-11.5293
▁beweging	-11.5293
▁auteursrecht	-11.5293
bedrag	-11.5298
▁rijwielen	-11.53
▁zichtbare	-11.5307
medefinanciering	-11.5309
type	-11.5316
▁uitgang	-11.5318
▁schending	-11.5321
▁uitsluiten	-11.5321
▁internet	-11.5323
▁Financi	-11.5327
▁arbeidsplaats	-11.5334
▁formule	-11.5335
▁lozing	-11.534
▁handelspraktijk	-11.5343
▁dertig	-11.5345
▁besproken	-11.5348
▁SIDE	-11.5348
aanhoudingsbevel	-11.5348
▁objectief	-11.5349
▁overgaan	-11.535
invoerprijs	-11.5353
leidende	-11.5353
Beschikking	-11.5354
▁gegaan	-11.5358
▁Instellingen	-11.536
sbescherming	-11.5361
▁oorzakelijk	-11.5362
▁Invoer	-11.5366
▁eindgebruikers	-11.5367
).".	-11.5368
▁overdrachten	-11.5372
▁ro	-11.5379
▁inslag	-11.5384
▁wezen	-11.5385
▁carnet	-11.5387
EFT	-11.5389
▁hulpmiddel	-11.5393
▁perceel	-11.5403
▁geviseerd	-11.5403
▁verwaarlozen	-11.5403
▁justitiële	-11.5403
▁machtigen	-11.5404
▁vergewist	-11.5405
sbesluit	-11.5406
▁best	-11.5409
▁DOOR	-11.541
beslechting	-11.5412
▁tafelolijven	-11.5412
produktie	-11.5416
▁korter	-11.5417
▁exportprijzen	-11.5419
▁industrieel	-11.5434
▁splitsing	-11.5441
ING	-11.5441
smogelijkheden	-11.5446
▁rechtsmiddelen	-11.5446
▁buitensporig	-11.5448
▁referenties	-11.5453
▁vrijgave	-11.5459
▁geformuleerd	-11.5459
▁verwijst	-11.5459
punt	-11.5459
▁omschrijven	-11.5461
▁Handvest	-11.5463
▁tiende	-11.5464
▁verlopen	-11.5469
bijvoorbeeld	-11.547
sinstantie	-11.5473
▁Deel	-11.5473
▁school	-11.5481
▁wees	-11.5484
▁bijwerkingen	-11.5485
beveiliging	-11.5497
▁bijna	-11.55
▁straling	-11.5501
▁Gen	-11.5512
▁stalen	-11.5514
▁verwarring	-11.5515
▁bestudering	-11.5516
▁rechtsmacht	-11.5516
▁uitvoerprijs	-11.5523
▁ernaar	-11.5526
▁bossen	-11.5527
voeding	-11.5527
VI	-11.5528
▁dienstverleners	-11.5532
grenswaarden	-11.5534
▁faillissement	-11.5546
▁conferentie	-11.5548
andere	-11.5549
▁klagende	-11.5553
▁gezelschapsdier	-11.5555
▁identiek	-11.5562
▁recycling	-11.5563
▁cliënt	-11.5564
to	-11.5564
▁durumtarwe	-11.5571
▁peren	-11.5572
▁kent	-11.5572
▁toelaten	-11.5572
▁lijken	-11.5574
▁Andorra	-11.5587
EOGFL	-11.5588
▁graan	-11.5595
▁binnenkomen	-11.5598
assagiersschepen	-11.5599
sgebieden	-11.5614
llow	-11.5616
▁International	-11.5626
▁verlangt	-11.5629
▁uitvoerbaar	-11.563
▁beloning	-11.5631
▁terugwerkend	-11.5632
▁vermeerdering	-11.5634
▁reikwijdte	-11.5635
▁systematische	-11.5636
▁COM	-11.5646
▁rata	-11.5651
▁SVEU	-11.5657
▁Pakistan	-11.5659
▁twintigste	-11.5669
▁hervormingen	-11.5674
▁nauwkeurigheid	-11.5675
▁vereenvoudigd	-11.568
▁rentebetaling	-11.5684
▁macro	-11.5686
▁verslechtering	-11.5686
▁soevereiniteit	-11.5686
▁Palestijnse	-11.5686
▁wijnstokken	-11.569
▁democratische	-11.5695
▁uitbetalen	-11.5704
▁ontslag	-11.5707
Het	-11.5708
▁scheiding	-11.5711
▁splijtstof	-11.5722
▁procédé	-11.5722
lijst	-11.5726
▁gemerkt	-11.5729
▁vooruitzicht	-11.5735
▁middelgro	-11.5741
▁informeren	-11.5743
▁instemt	-11.5743
▁microbiologisch	-11.5746
▁opslaan	-11.5747
▁convergentie	-11.575
▁stedelijk	-11.5751
▁geleidedocument	-11.5752
▁kopers	-11.5752
▁kwalificaties	-11.5762
▁Arabische	-11.5773
controleregeling	-11.5773
skader	-11.5776
▁tolerantie	-11.5798
huidig	-11.5799
▁liberalisering	-11.5801
▁voorafgaat	-11.5801
▁hieraan	-11.5801
▁buitengrenzen	-11.5802
▁Zaken	-11.5802
▁afzien	-11.5811
▁accijnzen	-11.5821
▁dekt	-11.5829
▁uittreksels	-11.5834
▁stem	-11.5836
stoffen	-11.584
▁vergoed	-11.5842
nformeerd	-11.585
heden	-11.5853
▁monsterneming	-11.5854
▁ingewilligd	-11.5859
▁meebrengt	-11.5859
▁DEZE	-11.586
▁onwettig	-11.586
splicht	-11.5867
equivalent	-11.5875
▁regelen	-11.588
efficiëntie	-11.5884
▁Bepaalde	-11.589
▁vertica	-11.5892
▁professionele	-11.5902
▁Wijziging	-11.5903
▁ondernemer	-11.5913
zaam	-11.5916
▁politiek	-11.5917
▁plantgoed	-11.5918
▁Taiwanese	-11.5918
▁Finse	-11.5924
▁alternatief	-11.5925
▁nadien	-11.5926
▁significant	-11.593
elijk	-11.5932
▁geladen	-11.5934
▁aantekeningen	-11.5937
vervalsing	-11.594
▁hernieuwbare	-11.5943
▁verbrandings	-11.5944
▁verwante	-11.5944
▁kritische	-11.5949
▁meerjarige	-11.5954
▁bestond	-11.5962
▁zitplaatsen	-11.5966
▁raadpleegt	-11.5977
▁toegerekend	-11.5981
▁veevoeders	-11.5981
▁restitutievoet	-11.5984
een	-11.5986
bewaking	-11.5992
tests	-11.5994
▁uitgifte	-11.6003
▁overcapaciteit	-11.6005
▁grondwater	-11.6009
Europees	-11.6013
▁gemonteerd	-11.6013
▁toenemend	-11.6018
▁mutati	-11.6022
▁fo	-11.6034
▁Cotonou	-11.6036
▁luchtvaartuig	-11.6036
▁toegeschreven	-11.6037
▁aanschaf	-11.6045
▁symbool	-11.6046
sdocument	-11.6053
▁uitbraken	-11.6062
ECE	-11.6064
▁wisselkoersen	-11.6066
▁fout	-11.6083
▁Afrika	-11.6084
▁kamers	-11.6086
▁zeker	-11.6087
▁Waar	-11.6087
▁leidde	-11.6094
▁aardolie	-11.6095
▁mutandis	-11.6095
▁elders	-11.6095
▁verdelen	-11.6096
▁waardepapieren	-11.6098
▁handelspolitiek	-11.6098
▁waarnemer	-11.6099
▁tussenpersonen	-11.61
▁luchtkwaliteit	-11.61
▁stap	-11.6103
▁uitkomst	-11.6106
▁verlagingen	-11.6109
▁toeslag	-11.611
▁doorgifte	-11.6116
▁roerend	-11.6117
▁vaccins	-11.6128
▁aanbestedingen	-11.6133
zoals	-11.6138
▁antigeen	-11.6141
len	-11.6145
stekel	-11.6155
▁manteldieren	-11.6155
▁cadmium	-11.6155
▁behoudt	-11.6159
▁douanewetgeving	-11.6166
▁basisproducten	-11.6167
▁landbouwsector	-11.6169
▁alternatieven	-11.6171
▁vliegtuig	-11.6171
▁verzekeringen	-11.6172
▁gassen	-11.6176
▁lidmaatschap	-11.6179
▁textiel	-11.6184
▁compenseren	-11.6186
▁gestort	-11.6195
▁getal	-11.6199
openbare	-11.62
▁aparte	-11.6205
▁beoordeelt	-11.6215
▁coordinatie	-11.6215
▁hoeveel	-11.6216
▁VASTGESTELD	-11.6217
▁vakbekwaamheid	-11.6218
▁grasland	-11.6226
▁gerealiseerd	-11.6226
▁Vors	-11.623
▁diversiteit	-11.6231
seisen	-11.6233
▁ingaat	-11.6236
▁eiwit	-11.6236
▁handelsstadium	-11.6249
documenten	-11.6252
▁toebehoren	-11.6253
ns	-11.6254
▁burger	-11.6263
▁slot	-11.6266
▁rechtvaardiging	-11.627
▁vergelijken	-11.6271
srapport	-11.6275
▁rechtsstaat	-11.6276
▁verplaatsen	-11.6276
▁alles	-11.6284
▁jongeren	-11.6287
▁klachten	-11.6288
heidshalve	-11.6292
▁gerekend	-11.6297
▁binnenlands	-11.6298
ren	-11.6301
▁wegvervoer	-11.6304
▁alcoholgehalte	-11.6309
proces	-11.6317
▁gevaarlijk	-11.6337
▁CWP	-11.6341
▁EUPOL	-11.6342
▁eiwitten	-11.6342
verkeer	-11.6346
▁gecompenseerd	-11.6347
▁plaatsvervanger	-11.635
▁variabele	-11.6352
▁Secretariaat	-11.6352
▁testen	-11.6353
▁uitstoot	-11.6355
▁Nationale	-11.6359
▁kabels	-11.6368
▁vliegtuigen	-11.6371
▁uitvoerige	-11.6373
▁brand	-11.6378
▁publicaties	-11.6386
▁nut	-11.6389
▁bedrijfshoofd	-11.6391
▁gebouwd	-11.6393
▁ingrijpend	-11.6396
strategie	-11.6398
▁creëren	-11.6399
▁betekening	-11.6399
▁INF	-11.6399
▁Punt	-11.64
▁oudere	-11.6401
▁voortgebracht	-11.6401
▁geding	-11.6404
▁invoerprijs	-11.6405
▁toezenden	-11.6414
gen	-11.642
▁%).	-11.6426
▁luidt	-11.6428
▁wederkerigheid	-11.643
▁handelsdocument	-11.6431
▁gedefinieerde	-11.6436
▁publikatie	-11.6443
lechts	-11.6444
▁bedreiging	-11.6446
▁opdrachtgever	-11.6448
wille	-11.6455
▁Associatie	-11.6456
▁afschriften	-11.6456
▁geaccepteerd	-11.646
▁kalenderjaren	-11.646
▁sterker	-11.6462
▁habitats	-11.6464
▁actuele	-11.6464
▁Z	-11.6464
▁terugkeer	-11.6468
▁productsoorten	-11.647
▁geëigende	-11.6472
faciliteiten	-11.6481
▁strategische	-11.6488
▁vrijwillig	-11.6501
▁samenleving	-11.6507
▁onderhavig	-11.6518
nde	-11.6519
▁ambt	-11.6521
▁aangekondigd	-11.6522
▁aangetroffen	-11.6522
▁verduidelijkt	-11.6522
▁onderhandeld	-11.6522
▁mazen	-11.6522
▁onderbreking	-11.6524
▁sigaretten	-11.6527
▁vastlegging	-11.653
▁bemiddeling	-11.6542
▁opzet	-11.6542
▁lood	-11.6542
oncordantietabel	-11.6557
verplichting	-11.6558
eren	-11.6571
▁meter	-11.6578
':	-11.6581
▁provincie	-11.6582
▁nooit	-11.6585
▁vervangt	-11.6585
▁Madrid	-11.6587
▁ondernemen	-11.6587
as	-11.6588
hoge	-11.6589
▁teler	-11.6594
;".	-11.6606
▁standaarden	-11.6606
▁benzine	-11.6606
▁vloot	-11.6608
▁locatie	-11.6609
▁waarna	-11.6616
▁warmtebehandel	-11.6624
▁coëfficiënten	-11.663
▁strategieën	-11.6631
istische	-11.6646
▁geanalyseerd	-11.6648
▁rekeneenheid	-11.6648
▁betrekken	-11.6648
▁opzettelijk	-11.6648
lektromagnetisch	-11.6649
▁trachten	-11.6654
▁halfjaar	-11.6655
▁slachtoffers	-11.6661
▁machtigingen	-11.6663
▁vaccin	-11.6663
▁bestellingen	-11.6669
▁plus	-11.6675
▁toelaatba	-11.6687
rdinator	-11.6696
tarieven	-11.67
▁beheerst	-11.6702
steun	-11.6708
▁veranderd	-11.6708
▁verduidelijken	-11.6711
▁louter	-11.6711
▁EDF	-11.6711
▁iets	-11.6711
▁gemeenschap	-11.6711
▁TOT	-11.6712
▁gecumuleerd	-11.6713
▁Word	-11.6714
▁bestrijdings	-11.6716
▁periodes	-11.6718
▁opschorten	-11.6718
▁band	-11.672
▁verschilt	-11.672
▁contactpunten	-11.672
▁vissers	-11.6721
▁waarschuwing	-11.6723
▁belemmerd	-11.6724
▁crisis	-11.6725
▁onderzoekers	-11.6729
▁ingrijpende	-11.6738
▁facturen	-11.6745
aan	-11.6748
▁noteringen	-11.6757
▁dienstverlener	-11.677
▁doorlopende	-11.6773
slag	-11.6774
▁koelhuis	-11.6775
▁EUROPEES	-11.6775
▁Aanvragen	-11.6775
▁aangeeft	-11.6776
▁contractant	-11.6776
▁toelaat	-11.6777
▁baten	-11.6778
▁onderzoeks	-11.6782
zaak	-11.6782
▁synthetische	-11.6784
▁hogesnelheids	-11.6785
VIII	-11.6786
▁waardering	-11.6787
▁quinquies	-11.6791
niveaus	-11.6792
▁agentschappen	-11.6793
▁wekelijks	-11.68
▁breedte	-11.6802
basis	-11.6808
ingrediënten	-11.6811
▁voortplanting	-11.6825
unie	-11.683
▁ongeschikt	-11.6837
▁productgroep	-11.6838
▁cumarine	-11.6839
▁rechtsbijstand	-11.6839
▁bestuderen	-11.6839
gaans	-11.6839
▁analyseren	-11.6839
▁afloopt	-11.6844
▁plichten	-11.6846
specifieke	-11.6846
sstrategie	-11.6847
aardappelzetmeel	-11.6853
▁integriteit	-11.6873
▁du	-11.6874
verstrekking	-11.6876
▁overeenkomend	-11.688
sgewijze	-11.688
▁vestigingen	-11.6885
gerechtvaardigde	-11.6887
▁betwist	-11.6887
▁rij	-11.6891
▁paspoort	-11.6896
jaar	-11.6898
▁verbruikers	-11.6903
▁doeltreffender	-11.6903
▁kennelijk	-11.6903
▁tandheelkunde	-11.6903
▁afgetrokken	-11.6903
▁Stabilisatie	-11.6903
volumegehalte	-11.6904
▁PARLEMENT	-11.6908
▁karkassen	-11.6908
▁gemakkelijker	-11.6909
residugehalten	-11.691
▁stammen	-11.6911
▁onvoorziene	-11.6916
discriminatie	-11.6919
▁prognoses	-11.693
▁doelbewust	-11.693
▁inspectiebezoek	-11.6935
▁historische	-11.6941
na	-11.6958
▁rechtsvordering	-11.697
▁gebeurtenis	-11.6973
▁bereiden	-11.6973
▁naburige	-11.6974
▁diplomatieke	-11.6976
▁Parijs	-11.6985
▁Hongkong	-11.6997
▁Controle	-11.7003
▁cultuur	-11.7019
▁telex	-11.7024
▁bedrijfsvoering	-11.7034
▁GEMEENSCHAPPEN	-11.7035
▁gelijkheid	-11.7036
▁opgetreden	-11.7036
ma	-11.7043
▁participatie	-11.7052
lid	-11.7055
maatschappelijke	-11.7059
▁beantwoord	-11.7061
▁inspecteur	-11.7062
▁steekproeven	-11.7074
▁uitdrukking	-11.7081
▁suikerbieten	-11.7089
▁Kamer	-11.7099
▁kiest	-11.7099
▁zaaigranen	-11.7099
▁AFH	-11.7099
nen	-11.71
▁relatief	-11.71
▁opgeroepen	-11.7102
productiemethode	-11.7103
▁VRC	-11.7116
▁TARGET	-11.7119
▁optima	-11.7125
▁strekken	-11.7134
os	-11.7139
▁Mexico	-11.7143
▁BNP	-11.7147
▁recipiënt	-11.7155
▁kansen	-11.7161
▁alcoholhoudend	-11.7164
▁oefent	-11.7166
▁zodoende	-11.7168
▁verduidelijking	-11.717
▁optimale	-11.7172
▁OORSPRONG	-11.7173
verbindingen	-11.7174
reeks	-11.7176
rekeningskoersen	-11.7176
▁geselecteerde	-11.718
▁kwalitatie	-11.7185
▁kostprijs	-11.7193
▁blad	-11.7193
▁del	-11.7193
saanvraag	-11.7195
▁DEEL	-11.7198
▁buizen	-11.721
sbedrijf	-11.7211
▁geleide	-11.7214
▁innovatie	-11.7218
▁EIB	-11.7225
▁verzenden	-11.7227
▁tonnage	-11.7231
▁sorteren	-11.7232
▁vlaggenstaat	-11.7232
▁energieverbruik	-11.7236
▁directie	-11.7237
▁letsel	-11.7239
▁visserijsector	-11.724
▁gelieerd	-11.7241
▁visa	-11.7241
▁homogene	-11.7244
▁uitdrukkelijke	-11.7248
▁investeerder	-11.7255
▁doelmatige	-11.7281
▁inbegrepen	-11.7281
▁wijnbouw	-11.7285
▁operaties	-11.7297
TREFFENDE	-11.7299
▁constateren	-11.7299
▁indelingsschema	-11.73
richtsnoeren	-11.7301
bedragen	-11.7304
▁voortdurende	-11.7305
▁voorgelegde	-11.7305
▁kwik	-11.7309
▁productieproces	-11.7321
▁maatschappijen	-11.7321
▁Faer	-11.7323
▁vervalsing	-11.7333
functionarissen	-11.7335
▁speelgoed	-11.7339
▁vele	-11.7339
▁ecologische	-11.734
▁rubrieken	-11.7352
▁middels	-11.7352
▁schademarge	-11.7354
▁commissies	-11.7355
▁extern	-11.7359
▁uiting	-11.7361
▁Irak	-11.7367
▁gereserveerd	-11.7367
▁vervult	-11.7367
▁keurt	-11.7367
▁toegezien	-11.7367
▁schorten	-11.7368
co	-11.737
▁oproepen	-11.737
▁maandelijks	-11.7376
▁doden	-11.7387
▁kaart	-11.7387
verandering	-11.7394
▁vangen	-11.7403
medewerkende	-11.7409
▁opleidingen	-11.741
▁secundaire	-11.741
▁visseizoen	-11.742
▁plaatsvond	-11.742
▁weging	-11.7435
▁meebrengen	-11.7435
▁maximumsnelheid	-11.7435
▁aangetekend	-11.7436
▁hierin	-11.7436
▁rechtsgevolgen	-11.7439
et	-11.7443
▁verscheidenheid	-11.7443
▁halve	-11.7444
▁merkteken	-11.7446
vermindering	-11.7449
▁Toezicht	-11.7449
▁bevolkingsgroep	-11.7453
sverplichting	-11.7454
▁warmgewalst	-11.7455
tegenwoordigers	-11.7456
▁voormengsels	-11.7456
▁biologisch	-11.7457
▁DEPB	-11.7462
▁nucleair	-11.7464
▁gedroogd	-11.7466
▁afwijzing	-11.7469
▁vond	-11.7482
krachtkoppeling	-11.7488
sen	-11.7489
▁radiospectrum	-11.7497
▁vestigen	-11.7503
▁onderhandelen	-11.7504
saspecten	-11.7517
▁bluetongue	-11.752
▁klinisch	-11.7526
▁vaart	-11.7528
▁organisatorisch	-11.7537
▁beweerde	-11.7542
st	-11.7554
▁Per	-11.7555
▁wereldwijde	-11.7556
▁kandidaten	-11.7566
▁eiland	-11.7567
▁PT	-11.7571
▁trend	-11.7571
▁kosteloos	-11.7573
encefalopathieën	-11.7573
▁identieke	-11.7575
▁maatschappij	-11.7577
▁feite	-11.7577
▁Producenten	-11.758
strekkende	-11.7582
▁klauwzeervirus	-11.7584
▁verschillend	-11.7586
samenwerking	-11.7587
personeel	-11.7603
▁bereikte	-11.7609
risico	-11.7609
▁productiesteun	-11.7622
▁onevenredig	-11.7642
▁ontstentenis	-11.7642
▁zamen	-11.7642
▁kernmateriaal	-11.7642
▁toegediend	-11.7642
▁biociden	-11.7643
▁afstanden	-11.7643
▁TOEPASSING	-11.7644
vleesbereidingen	-11.7646
▁drank	-11.7648
▁ruimer	-11.7651
commissie	-11.7661
▁munten	-11.7664
▁ruime	-11.7669
▁bewust	-11.7673
beheersing	-11.7682
▁uitgaand	-11.7689
▁misleidende	-11.7691
▁getest	-11.7692
▁bevriezing	-11.7695
▁bijeenkomsten	-11.7707
▁afronding	-11.771
▁benutten	-11.7713
▁personenvervoer	-11.7715
▁voorschrijft	-11.7717
▁padie	-11.7717
▁benut	-11.7724
▁voorbereidende	-11.7732
▁corrigerend	-11.7734
▁tekeningen	-11.7739
▁materie	-11.7751
▁evenredige	-11.7762
▁software	-11.7762
Register	-11.7765
▁aardappelmeel	-11.7768
▁raam	-11.7769
▁machine	-11.7774
▁merktekens	-11.7776
ch	-11.778
▁ingevroren	-11.7782
▁reageren	-11.7782
▁slachtafvallen	-11.7782
▁afgeeft	-11.7782
▁wegverkeer	-11.7783
▁gevalideerd	-11.7784
▁bovenvermelde	-11.7785
▁Moldavië	-11.7787
▁nadruk	-11.7787
modelgoedkeuring	-11.7788
project	-11.7796
▁impact	-11.7797
▁lonen	-11.7799
▁rechthebbenden	-11.78
▁bevestigde	-11.78
▁gecertificeerde	-11.7804
nummers	-11.7806
▁lichten	-11.7808
▁Uitvoering	-11.7809
▁Instituut	-11.781
▁compatibiliteit	-11.7818
▁Kinshasa	-11.7823
voerende	-11.7835
▁takken	-11.7836
▁constatering	-11.7838
▁Eerste	-11.7847
▁Stelsel	-11.7852
▁doelmatig	-11.7852
PIC	-11.7852
▁gewonnen	-11.7853
▁vergt	-11.7853
▁schadeloos	-11.7854
noses	-11.7854
▁omloop	-11.7859
▁nadeel	-11.786
autoriteit	-11.7865
▁adressen	-11.7874
▁CMR	-11.7874
▁staatsmiddelen	-11.7882
om	-11.7899
▁teruggave	-11.7907
dien	-11.791
▁huisdieren	-11.7913
onderbieding	-11.792
▁ingewonnen	-11.7924
▁fruitgewassen	-11.7925
langs	-11.7926
smiddel	-11.7927
▁Poolse	-11.7928
▁stroken	-11.7934
▁mout	-11.7935
eisen	-11.7939
▁geheim	-11.794
▁vigerende	-11.7941
▁vroeg	-11.7941
▁SP	-11.7953
▁invoerprijzen	-11.7972
▁uitstel	-11.7974
beheerder	-11.7977
▁geautomatiseerd	-11.7977
▁horen	-11.7978
beschikking	-11.7979
▁familie	-11.7991
▁detachering	-11.7994
▁herhaalde	-11.7996
▁Tussen	-11.7996
Ronde	-11.7996
▁absoluut	-11.7996
▁nedergelegd	-11.7996
▁winstoogmerk	-11.7996
▁voortzetten	-11.7997
▁redelijkerwijze	-11.7997
▁persing	-11.7998
▁opgelost	-11.8001
▁bevredigend	-11.8002
▁verkeren	-11.8002
▁vraagt	-11.8006
▁opslagperiode	-11.8015
ige	-11.8016
▁vroegst	-11.8017
▁talrijke	-11.8021
▁langdurig	-11.8021
▁spoed	-11.8037
▁start	-11.8043
EU	-11.8043
▁team	-11.8044
▁wens	-11.8051
▁slachtoffer	-11.8053
▁verwerkings	-11.8054
plaatsvervangers	-11.8054
)".	-11.8055
▁handen	-11.8068
▁kwaliteiten	-11.8068
▁garandeert	-11.8069
▁wijzigt	-11.8069
▁rijbewijs	-11.8069
▁scheepswerven	-11.8069
▁verhuur	-11.8069
▁eindgebruiker	-11.8071
▁transparant	-11.8073
▁SEPI	-11.8074
▁voordracht	-11.8075
▁nadelig	-11.8075
waarborging	-11.8077
▁opsporen	-11.8083
▁No	-11.8087
▁gehakt	-11.8087
▁Uitvoerend	-11.8093
▁afhandeling	-11.8101
▁aankondigingen	-11.8103
▁geringer	-11.8111
▁u	-11.8118
smaatregel	-11.8122
gebruikers	-11.813
▁huisdier	-11.8133
▁opvang	-11.8134
▁minimumaantal	-11.814
▁Tegen	-11.814
▁bekrachtigd	-11.8142
▁draagwijdte	-11.8142
▁betaalorganen	-11.8142
▁vezelgewassen	-11.8142
▁uitvaardigen	-11.8144
▁Producten	-11.8144
▁kwetsbare	-11.8147
gevoerde	-11.8148
▁trouw	-11.8148
▁ongewijzigd	-11.8148
▁ontsmetting	-11.8159
▁Voorwaarden	-11.8159
▁kalveren	-11.816
test	-11.8176
▁processen	-11.8183
u	-11.8187
gangsregeling	-11.819
▁stapelvezels	-11.819
▁breed	-11.8194
smethode	-11.8195
▁uitbetaling	-11.82
▁Vergadering	-11.8201
veiligheid	-11.8209
▁aanhouden	-11.8209
▁haalbaar	-11.8211
▁aspect	-11.8211
▁aangemoedigd	-11.8215
▁uitwisselen	-11.8215
▁vegetatie	-11.8215
▁winnen	-11.8215
▁betekenen	-11.8215
▁CP	-11.8216
▁handelszaken	-11.8216
▁pensioenen	-11.8223
▁rauwe	-11.8224
▁verkoopbenaming	-11.8226
atie	-11.8226
▁ongeldig	-11.8228
▁tanks	-11.8228
▁memorandum	-11.8229
▁werkgroep	-11.8232
▁ve	-11.8235
raadboekhouding	-11.8236
▁gemoeid	-11.8241
▁distributeurs	-11.8241
▁basissalaris	-11.8244
▁handtekeningen	-11.8245
▁precieze	-11.825
▁tekorten	-11.8259
ertegenwoordiger	-11.826
▁begrippen	-11.8261
▁overschot	-11.8271
▁regulering	-11.8275
▁routes	-11.828
verpakkingsafval	-11.8286
▁winsten	-11.8286
gebruik	-11.8287
ELET	-11.8288
▁WORDT	-11.8289
▁gecreëerd	-11.8289
▁druivensap	-11.829
▁vervoedering	-11.829
▁verklaarde	-11.8291
▁betalingsbalans	-11.8293
▁ingezet	-11.8295
microschijven	-11.8296
▁bankbiljetten	-11.8301
▁krenten	-11.8302
▁aantallen	-11.8305
▁vergoeden	-11.8308
etalingsopdracht	-11.8308
▁plaatselijk	-11.8311
▁particulieren	-11.8317
▁strikte	-11.8323
ol	-11.8324
net	-11.8334
▁aanbieders	-11.8343
▁eindprodukt	-11.8344
▁vervoerde	-11.8345
▁rectificatie	-11.8348
▁equivalente	-11.835
▁ha	-11.835
soorten	-11.8352
▁Algerije	-11.8354
▁richting	-11.8357
▁ontsmet	-11.8363
▁verplaatst	-11.8364
▁destructie	-11.8369
▁pootgoed	-11.8369
▁Verzoeken	-11.837
▁mondiale	-11.8373
Structuurfondsen	-11.8373
▁Wenen	-11.8376
▁verblijfstitel	-11.8378
▁mechanische	-11.8382
▁misdrijven	-11.8387
▁efficiëntie	-11.8391
▁agens	-11.8394
ijk	-11.8406
▁voortgang	-11.8408
emissies	-11.8408
▁Doel	-11.8413
▁toleranties	-11.8414
ervolgens	-11.8418
▁nul	-11.8421
▁Jordanië	-11.8425
▁bewering	-11.8425
▁cumulatie	-11.843
▁eensluidend	-11.8439
▁zwaveldioxide	-11.8439
▁betaalorgaan	-11.8439
▁Titel	-11.8439
▁overgeladen	-11.844
▁proefprojecten	-11.8442
ANDERE	-11.8446
▁orders	-11.8447
▁verduurzaamd	-11.8448
areaalbetalingen	-11.8448
HV	-11.8455
▁equivalent	-11.8457
▁gelost	-11.8463
▁verzendende	-11.8471
▁rollen	-11.8472
▁weefsels	-11.8472
▁vochtgehalte	-11.8473
▁amendementen	-11.8486
▁BB	-11.8487
▁voet	-11.8489
▁munt	-11.8505
▁rechtsgrondslag	-11.8509
▁kunststof	-11.8515
▁evalueert	-11.8515
▁ombudsman	-11.8515
Investeringsbank	-11.8519
▁gereglementeerd	-11.8523
▁Amsterdam	-11.8524
▁koppeling	-11.8528
▁ingevulde	-11.8529
▁hoc	-11.8529
▁Handel	-11.8536
▁gedopte	-11.8545
▁honden	-11.8548
▁nederlegging	-11.8555
marktvoorwaarden	-11.8558
▁vervroegde	-11.8561
▁zet	-11.8572
scertificaten	-11.8574
▁stemrecht	-11.8577
▁ontwikkelings	-11.8588
achtige	-11.859
▁televisiecamera	-11.8591
nspecteerd	-11.8591
▁concludeert	-11.8591
▁groentegewassen	-11.8591
▁vijgen	-11.8591
▁voorafgegaan	-11.8592
▁voortaan	-11.8592
▁ecopunten	-11.8594
▁specialist	-11.8596
▁advocaat	-11.8597
▁instemmen	-11.86
▁onrechtstreeks	-11.8601
▁gespreid	-11.8602
▁verlof	-11.8604
▁GOEDEREN	-11.8604
▁terugwinning	-11.8606
▁eerstvolgend	-11.8606
naten	-11.8613
▁wijnbouwproduct	-11.8613
▁opleidingstitel	-11.8616
▁milieugebied	-11.8618
rekeningen	-11.8627
▁ingegaan	-11.8628
oorsprongsregels	-11.8633
economisch	-11.8635
▁produktiesteun	-11.8635
▁tegenwaarde	-11.8659
goederen	-11.8661
▁MAATREGELEN	-11.8665
▁Verklaring	-11.8666
▁herhaald	-11.8668
▁Montreal	-11.8668
▁verhinderd	-11.8668
▁dusdanig	-11.8668
verbaal	-11.8668
▁rechtvaardigt	-11.8669
▁commentaar	-11.8669
▁trekt	-11.8669
▁tijdstippen	-11.8669
▁stemt	-11.867
▁ambtshalve	-11.867
▁griffier	-11.8671
▁oogstjaar	-11.8674
▁vervoers	-11.868
▁schrappen	-11.8681
▁traceerbaarheid	-11.8693
▁gasolie	-11.8704
infectieuze	-11.8705
▁conflicten	-11.8705
▁ministers	-11.8709
sniveaus	-11.8721
▁corrigeren	-11.8721
▁rationele	-11.8724
sveiligheid	-11.8725
centrum	-11.8728
▁natuur	-11.8729
x	-11.8733
▁innen	-11.8736
▁wederverkoop	-11.8744
▁Sinds	-11.8746
▁armoede	-11.8746
▁onttrokken	-11.8746
▁produceert	-11.8746
▁verlaat	-11.8746
▁OVER	-11.8746
▁woont	-11.8746
▁mededelen	-11.8746
▁bezorgdheid	-11.8746
▁uitgelegd	-11.8747
▁uitlegging	-11.8748
▁opgeleverd	-11.8749
▁meetmiddelen	-11.8749
▁min	-11.875
▁verontreinigd	-11.8751
bureau	-11.8751
▁bewijsstuk	-11.8751
▁poging	-11.8755
▁deugdelijk	-11.8757
▁benadrukt	-11.876
leden	-11.8761
▁achttien	-11.8763
▁oorzaken	-11.8766
▁behaald	-11.8767
zorgsmaatregelen	-11.8771
ig	-11.8772
aat	-11.8779
▁neer	-11.878
passagiers	-11.8781
▁capaciteits	-11.8786
▁voorzitters	-11.8799
▁derivaten	-11.8808
▁bevoorrading	-11.8812
▁verlichtings	-11.8812
▁onregelmatig	-11.8819
▁ionis	-11.8823
▁teruggevorderd	-11.8824
▁Hongaarse	-11.8828
j	-11.883
▁openbaredienst	-11.8833
richtlijn	-11.8834
▁VAA	-11.8837
▁onontbeerlijk	-11.8837
wegwerpaansteker	-11.8841
CEE	-11.885
ering	-11.8855
fabrieksvaartuig	-11.8858
technologieën	-11.8858
eel	-11.886
▁kuil	-11.8861
register	-11.8861
at	-11.8874
▁arbeidstijd	-11.8887
▁ontving	-11.8888
▁overwegen	-11.8902
▁voortbestaan	-11.8903
▁geitenvlees	-11.8903
▁basisareaal	-11.8904
▁dalend	-11.8908
▁ALGEMENE	-11.8908
▁privé	-11.8912
▁praktisch	-11.8915
▁uitzonderlijk	-11.8915
▁salarissen	-11.8916
▁resulteren	-11.8916
▁stikstof	-11.8923
vermenigvuldigen	-11.8924
▁modaliteiten	-11.8931
▁zuiverheid	-11.8933
▁toewijzingen	-11.8937
Herzegovina	-11.8941
▁combinaties	-11.8941
▁lang	-11.8942
▁zouten	-11.8946
▁stabiliteits	-11.8949
▁vervoerders	-11.8952
▁bereide	-11.8958
▁zwavelgehalte	-11.8963
▁reddings	-11.8963
▁beroepstitel	-11.8965
▁kalendermaand	-11.8967
▁Berlin	-11.8977
splan	-11.8979
▁citrusvruchten	-11.8982
▁wenden	-11.8982
▁dientengevolge	-11.8982
▁beddenlinnen	-11.8982
▁uitnodigen	-11.8983
▁brucellosevrij	-11.8984
▁opengesteld	-11.8984
ad	-11.8989
vrije	-11.8989
▁doorgeven	-11.8992
▁rechtbank	-11.8996
▁vroeger	-11.8997
ción	-11.8998
orgaan	-11.9006
▁vracht	-11.901
▁gesplitst	-11.9014
▁hennep	-11.903
▁scholen	-11.9034
▁uitlevering	-11.9034
▁interventies	-11.9044
ZAKE	-11.9046
suitoefening	-11.9057
▁TAC	-11.9058
▁Lanka	-11.9062
▁Melilla	-11.9062
▁rozijnen	-11.9062
▁oprichten	-11.9062
kapitaalinjectie	-11.9063
▁blijvende	-11.907
▁apart	-11.9076
▁gebouw	-11.9076
ssamenwerking	-11.9089
erwijs	-11.9095
ziekteverwekkers	-11.9097
▁maakte	-11.9098
over	-11.9104
▁eenieder	-11.9105
▁therapeutische	-11.911
▁afgewerkte	-11.9114
▁lagen	-11.9137
▁noodvaccinatie	-11.9142
▁volstaan	-11.9143
▁kalenderdagen	-11.9145
▁Bepalingen	-11.9147
▁verantwoording	-11.915
▁taksen	-11.9152
raamovereenkomst	-11.9155
▁begunstigd	-11.9156
▁onvolledig	-11.9157
▁gesorteerd	-11.9163
▁eindbestemming	-11.9165
zieningsregeling	-11.9165
▁mousserend	-11.9168
categorie	-11.9171
administrateur	-11.9174
merkteken	-11.9176
▁Oostenrijks	-11.9183
vergunningen	-11.9188
deelnemende	-11.9193
situatie	-11.9206
dienstverlening	-11.9215
▁inzicht	-11.922
▁visserijzone	-11.9222
▁succes	-11.9224
▁overbodig	-11.9224
▁wederopbouw	-11.9224
▁hieruit	-11.9224
▁beleidslijnen	-11.9225
▁landbouwmarkten	-11.9226
▁Ceuta	-11.923
krediet	-11.9231
ca	-11.9233
▁re	-11.9239
▁bovengenoemd	-11.9239
▁eist	-11.9241
▁beschadigd	-11.9248
norm	-11.9248
▁openstelling	-11.9255
▁opgebruikt	-11.9264
band	-11.9275
▁Is	-11.9286
▁gemodificeerd	-11.9286
▁voorheen	-11.929
▁voorafgaan	-11.93
▁olijfbomen	-11.9306
▁advocaten	-11.9306
▁douaneaangifte	-11.9306
▁gevist	-11.9306
▁geannuleerd	-11.9307
omplementariteit	-11.9307
▁ratio	-11.9307
▁last	-11.9311
▁beraadslagingen	-11.9313
▁uitstellen	-11.9317
▁marktwaarde	-11.9319
▁variëteiten	-11.932
▁antibiotica	-11.9323
▁KMO	-11.9324
▁heel	-11.9329
▁spreiding	-11.9331
▁centraal	-11.9332
▁tranches	-11.9335
▁holding	-11.9338
▁reiskosten	-11.9352
▁gezin	-11.9357
▁waarschuwingen	-11.9357
station	-11.9361
splannen	-11.9364
▁do	-11.9377
▁Oostzee	-11.938
▁akkoorden	-11.938
▁rechtshandeling	-11.938
controlesystemen	-11.9387
▁afgeboekt	-11.9389
▁facultatieve	-11.9389
▁teruggebracht	-11.9389
▁zeevarenden	-11.9389
▁drager	-11.939
▁democratie	-11.9391
▁huisvesting	-11.9391
steunintensiteit	-11.9392
▁vesicul	-11.9394
▁vatbaar	-11.9395
▁jaarbasis	-11.9397
▁fuseren	-11.9399
verrichtingen	-11.94
▁transnationale	-11.9402
▁beurt	-11.9404
▁afschrikkend	-11.9405
▁chemisch	-11.9405
▁uiteen	-11.9405
▁Specifiek	-11.9406
▁welbepaalde	-11.9406
▁huishoudelijk	-11.9411
▁vervangings	-11.9415
▁evenredigheids	-11.9418
theoretische	-11.9419
sdiensten	-11.9427
potentieel	-11.9429
▁dicht	-11.9441
▁rechtsgrond	-11.9441
▁vallend	-11.9443
▁grondgebieden	-11.9447
peraties	-11.9451
▁slachtpremie	-11.9455
▁particulier	-11.9458
▁gewerkt	-11.946
▁WAAR	-11.9464
Eventuele	-11.9472
▁benoemen	-11.9472
▁enigszins	-11.9472
zuiverheidseisen	-11.9474
▁huishoudens	-11.9476
▁stopzetting	-11.9478
▁FRF	-11.9478
▁interconnectie	-11.9478
▁bijgevoegd	-11.9479
▁gezocht	-11.9482
▁geldelijk	-11.9482
▁vatbare	-11.9483
▁Lissabon	-11.9485
▁drukapparatuur	-11.9486
handelskwaliteit	-11.9491
▁formulering	-11.9492
▁voorontwerp	-11.9492
▁gelijkgestelde	-11.9498
▁luchtverkeers	-11.9499
▁halen	-11.9511
▁traject	-11.9513
▁toeslagen	-11.9515
▁uitsluitingen	-11.9533
▁aangerekend	-11.9535
▁her	-11.9536
gangsmaatregel	-11.9544
▁fundamente	-11.9547
vie	-11.9547
or	-11.9549
▁versies	-11.9549
▁geëtiketteerd	-11.9556
▁zeeslakken	-11.9556
▁collectief	-11.9556
▁meent	-11.9556
▁daarnaast	-11.9557
▁Maritiem	-11.9558
▁vernietigen	-11.9558
▁IAS	-11.9558
▁Britse	-11.956
▁repertorium	-11.9562
▁belasten	-11.9571
▁verbeterde	-11.9571
▁zuiver	-11.9574
▁gegevensbank	-11.9575
▁hybriden	-11.9584
▁bewerkte	-11.9585
▁betalings	-11.9585
▁concessie	-11.9587
▁aangelegd	-11.9589
kleurstofvormers	-11.9589
▁verlichting	-11.9593
sdiscipline	-11.9594
▁dienende	-11.9596
mechanisme	-11.9598
loedbestanddelen	-11.9614
▁kans	-11.9615
▁ingezetene	-11.9618
▁kantoren	-11.9624
▁machtspositie	-11.9625
oppervlakten	-11.9626
▁beproeving	-11.9631
▁emittent	-11.9632
beperkingen	-11.9638
▁anderen	-11.964
referentiewaarde	-11.964
JUST	-11.9641
▁betrekkelijk	-11.9641
▁maatstaf	-11.9641
▁mineraalwater	-11.9641
▁ongeoorloofd	-11.9641
▁bespreken	-11.9641
▁oenologisch	-11.9641
▁braakgelegd	-11.9641
▁aanwerving	-11.9642
▁referentiejaar	-11.9643
▁uitgaan	-11.9643
▁hernieuwd	-11.9643
▁Verplichtingen	-11.9644
voorzitters	-11.9644
▁Stille	-11.9644
▁dumpingprijzen	-11.9647
▁Sardinië	-11.9651
▁straf	-11.9656
▁afspraken	-11.9656
▁berichten	-11.9667
▁poly	-11.967
▁langetermijn	-11.967
▁volzin	-11.969
W	-11.9696
▁weefsel	-11.9697
raudebestrijding	-11.9698
groepen	-11.9702
vrijstellingen	-11.9706
▁pakket	-11.9707
▁gold	-11.9712
referentienummer	-11.9713
pelijke	-11.9714
▁conglomeraat	-11.9726
▁echtgenoot	-11.9726
▁uitworp	-11.9726
▁bijeengeroepen	-11.9726
▁conservatoir	-11.9726
▁loonkosten	-11.9727
▁doorslaggevend	-11.9728
▁aantasten	-11.9729
▁FONDS	-11.973
▁noodmaatregelen	-11.973
▁beheerder	-11.9731
▁gedwongen	-11.9736
▁privatisering	-11.9737
%	-11.9738
▁achtergrond	-11.974
▁afgevoerd	-11.974
saanvragen	-11.9742
▁zoeken	-11.9745
▁selectief	-11.9746
▁passagier	-11.9756
ver	-11.976
▁loon	-11.9761
aal	-11.9764
▁Animo	-11.9765
▁accountant	-11.9772
▁aflatoxine	-11.9783
percentages	-11.9785
toestellen	-11.9788
▁rechtsvorm	-11.9798
▁vergissing	-11.98
douanebestemming	-11.9801
▁brieven	-11.9806
▁storing	-11.9806
▁Secretaris	-11.9812
▁levenssfeer	-11.9812
▁katten	-11.9813
▁ingedeelde	-11.9813
▁arbeidskrachten	-11.9813
▁gerecycleerd	-11.9815
LIJKE	-11.9815
▁minimumprijzen	-11.9819
▁rijstmarkt	-11.9819
▁geweld	-11.9822
▁Kazachstan	-11.9822
▁beroepsmatig	-11.9825
▁EWSK	-11.9829
Z	-11.983
▁vervalst	-11.9833
▁website	-11.9838
▁ingebruikneming	-11.9838
▁octrooi	-11.9838
▁inenting	-11.9841
▁uitvoerig	-11.9843
eert	-11.9845
▁rode	-11.9846
▁asielzoekers	-11.9849
▁overgemaakt	-11.985
betaling	-11.9858
▁bedrage	-11.986
▁certificeren	-11.9869
▁bewerkingen	-11.9882
GN	-11.9883
▁distilleerder	-11.9883
▁klant	-11.9891
schapen	-11.9898
▁denaturering	-11.9899
▁functioneert	-11.9899
▁gehandicapten	-11.99
▁half	-11.9902
▁Fisheries	-11.9906
▁gebruiksrechten	-11.9906
▁NIET	-11.9907
▁noodsituaties	-11.9909
▁aanzuivering	-11.991
▁tegemoet	-11.991
▁genaamd	-11.9914
▁opstelt	-11.9914
no	-11.9915
inspectieposten	-11.9919
▁wereldwijd	-11.992
▁eenheidsbedrag	-11.992
▁Overeenkomsten	-11.9925
▁uren	-11.9932
▁aanvullingen	-11.9935
▁intra	-11.9937
▁verkoopt	-11.9946
▁diameter	-11.9946
▁uitvoeraangifte	-11.9963
anse	-11.9964
▁betrokkenheid	-11.9979
▁tekens	-11.998
▁gedood	-11.9987
▁pleegt	-11.9987
▁teruggegeven	-11.9987
▁nakomt	-11.9988
▁herverzekering	-11.9988
▁verzorging	-11.9989
▁achteruitgang	-11.9989
zondheidsstatus	-11.999
destructiedienst	-11.999
ia	-11.999
▁nulrecht	-11.9995
▁standplaats	-11.9996
▁silicium	-11.9997
▁formeel	-11.9998
▁bepalend	-12.0002
▁handelsregeling	-12.0005
▁limiet	-12.0008
▁doorzichtige	-12.0009
overschrijdend	-12.0009
▁gestreefd	-12.0009
▁ontvangers	-12.0013
▁Sapard	-12.0013
zoogkoeienpremie	-12.0017
▁ingehouden	-12.0021
▁luidende	-12.0024
▁vrede	-12.0033
▁bladzijde	-12.0036
▁twijfels	-12.0038
eu	-12.0057
▁toediening	-12.0061
'';	-12.0062
▁bevordert	-12.0076
▁gereageerd	-12.0076
▁vederwild	-12.0076
▁Bull	-12.0076
▁streeft	-12.0076
Milieuagentschap	-12.0076
vestigingsplaats	-12.0076
▁dood	-12.0076
ta	-12.0077
chemische	-12.0078
▁ammoniumnitraat	-12.0082
▁vezelvlas	-12.0082
▁overzichten	-12.0083
▁ondermelk	-12.0084
▁werkers	-12.0086
markten	-12.0089
▁biocide	-12.0093
▁instituut	-12.0101
fonds	-12.0105
▁facultatief	-12.011
▁bekendheid	-12.0112
sdatum	-12.0122
▁GE	-12.0129
gerichte	-12.0132
▁rechte	-12.0133
▁unies	-12.0137
▁Definitie	-12.014
▁kuikens	-12.014
▁NACE	-12.0143
▁zogenaamd	-12.0143
▁eindverslag	-12.015
▁omklede	-12.0163
▁tuberculose	-12.0164
▁westerlengte	-12.0165
▁impliceert	-12.0165
▁kernenergie	-12.0165
▁geconfronteerd	-12.0165
▁Thaise	-12.0165
▁willekeurig	-12.0165
▁aromastoffen	-12.0165
▁meet	-12.0167
▁bleven	-12.0167
▁tussenkomst	-12.0169
presentativiteit	-12.0171
▁landbouwbedrijf	-12.0173
▁toegankelijke	-12.0173
skredieten	-12.0173
▁hersteld	-12.0173
▁speculatie	-12.0186
▁oppositie	-12.019
▁kwamen	-12.0192
sbeginsel	-12.0196
▁ambten	-12.02
▁Be	-12.0207
verklaringen	-12.0211
▁EPA	-12.0211
resultaten	-12.0212
▁indexcijfer	-12.0217
pensioenregeling	-12.024
▁republiek	-12.0241
▁samenstellen	-12.0241
▁deugdelijke	-12.0242
effect	-12.0243
▁ontsta	-12.0255
▁legitiem	-12.0255
▁behalen	-12.0255
▁diepgevroren	-12.0255
▁afbakening	-12.0255
▁vroegtijdig	-12.0256
rijst	-12.0256
▁realiseren	-12.0257
▁Instelling	-12.0257
▁maximumgewicht	-12.0258
▁zooetechnisch	-12.0258
▁winstgevende	-12.0261
sbedrijven	-12.0263
▁overbrengen	-12.0264
decentraliseerde	-12.0264
▁archieven	-12.0265
▁overlevering	-12.0266
▁tuchtrechtelijk	-12.0266
▁sanering	-12.0282
▁inhouding	-12.0291
▁verleenden	-12.0292
▁genoten	-12.0298
▁gedragscode	-12.03
▁ATA	-12.0302
▁OVEREENKOMST	-12.0306
▁methodes	-12.0307
ish	-12.031
▁eigenaars	-12.0315
subsidiabiliteit	-12.0346
▁meedeelt	-12.0346
▁teruggezonden	-12.0346
▁uitgevaardigd	-12.0346
▁bezighouden	-12.0346
▁bloementeelt	-12.0346
▁volwitte	-12.0346
▁Politiek	-12.0346
▁aromatische	-12.0346
▁reglementen	-12.0347
▁gebruikgemaakt	-12.0347
▁disease	-12.0348
▁rechtshulp	-12.0349
rale	-12.0352
▁Antarcti	-12.0352
▁Ivoorkust	-12.0352
▁GND	-12.0353
▁erfgoed	-12.0357
▁schattingen	-12.0357
▁zoogdieren	-12.0361
▁beheerders	-12.0362
▁EUFOR	-12.0365
▁brucellose	-12.0371
verpakkingen	-12.0372
▁toelagen	-12.0372
▁analysemethode	-12.0381
▁Toegang	-12.0385
▁leidinggevend	-12.0397
men	-12.04
▁types	-12.0401
▁vaardigheden	-12.0415
▁telefoon	-12.0416
▁kenmerk	-12.0427
▁terrorist	-12.0433
▁getuigschrift	-12.0434
▁rust	-12.0435
▁ethisch	-12.0438
▁meubilair	-12.0438
▁Energiehandvest	-12.0438
▁meegerekend	-12.0438
▁breukrijst	-12.0438
▁afgeleverd	-12.0438
▁coherentie	-12.0438
▁verslaglegging	-12.0438
onwaarschijnlijk	-12.0438
▁overheidstekort	-12.0439
▁beschouwt	-12.044
termijn	-12.0443
▁Herlitz	-12.0444
▁Mauritanië	-12.0444
▁toerisme	-12.0444
▁onbepaald	-12.0449
▁lag	-12.0451
▁procenten	-12.0451
criteria	-12.0452
▁toerekening	-12.0453
▁nabijheid	-12.0454
▁bereidingen	-12.0454
middelingscomité	-12.0456
▁vlas	-12.0457
▁herkauwers	-12.0457
etikettering	-12.0461
▁Limited	-12.0461
▁spreken	-12.0462
▁ontdekt	-12.0466
standaardiseerde	-12.0467
controlemethoden	-12.0467
ip	-12.0468
▁reproductie	-12.0471
rassen	-12.0479
evaluatie	-12.0481
heidsorganisatie	-12.0485
missie	-12.0486
▁overzee	-12.0488
vertegenwoordig	-12.049
svoorstellen	-12.0491
▁binnenvaart	-12.0508
▁ESR	-12.0509
▁koste	-12.0509
▁gemeente	-12.0514
concessies	-12.0523
eieren	-12.0525
verhouding	-12.0526
▁Voedsel	-12.0526
▁extensiverings	-12.0527
▁encefalopathie	-12.0529
▁gerechten	-12.0529
▁functionele	-12.053
▁driewielig	-12.053
▁gereinigd	-12.053
▁informeert	-12.053
▁resulteert	-12.053
▁toekent	-12.053
▁tussenpozen	-12.053
▁verbleven	-12.053
▁zinsnede	-12.053
▁Olijfolieraad	-12.053
▁mondiaal	-12.053
▁baseren	-12.053
▁fokrunderen	-12.053
▁rekeneenheden	-12.053
▁dringend	-12.053
▁Zelfs	-12.0531
contract	-12.0532
navigatiedienst	-12.0533
▁valsemunterij	-12.0533
identificatie	-12.0535
▁natuurrampen	-12.0536
▁y	-12.0536
▁schommelingen	-12.0541
▁beroepservaring	-12.0541
▁verzender	-12.0543
▁ONDER	-12.0545
▁rund	-12.0546
▁residu	-12.0547
▁Sociale	-12.0548
epidemiologische	-12.055
▁provincies	-12.0554
▁handicap	-12.0555
▁octrooien	-12.0556
▁uitvoerprijzen	-12.0558
alle	-12.0559
▁Eurocontrol	-12.0562
▁bevel	-12.057
gordels	-12.057
▁FT	-12.0571
nden	-12.0577
gebonden	-12.0586
bevoegde	-12.0593
▁branches	-12.0596
▁streepjes	-12.0607
▁terzelfder	-12.0607
▁Procedure	-12.0608
▁uitvoerheffing	-12.0613
▁aflopen	-12.0615
▁Ik	-12.0621
▁veehouderij	-12.0621
▁jurisprudentie	-12.0624
▁verbiedt	-12.0624
▁Wereldgezond	-12.0624
▁PSF	-12.0624
▁vloeispaat	-12.0624
▁zoetstoffen	-12.0624
▁regelmaat	-12.0624
▁rijzen	-12.0624
▁GHz	-12.0624
▁verhandeling	-12.0624
▁ethylalcohol	-12.0624
▁motorrijtuigen	-12.0626
▁gerapporteerd	-12.0626
▁verkiezingen	-12.0627
▁produktiegebied	-12.0629
effecten	-12.0633
▁seksuele	-12.0639
landbouwgewassen	-12.0641
basisproduct	-12.0641
▁Beheer	-12.0642
▁werkloosheid	-12.0642
▁inulinestroop	-12.065
▁Gegevens	-12.0651
▁kabel	-12.0653
▁BIJLAGE	-12.0654
▁steenkool	-12.0654
▁bezoldigingen	-12.0656
stapelvezels	-12.0656
isoglucose	-12.0656
▁"(	-12.0656
Wanneer	-12.0657
▁modules	-12.0658
▁detailhandel	-12.0666
controleapparaat	-12.0681
▁ont	-12.0692
ó	-12.0692
▁billijk	-12.0697
▁variëren	-12.0698
▁para	-12.0702
baar	-12.0713
▁rapporteren	-12.0718
▁Corporation	-12.0718
▁ERKENNEND	-12.0718
▁uitreiking	-12.0718
▁verkrijgt	-12.0718
▁beloopt	-12.0718
▁handelsnaam	-12.0718
▁volstaat	-12.0718
residuele	-12.0719
▁Tijdelijk	-12.0719
▁minderjarigen	-12.072
▁Litouwse	-12.0722
▁studenten	-12.0722
▁onzekerheid	-12.0725
▁ingeperkt	-12.0725
▁dosis	-12.073
▁keren	-12.0733
▁gemeenschappen	-12.0735
ese	-12.0735
▁ontbrekende	-12.0739
▁aflossing	-12.0741
exploitatiesteun	-12.0741
▁beschermings	-12.0743
▁carcinogene	-12.0745
stermijnen	-12.0749
luchtvervoerders	-12.0755
▁UNFCCC	-12.0755
▁Toezichthoude	-12.0756
▁antisubsidie	-12.0761
euro	-12.0767
▁financierings	-12.077
opleiding	-12.077
▁soms	-12.0777
opleidingstitels	-12.0783
▁pijpleiding	-12.0786
ndanks	-12.079
▁honing	-12.079
▁omvangrijke	-12.0791
▁boete	-12.0796
▁bevatte	-12.0797
▁claim	-12.0797
▁geboorte	-12.081
▁benoemt	-12.0813
▁verdwijnen	-12.0813
▁Seychellen	-12.0813
▁Codex	-12.0813
▁bosbouwkundig	-12.0814
▁eenvoudig	-12.0815
▁stelden	-12.0818
▁uitgeslagen	-12.0821
▁onredelijk	-12.0822
▁adviseurs	-12.0823
▁Duferco	-12.0824
inkomsten	-12.0825
▁geleerd	-12.0825
▁douanekantoren	-12.0825
▁kerntechnisch	-12.0828
▁Code	-12.0832
standsverlening	-12.0832
▁achtte	-12.0834
▁Guinee	-12.0834
kapitaalgoederen	-12.0834
▁storten	-12.0836
▁nettoprijs	-12.0838
▁NGO	-12.0847
▁bedreigd	-12.0848
▁delegaties	-12.0849
▁drukken	-12.0851
▁Tetra	-12.0855
▁logboek	-12.0856
slots	-12.0857
verbonden	-12.0857
voorverpakkingen	-12.0859
▁auto	-12.0859
▁fractie	-12.0871
▁buitenlands	-12.0872
▁eer	-12.0874
▁gelijktijdige	-12.0876
▁basisprodukten	-12.0877
▁assortiment	-12.088
▁veren	-12.0886
overeenstemmende	-12.0886
▁laatst	-12.0886
▁verpakte	-12.0892
werk	-12.0896
▁Meer	-12.0903
▁gemeen	-12.0904
▁werktuigen	-12.0905
▁Jordaanoever	-12.0909
▁behandelt	-12.0909
▁delegeren	-12.0909
▁gehandeld	-12.0909
▁ontbreekt	-12.0909
▁Gevolg	-12.0909
▁Douaneraad	-12.0909
▁Ledenraad	-12.091
▁afwijkt	-12.091
▁bestuursorgaan	-12.091
▁organoleptische	-12.0914
▁breedband	-12.0916
vesteringssteun	-12.0918
▁aangrenzend	-12.0918
▁bemanning	-12.0919
▁college	-12.0921
sprojecten	-12.0927
▁minerale	-12.0928
▁partnerschappen	-12.093
▁eenmalige	-12.093
▁voorlichtings	-12.0931
▁nadelen	-12.0936
▁haalbaarheid	-12.0936
▁Gezamenlijk	-12.0938
▁Recht	-12.0938
▁initiële	-12.0939
▁Toetredings	-12.0942
▁populatie	-12.0947
▁ICCAT	-12.0952
▁audit	-12.0956
▁Ja	-12.0956
plaatselijke	-12.0959
▁ozon	-12.0963
▁wit	-12.0966
▁boekhoud	-12.0983
boekhouding	-12.0984
▁geluidsniveau	-12.099
huisdieren	-12.099
▁annulering	-12.0993
▁lokalen	-12.0995
svoorstel	-12.0996
▁zorgvuldig	-12.1005
▁geëerbiedigd	-12.1006
scheepsreparatie	-12.1007
▁systeemverkoper	-12.1007
▁bekendmaken	-12.1007
▁tabaksproducten	-12.1007
▁Aujeszky	-12.1009
▁controlekantoor	-12.101
sgevallen	-12.1012
▁commandant	-12.1013
▁acute	-12.1013
sverklaring	-12.1017
▁geschapen	-12.1018
▁sanerings	-12.1018
▁DIS	-12.1019
socialezekerheid	-12.1022
▁duurt	-12.1022
▁ingeslagen	-12.1023
▁overal	-12.1031
▁versnelde	-12.1033
▁Vier	-12.1035
▁afgebakend	-12.1037
▁achtereenvolgen	-12.1037
sfonds	-12.104
▁uitgave	-12.1041
▁voordien	-12.1046
▁European	-12.105
▁rechters	-12.1058
financiële	-12.1059
appelmeelbedrijf	-12.1065
verbruik	-12.1067
▁wettige	-12.107
▁limieten	-12.1071
sactiviteit	-12.1072
▁Algemeen	-12.1076
DB	-12.1078
produkt	-12.108
▁IA	-12.1089
▁ingaan	-12.1094
onderzoeken	-12.1095
▁contactpunt	-12.1097
▁vaststellingen	-12.1099
▁aansluiten	-12.1099
artikelen	-12.1104
▁actualisering	-12.1105
▁consensus	-12.1105
▁montage	-12.1105
▁voorwetenschap	-12.1105
▁investeren	-12.1105
▁verdediging	-12.1105
▁meldt	-12.1105
▁opgezegd	-12.1105
▁handelsstadia	-12.1105
▁kleinbedrijf	-12.1105
▁Zesde	-12.1106
▁transeurope	-12.1106
▁vergen	-12.1108
▁aflevering	-12.1109
schepen	-12.111
▁munitie	-12.1111
▁naadloze	-12.1111
▁meststof	-12.1115
▁stroomgebied	-12.1115
▁woonachtig	-12.1117
▁pakstations	-12.1118
▁ecosystemen	-12.112
▁verpakkings	-12.1125
overdracht	-12.1131
sinstallaties	-12.1135
▁Ze	-12.1135
tuigd	-12.1137
▁toestel	-12.1137
▁verwarming	-12.1137
groepering	-12.1142
▁folie	-12.1147
▁plaat	-12.1148
uitkeringen	-12.115
▁voorbeelden	-12.1155
▁gestructureerd	-12.1161
▁scheeps	-12.1162
verzekeringnemer	-12.1167
▁lichamelijke	-12.1168
aanse	-12.1169
▁procent	-12.1172
elijkheid	-12.1172
▁Regel	-12.1173
▁toxicologische	-12.118
▁streng	-12.1182
▁verhoogde	-12.1183
▁immigratie	-12.1199
▁Caribisch	-12.1204
▁Indonesische	-12.1204
▁Niettemin	-12.1204
▁leukose	-12.1204
▁nagenoeg	-12.1204
▁boekjaren	-12.1204
▁weergave	-12.1204
▁foto	-12.1204
▁Dissostichus	-12.1206
HEID	-12.1206
▁salmonella	-12.1211
▁symptomen	-12.1211
▁uitwerken	-12.1213
verkoopprijs	-12.1221
middelenresiduen	-12.1223
▁KLM	-12.1224
▁voorbij	-12.1234
▁zeeschepen	-12.1234
▁beknopte	-12.124
sproblemen	-12.1243
▁bijstandspakket	-12.1245
ondersteunende	-12.1245
▁New	-12.1247
▁gepland	-12.1248
Zeegebied	-12.1251
CE	-12.1254
▁ongelijk	-12.1256
concentratie	-12.1258
▁leidinggevende	-12.126
▁waarschijnlijke	-12.1264
▁evenementen	-12.1267
▁graad	-12.1271
verzameling	-12.1273
▁vrijkomen	-12.1274
▁OM	-12.1277
▁bier	-12.1283
netten	-12.1284
UN	-12.1284
▁bouwen	-12.1289
▁korrels	-12.1289
▁bevinding	-12.1289
VE	-12.1292
▁benutting	-12.1292
scentrum	-12.1296
grafische	-12.1296
scontracten	-12.1301
▁Gazastrook	-12.1304
▁buisleidingen	-12.1304
▁vriesschepen	-12.1304
▁verkrijgbaar	-12.1304
▁metrologisch	-12.1304
▁levensduur	-12.1304
▁toegetreden	-12.1304
▁directiecomité	-12.1304
▁precie	-12.1304
▁kleinhandel	-12.1304
▁Beide	-12.1304
▁verzetten	-12.1305
▁Wegen	-12.1305
▁onverschuldigd	-12.1307
rustingsstukken	-12.1307
▁verhandelbare	-12.1311
▁gecooerdineerd	-12.1311
▁verliesrekening	-12.1312
▁mandaten	-12.1315
▁titularis	-12.1315
ken	-12.1316
▁wettig	-12.132
▁vreemde	-12.1322
wereldmarktprijs	-12.1322
iële	-12.1323
ation	-12.1324
▁winning	-12.1332
sgewijs	-12.1333
▁Goederen	-12.1334
▁plantenpaspoort	-12.1334
▁omroep	-12.1337
▁experimenten	-12.134
▁voederen	-12.1345
▁migrerend	-12.1349
gedetacheerde	-12.1351
▁invaliditeits	-12.1353
▁reiniging	-12.1362
ldigheidstermijn	-12.1364
Korea	-12.1372
ter	-12.1379
▁verpakken	-12.1381
▁nauwkeuriger	-12.1381
dieren	-12.1387
▁Gebruik	-12.1392
▁strookt	-12.1393
IDA	-12.1402
ra	-12.1404
▁Turks	-12.1405
▁beogen	-12.1405
▁gewettigd	-12.1405
▁opzeggen	-12.1405
▁toegelicht	-12.1405
▁uitgeput	-12.1405
▁vermengd	-12.1405
▁Georgië	-12.1405
▁diagnostisch	-12.1405
▁GKE	-12.1405
▁kernvermogen	-12.1405
▁generatie	-12.1405
▁schape	-12.1405
▁fokkerij	-12.1407
▁waarneming	-12.1407
▁Nader	-12.1408
rdege	-12.1409
▁universiteiten	-12.1412
▁milieubeleid	-12.1412
▁SORENI	-12.1416
▁abonnees	-12.1416
▁middellijk	-12.142
▁golden	-12.1422
▁Jaarlijks	-12.1426
smechanisme	-12.1428
▁verkiezing	-12.1432
▁malen	-12.1437
▁databanken	-12.144
▁Rotterdam	-12.144
▁Man	-12.1443
▁ondersteund	-12.1445
▁architectuur	-12.1449
▁module	-12.1454
▁lawaai	-12.1477
▁%;	-12.1482
▁toxiciteit	-12.1487
▁negentig	-12.1487
▁doses	-12.1491
fase	-12.1495
▁derogatie	-12.1507
▁ontbinding	-12.1507
▁vaarzen	-12.1507
▁legaal	-12.1507
▁bewaart	-12.1507
▁definiëren	-12.1508
tie	-12.1509
▁overigens	-12.1509
▁bedrijvigheid	-12.1509
jnse	-12.1511
▁Australi	-12.1512
▁roestvrij	-12.1514
▁symbolen	-12.1514
▁zijde	-12.1514
schema	-12.1516
▁varkensziekte	-12.1519
▁oordeelt	-12.152
▁zwavel	-12.1523
bevordering	-12.1527
▁verzorgen	-12.1528
▁bewijst	-12.1531
oppervlakte	-12.1531
▁raffinage	-12.1547
▁aandeelhouder	-12.1549
▁volledigheid	-12.1551
▁kwalificatie	-12.1552
▁inname	-12.156
▁bomen	-12.1562
▁leveranties	-12.157
▁toetreden	-12.1575
deel	-12.158
Overige	-12.1585
inclusief	-12.1586
▁varken	-12.1586
▁comp	-12.1588
int	-12.1593
jarenprogramma	-12.1594
▁resten	-12.1596
▁stam	-12.1598
▁verschafte	-12.1598
▁leesbare	-12.16
▁keuringen	-12.1601
▁beoordelingen	-12.1601
▁levensver	-12.1601
▁bestaand	-12.1603
▁overmaking	-12.1603
▁basisbedrag	-12.1603
▁toetsen	-12.1609
▁Enkel	-12.1609
▁melasse	-12.161
▁bestudeerd	-12.161
▁verholpen	-12.161
▁scrapie	-12.161
▁corruptie	-12.161
▁samengevat	-12.161
▁hierom	-12.161
▁vrijgekomen	-12.161
▁schuldig	-12.1611
▁gangbare	-12.1611
▁geschatte	-12.1611
▁rechtspraak	-12.1611
▁gemeenten	-12.1612
▁handelaars	-12.1614
▁ondervonden	-12.1614
▁PBS	-12.1618
▁contanten	-12.1618
▁vervoerskosten	-12.1618
▁hulpverlening	-12.1623
▁oogmerk	-12.1626
scheidenlijk	-12.1631
▁gaf	-12.1633
▁specificiteit	-12.1638
analyse	-12.164
▁opslagplaatsen	-12.1642
▁details	-12.1644
indicatoren	-12.1644
▁container	-12.1644
▁lichamelijk	-12.1647
▁bemiddelend	-12.1652
▁sectie	-12.1668
▁ALS	-12.1668
partij	-12.1668
do	-12.1668
▁roepen	-12.1669
▁bestuurlijke	-12.1672
nr	-12.1686
▁auteurs	-12.1691
ransactielogboek	-12.1698
▁principes	-12.17
zieningsbalans	-12.1704
▁Richtsnoer	-12.1706
bedrijfspensioen	-12.1711
▁examen	-12.1712
▁vlasvezels	-12.1714
▁rampenplannen	-12.1714
▁onthouden	-12.1714
▁ontplooien	-12.1714
▁weggenomen	-12.1714
▁prijsdaling	-12.1714
▁specificeren	-12.1715
▁vermeende	-12.1716
▁heersen	-12.1717
▁leverings	-12.172
▁executoria	-12.1721
▁ESCB	-12.1722
▁NB	-12.1726
▁gewaardeerd	-12.1731
verlenende	-12.1731
liggende	-12.1737
▁inzet	-12.1738
▁verlegging	-12.1739
▁arbitrage	-12.1741
▁directoraat	-12.1745
▁medegedeelde	-12.1747
▁wetboek	-12.175
▁Target	-12.175
▁werven	-12.175
▁maandag	-12.1756
▁verjaring	-12.1758
▁nietigheid	-12.1763
▁variabelen	-12.1768
beginselen	-12.1768
directeur	-12.1789
▁aanmeldingen	-12.179
partnerschaps	-12.1792
▁partnerschaps	-12.1795
gedrag	-12.1796
lijkwaardigheid	-12.1796
verslag	-12.1799
toepassingen	-12.1801
▁slots	-12.1801
▁informatienet	-12.1808
ontwikkelingen	-12.181
▁HEBBEN	-12.1815
▁ingezetenen	-12.1817
▁aanwending	-12.1819
▁gestimuleerd	-12.1819
▁strafzaken	-12.1819
▁plasma	-12.1819
▁vult	-12.1819
▁Onderneming	-12.1819
▁vrijgeven	-12.182
▁explosieven	-12.182
▁criminele	-12.1827
▁huid	-12.1829
▁haver	-12.1831
ti	-12.1833
▁ml	-12.1839
▁begeleiding	-12.184
▁vrouwelijke	-12.1842
▁civiel	-12.1844
▁medicinal	-12.1845
▁streken	-12.1851
▁omgekeerd	-12.1852
▁ruil	-12.1854
▁substanties	-12.1856
▁militair	-12.1861
▁Ministerie	-12.1862
formulieren	-12.1869
energieproducten	-12.187
▁kapiteins	-12.1872
verstorend	-12.1873
▁degelijk	-12.1882
▁kW	-12.1885
naam	-12.1887
telbeveiligings	-12.1892
▁kapitaalmarkt	-12.1893
▁maakten	-12.1894
▁PVC	-12.1895
▁ingeschakeld	-12.1897
komende	-12.1898
▁afbeelding	-12.1911
▁visdocument	-12.1912
kust	-12.1915
▁microschijven	-12.1916
▁curator	-12.1918
schommelingen	-12.1922
▁IZAR	-12.1924
▁sorgho	-12.1925
▁Marino	-12.1926
▁dinsdag	-12.1926
▁Comoren	-12.1926
▁elektroplaat	-12.1926
▁vrijstellen	-12.1926
▁opschrift	-12.1927
▁Kosovo	-12.1933
verlening	-12.1933
keuring	-12.1936
▁vaststaat	-12.1936
▁voorlegt	-12.1937
tot	-12.1938
▁Vaartuig	-12.1943
▁Vertaalbureau	-12.1948
bevestiging	-12.1949
di	-12.195
▁plafonds	-12.1954
▁negende	-12.1954
be	-12.1957
▁braaklegging	-12.196
▁manifest	-12.1961
▁privaatrecht	-12.1961
▁Energy	-12.1963
▁magere	-12.1963
quicultuurdieren	-12.1965
discriminerend	-12.1967
▁kabeljauw	-12.1969
▁marktordeningen	-12.1972
▁goeder	-12.1974
▁ontvangstbewijs	-12.1978
ingen	-12.1978
centra	-12.1985
▁Frans	-12.199
▁tuin	-12.1994
nder	-12.1996
▁geneeskunde	-12.1997
U	-12.1998
ressieontsteking	-12.2003
rato	-12.2008
compensatie	-12.201
▁uiterst	-12.2013
personen	-12.2016
▁oriëntatie	-12.2016
▁ontwijking	-12.2018
▁schuldeiser	-12.2021
▁ka	-12.2021
geëgreneerd	-12.2022
onderbroken	-12.2025
Indien	-12.2026
▁verhogingen	-12.2032
gecomputeriseerd	-12.2033
▁ontdoken	-12.2033
▁weigert	-12.2033
▁Laos	-12.2033
▁heb	-12.2033
▁College	-12.2037
▁basiskenmerken	-12.2037
sbevoegdheid	-12.2038
▁stopgezet	-12.2039
gewone	-12.2039
▁Act	-12.2041
▁polyethyleen	-12.2042
▁onderhoudt	-12.2044
▁stikstofoxiden	-12.2046
▁voorbereid	-12.205
▁emissiegrens	-12.2051
▁hechten	-12.2053
smerken	-12.2056
▁tegenpartij	-12.2057
▁EDP	-12.2061
▁meerjaren	-12.2062
▁overlegt	-12.2067
voertuigen	-12.2074
▁milieueffect	-12.2078
▁liefdadigheids	-12.2079
▁snelheid	-12.2083
quot	-12.2086
grondslag	-12.2094
▁waterwegen	-12.2102
overschrijding	-12.2105
▁PROCEDURE	-12.2107
▁hervat	-12.2114
▁TEN	-12.2118
▁Kader	-12.2125
ls	-12.213
▁marketing	-12.213
▁departement	-12.2131
ie	-12.214
traditioneel	-12.2142
▁fiscaal	-12.2142
▁geschonden	-12.2142
▁gewichtsprocent	-12.2142
▁vergezelt	-12.2142
▁commissarissen	-12.2142
▁doorgezonden	-12.2142
▁Uruguayronde	-12.2142
▁sleepnetten	-12.2142
▁radioapparatuur	-12.2142
kankerverwekkend	-12.2143
▁drempelwaarden	-12.2144
▁Dublin	-12.2145
▁drogen	-12.2146
▁Ege	-12.215
▁Department	-12.2151
▁tijdige	-12.2154
▁detergentia	-12.2159
▁Productie	-12.2159
EMEENSCHAPPELIJK	-12.2162
▁harmonische	-12.2164
wijzigingen	-12.2165
contingenten	-12.2167
▁investeerders	-12.2168
▁potas	-12.2168
▁bracht	-12.217
▁opbouw	-12.217
▁tussenpersoon	-12.2173
gangsmateriaal	-12.2183
▁risicomateriaal	-12.2184
▁parallelle	-12.2187
▁kweker	-12.2191
▁Programma	-12.2194
▁nauwer	-12.2196
accijnsprodukten	-12.2198
▁Vervoer	-12.2204
▁instituten	-12.2213
▁GCO	-12.2225
vraagstukken	-12.2227
sopdrachten	-12.2234
deelgebied	-12.2239
▁soortengroep	-12.2243
sinstellingen	-12.2248
gekoppelde	-12.2249
zeggingstermijn	-12.2249
▁verloskundige	-12.225
▁drempelwaarde	-12.2251
schoon	-12.2251
▁rietsuiker	-12.2251
▁Canade	-12.2252
▁dierenwelzijn	-12.2252
▁domeinnaam	-12.2252
▁beziet	-12.2252
▁misleiden	-12.2252
▁hoofdbestuur	-12.2252
▁onderpand	-12.2254
▁licentienemer	-12.2255
WTO	-12.2256
▁ziektekosten	-12.2258
ë	-12.2263
▁Leden	-12.2264
▁politiemissie	-12.2265
▁dreiging	-12.228
▁substantie	-12.2299
▁Conventie	-12.2301
▁gezond	-12.2302
▁UITGAVEN	-12.2305
go	-12.2307
indexcijfers	-12.2307
▁waarnemings	-12.2309
▁vii	-12.2317
ha	-12.2322
▁interest	-12.2324
▁generle	-12.2325
ergievoorziening	-12.2325
beheerders	-12.2329
▁teelten	-12.233
▁behaalde	-12.2332
▁opslagcontract	-12.2343
skwalificaties	-12.2351
▁serum	-12.2356
▁AEEA	-12.2357
▁rogge	-12.2361
Ongeacht	-12.2363
▁fonogrammen	-12.2363
▁insulaire	-12.2363
▁distributeur	-12.2365
▁BEPAALD	-12.2366
▁Transavia	-12.2366
▁kiemkracht	-12.2366
EER	-12.2366
▁Milieu	-12.2367
▁agglomeraties	-12.2368
▁goud	-12.2369
▁TABEL	-12.2371
▁broeikasgassen	-12.2371
▁onderbroken	-12.2371
▁Protocollen	-12.2373
▁milieurisico	-12.2374
▁regelmatigheid	-12.2374
▁gehaald	-12.2376
▁ondergebracht	-12.2377
▁bevelen	-12.238
▁milieueffecten	-12.238
▁Statuten	-12.2381
Com	-12.2389
VII	-12.2389
▁bod	-12.239
▁zuivere	-12.2393
▁geslachten	-12.2396
▁patiënten	-12.2401
▁medewerkers	-12.2403
staan	-12.2403
▁uitgereikt	-12.2407
▁afnemen	-12.241
▁sneller	-12.2412
inspecties	-12.2413
▁voeders	-12.2413
▁bezoeken	-12.2416
▁importerend	-12.2423
sverslag	-12.2423
handelingsgroep	-12.2423
▁ecologisch	-12.2426
plan	-12.243
sonderzoek	-12.2449
▁sport	-12.2449
bouw	-12.2459
▁zinvol	-12.2461
▁MTF	-12.2464
▁rechtsmiddel	-12.2469
tigste	-12.247
▁kantore	-12.2474
▁Partnerschaps	-12.2474
▁eerbiedigt	-12.2475
▁frauduleu	-12.2475
▁vervaardigt	-12.2475
diagnosehandboek	-12.2476
▁vernieuwd	-12.2477
▁eurogebied	-12.2478
▁veehouders	-12.248
▁werkwijzen	-12.248
▁oormerken	-12.2481
betalingen	-12.2483
▁gewichten	-12.2487
▁drinkwater	-12.2488
Amerika	-12.249
▁vooruitbetaling	-12.2491
Deze	-12.2491
energiebelasting	-12.2493
▁marges	-12.2494
▁belangstelling	-12.2501
▁verzet	-12.2505
▁WTECV	-12.2509
▁authentieke	-12.2518
▁zuivering	-12.252
sectoren	-12.252
▁vloeibaar	-12.2525
tiologische	-12.2525
▁verkeert	-12.253
▁pleziervaartuig	-12.2532
premies	-12.2533
▁aanhangsels	-12.2535
redenen	-12.2542
▁aquicultuur	-12.2547
per	-12.2551
▁tekenen	-12.2551
▁dikte	-12.2554
▁verbruiker	-12.2557
gangsbepalingen	-12.2565
dentificeerde	-12.2566
▁bezoek	-12.2567
stadium	-12.2569
onbeperkte	-12.257
conforme	-12.257
ethyl	-12.258
▁lossing	-12.258
▁Taliban	-12.2589
▁spaargelden	-12.2589
▁wijnstokrassen	-12.2589
▁formuleren	-12.2589
▁maximumaantal	-12.2589
▁Réunion	-12.2592
▁onvermijdelijk	-12.2592
▁soepele	-12.2592
▁rechtswege	-12.2593
▁subjecten	-12.2596
▁expertise	-12.2596
▁Argenti	-12.2597
▁jaarprogramma	-12.2598
vergoeding	-12.2602
▁BEDOELD	-12.2602
bis	-12.2602
handhavend	-12.2605
▁kop	-12.2605
geiten	-12.2609
▁omzetten	-12.2609
▁omroepen	-12.2609
▁berustende	-12.2615
▁drukvaten	-12.2617
▁MHz	-12.2618
▁dioxinen	-12.2619
▁hoogst	-12.2624
▁VERDRAG	-12.2628
▁geraffineerd	-12.2628
uw	-12.2629
▁coherent	-12.2634
▁schil	-12.2636
▁Ministr	-12.2637
▁resistentie	-12.2639
▁tenuitvoerlegg	-12.2642
vaccinatiegebied	-12.2642
▁maximumbedragen	-12.2651
▁audits	-12.2652
▁w	-12.2655
▁maatschappelijk	-12.2659
▁fusies	-12.2659
▁zoogkoeien	-12.2665
▁kern	-12.2666
▁Marpol	-12.2671
tarief	-12.2677
▁echtheids	-12.2679
sbericht	-12.2681
gewenste	-12.2683
bruiksaanwijzing	-12.2686
▁SIS	-12.2688
▁bronbelasting	-12.2689
▁vervoerkosten	-12.2689
▁codenummer	-12.269
▁viel	-12.2692
nterpreteerd	-12.2704
▁Latijns	-12.2704
▁naleeft	-12.2704
▁racisme	-12.2704
▁complexiteit	-12.2704
▁ozonlaag	-12.2704
▁vaarbevoeg	-12.2704
▁achterzijde	-12.2704
▁Buitenlands	-12.2707
▁Barcelona	-12.2707
▁appelen	-12.271
▁reservoirs	-12.2712
▁woensdag	-12.2712
▁vlaggestaat	-12.2712
▁werkelijkheid	-12.2718
▁subsidiaire	-12.2718
▁pathogene	-12.2718
▁havenstaat	-12.2721
alias	-12.2728
▁Investeringen	-12.2733
▁haring	-12.2733
▁vluchteling	-12.2734
▁SGR	-12.2735
oppervlaktewater	-12.2739
ur	-12.2741
aangifte	-12.2748
▁vergroting	-12.2749
rijsonderbieding	-12.2754
▁minister	-12.2755
spection	-12.276
▁management	-12.276
controlesysteem	-12.2761
▁geconsolideerd	-12.2761
▁gepaste	-12.2771
sbehoeften	-12.2772
▁goedkope	-12.278
▁ontsteking	-12.2784
ingsbevoegdheden	-12.2787
▁General	-12.2792
▁INVOER	-12.2797
eiligheidscomité	-12.2798
▁pakstation	-12.2804
▁bijgesteld	-12.2804
▁analoge	-12.2805
▁uitgangspunt	-12.2805
▁braakleggings	-12.2807
▁beplante	-12.2814
▁inspectiepost	-12.2819
▁veestapel	-12.282
▁Cambodja	-12.282
▁Monaco	-12.282
▁homogeen	-12.282
▁koelhuizen	-12.282
▁precursoren	-12.282
▁KWW	-12.282
▁lichtsignaal	-12.282
▁neerwaarts	-12.282
▁aanvullen	-12.282
▁bedrijfsruimten	-12.282
noseverwekkers	-12.2821
▁volwaardig	-12.2821
▁segmenten	-12.2822
▁streek	-12.2822
▁overdraagbaar	-12.2824
▁rundvleessector	-12.2825
gemerkt	-12.2828
▁autonoom	-12.2828
▁nutriënten	-12.2828
▁kortetermijn	-12.2829
▁Jahnke	-12.2833
▁euromunten	-12.2834
▁rusten	-12.2838
▁minuten	-12.2839
▁Tabel	-12.2839
terventiecentra	-12.2854
▁slaan	-12.2855
▁inspanning	-12.2856
verbintenissen	-12.2858
▁bewerkt	-12.2858
▁plafond	-12.2861
▁afgelegen	-12.2864
▁arealen	-12.2866
ag	-12.2877
middel	-12.2878
▁x	-12.288
▁expliciet	-12.2886
▁herzieningen	-12.2889
ida	-12.2897
▁bewegen	-12.2898
▁chirurgie	-12.2904
▁langdurige	-12.2906
▁borg	-12.2907
▁Vertegenwoordig	-12.2913
▁geldboete	-12.292
rwijze	-12.2921
handel	-12.2922
▁huwelijk	-12.2931
▁beoefenaar	-12.2931
▁experiment	-12.2933
▁fabrieken	-12.2934
▁veiling	-12.2936
▁frequenties	-12.2936
▁illega	-12.2937
▁neder	-12.2938
oncluderen	-12.2938
▁PRESIDENT	-12.2938
▁THEMIS	-12.2938
▁ingewanden	-12.2938
▁hoofdkwartier	-12.2938
▁beleggen	-12.2938
▁uitbreiden	-12.2939
▁onderboden	-12.2941
▁ondergaat	-12.2942
▁oplosmiddelen	-12.2943
▁dagvergoedingen	-12.2943
▁seminars	-12.2944
▁surveillance	-12.2946
▁vreedzame	-12.2946
▁meervoudige	-12.2947
ingsstaat	-12.2948
▁oplegt	-12.2949
▁Schotland	-12.2951
▁conflict	-12.2952
▁verzamelcentrum	-12.2957
▁onderstreept	-12.2959
▁smaak	-12.2962
▁stro	-12.2963
▁portefeuille	-12.2967
▁valorem	-12.2972
me	-12.2974
▁slachting	-12.298
▁productsoort	-12.2983
▁gereedschap	-12.2984
post	-12.299
▁multi	-12.2991
▁zetels	-12.2993
▁gaande	-12.2995
▁verdeelsleutel	-12.2995
▁koppels	-12.2996
▁ontheffingen	-12.2999
▁PM	-12.2999
▁medezeggenschap	-12.3001
▁macht	-12.3001
▁echte	-12.3011
▁belegger	-12.3016
▁oogsten	-12.3021
▁inzameling	-12.3033
▁solvabiliteit	-12.3033
vesteringskosten	-12.304
▁handelsnorm	-12.304
▁chloorfluor	-12.3049
▁schikking	-12.3051
sstatus	-12.3052
▁Agriculture	-12.3055
▁Normalisatie	-12.3057
▁dusver	-12.3057
▁verbroken	-12.3057
▁legdatum	-12.3057
▁voortbrenging	-12.3057
▁inherent	-12.3057
▁dienstreizen	-12.3057
▁afgenomen	-12.3057
NAAR	-12.3057
▁pensioenrechten	-12.3058
▁overgelaten	-12.3058
▁navolgende	-12.3059
▁entrepots	-12.306
▁onherroepelijk	-12.3061
▁Sloveense	-12.3062
▁beheersen	-12.3067
▁toezegging	-12.3067
water	-12.3067
▁postdiensten	-12.3068
▁subsysteem	-12.3069
▁Vaststelling	-12.3071
▁natrium	-12.3075
▁methylbromide	-12.3076
▁westelijk	-12.3077
▁samenhangen	-12.3081
▁streefcijfers	-12.3082
▁ICT	-12.3082
cumulatieve	-12.3089
▁uitstaande	-12.309
▁voertuigtype	-12.309
▁strafrecht	-12.3091
am	-12.3092
levering	-12.3093
▁bedingen	-12.3093
▁licenties	-12.3094
▁plant	-12.3098
eindapparatuur	-12.3099
probleemgebieden	-12.3101
bijeenkomsten	-12.3102
meer	-12.3108
▁aanvraagt	-12.3109
▁computernetwerk	-12.3113
▁SCH	-12.3123
▁toelichtingen	-12.3123
▁controleurs	-12.3129
behoeften	-12.3147
merken	-12.3153
doende	-12.3158
chtste	-12.3158
▁procentpunt	-12.3163
▁risicokapitaal	-12.3164
invoervergunning	-12.3167
▁conferenties	-12.317
egelijkertijd	-12.3177
jansbrood	-12.3177
▁gedeponeerd	-12.3177
▁geitevlees	-12.3177
▁siergewassen	-12.3177
▁verslechteren	-12.3177
▁temporis	-12.3177
▁omstandigheid	-12.3178
▁overladen	-12.318
▁suikerriet	-12.318
▁ontheemden	-12.3181
▁uitgetrokken	-12.3181
▁aanvangt	-12.3182
▁achtervoeten	-12.3182
▁onderwerpt	-12.3182
▁kant	-12.3182
▁geaggregeerd	-12.3186
▁wegvoertuigen	-12.3188
▁inlichting	-12.3196
▁kleding	-12.3198
▁Mededeling	-12.3199
stoestand	-12.3204
▁taks	-12.3206
protocol	-12.3206
▁mensenhandel	-12.3208
▁wetgevende	-12.3211
▁verdacht	-12.3216
▁stromen	-12.3219
▁ontstaansfeiten	-12.3221
▁dienstregeling	-12.3224
hennep	-12.3225
▁Comités	-12.3229
zekerheids	-12.323
verhoudingen	-12.323
▁gedeeld	-12.3231
▁toezeggingen	-12.3234
▁promotie	-12.3238
spersoonlijkheid	-12.3242
▁sturen	-12.3247
▁invoert	-12.3252
▁adviseren	-12.3253
▁gepast	-12.3254
▁Of	-12.3258
machines	-12.3261
▁prudenti	-12.3262
▁zittingen	-12.3262
▁locaties	-12.3272
kenmerken	-12.3273
▁onvolledige	-12.3278
veronderstelling	-12.3281
ine	-12.3293
reemdelingenhaat	-12.3299
▁gameten	-12.3299
▁ingevorderd	-12.3299
▁ontleend	-12.3299
▁uitwendig	-12.3299
▁kasstroom	-12.3299
▁ongedaan	-12.3299
▁bankwezen	-12.3299
▁begeven	-12.3299
▁Braziliaanse	-12.33
▁bariumcarbonaat	-12.33
▁sint	-12.33
▁stieren	-12.3301
▁SLOTBEPALINGEN	-12.3302
ment	-12.3305
▁herzienings	-12.3306
▁SG	-12.3307
▁verblijft	-12.3308
▁royalty	-12.3308
▁tewerkstelling	-12.3308
bericht	-12.3309
▁clearing	-12.3313
▁geoorloofd	-12.3313
▁steunt	-12.3315
svrijstelling	-12.3315
▁werkplek	-12.3315
▁Bescherming	-12.3316
▁boekwaarde	-12.3317
▁besturen	-12.3319
▁dubbel	-12.3319
▁warmtebehandeld	-12.3322
▁verzekerde	-12.3324
▁to	-12.3324
▁teruggaaf	-12.3325
▁beurzen	-12.3325
vrijstelling	-12.3329
zinnen	-12.3329
▁complete	-12.3331
cijfers	-12.3333
▁CONTROLE	-12.3334
▁artsen	-12.3334
steunregeling	-12.3342
verstoringen	-12.3342
▁bedrijfskosten	-12.3343
gelegeerd	-12.3343
how	-12.3348
schade	-12.335
▁LAND	-12.3364
▁beheert	-12.3368
▁gerelateerd	-12.3369
▁panel	-12.3374
▁aa	-12.3376
indeling	-12.339
visserij	-12.339
▁beschikte	-12.3404
▁concurrent	-12.3407
▁bespreking	-12.3408
▁immuniteit	-12.3408
▁duurzaamheid	-12.3414
▁ressorteren	-12.3416
▁gedraging	-12.3417
▁stortplaats	-12.3417
▁LANDEN	-12.3422
▁inzaai	-12.3422
▁ontheven	-12.3423
▁sativa	-12.3423
▁schaffen	-12.3423
▁uraan	-12.3423
▁verandert	-12.3423
▁slotakte	-12.3423
▁exploiteert	-12.3423
▁kaassoorten	-12.3423
▁AKP	-12.3423
▁nieren	-12.3423
▁kwalitatief	-12.3423
▁althans	-12.3423
▁getuigen	-12.3424
▁betreden	-12.3424
▁fine	-12.3425
end	-12.3425
svergoeding	-12.3425
▁marktaandelen	-12.3425
nvloedt	-12.3426
▁uitgaat	-12.3428
▁weder	-12.3432
▁vijftiende	-12.3435
▁koeien	-12.3435
▁reisdocumenten	-12.3437
▁Bioscope	-12.3437
▁ogen	-12.3441
▁know	-12.3443
▁knowhow	-12.3443
▁noorden	-12.3444
▁inmiddels	-12.3445
▁slib	-12.3449
▁aantrekkelijk	-12.345
▁tempo	-12.3451
▁Regional	-12.3456
▁ontslagen	-12.3463
▁vloeistoffen	-12.3466
▁gelast	-12.3468
▁markering	-12.3472
bouwhuisdieren	-12.348
▁volgnummers	-12.348
▁Health	-12.3483
▁debat	-12.3483
▁efficiënter	-12.3489
dag	-12.349
▁benadeelde	-12.3494
▁gekwalificeerd	-12.3495
luchtwaardigheid	-12.3504
▁fysisch	-12.3506
▁complexe	-12.3518
▁Kosten	-12.3529
];	-12.3533
▁%),	-12.3535
▁verrekening	-12.3545
▁salaris	-12.3547
Arabië	-12.3548
bloedlichaampjes	-12.3548
▁Slotakte	-12.3548
▁aanmoedigen	-12.3548
▁geregenereerd	-12.3548
▁geschonken	-12.3548
▁mevrouw	-12.3548
▁onttrekken	-12.3548
▁gecentraliseerd	-12.3548
▁ingelast	-12.3548
▁verward	-12.3548
▁Congo	-12.3548
▁fabrieksschepen	-12.3548
▁achterwege	-12.3548
▁bijsluiter	-12.3548
▁concreet	-12.3548
▁weergeven	-12.3548
▁straffen	-12.3548
▁AESA	-12.3548
▁munteenheden	-12.3548
▁gebruikmaakt	-12.3548
▁eendagskuikens	-12.3551
▁paddestoelen	-12.3551
▁uiteenzetting	-12.3551
▁Bern	-12.3551
sproeven	-12.3552
structuurfondsen	-12.3552
▁inkrimping	-12.3553
▁wederinvoer	-12.3554
▁opzettelijke	-12.3556
▁uitgebeend	-12.3556
▁overneming	-12.3558
▁nov	-12.3562
▁personenauto	-12.3563
▁dynamische	-12.3567
▁kampen	-12.3568
▁import	-12.3569
onderdeel	-12.3569
▁stemprocedure	-12.3569
▁gegadigde	-12.3578
▁bestonden	-12.3578
saangelegenheden	-12.3583
▁reacties	-12.3599
▁verwarmings	-12.36
▁voedingsmiddel	-12.3601
schap	-12.3602
▁Nieuwe	-12.3603
effectiviteit	-12.3613
ert	-12.3621
kwaliteitseisen	-12.3626
▁koolzaad	-12.3638
▁EUMM	-12.3638
▁geldend	-12.3638
eau	-12.3648
ingsmaatregelen	-12.3649
▁Vrijstelling	-12.366
da	-12.3665
szins	-12.3672
spercentages	-12.3673
sorganen	-12.3674
▁broeikasgas	-12.3674
▁onderhevig	-12.3674
▁organiseert	-12.3674
▁voldeed	-12.3674
▁Maltese	-12.3674
▁drugsverslaving	-12.3674
▁rationeel	-12.3674
▁ondubbelzinnig	-12.3674
▁kolommen	-12.3675
▁citroenen	-12.3675
▁binnengekomen	-12.3677
▁GLP	-12.3679
▁Estse	-12.3679
▁Intrekking	-12.368
▁diefstal	-12.3681
▁subsystemen	-12.3683
▁gelijksoortige	-12.3684
▁aanneemt	-12.3687
▁wijnbouwzone	-12.3688
▁ziekenverpleger	-12.369
▁zwangerschap	-12.3692
▁visdocumenten	-12.3693
▁motorvermogen	-12.3696
sbeoordelings	-12.3697
▁opleidings	-12.3699
ork	-12.3711
▁jonger	-12.3714
▁moederschap	-12.3718
▁hl	-12.3718
sonderdelen	-12.3721
IN	-12.3723
▁STCW	-12.3736
▁aanspraken	-12.3742
▁verdachte	-12.3743
▁wijnbereiding	-12.3744
ronde	-12.3744
ISO	-12.3749
▁beleids	-12.3749
▁gevoelig	-12.375
▁Girona	-12.3754
feta	-12.3763
▁ouderdomspensio	-12.3766
▁subtype	-12.3767
▁duren	-12.3772
▁toetredend	-12.3773
peratie	-12.378
▁Beroep	-12.3781
▁inzamelaar	-12.3794
▁lever	-12.3795
▁President	-12.3797
▁defensie	-12.3797
▁demonstratie	-12.3798
mate	-12.3799
▁zakelijk	-12.38
eetbare	-12.3802
▁achteruit	-12.3802
iciën	-12.3802
▁biodiversiteit	-12.3802
▁draagkracht	-12.3802
▁financiën	-12.3802
▁gepresenteerd	-12.3802
▁uitbreken	-12.3802
▁wederuitgevoerd	-12.3802
▁groentezaad	-12.3802
▁colli	-12.3802
▁agromonetair	-12.3802
▁hiernavolgende	-12.3803
▁rusttijd	-12.3803
▁emissienormen	-12.3803
ausp	-12.3803
▁toeneemt	-12.3804
▁stabiliseren	-12.3805
▁verzorgd	-12.3806
▁minderjarige	-12.3806
▁opgetekend	-12.3807
▁groothandels	-12.3808
▁duplicaat	-12.3811
▁verliest	-12.3812
▁opslagkosten	-12.3812
▁Agro	-12.3814
Op	-12.3816
▁schuldquote	-12.3817
plaats	-12.3821
stelsels	-12.3822
ij	-12.3824
▁thermische	-12.3825
gebruikte	-12.3829
▁productgroepen	-12.3837
▁douanediensten	-12.3842
▁Regeringen	-12.3843
dienstverlenende	-12.3844
▁innemen	-12.3852
svereisten	-12.3857
▁Certificaat	-12.3859
verlaging	-12.3859
▁St	-12.3863
▁kwaliteitseisen	-12.3867
▁brede	-12.3869
mersal	-12.3874
laatste	-12.3881
▁stabiele	-12.3882
handelaren	-12.3883
NCB	-12.3885
inhoud	-12.3891
▁Veiligheid	-12.3892
aanbevelingen	-12.3892
▁dioxine	-12.3895
▁On	-12.3912
▁zijden	-12.3913
▁mengvoeder	-12.3926
▁extractie	-12.3927
▁reisdocument	-12.3927
sformulieren	-12.3928
vriendelijke	-12.3929
▁Bfr	-12.3932
▁eerbiedigen	-12.3932
▁indiensttreding	-12.3932
▁nastreven	-12.3932
▁verzekert	-12.3932
▁buikpotigen	-12.3932
Brassica	-12.3932
▁stuurt	-12.3932
▁produktiviteit	-12.3933
soneelsformatie	-12.3934
▁uitspraken	-12.3935
▁bedrijfstakken	-12.3935
▁glyfosaat	-12.3936
▁NUTS	-12.3937
▁rederijen	-12.3939
▁verrijking	-12.3941
▁gezinsbijslagen	-12.3941
▁minimumreserves	-12.3942
▁auteur	-12.3945
▁doorgang	-12.3952
▁pakken	-12.3954
▁kippen	-12.3959
snummer	-12.3959
▁concept	-12.3964
▁plicht	-12.3965
EL	-12.3966
▁minimis	-12.3967
deelinschrijving	-12.3968
▁late	-12.397
▁inventarisatie	-12.3972
▁motiveringen	-12.3973
▁inflatie	-12.3973
▁DOM	-12.3973
▁cabotage	-12.3973
▁verzekerden	-12.3988
▁verkorte	-12.3988
acquis	-12.3989
▁gespecialiseerd	-12.3991
▁berokkend	-12.3993
▁terugkerende	-12.3995
▁samengevoegd	-12.3995
▁Bepaald	-12.3997
▁bijslagen	-12.3998
klasse	-12.3999
▁und	-12.4003
res	-12.4011
ling	-12.4018
▁industrieën	-12.4028
▁sortering	-12.4035
elementen	-12.4035
▁verwachtingen	-12.404
▁groeiend	-12.4041
registratie	-12.4043
▁gestuurd	-12.4044
(%	-12.4045
▁staven	-12.4047
verleners	-12.4051
SE	-12.4054
▁samenwerkings	-12.4059
▁zeemijl	-12.4064
▁geconstrueerd	-12.4064
▁afleggen	-12.4064
▁verzamelt	-12.4064
▁eiprodukten	-12.4064
▁overweegt	-12.4064
▁consulair	-12.4065
▁bekostigd	-12.4066
▁Kopenhagen	-12.4067
voertuig	-12.4067
▁bloedgroepen	-12.407
gt	-12.4071
rustende	-12.4072
▁Register	-12.4077
▁cessionaris	-12.4079
▁VOORWAARDEN	-12.4083
STE	-12.4085
▁strekkend	-12.409
▁exacte	-12.4092
gewicht	-12.4093
▁kwekersrechten	-12.4111
dienstverrichter	-12.4112
ón	-12.4121
▁Diverse	-12.4124
▁milieuschade	-12.4126
▁logo	-12.4128
▁verkopers	-12.413
druk	-12.4132
toegankelijkheid	-12.4132
▁uittreding	-12.4141
▁verhuurd	-12.4146
▁beschadiging	-12.4149
uitstoot	-12.4156
antigeen	-12.4159
▁moderne	-12.4165
faciliteit	-12.4167
aanvullende	-12.4167
▁visserijgebied	-12.4171
sch	-12.4172
▁nood	-12.4175
▁draad	-12.4176
▁reorganisatie	-12.4182
▁architect	-12.4183
gestelde	-12.4194
▁atmosfeer	-12.4197
▁intensiveren	-12.4197
▁onzuiverheden	-12.4197
▁ribben	-12.4197
▁neerkomt	-12.4197
▁peuters	-12.4197
▁knoflook	-12.4197
▁hetwelk	-12.4197
▁zetmeelgehalte	-12.4198
▁chronologisch	-12.4198
▁Taken	-12.4198
▁Personen	-12.4198
▁fokvarkens	-12.4199
agnesiabriketten	-12.42
▁overneemt	-12.4201
▁opmaak	-12.4202
▁CCM	-12.4206
▁sinaasappelen	-12.4207
▁ingebouwd	-12.4207
▁verwisselbaar	-12.4207
verliezen	-12.4208
▁toegebracht	-12.4208
scentra	-12.4208
rechtvaardigheid	-12.4214
▁Islami	-12.4219
▁opereren	-12.4227
▁overheidssector	-12.4227
▁aantasting	-12.423
▁doelsoorten	-12.4235
▁stamboeken	-12.4236
▁insleep	-12.4237
▁Voorschriften	-12.4238
erkend	-12.4239
▁marginale	-12.4239
▁uitwisselingen	-12.4239
stroom	-12.4247
▁posities	-12.4247
svormen	-12.425
▁beurs	-12.4256
▁gesproken	-12.4257
▁EFSA	-12.4258
nvesteerd	-12.4261
sbetrekkingen	-12.4264
soleerd	-12.4265
time	-12.4265
▁Plant	-12.4265
toezicht	-12.4274
▁inkt	-12.4281
▁mijnen	-12.4281
pen	-12.4281
▁IB	-12.4283
srechten	-12.4287
▁vergiftig	-12.429
▁meldingen	-12.4304
evende	-12.4304
blijfsvergunning	-12.4306
▁strafrechtelijk	-12.4308
▁diersoort	-12.4318
▁daartegen	-12.432
▁uitgeven	-12.4323
▁dollar	-12.4324
▁openstaan	-12.4325
▁nadele	-12.4331
▁uitleg	-12.4332
RUIMTE	-12.4332
▁Tadzjikistan	-12.4332
▁gestaakt	-12.4332
▁mensenlevens	-12.4332
▁verworpen	-12.4332
▁begrijpen	-12.4332
▁vervaldatum	-12.4332
▁kernwapens	-12.4332
▁Adviescomité	-12.4332
▁levensstandaard	-12.4332
▁handvuurwapens	-12.4332
▁houderijsysteem	-12.4332
▁verbreiding	-12.4332
▁subregionale	-12.4333
▁vastleggen	-12.4333
▁okt	-12.4333
isering	-12.4333
▁siliciumcarbide	-12.4336
▁overslag	-12.4337
▁ongebruikte	-12.4338
▁Letse	-12.4338
▁verloopt	-12.434
▁besteden	-12.434
▁meel	-12.4341
▁ja	-12.4345
▁bederfelijk	-12.4349
▁MKB	-12.435
formatiesystemen	-12.4352
▁onderliggend	-12.4354
▁procentue	-12.4356
▁abonnee	-12.4357
subsidies	-12.4368
▁tellen	-12.4368
belastingstelsel	-12.4375
▁reglementering	-12.438
▁zw	-12.4381
▁procedurele	-12.4389
▁koel	-12.4389
afdeling	-12.439
▁vitaminen	-12.4393
▁GVE	-12.4393
emissie	-12.4402
▁Aanpassing	-12.4403
▁fysiek	-12.4412
ER	-12.4413
▁opgaven	-12.4418
▁invaliditeit	-12.4418
▁da	-12.4419
scomité	-12.4439
scontract	-12.444
voorzitter	-12.444
▁samenhangend	-12.4441
Raad	-12.4444
▁SOLAS	-12.4457
smateriaal	-12.4458
▁migratie	-12.4458
heidsbeginsel	-12.4462
▁opmerking	-12.4465
▁mineralen	-12.4467
▁Saint	-12.4469
▁bevorderlijk	-12.4469
▁ondervindt	-12.4469
▁verondersteld	-12.4469
▁voegt	-12.4469
▁gaven	-12.4469
▁raapzaad	-12.4469
▁pijpen	-12.4469
▁autowrakken	-12.4469
▁voedingswaarde	-12.447
▁Spelen	-12.447
▁bietenzaad	-12.447
▁gefokt	-12.4473
▁beheerde	-12.4473
▁dichtstbij	-12.4473
▁teruggewonnen	-12.4473
▁relevantie	-12.4473
▁Noordzee	-12.4474
▁kerncentrales	-12.4477
▁aanhouding	-12.4479
▁afgewikkeld	-12.4485
▁verdunning	-12.4488
▁groene	-12.4492
▁retrocessie	-12.4495
▁Land	-12.4503
gewezen	-12.4503
▁incidentele	-12.4504
▁vergroot	-12.4505
▁speelt	-12.4509
▁IMA	-12.4511
▁enzo	-12.4512
▁Rome	-12.4523
som	-12.4527
▁Ierse	-12.4531
▁tweevoud	-12.4532
kantoor	-12.4536
▁flessen	-12.4538
▁codering	-12.454
▁parallel	-12.454
shandelingen	-12.4541
▁concurrerend	-12.4541
▁gebeurd	-12.4543
che	-12.4543
▁staken	-12.4547
▁Naam	-12.4547
▁exporteren	-12.4548
▁kat	-12.455
▁luchtverkeer	-12.4557
verslagen	-12.4563
▁uitvoerbaarheid	-12.4574
▁Indiening	-12.4577
virus	-12.4588
meststoffen	-12.4589
actieprogramma	-12.459
Lid	-12.459
▁specimen	-12.4592
▁rechts	-12.4594
▁afkorting	-12.4603
gegeven	-12.4607
▁onaanvaardba	-12.4608
Salomonseilanden	-12.4608
▁Benelux	-12.4608
▁bekeken	-12.4608
▁tweeërlei	-12.4608
▁Memorandum	-12.4608
▁konijnenvlees	-12.4608
▁biobrandstoffen	-12.4608
▁hangt	-12.4608
▁procesvoering	-12.4608
▁Vastgesteld	-12.4608
▁geneeskrachtig	-12.4608
▁besloot	-12.4608
▁uitsnijden	-12.4609
▁dopvruchten	-12.4609
▁Daarna	-12.4609
▁toevoegen	-12.4609
▁noordwestelijk	-12.4609
▁handelwijze	-12.4609
▁kapitaalverkeer	-12.461
▁toeleveranciers	-12.4614
▁Carsid	-12.4618
▁Industries	-12.4618
▁erover	-12.4618
▁modificatie	-12.462
▁ingeroepen	-12.462
▁gunstigste	-12.4621
▁verrekend	-12.4625
▁verzochten	-12.4625
▁invoerheffingen	-12.4631
▁rampen	-12.4632
▁La	-12.4633
eerde	-12.4633
▁onderafdeling	-12.4635
▁Controles	-12.4642
▁rentebetalingen	-12.4644
▁inbrengen	-12.4663
▁gerelateerde	-12.4668
ssteun	-12.4669
▁lammeren	-12.4676
schendingen	-12.4677
▁doorlopend	-12.4684
radiofrequenties	-12.4686
▁strenger	-12.4688
nalyseresultaten	-12.4688
▁aanplantrechten	-12.4691
sbegroting	-12.4696
▁overnemen	-12.4697
▁overschotten	-12.4704
programmaperiode	-12.4714
reserve	-12.4717
▁producties	-12.4723
▁betaalbaar	-12.4724
▁partner	-12.4727
nationale	-12.4729
▁fungeren	-12.4729
meststof	-12.4734
valoremrecht	-12.4734
▁handelsmerk	-12.4735
▁subsidiemarge	-12.4735
invoerprijzen	-12.4735
▁sterfte	-12.474
J	-12.474
▁omschrijvingen	-12.4744
▁telefax	-12.4748
▁samenstel	-12.4748
▁salaristrap	-12.4749
▁scheidsgerecht	-12.4749
▁volstrekt	-12.4749
▁gegist	-12.4749
▁versnijding	-12.4749
▁begrotingsjaren	-12.4749
slagen	-12.475
▁incidenteel	-12.4751
▁batterijen	-12.4751
teeltmateriaal	-12.4752
▁deelstukken	-12.4752
▁Botswana	-12.4753
typeonderzoek	-12.4754
bedrijfstelling	-12.4754
▁diversificatie	-12.4759
▁correspondentie	-12.4759
▁reders	-12.4761
swijzen	-12.4763
▁tijdsbeperking	-12.4765
▁BIJZONDER	-12.4766
▁afgezette	-12.4766
▁Peru	-12.4766
▁opgevoerd	-12.4766
▁terbeschikking	-12.4766
ii	-12.4769
▁tegenpartijen	-12.477
▁tracht	-12.477
nieuwe	-12.4774
▁virussen	-12.4774
▁gelatine	-12.4778
▁COMMUNAUTAIR	-12.4778
zen	-12.4778
▁WMA	-12.4779
bouwconcessies	-12.4779
zo	-12.478
▁nabije	-12.4781
▁compensaties	-12.4781
▁vastleggingen	-12.4782
▁leren	-12.479
▁liquide	-12.4792
▁zemelen	-12.4792
ring	-12.4795
▁acquis	-12.4799
▁"...	-12.48
▁Uitgaven	-12.48
systeembeheerder	-12.4801
▁fabrieks	-12.4803
▁tolken	-12.4816
▁jaarverslagen	-12.4828
kwartaalgegevens	-12.4828
▁incident	-12.4833
dienstregelingen	-12.4849
▁unie	-12.485
▁Nederlanden	-12.4862
temperatuur	-12.4871
▁overblijvend	-12.4874
▁noodsituatie	-12.4876
▁tendens	-12.4878
vaartuig	-12.4879
▁voedings	-12.4882
▁eenvormig	-12.4885
▁blijk	-12.4885
concern	-12.4885
Besluit	-12.4886
▁bijvangst	-12.4889
▁zwaar	-12.4889
▁prijsverschil	-12.489
▁rabiës	-12.4892
▁Cohesiefonds	-12.4892
CERTIFICAAT	-12.4892
▁aangeworven	-12.4892
▁bestudeert	-12.4892
▁neutraal	-12.4892
▁ondervangen	-12.4892
▁preciseren	-12.4892
▁ZICH	-12.4892
▁beteeld	-12.4892
▁firmanaam	-12.4892
▁verschijnen	-12.4892
▁etnische	-12.4892
▁ECONOMISCHE	-12.4892
▁vierkant	-12.4892
▁voltooien	-12.4892
▁kleinste	-12.4893
▁daden	-12.4893
▁Zimbabwe	-12.4893
▁leerlingen	-12.4895
▁Saoedi	-12.4896
▁overtollig	-12.4896
inspanningen	-12.4897
▁overnemend	-12.4901
▁evp	-12.4902
▁Financiën	-12.4909
nemende	-12.491
teelt	-12.4913
▁Wet	-12.4919
▁wedstrijden	-12.492
CEN	-12.4921
▁aardolieprodukt	-12.4925
administraties	-12.493
▁OTO	-12.4931
▁tussenproducten	-12.4937
begroting	-12.4937
▁handelsbenaming	-12.4943
lo	-12.4944
▁coherente	-12.4944
it	-12.4945
la	-12.4945
▁voorvallen	-12.4949
▁Regelingen	-12.4953
▁vastgoed	-12.4964
▁WS	-12.4967
netbeheerders	-12.4967
▁verkeerde	-12.4968
▁voorstelt	-12.4972
▁spoorwegen	-12.4976
▁toevoegingen	-12.498
▁Engels	-12.498
▁veelvuldig	-12.498
▁tewerkgesteld	-12.4981
▁bedreigde	-12.4984
fen	-12.4986
▁opgezette	-12.4998
▁behorend	-12.4999
▁handboek	-12.5
▁bedroegen	-12.5001
▁parlement	-12.5001
▁geest	-12.5006
▁toonde	-12.5008
wet	-12.501
▁blauw	-12.5012
▁resulterend	-12.5012
▁terminal	-12.5015
randstofverbruik	-12.5016
werknemer	-12.5021
▁rasbenaming	-12.5022
▁besteding	-12.5023
opbrengsten	-12.5026
▁verzegeling	-12.5029
ern	-12.5034
▁bezig	-12.5034
▁teeltaangifte	-12.5036
▁bereik	-12.5036
▁doorgevoerd	-12.5036
▁nikkel	-12.5037
▁Omvang	-12.5037
▁groeipact	-12.5037
▁OPMERKINGEN	-12.5037
▁koemelk	-12.5037
▁betrof	-12.5037
▁afgehaald	-12.5037
▁Erkenning	-12.5037
▁betoogt	-12.5037
▁afbreekbaarheid	-12.5037
▁Drie	-12.5037
▁nascholing	-12.5038
▁zomer	-12.5038
▁Prin	-12.5039
▁proefnemingen	-12.5039
▁stad	-12.5039
functie	-12.504
▁zinkoxiden	-12.5041
▁oplossen	-12.5042
▁overdraagt	-12.5042
▁bewoordingen	-12.5042
▁kunstenaars	-12.5043
▁koersen	-12.5048
garanties	-12.5048
▁vervoerbeleid	-12.505
▁VHS	-12.5051
instrument	-12.5052
▁verzuim	-12.5053
▁verbouwing	-12.5055
▁warm	-12.506
doelstelling	-12.5061
loos	-12.5063
▁vriessch	-12.5064
▁homeopathisch	-12.5067
▁verscherpt	-12.5072
▁iedereen	-12.5074
▁analoog	-12.5074
▁halonen	-12.5078
SC	-12.508
▁schrijft	-12.5081
▁Guyana	-12.5087
▁hybride	-12.5093
▁ingezaaide	-12.5093
▁beschrijven	-12.5095
▁vormde	-12.5109
▁raken	-12.5118
▁teniet	-12.5121
toepassingsdatum	-12.513
▁doorreis	-12.5133
▁theoretisch	-12.5133
▁satellietvolg	-12.5139
▁verminderde	-12.5157
beperkingsgebied	-12.5159
▁ouderdoms	-12.5162
bewegingen	-12.5164
▁vervuiler	-12.5166
▁starten	-12.5168
▁bar	-12.5171
▁luchtdienst	-12.5171
grenzen	-12.5175
▁straal	-12.5176
▁boekhoudingen	-12.5182
▁eindgebruik	-12.5182
▁bewijze	-12.5183
▁droog	-12.5183
▁fauna	-12.5184
▁aanbiedt	-12.5184
▁aanwijst	-12.5184
▁beduidend	-12.5184
▁geslaagd	-12.5184
▁goedkeurt	-12.5184
▁inwinnen	-12.5184
▁onmisbaar	-12.5184
▁reiken	-12.5184
▁roept	-12.5184
▁selecteren	-12.5184
▁tijdsbestek	-12.5184
▁voldeden	-12.5184
▁Orgaan	-12.5184
▁biedingen	-12.5184
▁handelskarakter	-12.5185
▁slachtdieren	-12.5186
verzamelaanvraag	-12.5187
spoorwegsysteem	-12.5187
▁kwantitatief	-12.5188
▁vissoorten	-12.5188
zuigelingen	-12.519
▁uitzendingen	-12.519
kaas	-12.519
▁Schengenin	-12.5191
▁gidsen	-12.5191
▁aanplant	-12.5191
▁ongeregeld	-12.5192
mede	-12.5193
▁deviezen	-12.5196
▁aangaat	-12.5197
▁incidenten	-12.5199
▁compatibel	-12.5201
▁Dan	-12.5202
smodellen	-12.5204
transactie	-12.5206
▁ressorterende	-12.5206
▁DRAM	-12.5207
▁generaties	-12.5207
▁tropisch	-12.5207
▁rechtens	-12.521
▁rechtbanken	-12.5213
▁LBB	-12.5215
▁meerwaarde	-12.5215
▁fob	-12.5223
▁pre	-12.5226
▁overheidsschuld	-12.5228
NEN	-12.5234
▁onderzoekingen	-12.5237
▁tegendeel	-12.524
wijziging	-12.524
▁rangnummer	-12.5241
▁Association	-12.5249
derde	-12.5249
weesgeneesmiddel	-12.525
▁vervulde	-12.5252
▁Speciale	-12.5252
▁component	-12.5263
▁misleidend	-12.5267
▁rechtsgebied	-12.5269
▁liquiditeit	-12.5277
▁uitstrekken	-12.5277
▁DOUANE	-12.5286
▁onderhandelings	-12.5291
▁natura	-12.5291
lopende	-12.5294
▁geluids	-12.5299
.''.	-12.53
▁OIE	-12.5301
▁handelend	-12.5302
▁inleiden	-12.5308
sinrichtingen	-12.531
▁ondersteunend	-12.5311
▁fytosanitair	-12.5311
▁signalen	-12.5311
▁discussie	-12.5317
▁wederverkoper	-12.5317
▁liep	-12.5318
▁uitsnijderij	-12.5319
▁BNI	-12.5319
▁rundvee	-12.5325
gische	-12.5325
importeur	-12.5331
▁inzetten	-12.5332
UMTS	-12.5333
vijfjarenperiode	-12.5333
▁KONINKRIJK	-12.5333
▁binnenvaren	-12.5333
▁gecrediteerd	-12.5333
▁intrinsiek	-12.5333
▁ontwikkelt	-12.5333
▁samenvattend	-12.5333
▁stilzwijgend	-12.5333
▁ongegrond	-12.5333
▁accepteren	-12.5333
▁splijtstoffen	-12.5333
▁verweerder	-12.5333
▁afgeschreven	-12.5334
▁schorst	-12.5335
▁aangedrongen	-12.5335
▁Bazel	-12.5335
▁productiequota	-12.5336
▁kunst	-12.5336
▁reddingssteun	-12.5337
▁restricties	-12.5337
▁adjunct	-12.5338
▁flexibele	-12.5339
omzet	-12.534
bevolking	-12.5341
▁vrachtwagens	-12.5341
acties	-12.5342
▁arbeidsmiddelen	-12.5342
▁Marokk	-12.5343
▁risicoschild	-12.5344
uitgaven	-12.5346
laatinrichting	-12.5346
contractuele	-12.5347
associatie	-12.5347
ongeveer	-12.5347
▁FIL	-12.535
▁cultureel	-12.5352
▁sacharose	-12.5354
▁NEAFC	-12.5357
▁confiscatie	-12.5357
▁rechtsregels	-12.5358
▁inspecteren	-12.536
▁radiologisch	-12.5363
▁Beoordeling	-12.5364
▁Vorm	-12.5366
▁paspoorten	-12.5367
▁geroepen	-12.5367
▁eiwitgehalte	-12.5377
▁verdragsgebied	-12.5378
so	-12.5379
▁Financiering	-12.5387
opbrengst	-12.5398
veiligheidseisen	-12.5402
gevoegde	-12.5409
▁CER	-12.5411
▁ONTVANGSTEN	-12.5413
tiologisch	-12.5417
▁vervroegd	-12.5417
zekeringsbedrijf	-12.5418
▁flora	-12.542
▁elektrisch	-12.5422
plannen	-12.5425
▁gedelegeerd	-12.5436
▁tariefregeling	-12.5443
▁stijgend	-12.5447
klauwzeervaccins	-12.545
nservenindustrie	-12.5455
groei	-12.5462
▁conjunctuur	-12.5463
heffingen	-12.5463
▁noten	-12.5466
▁par	-12.5467
▁klager	-12.5469
▁Inhoud	-12.5469
▁huisarts	-12.548
▁beroepsziekte	-12.5483
veerboten	-12.5485
▁Evenwel	-12.5485
▁gevorderd	-12.5485
▁opgevat	-12.5485
▁uitgezonden	-12.5485
▁verhuren	-12.5485
▁boomkorren	-12.5485
▁belangstellende	-12.5485
▁bewustmaking	-12.5485
▁gecodificeerd	-12.5485
▁gestorven	-12.5485
▁cultuurgoederen	-12.5485
gerelateerde	-12.5485
▁staalindustrie	-12.5485
medegefinancierd	-12.5485
scertificering	-12.5486
▁tegengeworpen	-12.5486
▁staalkabel	-12.5486
▁testmethoden	-12.5486
▁vereffening	-12.5489
▁overplaatsing	-12.5491
▁graansoorten	-12.5491
selectiecriteria	-12.5492
overschrijdingen	-12.5494
orra	-12.5494
benodigdheden	-12.5495
▁interferentie	-12.5495
douaneprocedures	-12.5499
▁variëteit	-12.5502
▁Air	-12.5502
▁OSCM	-12.5502
▁geliberaliseerd	-12.5502
LGO	-12.5506
Turkije	-12.5506
▁onroerendgoed	-12.5509
▁inspectieposten	-12.5511
▁herstelling	-12.5516
▁ontmanteling	-12.552
▁verzekeraar	-12.5522
▁kringen	-12.5527
▁Zuidoost	-12.5532
▁overheersend	-12.5532
▁veele	-12.5538
ja	-12.5538
belastingniveaus	-12.5541
brandstoffen	-12.5551
▁verkort	-12.5553
▁referentiepunt	-12.5553
▁circulatie	-12.5554
▁chloorfluorkool	-12.5559
▁basisarealen	-12.5559
Gemeenschap	-12.5565
▁uitzending	-12.5565
▁centrales	-12.5568
gerechtelijke	-12.5573
▁verzekeraars	-12.5575
▁terminals	-12.5578
conferentie	-12.5579
▁autonomie	-12.558
verkrijgende	-12.5585
▁grenzende	-12.5586
▁ingenomen	-12.5586
▁geavanceerde	-12.559
▁indicator	-12.5592
gecertificeerd	-12.5595
▁afhankelijke	-12.5596
IM	-12.5597
▁inventarissen	-12.5602
verwerkte	-12.5603
ES	-12.5603
▁kool	-12.5608
▁beschadigde	-12.5611
▁pers	-12.5613
AL	-12.5618
▁PRODUCT	-12.5621
▁ADR	-12.5623
▁oliefabriek	-12.5624
▁actiefonds	-12.5625
▁Verkoop	-12.5638
▁sluisprij	-12.5638
▁Afghanistan	-12.5638
▁Tampere	-12.5638
▁integraal	-12.5638
▁strafvervolging	-12.5638
stookinstallatie	-12.5638
▁Company	-12.5638
▁cashflow	-12.5638
▁slijpsel	-12.5638
▁begrensd	-12.5638
▁distillatiewijn	-12.5639
▁arseen	-12.5639
▁DERDE	-12.5639
▁minus	-12.5639
▁justitieel	-12.5639
▁handelszaad	-12.5639
▁anciënniteit	-12.5639
beslissingsstaat	-12.5639
▁Mits	-12.5639
▁Mocht	-12.564
▁bedrijfsleider	-12.564
▁overnemer	-12.5641
▁uitbrengt	-12.5641
▁gevaccineerde	-12.5642
▁Colombia	-12.5642
▁legkippen	-12.5642
▁Verschillen	-12.5643
▁uitsplitsing	-12.5646
▁geldmarkt	-12.5647
▁specialiteiten	-12.5647
▁deelgebied	-12.5648
Associatiecomité	-12.5649
▁gekwantificeerd	-12.5649
▁liberalisatie	-12.5649
▁bioveiligheid	-12.5655
▁inwendige	-12.5656
▁beenderen	-12.5658
rechtelijk	-12.5658
personeelmijnen	-12.5661
opneming	-12.5662
quotum	-12.5662
▁fracties	-12.5664
ng	-12.5664
▁jute	-12.5667
▁verkoopkosten	-12.5668
voordeel	-12.5668
▁OVSE	-12.5671
▁Begroting	-12.5672
▁vluchtige	-12.5674
▁opschriften	-12.5676
haar	-12.5676
uitvoer	-12.5676
▁SAMENWERKING	-12.5678
beperkende	-12.5682
▁geuit	-12.5684
uitkijkspiegels	-12.5687
▁NV	-12.5689
▁Europe	-12.5698
▁kaarten	-12.5698
▁SEL	-12.5699
▁enzymen	-12.5705
▁aanvoeren	-12.5706
▁SK	-12.5707
leverancier	-12.571
erd	-12.5717
▁rendabel	-12.572
▁UITVOER	-12.5726
derivaten	-12.5728
gewervelde	-12.573
gevoerd	-12.5731
▁opzichten	-12.5732
▁continenta	-12.5734
▁carrosserie	-12.5736
Telecommunicatie	-12.574
geneeskunde	-12.5747
peratieve	-12.5751
▁hinderpa	-12.5758
▁informatica	-12.5759
▁controleverslag	-12.5761
vis	-12.5762
skenmerken	-12.5764
subsidie	-12.5765
▁win	-12.5769
universeledienst	-12.577
▁TR	-12.577
sverlies	-12.577
▁hoogwaardige	-12.5774
▁elf	-12.5774
▁organisator	-12.5775
stations	-12.5777
▁terugkeren	-12.5778
▁teeltcontract	-12.5781
tijd	-12.5784
▁onderzoeker	-12.5788
▁echt	-12.5788
aard	-12.5789
▁spoedeisend	-12.5793
▁bekleed	-12.5794
humane	-12.5795
▁Anderzijds	-12.5795
▁beweert	-12.5795
▁donderdag	-12.5795
▁quorum	-12.5795
▁sexies	-12.5795
▁Adriatica	-12.5795
▁machtigt	-12.5795
▁uitlaatgassen	-12.5795
▁samenvoeging	-12.5795
▁naamswijziging	-12.5795
▁beweegredenen	-12.5795
▁Corsica	-12.5799
▁sulfanilzuur	-12.5799
▁onverpakt	-12.58
▁gestald	-12.58
▁camera	-12.5802
▁rechtmatigheid	-12.5802
▁hinderen	-12.5803
▁referentiekader	-12.5807
▁ingeleverd	-12.5809
▁onverwachte	-12.581
▁terugzending	-12.5813
▁HOUDEND	-12.5814
▁televisieomroep	-12.5817
planten	-12.5819
▁EGA	-12.582
STATEN	-12.5822
▁beweringen	-12.5825
▁database	-12.5826
▁overtreden	-12.5827
▁reeksen	-12.5827
OIE	-12.5829
▁dringen	-12.5829
IMO	-12.583
Rusland	-12.5831
BSE	-12.5831
▁afschrijvingen	-12.5838
verkoop	-12.5839
");	-12.5842
▁erg	-12.5842
▁representatie	-12.5844
waardecorrecties	-12.5845
▁bin	-12.5848
▁DM	-12.585
▁opties	-12.5858
formatiecentrum	-12.5861
▁bekwaamheden	-12.5862
▁isolatie	-12.5864
mogelijkheid	-12.5865
toepassing	-12.5867
▁benadeeld	-12.5871
▁verblijfkosten	-12.5872
).";	-12.5873
▁hield	-12.5873
klassen	-12.5875
▁voorzijde	-12.5879
▁gekeurd	-12.5879
▁Huur	-12.5884
▁uitspreken	-12.5886
punten	-12.5891
werking	-12.5899
tis	-12.5902
achtereenvolgens	-12.5903
▁grondslagen	-12.5904
▁geraakt	-12.591
roepsbekwaamheid	-12.5917
DIT	-12.5925
▁breder	-12.5926
▁..."	-12.5932
▁melkkoeien	-12.5933
sacties	-12.5934
▁scheidsrechter	-12.5937
dumpingrecht	-12.5938
verzekerings	-12.5941
▁verkrijger	-12.5948
▁Nepal	-12.5953
▁Venezuela	-12.5953
▁anoniem	-12.5953
▁teledetectie	-12.5953
▁verruimd	-12.5953
▁duiden	-12.5953
▁kooldioxide	-12.5953
BOB	-12.5954
▁terugtrekking	-12.5954
▁meeteenheden	-12.5954
jarige	-12.5954
▁Bewindvoerders	-12.5955
▁marktmacht	-12.5955
▁staatlozen	-12.5955
▁markttoegang	-12.5956
▁visserijbeheer	-12.5957
▁VASTSTELLEND	-12.5957
▁basisbesluit	-12.5959
▁geadresseerden	-12.5963
▁opdrachtnemer	-12.5963
bureaus	-12.5965
▁GEWIJZIGD	-12.5965
▁Gedragscode	-12.5965
▁koolmonoxide	-12.5965
▁ambachtelijk	-12.5965
▁Nice	-12.5965
▁heen	-12.5967
▁Services	-12.5969
▁mijnbouw	-12.5969
▁structure	-12.5977
▁Hoge	-12.5978
▁glucose	-12.5979
▁nettomassa	-12.5979
▁kadavers	-12.598
▁aangekomen	-12.5983
element	-12.5985
jaren	-12.5985
▁afhankelijkheid	-12.5985
▁verblijfstitels	-12.5987
Veiligheidsraad	-12.5997
behalve	-12.5998
vaststelling	-12.5998
▁kadaster	-12.6
ën	-12.6011
id	-12.6017
investeringen	-12.6017
▁vervolg	-12.6018
▁reserveperiode	-12.6021
nternationaal	-12.6025
▁by	-12.603
▁absorptie	-12.6031
sbeperkingen	-12.6033
▁afwijzen	-12.6044
Afrikaans	-12.6045
sinrichting	-12.6047
▁belastingniveau	-12.6051
▁Opmerkingen	-12.6066
▁olijventeelt	-12.607
produktiemethode	-12.607
erkende	-12.6076
▁National	-12.6079
▁Bijdragen	-12.6081
▁toxicologisch	-12.6081
▁iemand	-12.6091
▁feestdag	-12.61
▁prijsstijging	-12.6101
▁minimumbedrag	-12.6103
uur	-12.6103
▁slechte	-12.6104
zeer	-12.6108
sal	-12.6109
zekeringsbranche	-12.6114
▁propyleen	-12.6115
Inwerkingtreding	-12.6115
cinematografisch	-12.6115
▁afhangt	-12.6115
▁concludeerde	-12.6115
▁lijdt	-12.6115
▁versnellen	-12.6115
▁noodgevallen	-12.6115
▁geloosd	-12.6115
▁FSM	-12.6115
wijnbouwkadaster	-12.6115
▁Olympisch	-12.6115
ebezettingsgetal	-12.6115
leeftijdstranche	-12.6115
▁nagelaten	-12.6116
▁contingentjaar	-12.6116
▁aangevangen	-12.6116
▁belastingdruk	-12.6117
▁modelcontract	-12.6117
▁verkleinen	-12.6118
▁Atjeh	-12.6119
▁bijprodukten	-12.6119
▁gezet	-12.6122
▁vierentwintig	-12.6122
▁Wereld	-12.6122
▁metabolieten	-12.6123
▁hoofdelijk	-12.6123
▁Ministers	-12.6125
standaardisering	-12.6126
▁BV	-12.6126
exploitant	-12.6126
▁leasing	-12.6126
▁vennoten	-12.6126
▁komend	-12.6127
ersnellingsnaven	-12.6128
sama	-12.6129
vo	-12.613
▁retributies	-12.613
▁substitutie	-12.6134
▁plaatst	-12.6134
volume	-12.6137
▁volmacht	-12.6138
heffing	-12.614
▁verzendingen	-12.614
▁prevalentie	-12.6149
▁UNIE	-12.615
sstelsel	-12.6151
koelopslagplaats	-12.6151
▁onderbouwd	-12.6153
Ge	-12.6156
▁twintig	-12.6156
▁STEUN	-12.6156
sverbanden	-12.6163
▁samenvallen	-12.6164
vlees	-12.6164
maken	-12.6164
▁proportioneel	-12.6164
belangen	-12.6168
▁toxische	-12.6169
ba	-12.617
▁inneemt	-12.6174
alsnog	-12.6177
▁computers	-12.6177
voertransacties	-12.6179
▁telt	-12.6179
▁verzegelde	-12.618
▁interfaces	-12.618
▁bio	-12.618
▁gedenatureerd	-12.6185
etalingsaangifte	-12.6191
▁GT	-12.6197
acetaat	-12.6199
TR	-12.6206
▁tal	-12.6217
ria	-12.6217
▁vermogens	-12.6217
▁Betaling	-12.622
uitroeiings	-12.6228
▁ONDERZOEK	-12.6229
▁publiciteit	-12.6232
dragen	-12.6237
▁sterkte	-12.6245
▁afschrikkende	-12.6247
▁bos	-12.6249
▁betwiste	-12.6256
▁patiënt	-12.6258
batenanalyse	-12.6262
▁genot	-12.6263
▁opslaghouder	-12.6263
▁dienstverband	-12.6264
▁tak	-12.6266
▁situ	-12.627
lijn	-12.6272
▁blijkens	-12.6272
▁Vertrouwelijk	-12.6272
▁Service	-12.6274
▁premiebedrag	-12.6274
▁gewoon	-12.6275
▁intussen	-12.6278
▁order	-12.6278
▁Basmati	-12.6279
▁runderembryo	-12.6279
▁accu	-12.6279
▁gaststaat	-12.6279
▁staaldraad	-12.6279
▁olietankschepen	-12.6279
▁herverdeling	-12.6279
▁voorgedragen	-12.6279
▁douanecontrole	-12.6279
▁breuk	-12.6279
▁alfabetisch	-12.6279
▁beroepshalve	-12.6279
▁anorganisch	-12.6279
▁tijdsduur	-12.6279
▁wijnbouwsector	-12.628
▁toebrengen	-12.628
▁taalversies	-12.6281
▁klimatologische	-12.6281
▁doorgeleiding	-12.6282
▁milieuaspecten	-12.6283
▁pruimedanten	-12.6283
interventieboter	-12.6285
▁NAVO	-12.629
heidsfinanciën	-12.629
▁grondbeginselen	-12.6291
▁FINANCI	-12.6292
▁garantiefonds	-12.6292
▁garant	-12.6293
▁voorbereiden	-12.6295
▁rechtsstelsels	-12.6296
▁plastic	-12.6296
▁Categorie	-12.6298
▁kolen	-12.6304
gelijke	-12.6305
▁getrouw	-12.6305
▁clausule	-12.6305
▁Skagerrak	-12.6305
▁knollen	-12.6305
▁karakterisering	-12.6306
▁schakelen	-12.6311
tariefconcessies	-12.6312
▁capaciteiten	-12.6317
verdeling	-12.6318
▁Chemical	-12.632
module	-12.632
▁beheerste	-12.6323
▁inspraak	-12.6323
▁prijsonder	-12.6324
▁schrift	-12.6325
▁trek	-12.6326
ennomenclatuur	-12.6333
ho	-12.6335
▁programmatuur	-12.6337
▁beslagen	-12.6338
juni	-12.634
vennootschap	-12.6342
▁Iran	-12.6346
▁delicten	-12.6356
▁betwijfelde	-12.6356
▁aansluit	-12.6357
▁vervoert	-12.6359
▁Tempus	-12.6359
▁storting	-12.6361
kanalen	-12.6363
▁stralings	-12.6365
verminderingen	-12.6366
▁selectieve	-12.6371
blad	-12.638
▁stempels	-12.6382
va	-12.6394
bevestigingspunt	-12.64
▁stroop	-12.6401
▁ingericht	-12.6408
baarheid	-12.6416
▁GEBRUIK	-12.6418
verbinding	-12.642
▁indieners	-12.6425
▁privaat	-12.6425
weg	-12.6425
line	-12.6426
wijn	-12.6427
▁hoorzitting	-12.643
▁rubriceringsgra	-12.6432
▁halfgeleider	-12.6433
▁crucia	-12.6445
▁Gabon	-12.6445
▁INTERNATIONA	-12.6445
IFRS	-12.6445
▁ontheffen	-12.6445
▁volkeren	-12.6445
▁herkenbaar	-12.6445
▁effectenbeurs	-12.6445
▁leed	-12.6445
▁bestreden	-12.6445
▁zitplaats	-12.6446
▁drempelprijs	-12.6446
▁onbeduidend	-12.6447
▁glazige	-12.6448
▁Cartagena	-12.645
▁olijfoliën	-12.645
▁ziekenhuizen	-12.645
▁tweederde	-12.645
▁geantwoord	-12.645
▁merkhouder	-12.6451
▁weerspiegelen	-12.6452
▁opgelopen	-12.6454
▁attesten	-12.6455
▁eindigen	-12.6455
▁aanleggen	-12.6455
▁eed	-12.6456
▁rationalisering	-12.6457
▁huurlijnen	-12.646
▁oliefabrieken	-12.6461
▁databases	-12.6462
▁aftreden	-12.6466
▁maat	-12.6467
▁aankomen	-12.647
nformeerde	-12.6471
stromen	-12.6472
▁Nomenclatuur	-12.6473
▁voederareaal	-12.6473
fm	-12.648
▁contante	-12.648
▁depot	-12.6481
soort	-12.6486
sinstrument	-12.6491
alfwitte	-12.6492
fir	-12.6492
▁thema	-12.6495
▁most	-12.6496
biedingsmarges	-12.6497
▁boekingen	-12.6499
▁Produkten	-12.6504
sstelsels	-12.6505
wholesale	-12.6505
voordelen	-12.6511
▁Solas	-12.6511
▁Phare	-12.6512
bronnen	-12.6513
▁eindverpakking	-12.6515
waaronder	-12.6515
zuur	-12.6535
stof	-12.6539
▁IAEA	-12.6543
▁stringenter	-12.6546
sperioden	-12.6546
▁verzegeld	-12.6547
▁oppervlak	-12.6549
scomponenten	-12.6559
AM	-12.6561
elfde	-12.6564
iteit	-12.6566
▁technologisch	-12.6567
▁Azië	-12.6577
sbestanddelen	-12.6579
▁Derde	-12.6581
och	-12.6582
sresultaten	-12.6584
structuren	-12.6585
concentraties	-12.6586
▁fosfor	-12.6591
rvoederbedrijven	-12.6598
▁Aanhangsel	-12.6599
'',	-12.6599
▁preferentie	-12.6602
gdom	-12.6603
▁nature	-12.6603
▁beraadslaging	-12.6605
uitrusting	-12.6611
▁overtuiging	-12.6611
▁voortbrengsel	-12.6612
sbronnen	-12.6615
▁reinigings	-12.6615
▁kiesrecht	-12.6615
▁paardepest	-12.6615
▁solidariteit	-12.6615
▁verifieert	-12.6615
▁herhalen	-12.6615
▁verwaarloosbaar	-12.6615
▁verhandelen	-12.6615
▁Groother	-12.6615
▁wegnemen	-12.6615
▁voordele	-12.6615
▁tijdschriften	-12.6616
▁Laden	-12.6616
▁cumulatief	-12.6616
▁leert	-12.6616
▁terstond	-12.6616
BGA	-12.6616
▁bijwonen	-12.6617
voedselzekerheid	-12.6619
▁vloeit	-12.6619
▁transversa	-12.6619
▁overgaat	-12.6619
▁bijscholing	-12.662
▁olijfoliemarkt	-12.6623
volledig	-12.6623
▁Statistiek	-12.6626
▁Helsinki	-12.6627
▁hormonen	-12.6627
▁vervreemding	-12.6627
▁exportproducten	-12.6629
▁Londen	-12.6634
▁passief	-12.6635
▁vakantie	-12.6635
▁onderweg	-12.6636
▁aangedreven	-12.6637
▁huiden	-12.6638
▁gasvormige	-12.6639
staken	-12.664
▁retributie	-12.6642
▁streefprijs	-12.6643
▁overleden	-12.6645
▁KOSTEN	-12.6645
▁karton	-12.6648
sbepaling	-12.665
▁giftige	-12.6655
▁Power	-12.6658
▁basispootgoed	-12.6658
levingspensioen	-12.666
tte	-12.6662
▁gedragsregels	-12.6667
▁uitvallen	-12.667
▁instelt	-12.6674
▁overwegende	-12.6675
▁registreert	-12.6676
seizoen	-12.6679
▁inlading	-12.6679
▁firma	-12.6682
▁overgangs	-12.6686
▁preferenties	-12.6686
▁ouders	-12.6687
▁toelage	-12.6688
▁rug	-12.6689
Rev	-12.669
specificaties	-12.6691
Duitsland	-12.6694
meldende	-12.6695
▁AU	-12.6703
ophoudvergoeding	-12.6705
bloemige	-12.6705
vi	-12.6708
▁vlotte	-12.6709
▁desgewenst	-12.6714
▁voordelig	-12.6716
leiding	-12.6718
IS	-12.6721
▁begrotingen	-12.6729
▁patroon	-12.6732
▁twaalfde	-12.6745
▁Subsidie	-12.6747
vastgoed	-12.6756
▁subsidiebedrag	-12.676
▁wachttijd	-12.6773
▁productdossier	-12.6773
▁prijsniveau	-12.6777
▁serie	-12.6777
▁meetmethoden	-12.6779
processen	-12.6779
▁herschikking	-12.6783
tijdvakken	-12.6784
ikwij	-12.6787
▁Afhankelijk	-12.6787
▁afgehandeld	-12.6787
▁harmonisering	-12.6787
▁installeren	-12.6787
▁millimeter	-12.6787
▁reputatie	-12.6787
▁telefonie	-12.6787
▁uitstrekt	-12.6787
▁Bedoeld	-12.6787
▁btw	-12.6787
▁rundveestapel	-12.6787
▁succesvol	-12.6787
▁woonstaat	-12.6787
▁visziekten	-12.6787
Satellietcentrum	-12.6787
▁randvoorwaarden	-12.6787
▁roeien	-12.6788
▁SBS	-12.6788
▁Mexicaanse	-12.6788
modelcertificaat	-12.6788
▁reminrichtingen	-12.6791
▁toeneming	-12.6792
▁gekort	-12.6799
▁zink	-12.6799
▁failliet	-12.6799
▁zeelieden	-12.6799
▁bezittingen	-12.68
▁werkloosheids	-12.6802
▁CAS	-12.6804
▁economieën	-12.6805
▁aas	-12.6807
vervalsingen	-12.6807
▁urgent	-12.6807
▁Burgenland	-12.6807
▁Aantal	-12.6808
▁langkorrelige	-12.681
▁opvolg	-12.6814
▁premieregeling	-12.6814
▁validering	-12.6815
lichten	-12.6815
▁Herziening	-12.6815
▁bijwerken	-12.6815
icia	-12.6817
▁milieubeheer	-12.6819
ion	-12.6822
stellen	-12.6822
▁Opleiding	-12.6826
nemersvereniging	-12.6827
▁constante	-12.6836
▁IHN	-12.6837
▁deed	-12.6837
▁bb	-12.6838
pensioenen	-12.6838
centrale	-12.6841
▁liet	-12.6843
▁risicobeheer	-12.6845
▁INFORMATIE	-12.6848
▁scholing	-12.685
ISM	-12.6855
▁vertragingen	-12.6856
▁invoerdocument	-12.6866
SAO	-12.6869
melkpoeder	-12.6871
▁detail	-12.6871
srisico	-12.6875
bananen	-12.6875
Spanje	-12.6876
▁basisopleiding	-12.6876
▁laatstgenoemd	-12.6881
▁Goedkeuring	-12.6884
▁Kennisgeving	-12.6884
vertrouwelijke	-12.6884
▁FRJ	-12.6888
cyclisch	-12.6892
▁kanker	-12.6893
▁vervoerdiensten	-12.6895
▁TER	-12.6896
zaken	-12.6897
▁afsluiten	-12.6904
▁genummerd	-12.6907
▁AF	-12.6909
▁doorzichtig	-12.6909
▁Vast	-12.6909
teekproefsgewijs	-12.691
▁Arbeids	-12.691
▁poeder	-12.6911
▁Actieplan	-12.6911
▁beschikkende	-12.6916
sdrempels	-12.6922
▁ingezaaid	-12.6923
▁kortbereikradar	-12.6929
▁leidraad	-12.6929
▁intensieve	-12.6936
prijsverschillen	-12.6937
▁offshore	-12.6945
▁Conclusie	-12.6947
▁subcontingent	-12.6949
▁RECHT	-12.6952
Bij	-12.6956
▁Re	-12.6957
problemen	-12.6959
scala	-12.6961
▁Development	-12.6963
▁Ombudsman	-12.6963
▁Protection	-12.6963
▁berokkenen	-12.6963
▁codificatie	-12.6963
▁opgeteld	-12.6963
▁verklikstoffen	-12.6963
▁ondergeschikt	-12.6963
▁babyvoeding	-12.6963
▁naderhand	-12.6963
▁namaak	-12.6963
▁veeziekten	-12.6963
▁vrijwaren	-12.6963
▁wegvallen	-12.6963
▁graansector	-12.6964
▁opleidingssteun	-12.6964
praktijkervaring	-12.6965
▁eender	-12.6966
▁verspreidt	-12.6967
▁Overeenstemming	-12.6967
▁handelsagent	-12.6968
▁exportmarkten	-12.697
▁subsidiariteit	-12.6971
▁bijhoudt	-12.6971
pensioen	-12.6971
▁wijnsector	-12.6972
▁necros	-12.6977
▁bruikba	-12.6978
▁vormden	-12.698
▁staatloze	-12.698
sregister	-12.698
▁basisnormen	-12.6982
bv	-12.6985
▁VER	-12.6987
▁overmakingen	-12.6987
il	-12.6988
▁handelsmerken	-12.699
▁aannemers	-12.6992
▁controlebezoek	-12.6992
▁storingen	-12.6993
leningen	-12.6997
▁diegenen	-12.6999
▁fles	-12.7
▁toezichtcomité	-12.7001
li	-12.7004
▁achtergestelde	-12.7005
▁Evaluatie	-12.7006
▁gecodeerd	-12.7016
oxide	-12.7017
▁afvalbeheer	-12.7019
▁coccidiostatica	-12.7019
▁overboeking	-12.702
▁antilichamen	-12.7024
▁hypotheek	-12.7029
▁families	-12.703
▁tank	-12.7031
▁doelen	-12.7031
▁vervuiling	-12.7032
▁afstemming	-12.7039
▁Engeland	-12.7041
▁beding	-12.7045
▁adviseur	-12.7045
▁effectiviteit	-12.7046
▁HR	-12.7046
▁onderbieding	-12.7051
Extra	-12.7051
▁proportione	-12.7054
▁melkpoeder	-12.7055
▁milieukeuren	-12.7058
▁SAP	-12.7058
roeporganisaties	-12.7059
niettemin	-12.706
▁opmaken	-12.7061
▁Control	-12.7065
▁Aziatisch	-12.7068
kwaliteitsklasse	-12.7071
aankoopprijs	-12.7074
▁actieplannen	-12.7075
heidsverklaring	-12.7078
▁beproevings	-12.7086
▁vreemd	-12.7087
vulling	-12.7092
▁tetra	-12.7094
▁moeilijke	-12.7096
▁Verzoek	-12.7101
sbewijs	-12.7102
OT	-12.7103
invoer	-12.7109
▁mijn	-12.711
▁veld	-12.711
▁Wel	-12.7112
▁vooruit	-12.7123
aankopen	-12.7127
▁integreren	-12.7129
fgezien	-12.7132
▁Nigeria	-12.7137
▁Via	-12.7138
uality	-12.714
▁wegvoertuig	-12.7141
Suppl	-12.7141
Generaal	-12.7141
▁Madagaskar	-12.7141
▁Namibië	-12.7141
▁bespoedigen	-12.7141
▁cellulose	-12.7141
▁getoond	-12.7141
▁onbevredigend	-12.7141
▁schrapping	-12.7141
▁selectiviteit	-12.7141
▁uranium	-12.7141
▁werkneemster	-12.7141
▁gegroepeerd	-12.7141
▁hydraulisch	-12.7141
▁onuitwisbare	-12.7141
▁politiële	-12.7141
▁leek	-12.7141
▁balanstelling	-12.7141
▁zeescheepvaart	-12.7141
▁familieleden	-12.7141
▁Belanghebbenden	-12.7141
▁medewerkten	-12.7142
▁sardines	-12.7144
▁belastingtarief	-12.7144
▁FORMULIER	-12.7146
▁Libië	-12.7146
▁Berekening	-12.7146
▁ambassadeurs	-12.7147
▁werkmethoden	-12.7148
▁halteplaatsen	-12.7148
▁onschadelijk	-12.715
▁meeverbrandings	-12.7152
neming	-12.7153
▁afgedankt	-12.7154
▁Athene	-12.7154
▁laad	-12.7155
▁ondergeschikte	-12.7157
▁jacht	-12.7158
▁uitsnijderijen	-12.7159
▁rusttijden	-12.7162
▁nominaal	-12.7162
▁Galileo	-12.7162
▁ASOR	-12.7162
▁stortplaatsen	-12.7162
▁markeringen	-12.7167
IGE	-12.7171
▁vrijwaring	-12.7172
seenheden	-12.7176
▁opent	-12.7184
▁publikaties	-12.7187
▁maaswijdten	-12.7192
apparaat	-12.7192
mona	-12.7192
▁deels	-12.7195
▁Alpen	-12.7195
stechnieken	-12.7199
oedselingrediënt	-12.7204
▁ERU	-12.7205
der	-12.7206
▁suikergehalte	-12.7209
▁verwervingen	-12.7212
ir	-12.7222
▁Ha	-12.7225
tussen	-12.7235
▁assen	-12.7241
zetten	-12.7244
▁bestuursrecht	-12.7245
Amerikaanse	-12.7249
▁winstgevend	-12.7252
▁line	-12.7254
▁meerjarig	-12.7256
quota	-12.7259
vervoersdiensten	-12.7259
▁rentepercentage	-12.726
informatiepakket	-12.7266
▁agenten	-12.7266
fabrikant	-12.7271
▁inschakeling	-12.7273
iligheidsgordels	-12.7274
gressieve	-12.7275
▁Actie	-12.7275
▁gebruikelijk	-12.728
▁substanti	-12.7286
the	-12.7292
▁stevig	-12.7292
▁nettokosten	-12.7296
▁gebruiksdier	-12.7308
controlebezoeken	-12.7309
▁Vrij	-12.7311
heidsuitgaven	-12.7313
toezichtdocument	-12.7319
▁evoluti	-12.7323
▁hematopo	-12.7323
▁Geneesmiddelen	-12.7323
▁Oezbekistan	-12.7323
▁Oracle	-12.7323
▁daalt	-12.7323
▁deegwaren	-12.7323
▁handhaaft	-12.7323
▁impliciet	-12.7323
▁overgeboekt	-12.7323
▁toetreedt	-12.7323
▁Centraal	-12.7323
▁ondersteunt	-12.7323
tabaksfabrikaten	-12.7323
▁bestraffing	-12.7323
▁afgestaan	-12.7323
▁visserijtakken	-12.7324
▁maximumareaal	-12.7324
▁prijsvraag	-12.7324
▁duurder	-12.7325
▁terminologie	-12.7325
▁fabricagekosten	-12.7325
▁rails	-12.7327
▁eenhoevigen	-12.7327
▁actuari	-12.7328
▁beslechten	-12.7332
▁aandoen	-12.7333
▁telersgroepen	-12.7333
onele	-12.7335
ijs	-12.7336
▁hermetisch	-12.7336
▁DEFINITIES	-12.7336
▁afzetten	-12.7337
▁BETROKKEN	-12.7337
io	-12.7339
ras	-12.7339
▁innoverende	-12.7339
▁zoet	-12.7344
▁ADMINISTRATIE	-12.7344
▁Uitwisseling	-12.7345
kledingproducten	-12.735
▁poten	-12.7351
▁verminderingen	-12.7351
)";	-12.7352
▁vrachtvervoer	-12.7352
▁veertien	-12.7353
▁Rijn	-12.7353
▁nacontrole	-12.7359
▁beursgenoteerd	-12.7361
▁vrees	-12.7365
▁Citrus	-12.7371
▁Nu	-12.7375
Ministr	-12.7382
▁films	-12.7385
▁piek	-12.7395
▁dozen	-12.7395
▁kruis	-12.7398
invoerregelingen	-12.7402
▁Committee	-12.7404
▁liggende	-12.7405
komst	-12.7405
▁EMEP	-12.7412
▁routine	-12.7415
▁aluminium	-12.7415
mediterra	-12.7415
deelnemers	-12.7416
kracht	-12.7421
aanbod	-12.7421
▁voorwaardelijke	-12.7422
▁vermeerderings	-12.7425
▁wetshandhavings	-12.7426
houder	-12.7429
▁zakken	-12.743
▁aansprakelijke	-12.7435
▁continue	-12.7435
erbare	-12.7437
intensieve	-12.7438
▁Hong	-12.7438
▁beknopt	-12.744
delen	-12.744
▁daaropvolgend	-12.7441
▁regelgevend	-12.7441
▁kanalen	-12.7444
▁kilometer	-12.7444
fabrikanten	-12.7445
▁EMAS	-12.7447
▁aanvangen	-12.7448
▁fora	-12.7454
drempel	-12.746
bestanden	-12.7462
uren	-12.7462
▁Vlees	-12.7469
zonder	-12.7472
▁vergaderperiode	-12.7473
▁fosfaat	-12.7473
▁q	-12.7473
▁ruimen	-12.7476
▁Interne	-12.7488
▁diamant	-12.749
▁driemaandelijks	-12.7492
▁reder	-12.7493
▁bekendmaakt	-12.7493
▁Rev	-12.7496
cional	-12.7498
SA	-12.7501
▁Wit	-12.7502
▁fokkers	-12.7508
▁BETREKKING	-12.7508
drijfsvoertuigen	-12.7508
▁garnaal	-12.7508
▁Geschillen	-12.7508
▁Kaapverdië	-12.7508
▁aanmoediging	-12.7508
▁plenair	-12.7508
▁regionalisering	-12.7508
▁verhindert	-12.7508
▁zonodig	-12.7508
▁FMS	-12.7508
▁zegennetten	-12.7508
▁hennepvezels	-12.7508
runderbrucellose	-12.7508
▁vervaldag	-12.7508
▁gestempeld	-12.7508
▁MOET	-12.7508
▁distilleerderij	-12.7508
ZONDER	-12.7508
▁Balkan	-12.7508
▁dwanglicentie	-12.7509
▁reconventi	-12.7509
▁Eura	-12.7509
▁kwetsbaar	-12.7509
▁assemblage	-12.7509
▁bewerkstelligd	-12.7509
▁Filipijnen	-12.7509
▁zeevisserij	-12.7509
▁belegd	-12.751
▁onderschreven	-12.7511
belangenconflict	-12.7511
▁nalaten	-12.7511
bijdragen	-12.7512
▁workshops	-12.7513
▁thematische	-12.7515
▁rundveebeslagen	-12.7516
▁kwaliteitsborg	-12.7519
▁garantiedrempel	-12.752
▁Namen	-12.752
▁Volledig	-12.7523
▁voortbrengselen	-12.7524
edieningsorganen	-12.7524
▁regelt	-12.7525
▁ophalen	-12.7526
▁actiefondsen	-12.7526
▁suikers	-12.7531
▁getuigschriften	-12.7538
▁referentieprijs	-12.7538
▁delict	-12.754
▁gedragscodes	-12.7541
▁afname	-12.7545
centrales	-12.7548
▁dierenartsen	-12.7549
ruimte	-12.755
ontvankelijkheid	-12.7553
▁modelformulier	-12.7553
zijde	-12.7557
▁sap	-12.7559
▁verhandelde	-12.7565
▁vee	-12.7569
beroepsprocedure	-12.757
▁beweerd	-12.7572
▁hecht	-12.7576
▁deelde	-12.7578
▁registratieblad	-12.7582
▁LNG	-12.7582
▁onttrekking	-12.7583
ts	-12.7585
▁Sub	-12.7597
▁drijvend	-12.7597
▁verdergaand	-12.7607
▁intensiteit	-12.7607
gedeelte	-12.7607
▁intensiever	-12.7608
▁ouderdom	-12.7612
blijven	-12.7616
▁dank	-12.7616
Kong	-12.7623
▁vermoede	-12.7624
▁Pa	-12.7625
bleken	-12.7627
apparaten	-12.7627
▁gevaccineerd	-12.7629
▁monetair	-12.763
▁uitzenden	-12.763
distorsies	-12.7635
BIJLAGE	-12.7636
Zwitserland	-12.7638
eigenschappen	-12.7638
Frankrijk	-12.7638
organen	-12.7638
indien	-12.7639
exemplaren	-12.7639
▁afgebakende	-12.7642
ap	-12.7644
genoemde	-12.7656
▁bot	-12.7657
▁detectie	-12.7657
▁begeleiden	-12.7664
grondstoffen	-12.7665
▁WL	-12.7665
▁afstamming	-12.7666
sartikelen	-12.7667
▁REGERING	-12.7669
▁romp	-12.7675
▁arti	-12.7675
rtegenwoordigers	-12.7677
▁zondag	-12.7681
▁bankrekening	-12.7683
stukken	-12.7685
▁metaal	-12.7685
handelingen	-12.7687
▁reductie	-12.7688
▁afdruk	-12.7689
hl	-12.7693
▁balansen	-12.7693
toepasselijkheid	-12.7693
▁asiel	-12.7695
▁onverenigba	-12.7697
▁Mauritius	-12.7697
GENERAAL	-12.7697
▁Angola	-12.7697
▁Stuurgroep	-12.7697
▁afbreken	-12.7697
▁concentreren	-12.7697
▁gestopt	-12.7697
▁hemzelf	-12.7697
▁manifestaties	-12.7697
▁ontlenen	-12.7697
▁piraterij	-12.7697
▁verhindering	-12.7697
▁bondsland	-12.7697
▁personele	-12.7697
▁hazelnoten	-12.7697
▁zaaidoeleinden	-12.7697
▁hoogpathogene	-12.7697
▁Eures	-12.7697
▁financiert	-12.7697
▁opeisbaar	-12.7697
▁septies	-12.7697
▁visserijtak	-12.7697
▁boekingssysteem	-12.7698
▁Behandeling	-12.7698
▁grootteklassen	-12.7698
Tak	-12.7698
▁viii	-12.7698
▁plantenrassen	-12.7698
▁maximumtermijn	-12.7699
▁vasteland	-12.77
▁bestelling	-12.77
▁zakengeheimen	-12.7701
▁verbouwd	-12.7701
▁opgehaald	-12.7701
▁Alimentarius	-12.7702
▁Dominica	-12.7702
▁Krediet	-12.7702
▁Roemeens	-12.7702
▁Tanzania	-12.7702
▁vreemdelingen	-12.7703
▁rekenplichtigen	-12.7703
▁dieselbrandstof	-12.7706
emie	-12.7707
▁mutageen	-12.771
▁wal	-12.7712
▁rookaroma	-12.7719
▁EAVV	-12.7719
TE	-12.7719
▁interesten	-12.7722
▁overmatig	-12.7725
▁emittenten	-12.7729
▁marktsegment	-12.773
▁alomvattende	-12.773
▁materiaalbalans	-12.7736
▁wenselijkheid	-12.7745
▁gevuld	-12.7745
▁wegingsfactor	-12.7747
▁stimulerings	-12.7747
▁rook	-12.775
uitvoerings	-12.7754
▁prognose	-12.7755
NS	-12.7769
▁APR	-12.7776
▁zestig	-12.7776
▁or	-12.7777
olie	-12.778
overlegprocedure	-12.7782
bit	-12.7783
sbenutting	-12.7784
▁ontbundeld	-12.7786
making	-12.7789
inspectie	-12.779
bovenste	-12.7797
▁discriminerend	-12.7799
▁flow	-12.7808
iv	-12.7811
ning	-12.7813
▁po	-12.7815
sgegevens	-12.7816
vrij	-12.7818
sduur	-12.7829
OLAF	-12.7833
IHN	-12.7834
inulinestroop	-12.7836
Technisch	-12.7837
eerste	-12.784
▁begrijpelijke	-12.7841
▁UK	-12.7843
motoren	-12.7846
▁constant	-12.7848
▁voorbereidingen	-12.7849
dische	-12.7853
crisisbeheersing	-12.7861
▁film	-12.7863
toelagen	-12.7865
▁cash	-12.787
REN	-12.787
▁Degene	-12.7875
▁tariefpost	-12.7876
▁ingrijpen	-12.7876
voerbeperkingen	-12.7884
ICT	-12.7887
▁heek	-12.7888
▁zit	-12.7888
vermijdbare	-12.7889
▁begunstiging	-12.7889
▁gefactureerd	-12.7889
▁ingezameld	-12.7889
▁uitbening	-12.7889
▁belichaamd	-12.7889
▁herziet	-12.7889
▁stralingsgevaar	-12.7889
▁aannemelijk	-12.7889
▁DIENSTEN	-12.7889
▁pesticiden	-12.789
▁spoorwegsysteem	-12.789
▁Cuba	-12.789
▁waarmerking	-12.789
▁zuurstof	-12.789
▁onpartijdigheid	-12.789
▁welomschreven	-12.789
▁Eieren	-12.7891
▁Slotbepalingen	-12.7891
▁Eurodac	-12.7891
▁vrijdag	-12.7891
▁grondnoten	-12.7891
▁douanezaken	-12.7892
▁restaurants	-12.7892
▁rooien	-12.7892
zorgsbeginsel	-12.7893
▁winter	-12.7893
▁minne	-12.7894
▁teweeg	-12.7894
▁onbevoegden	-12.7895
▁zichtbaarheid	-12.7896
▁embryoteams	-12.7896
▁dieselmotoren	-12.7897
▁koopt	-12.7897
▁wettigheid	-12.7897
▁Gebieden	-12.7898
▁opgebouwd	-12.7899
aandelenkapitaal	-12.7901
dekking	-12.7903
▁Kattegat	-12.7903
▁ovoalbumine	-12.7903
▁fosforzuur	-12.7903
▁generiek	-12.7903
▁kweek	-12.7905
sher	-12.7908
▁Deelname	-12.7912
▁BASF	-12.7912
▁kartel	-12.7913
▁kalkoenen	-12.7915
voederdoeleinden	-12.7918
▁TOE	-12.792
richting	-12.792
▁kleurstof	-12.7921
▁onbeperkt	-12.7922
▁verbrand	-12.7922
▁bewerken	-12.7925
▁profiel	-12.7926
▁Nationa	-12.7926
▁invullen	-12.7928
▁Chemische	-12.793
biedingsmarge	-12.7933
▁extractiemiddel	-12.7934
snelheids	-12.7937
▁anjers	-12.794
▁peper	-12.7941
▁BSEG	-12.7941
sverslagen	-12.7942
▁auteursrechten	-12.7942
▁stuurinrichting	-12.7942
▁toeslagrecht	-12.7952
▁werkende	-12.7959
operaties	-12.7959
overwegingen	-12.796
▁zuidelijke	-12.7961
controlediensten	-12.7964
▁VERVOER	-12.7965
▁Standard	-12.7968
▁prudent	-12.7971
▁EGE	-12.7971
▁vervolgen	-12.7971
seenheid	-12.7977
exportprestaties	-12.7981
standaard	-12.7981
svermindering	-12.7987
▁winstmarges	-12.7991
waarts	-12.7994
derheidsbelang	-12.8011
clausule	-12.8012
▁mager	-12.8016
▁toegezegd	-12.8017
▁opgevraagd	-12.8018
zekerheid	-12.8022
▁najaar	-12.8025
▁Investerings	-12.8026
▁balanstotaal	-12.803
kel	-12.803
verlichting	-12.8037
beoordelingen	-12.8038
EUPM	-12.8041
toegelaten	-12.8042
klaar	-12.8043
spremie	-12.8044
toeslagrechten	-12.8045
▁alias	-12.8048
heidsopdracht	-12.8051
▁stations	-12.8062
▁Hun	-12.8069
zone	-12.807
▁ondergrond	-12.8072
kort	-12.808
▁kalium	-12.8081
▁Deskundigen	-12.8084
anische	-12.8084
▁aanhoudperiode	-12.8084
▁dosering	-12.8085
▁EAV	-12.8085
pistaches	-12.8085
▁Stockholm	-12.8085
▁aanhef	-12.8085
▁bilateraal	-12.8085
▁clementines	-12.8085
▁gegenereerd	-12.8085
▁ratificatie	-12.8085
▁suggestie	-12.8085
▁verzoening	-12.8085
▁verzorgt	-12.8085
▁volgrecht	-12.8085
▁borgtocht	-12.8085
ompensatiebedrag	-12.8085
▁subregionaal	-12.8085
▁Wales	-12.8085
▁consistentie	-12.8085
▁onaanvaardbaar	-12.8085
▁toont	-12.8086
▁maximummassa	-12.8086
▁bekleden	-12.8086
▁trichinen	-12.8086
▁radioactiviteit	-12.8086
▁Bevoegdheid	-12.8086
▁balansdatum	-12.8086
NL	-12.8087
▁grondwettelijke	-12.8088
▁geldboeten	-12.8088
▁dolfijnen	-12.8088
▁licentiegever	-12.809
▁makreel	-12.809
▁ladingslijsten	-12.8091
Met	-12.8093
▁doorberekend	-12.8093
restituties	-12.8093
▁Raadpleging	-12.8096
▁exportlanden	-12.8096
▁intraday	-12.8098
bestanddelen	-12.8099
▁geconsumeerd	-12.8099
▁kunstvoorwerpen	-12.8099
▁ontdaan	-12.8099
▁visuele	-12.8099
▁kantines	-12.8102
▁Chemicals	-12.8104
▁bate	-12.8105
ongeschiktheid	-12.8108
▁Mo	-12.811
▁vielen	-12.811
qu	-12.8114
studies	-12.8115
▁pensioenstelsel	-12.8115
▁Procedures	-12.8119
▁methodologie	-12.8119
▁aanhangwagen	-12.812
.'';	-12.8122
▁zegel	-12.8124
▁unieke	-12.8125
▁efficiency	-12.8127
soneelsbestand	-12.8127
smaterialen	-12.8128
ven	-12.813
▁geestelijk	-12.8133
▁REKENING	-12.8135
▁Soedan	-12.8136
▁an	-12.8136
hygiëne	-12.8136
terventieprijzen	-12.8137
rlei	-12.8138
mi	-12.8146
▁PO	-12.8148
KOMEND	-12.8151
vora	-12.8152
▁Terugbetaling	-12.8155
▁heden	-12.8168
▁calcium	-12.8169
▁directeuren	-12.817
▁parelwijn	-12.8175
▁samenstellend	-12.8176
▁Pu	-12.8177
▁GEGEVENS	-12.818
tariefpraktijken	-12.8191
lt	-12.8193
prognoses	-12.8195
▁handelsbescherm	-12.8195
▁vergelijkingen	-12.8195
▁marktonderzoek	-12.8209
▁recent	-12.821
▁gevoeligheid	-12.8211
▁dichtheid	-12.8211
▁gekoppelde	-12.8214
▁hoofdactiviteit	-12.8214
▁consequent	-12.8215
sverrichtingen	-12.822
▁populaties	-12.8223
eroepsactiviteit	-12.8224
▁psycho	-12.8226
posten	-12.8226
bewijzen	-12.8226
▁Brief	-12.8226
▁FIOV	-12.8228
▁ingebracht	-12.8232
uittreksel	-12.8232
sgrondslag	-12.8234
toewijzing	-12.8235
overweging	-12.8236
▁adviserend	-12.8239
proeven	-12.824
toestand	-12.8241
standspakketten	-12.8245
Wet	-12.8247
▁GEMEENSCHAPPE	-12.8248
▁index	-12.8249
FAO	-12.8249
Verenigd	-12.825
merk	-12.826
sverkeer	-12.8263
Andere	-12.8264
▁uitgezet	-12.8267
▁rentesubsidie	-12.827
▁gezuiverd	-12.8271
▁havenfaciliteit	-12.8272
▁bewuste	-12.8282
▁Baz	-12.8282
garantie	-12.8283
▁veebezetting	-12.8285
▁staking	-12.8285
dheidsbewijs	-12.8285
Hijra	-12.8285
▁Personeelsleden	-12.8285
▁ecotoxiciteit	-12.8285
▁gehinderd	-12.8285
▁intrekt	-12.8285
▁rationalisatie	-12.8285
▁uitgestald	-12.8285
▁vermenging	-12.8285
fijt	-12.8285
▁bespreekt	-12.8285
▁gesleept	-12.8285
▁onverkort	-12.8285
▁ophoudprijs	-12.8285
▁terugbetalen	-12.8285
▁manipulatie	-12.8285
▁onbekend	-12.8285
▁melitensis	-12.8285
▁bestekken	-12.8286
▁kersen	-12.8286
topografieën	-12.8286
▁belastingfraude	-12.8286
▁echtgenoten	-12.8286
▁rozen	-12.8286
▁tariefindeling	-12.8287
▁zwakke	-12.8287
▁inzamelen	-12.8287
▁plantensoorten	-12.8287
sverschillen	-12.8287
▁daarenboven	-12.8288
▁kapitaalrecht	-12.8288
▁wijngaarden	-12.829
▁godsdienst	-12.829
▁assistenten	-12.829
▁vuurwapens	-12.8292
▁schadevordering	-12.8293
▁persistente	-12.8297
▁overhandigd	-12.8299
▁Bangladesh	-12.83
▁Infineon	-12.83
▁Miquelon	-12.83
▁VERBAND	-12.83
▁waarme	-12.8301
▁gezinnen	-12.8302
▁bewaarder	-12.8302
▁noordoostelijk	-12.8306
▁geneeskundige	-12.8307
itaire	-12.8308
▁overcompensatie	-12.8312
▁hormon	-12.8313
hun	-12.8313
▁logistieke	-12.8315
vena	-12.8316
▁Regels	-12.8318
▁accumulatie	-12.8318
▁Openbare	-12.8318
▁boetes	-12.8319
▁lineair	-12.832
▁Intern	-12.832
▁procedureregels	-12.8322
▁machtsposities	-12.8323
▁esters	-12.834
▁eenvoudiger	-12.8342
▁vervoerdocument	-12.8343
ance	-12.8344
taakomschrijving	-12.8348
▁langlopende	-12.8348
▁stond	-12.836
▁universiteit	-12.8364
▁Zie	-12.8366
▁lampen	-12.8367
▁VERENIGD	-12.8369
▁Franstalige	-12.8374
▁OBD	-12.8374
▁trends	-12.8376
▁beschrijvingen	-12.838
▁vloeistof	-12.8393
▁optie	-12.8402
yl	-12.8408
▁TI	-12.8409
elijkheden	-12.8415
conserveermiddel	-12.8426
▁universitair	-12.8427
analyses	-12.8427
▁zelfstandig	-12.843
▁banen	-12.8432
▁ringen	-12.8433
▁leef	-12.8437
▁vangt	-12.8437
begeleide	-12.8441
worden	-12.8445
▁epidemiologisch	-12.8445
opleidingseisen	-12.8448
verkoopprijzen	-12.8449
▁El	-12.845
nse	-12.8451
erde	-12.8451
▁staand	-12.8452
stijging	-12.8457
▁Duidelijk	-12.846
gelieerd	-12.8462
verontreinigend	-12.8463
internationale	-12.8463
inachtneming	-12.8463
▁dak	-12.8464
▁rijwiel	-12.8469
▁bewakings	-12.847
▁vrouw	-12.8471
▁gene	-12.8479
▁Uitsluitend	-12.8483
▁Onderhoud	-12.8486
▁proeve	-12.8488
▁gewichtsklasse	-12.8488
▁ziekenhuis	-12.8489
▁leemte	-12.8489
▁aardappel	-12.8489
▁septi	-12.8489
▁principi	-12.8489
▁Jamaica	-12.8489
▁SMVP	-12.8489
▁Tarieven	-12.8489
▁belemmert	-12.8489
▁geschetst	-12.8489
▁plechtig	-12.8489
▁telegram	-12.8489
▁vestigt	-12.8489
▁kaliumchloride	-12.8489
▁Grote	-12.8489
▁zwaarder	-12.8489
▁afhangen	-12.8489
▁passeren	-12.849
▁nectarines	-12.849
spill	-12.849
▁chloor	-12.849
▁prijsvragen	-12.849
▁openstaat	-12.8491
inia	-12.8491
▁handleiding	-12.8492
▁pensioenfondsen	-12.8493
▁forum	-12.8493
▁ongeluk	-12.8495
▁aanmaak	-12.8495
▁BerlinHyp	-12.8495
▁gezegd	-12.8495
▁Militair	-12.8495
▁voorvoeten	-12.8495
▁opheffen	-12.8496
Groep	-12.8496
▁mengen	-12.8496
▁Afwijkingen	-12.8497
▁werkenden	-12.8498
▁Brit	-12.8498
▁herstellers	-12.85
▁westen	-12.8502
▁vezel	-12.8504
▁ruimtelijke	-12.8504
▁overuren	-12.8505
▁koplichten	-12.8507
▁azoxystrobine	-12.8508
▁teeltcontracten	-12.851
▁vredesproces	-12.8514
▁onaangekondigde	-12.8515
genda	-12.8516
▁cofinanciering	-12.8516
▁bemonsterd	-12.8516
ly	-12.8517
▁sleutel	-12.8518
zaad	-12.8519
▁inschrijven	-12.8523
aleer	-12.8527
▁gegevensbanken	-12.8531
eerd	-12.8533
▁vonden	-12.8533
▁aangezuiverd	-12.8534
lijnen	-12.8545
regionale	-12.8549
▁rangen	-12.855
▁likeurwijn	-12.8556
vetgehalte	-12.8557
ium	-12.8563
grondstations	-12.8565
soverwegingen	-12.8572
onderzoeksbureau	-12.8577
▁realistisch	-12.8577
terventieaankoop	-12.8588
▁minimumniveau	-12.8589
▁eau	-12.859
[...]
