<unk>	0
<s>	0
</s>	0
▁the	-2.74342
▁of	-3.20321
▁	-3.30283
,	-3.50425
▁to	-3.76425
▁in	-3.86215
1	-3.95046
▁and	-3.96346
.	-4.0583
0	-4.09127
2	-4.12055
)	-4.15031
▁(	-4.20494
9	-4.41479
▁for	-4.56503
/	-4.60557
▁be	-4.61705
3	-4.70703
▁shall	-4.72493
▁a	-4.75538
▁by	-4.89583
4	-4.93266
▁or	-4.98892
5	-4.99856
▁on	-5.00046
7	-5.09358
8	-5.10975
6	-5.13262
▁Article	-5.16034
▁with	-5.24049
▁that	-5.25395
▁The	-5.29961
▁is	-5.303
▁as	-5.32943
;	-5.38697
▁Member	-5.38715
▁Regulation	-5.44781
-	-5.4899
▁which	-5.52427
▁this	-5.61812
▁No	-5.62372
▁Community	-5.64838
(	-5.66333
▁Commission	-5.70278
▁from	-5.73201
EC	-5.75383
▁States	-5.7807
▁not	-5.80773
EEC	-5.81902
▁are	-5.86197
▁Directive	-5.86937
:	-5.99183
▁may	-6.0384
▁an	-6.13085
▁Council	-6.16077
▁it	-6.16952
▁State	-6.2083
s	-6.20953
▁should	-6.21096
▁at	-6.21777
▁referred	-6.22704
▁accordance	-6.25752
▁Annex	-6.27397
▁products	-6.30231
▁other	-6.31205
),	-6.32612
▁under	-6.33389
▁measures	-6.35935
▁European	-6.37635
▁down	-6.38459
▁-	-6.40089
▁any	-6.42407
a	-6.43369
▁Whereas	-6.43607
▁its	-6.46214
▁such	-6.4648
_	-6.48941
▁have	-6.496
▁their	-6.51119
BAR	-6.53496
▁In	-6.5594
▁has	-6.5625
▁provisions	-6.56302
▁_	-6.57612
▁provided	-6.58935
▁into	-6.60423
▁information	-6.60648
▁following	-6.60905
▁within	-6.62953
▁out	-6.63941
▁particular	-6.67411
▁been	-6.68738
▁paragraph	-6.69105
'	-6.69617
b	-6.69751
▁"	-6.73871
▁necessary	-6.73964
▁where	-6.76069
▁market	-6.7608
▁Decision	-6.77965
▁laid	-6.81701
▁all	-6.81785
▁than	-6.87019
▁period	-6.87156
▁those	-6.88671
▁application	-6.89096
▁concerned	-6.91027
▁between	-6.91404
▁authorities	-6.92752
▁rules	-6.93365
▁conditions	-6.93371
▁must	-6.93836
ing	-6.9789
▁amended	-6.98333
▁apply	-6.98715
▁was	-6.98853
▁set	-7.00251
▁procedure	-7.01137
▁Agreement	-7.0194
▁regard	-7.03257
▁certain	-7.03892
▁competent	-7.04369
▁one	-7.04834
▁they	-7.06056
▁A	-7.06758
▁appropriate	-7.0715
▁each	-7.0811
▁aid	-7.08174
▁order	-7.08444
"	-7.09028
▁if	-7.12367
▁use	-7.1277
▁made	-7.12894
▁national	-7.12971
▁ensure	-7.13462
▁Committee	-7.15323
c	-7.17111
▁these	-7.17746
▁This	-7.18764
▁THE	-7.19246
▁whereas	-7.20609
▁case	-7.20926
▁take	-7.21824
▁year	-7.22027
▁third	-7.22346
▁I	-7.22593
▁requirements	-7.24688
▁date	-7.25974
▁%	-7.26062
▁production	-7.2845
▁time	-7.29947
▁thereof	-7.29969
▁also	-7.30664
▁up	-7.31333
▁basis	-7.31676
▁countries	-7.32028
▁used	-7.32163
▁product	-7.32308
▁account	-7.35503
▁concerning	-7.36065
▁respect	-7.36068
▁authority	-7.36829
▁subject	-7.37513
▁first	-7.39681
▁taken	-7.40649
▁'	-7.40675
▁only	-7.41253
▁established	-7.41415
▁force	-7.42085
▁replaced	-7.42652
▁more	-7.42864
▁Treaty	-7.43285
▁goods	-7.43597
▁no	-7.4365
▁after	-7.43726
▁It	-7.46059
▁means	-7.46121
d	-7.46724
▁financial	-7.4709
▁December	-7.47761
▁Having	-7.47924
▁imports	-7.49088
▁relating	-7.49524
▁Articles	-7.52196
e	-7.52822
▁same	-7.53356
▁system	-7.548
▁therefore	-7.55821
▁trade	-7.56608
▁pursuant	-7.56742
▁adopted	-7.5681
▁data	-7.56886
▁were	-7.57408
▁Where	-7.57657
▁will	-7.58006
▁common	-7.592
▁last	-7.59754
▁part	-7.5992
▁during	-7.60439
▁before	-7.6071
▁health	-7.61163
▁customs	-7.61323
▁level	-7.61841
▁II	-7.62002
▁Republic	-7.62272
▁OF	-7.62514
▁[	-7.63169
▁specific	-7.6334
▁applicable	-7.63435
▁number	-7.63649
▁public	-7.648
▁amount	-7.65216
).	-7.6539
▁export	-7.65687
▁new	-7.65988
▁without	-7.67258
▁June	-7.67961
▁technical	-7.69157
▁relevant	-7.69743
▁country	-7.69944
▁protection	-7.70449
▁provide	-7.71482
▁including	-7.71818
▁request	-7.72825
▁implementation	-7.72894
▁decision	-7.7422
▁services	-7.74407
▁For	-7.74668
▁when	-7.7483
▁price	-7.75665
▁carried	-7.76183
▁purposes	-7.76775
▁import	-7.77261
▁granted	-7.78029
▁non	-7.78841
▁January	-7.78876
▁animals	-7.79109
▁years	-7.80744
▁procedures	-7.80928
▁activities	-7.81043
▁territory	-7.81307
▁two	-7.8307
▁required	-7.83361
▁July	-7.83622
▁least	-7.83893
▁person	-7.84353
▁point	-7.84374
▁available	-7.85078
▁covered	-7.86057
▁subparagraph	-7.87783
▁C	-7.87787
▁reference	-7.87947
▁intended	-7.88432
▁listed	-7.89127
▁control	-7.89297
▁marketing	-7.90278
▁form	-7.90615
▁producers	-7.91176
▁would	-7.91329
▁possible	-7.91564
▁list	-7.91741
▁prices	-7.91779
▁quantities	-7.91982
▁general	-7.92661
▁can	-7.929
▁establishing	-7.93486
▁so	-7.93947
▁Union	-7.94503
▁view	-7.95404
▁type	-7.95409
▁animal	-7.95529
▁law	-7.9636
▁laying	-7.96524
▁given	-7.96928
▁applied	-7.96946
▁industry	-7.97215
▁report	-7.9731
▁second	-7.97372
▁submitted	-7.97905
▁months	-7.98126
▁purpose	-7.9904
▁arrangements	-7.99692
▁cases	-7.99964
▁S	-8.00138
▁approved	-8.00159
▁them	-8.00193
▁administrative	-8.00294
▁Parliament	-8.00569
▁programme	-8.00607
▁end	-8.01074
▁persons	-8.01168
▁transport	-8.01415
▁considered	-8.01422
▁origin	-8.02138
▁question	-8.03192
▁place	-8.03323
▁value	-8.03594
▁agricultural	-8.0361
▁does	-8.03685
▁E	-8.03823
▁who	-8.04317
▁costs	-8.04592
▁regards	-8.05441
)(	-8.05523
▁opinion	-8.05608
▁amending	-8.05764
▁substances	-8.06567
▁effect	-8.0661
or	-8.07288
▁prejudice	-8.07682
▁If	-8.08253
▁development	-8.08737
▁comply	-8.08877
▁legal	-8.09251
▁make	-8.09283
▁three	-8.09426
▁maximum	-8.09428
▁being	-8.09888
▁However	-8.10045
▁hereby	-8.10063
▁issued	-8.10344
ed	-8.10364
▁certificate	-8.1043
▁duty	-8.10882
▁entry	-8.11085
▁detailed	-8.11341
▁quantity	-8.11717
▁total	-8.12496
▁undertakings	-8.12597
▁whether	-8.1271
▁official	-8.12808
▁special	-8.13033
▁specified	-8.13155
▁producer	-8.13847
▁processing	-8.14563
▁free	-8.14965
▁limit	-8.15168
▁payment	-8.15325
▁there	-8.15555
▁III	-8.15574
▁originating	-8.15775
▁Convention	-8.16111
▁cooperation	-8.16504
▁his	-8.16613
▁added	-8.1783
▁undertaking	-8.17992
▁B	-8.18011
▁parties	-8.18191
▁management	-8.18308
▁rights	-8.18334
▁inform	-8.18458
▁area	-8.18716
▁defined	-8.18742
▁document	-8.18838
▁international	-8.19074
▁service	-8.19354
▁minimum	-8.19356
▁laws	-8.19692
▁members	-8.19934
▁against	-8.2057
▁action	-8.20941
▁economic	-8.21286
▁documents	-8.2138
▁security	-8.21513
▁Protocol	-8.21916
▁criteria	-8.22617
▁duties	-8.22759
▁legislation	-8.23459
▁additional	-8.23792
▁adopt	-8.2443
▁further	-8.2466
▁provision	-8.24834
▁October	-8.24879
▁fixed	-8.25024
▁responsible	-8.25101
al	-8.25185
▁standards	-8.26207
▁basic	-8.26273
▁rate	-8.26429
▁quality	-8.26616
▁EUR	-8.26631
▁United	-8.27415
▁May	-8.27726
▁p	-8.27985
▁Communities	-8.28239
▁having	-8.28909
▁include	-8.29432
▁applications	-8.29584
▁but	-8.29673
▁fishing	-8.29936
▁TO	-8.30129
▁day	-8.30152
▁March	-8.30159
the	-8.30488
▁do	-8.30615
▁checks	-8.30835
▁way	-8.31242
▁taking	-8.31254
▁investigation	-8.31258
▁company	-8.31272
▁meat	-8.31716
▁L	-8.31759
t	-8.31838
i	-8.31971
▁based	-8.32059
▁per	-8.32454
▁Parties	-8.32532
▁establishment	-8.32579
▁either	-8.32952
▁interest	-8.33061
▁well	-8.33602
▁implementing	-8.34387
▁material	-8.34864
▁sales	-8.35807
▁work	-8.35848
▁determined	-8.36253
▁situation	-8.36561
▁operations	-8.36812
▁follows	-8.37365
▁areas	-8.37653
▁sector	-8.37838
▁present	-8.38026
▁plant	-8.38629
▁equipment	-8.38645
▁safety	-8.38968
▁supply	-8.39133
▁above	-8.39181
▁another	-8.39765
▁contract	-8.39974
▁days	-8.40063
▁operation	-8.40093
▁cover	-8.40272
▁through	-8.40349
▁right	-8.40636
▁paid	-8.40693
▁authorised	-8.40718
▁terms	-8.40965
▁less	-8.41091
▁agreement	-8.41409
▁vehicles	-8.41546
▁companies	-8.41664
▁IN	-8.4169
▁framework	-8.41849
▁results	-8.42205
▁until	-8.42337
▁scheme	-8.43305
▁AND	-8.43442
▁meaning	-8.43577
);	-8.4369
▁April	-8.43769
▁notification	-8.44127
▁risk	-8.44299
▁seed	-8.44414
▁result	-8.44448
▁according	-8.4484
▁obligations	-8.44938
▁later	-8.45775
▁species	-8.45999
▁compliance	-8.46862
▁tax	-8.47503
▁representative	-8.47682
▁access	-8.47796
▁licences	-8.47827
]	-8.47855
▁provisional	-8.47873
▁over	-8.4788
▁said	-8.48145
▁had	-8.48418
▁body	-8.48519
▁regulations	-8.48631
▁support	-8.48909
▁name	-8.49099
▁human	-8.49145
▁own	-8.49203
▁November	-8.49323
▁programmes	-8.50274
▁tariff	-8.50434
▁Annexes	-8.50508
▁equivalent	-8.50568
▁submit	-8.50686
▁organisation	-8.50723
▁assessment	-8.50742
ly	-8.51034
▁provides	-8.51078
▁need	-8.51223
▁On	-8.51496
▁methods	-8.51639
▁policy	-8.51787
▁inspection	-8.51863
▁different	-8.52039
▁bodies	-8.52654
▁field	-8.53006
▁annual	-8.53161
▁With	-8.53305
▁existing	-8.53361
▁office	-8.53423
▁expenditure	-8.5394
▁licence	-8.53992
▁declaration	-8.54469
▁produced	-8.54627
▁anti	-8.54998
▁limits	-8.55273
▁consumption	-8.5532
▁concluded	-8.56054
▁milk	-8.5606
▁vessels	-8.56066
n	-8.56345
▁could	-8.56451
▁September	-8.56987
▁As	-8.56993
▁group	-8.57122
▁assistance	-8.57268
▁Kingdom	-8.57397
▁approval	-8.59118
▁event	-8.59613
▁agreements	-8.59979
▁capacity	-8.59987
▁individual	-8.60043
▁objectives	-8.60308
▁reasons	-8.60327
▁veterinary	-8.60505
▁contracts	-8.6057
▁both	-8.61015
▁air	-8.61021
▁paragraphs	-8.61484
▁authorisation	-8.61623
▁received	-8.61664
▁due	-8.61806
▁intervention	-8.62203
▁levels	-8.62593
▁exporting	-8.6291
▁month	-8.63166
▁establish	-8.63382
▁working	-8.63452
y	-8.63713
▁storage	-8.63795
▁require	-8.63955
▁registered	-8.64233
▁applicant	-8.64268
f	-8.64285
▁internal	-8.6436
ED	-8.64387
▁carry	-8.64473
▁February	-8.64941
▁related	-8.65208
▁imported	-8.65266
▁nature	-8.6541
▁systems	-8.65456
▁addition	-8.66109
▁evidence	-8.66317
▁competition	-8.66813
▁business	-8.66867
`	-8.66971
▁Official	-8.6706
m	-8.67688
▁investment	-8.67812
▁average	-8.68084
S	-8.68091
▁Economic	-8.68385
▁COMMISSION	-8.68491
▁natural	-8.68553
▁issue	-8.68581
▁Party	-8.68737
▁monitoring	-8.68937
▁Chapter	-8.6914
▁Journal	-8.69162
▁REGULATION	-8.69205
▁review	-8.69619
▁enter	-8.69803
▁proposal	-8.69806
▁drawn	-8.69928
▁resources	-8.70071
▁certificates	-8.70132
▁already	-8.70162
▁training	-8.70359
dumping	-8.70595
▁refund	-8.70727
▁decisions	-8.70743
▁single	-8.70992
▁institutions	-8.7119
in	-8.71257
▁IV	-8.71531
▁notify	-8.71597
▁treatment	-8.71609
▁grant	-8.71729
▁obtained	-8.71912
▁effective	-8.72043
▁measure	-8.72256
▁content	-8.72257
▁insurance	-8.72624
▁notified	-8.72639
▁increase	-8.72644
▁amounts	-8.72656
▁whose	-8.72851
▁derogation	-8.73092
▁containing	-8.73213
▁scientific	-8.73907
▁environment	-8.7409
▁exchange	-8.74575
▁light	-8.74587
▁indent	-8.74896
▁cost	-8.75155
▁requested	-8.75223
."	-8.75232
▁active	-8.75375
▁holding	-8.75598
▁meet	-8.75644
],	-8.75806
▁conformity	-8.76117
▁circumstances	-8.76131
▁allow	-8.76132
▁found	-8.76281
▁contribution	-8.7653
▁code	-8.76786
▁principles	-8.77129
▁exceed	-8.77224
▁publication	-8.7752
▁behalf	-8.7755
▁regarding	-8.7778
▁BE	-8.7822
▁applying	-8.78464
▁organisations	-8.78485
▁however	-8.78666
▁indicated	-8.78822
▁upon	-8.7914
▁substance	-8.79159
▁materials	-8.7936
se	-8.7966
▁prior	-8.79905
▁text	-8.79973
▁//	-8.80096
▁wine	-8.80461
▁commercial	-8.80839
▁proceedings	-8.80852
▁included	-8.81129
▁staff	-8.8113
▁food	-8.81261
▁disease	-8.81544
g	-8.81676
▁mean	-8.81785
▁accordingly	-8.8185
▁accounts	-8.81855
▁accompanied	-8.81881
▁tonnes	-8.81922
▁published	-8.82027
▁amendments	-8.82349
▁Office	-8.82358
▁latest	-8.82548
▁cannot	-8.82594
▁he	-8.82604
▁examination	-8.82628
▁directly	-8.82924
▁contain	-8.82953
▁since	-8.83064
ii	-8.83083
▁analysis	-8.83368
▁adoption	-8.83566
▁V	-8.83896
▁some	-8.83971
h	-8.83988
▁high	-8.8418
▁corresponding	-8.84184
▁Agency	-8.8443
▁They	-8.84672
▁CN	-8.84826
▁To	-8.84907
▁D	-8.85364
▁plan	-8.85388
▁markets	-8.85393
▁designated	-8.85461
▁budget	-8.85823
▁sale	-8.85836
▁points	-8.85899
▁sugar	-8.86098
▁falling	-8.86126
▁far	-8.86129
▁effects	-8.86377
ING	-8.86446
▁scope	-8.86755
▁standard	-8.86934
▁governing	-8.87136
▁final	-8.87191
▁waste	-8.87628
▁tender	-8.87731
▁reduction	-8.87883
ach	-8.8792
▁Join	-8.87966
▁relation	-8.88
▁registration	-8.88073
▁mentioned	-8.88091
▁destination	-8.88196
▁equal	-8.8842
▁volume	-8.88583
▁increased	-8.88699
▁authorization	-8.88852
▁COUNCIL	-8.89133
▁together	-8.89192
▁oil	-8.89416
▁vehicle	-8.89807
▁unless	-8.89987
▁normal	-8.90007
▁Directives	-8.90031
▁T	-8.90147
▁limited	-8.90367
▁activity	-8.90401
▁party	-8.90429
▁decide	-8.90613
▁give	-8.90645
▁determine	-8.90667
▁direct	-8.91308
▁capital	-8.91478
▁quotas	-8.91525
▁imposed	-8.9185
▁Any	-8.92182
▁Regulations	-8.92239
▁five	-8.92242
▁operators	-8.92259
▁medicinal	-8.92368
▁authorized	-8.9247
▁transfer	-8.9259
▁repealed	-8.92622
▁significant	-8.92937
▁full	-8.92959
▁principle	-8.92965
▁entered	-8.93177
▁domestic	-8.93303
▁eligible	-8.9332
▁By	-8.93334
▁characteristics	-8.93351
▁payments	-8.93419
▁shown	-8.93571
▁bovine	-8.93637
▁continue	-8.93644
▁prevent	-8.93852
▁method	-8.93893
▁sufficient	-8.94263
▁reduced	-8.94498
▁using	-8.94726
▁re	-8.94753
▁Contracting	-8.95212
▁objective	-8.95484
▁When	-8.95632
▁regional	-8.95856
▁resulting	-8.96437
▁guarantee	-8.96503
▁immediately	-8.96574
▁exports	-8.96843
▁except	-8.96868
▁environmental	-8.96929
▁social	-8.96941
▁committee	-8.97209
▁types	-8.97284
▁contained	-8.97292
▁member	-8.97403
▁statistical	-8.97601
▁interests	-8.97971
▁placing	-8.98092
approval	-8.98174
▁essential	-8.98479
▁IP	-8.98756
▁weight	-8.98967
▁injury	-8.99124
▁quota	-8.99232
▁calculated	-8.99644
▁instruments	-8.99977
▁Common	-9.00377
▁process	-9.00482
▁Court	-9.00717
l	-9.00848
▁acting	-9.01036
▁foodstuffs	-9.01151
▁organization	-9.01441
▁EU	-9.01515
▁plants	-9.01798
▁obligation	-9.02204
▁extent	-9.02213
Community	-9.02264
▁six	-9.0229
▁fresh	-9.02601
D	-9.02742
▁Part	-9.03043
▁categories	-9.03312
▁lay	-9.03395
▁benefit	-9.03413
▁exported	-9.03486
▁proposed	-9.03673
▁vessel	-9.03703
▁accepted	-9.04058
▁movement	-9.04079
▁importation	-9.04115
▁advance	-9.04147
▁state	-9.04482
▁Customs	-9.04699
▁circulation	-9.05012
▁previous	-9.05306
▁providing	-9.05459
▁credit	-9.05489
▁matters	-9.05602
▁groups	-9.05625
▁percentage	-9.058
▁permit	-9.05927
▁million	-9.05949
▁position	-9.06117
▁placed	-9.06177
▁conclusion	-9.06469
▁most	-9.06522
▁communicate	-9.06908
▁latter	-9.0694
▁establishments	-9.07342
▁temporary	-9.0742
▁informed	-9.07455
▁current	-9.07708
▁enable	-9.07721
▁institution	-9.07788
▁longer	-9.08042
▁copy	-9.08084
▁processed	-9.08182
▁Board	-9.08333
▁agency	-9.08434
▁meeting	-9.08642
▁dumping	-9.08707
].	-9.08781
▁share	-9.08792
▁category	-9.09227
▁status	-9.09286
▁deemed	-9.09289
▁progress	-9.09379
▁impact	-9.09722
▁put	-9.09946
▁research	-9.10094
OJ	-9.10102
▁fact	-9.10145
▁facilitate	-9.10259
▁evaluation	-9.10318
▁FOR	-9.10427
▁matter	-9.10457
▁fishery	-9.10644
▁granting	-9.10646
▁described	-9.10894
▁likely	-9.11041
▁small	-9.11435
▁similar	-9.11669
▁rates	-9.12199
▁involved	-9.1223
▁financing	-9.12481
▁original	-9.12864
▁EEA	-9.13009
▁balance	-9.13352
▁grounds	-9.13542
▁assets	-9.13647
▁electronic	-9.13663
▁reports	-9.13934
▁France	-9.14054
▁mark	-9.14182
▁identification	-9.1421
▁raw	-9.14446
▁Section	-9.14495
▁held	-9.14729
▁guidelines	-9.14756
▁various	-9.14802
▁bring	-9.14992
▁private	-9.15229
▁actions	-9.15309
▁de	-9.15633
▁forward	-9.15634
▁employment	-9.16004
▁change	-9.16044
▁presented	-9.16084
▁exercise	-9.16123
▁transit	-9.16185
▁valid	-9.1624
▁OR	-9.16267
▁consumer	-9.16281
▁workers	-9.16535
▁delivered	-9.16576
▁participation	-9.16915
▁affect	-9.17041
▁inter	-9.17175
▁carrying	-9.1731
▁inserted	-9.17376
▁olive	-9.1738
▁operating	-9.17649
▁parts	-9.17714
▁International	-9.17809
▁context	-9.17977
▁whole	-9.17982
▁term	-9.18045
▁below	-9.18191
▁projects	-9.18293
hereinafter	-9.18353
▁changes	-9.185
▁representatives	-9.18743
▁premium	-9.18821
▁separate	-9.18927
▁P	-9.19155
▁supervision	-9.19217
▁energy	-9.19227
▁experience	-9.19285
",	-9.19324
▁completed	-9.19978
▁local	-9.20023
▁introduced	-9.20102
▁manufacture	-9.20342
▁otherwise	-9.20437
▁receipt	-9.2052
▁securities	-9.20626
▁outside	-9.2082
▁practice	-9.20824
▁recognition	-9.20866
▁Management	-9.20978
▁particularly	-9.21179
".	-9.21251
▁draft	-9.21389
▁expressed	-9.21476
▁risks	-9.21476
▁powers	-9.21603
▁professional	-9.21761
▁manner	-9.21766
▁Fund	-9.22036
▁long	-9.22432
▁signed	-9.22491
▁proof	-9.2272
▁benefits	-9.22722
▁decided	-9.22725
▁deleted	-9.22817
▁introduction	-9.22836
▁table	-9.23029
▁eggs	-9.23094
▁sold	-9.23112
▁become	-9.2312
▁able	-9.23226
▁line	-9.23236
▁serious	-9.23348
▁values	-9.23458
▁particulars	-9.23701
▁classification	-9.23735
▁main	-9.23748
▁distribution	-9.23831
▁consultation	-9.24008
▁sent	-9.24026
▁codes	-9.24187
▁schemes	-9.24218
▁approximation	-9.2436
▁transitional	-9.24389
▁President	-9.24416
▁regions	-9.2468
▁users	-9.25112
▁communication	-9.25282
▁network	-9.25285
▁majority	-9.25401
▁unit	-9.25414
▁soon	-9.25461
▁notice	-9.25564
▁supplied	-9.25702
▁extended	-9.26046
▁margin	-9.26048
▁entitled	-9.2605
▁Germany	-9.26061
▁water	-9.26073
▁practices	-9.26132
▁exemption	-9.26192
▁performance	-9.26554
▁fixing	-9.26818
▁units	-9.27015
▁motor	-9.27052
▁zone	-9.27062
▁nomenclature	-9.27101
▁identified	-9.27643
▁Europe	-9.28214
▁definition	-9.28364
▁holder	-9.28394
o	-9.28535
▁August	-9.28563
▁consideration	-9.28737
▁good	-9.28928
▁compensation	-9.29104
▁feed	-9.29303
▁implemented	-9.29322
▁;	-9.29357
▁actual	-9.29389
▁refunds	-9.29428
▁ensuring	-9.29468
▁applies	-9.29593
▁periods	-9.2964
▁DIRECTIVE	-9.29752
▁condition	-9.29769
▁OJ	-9.29934
lays	-9.30032
▁preceding	-9.30328
▁Act	-9.30359
▁labelling	-9.30441
▁lodged	-9.30456
▁absence	-9.30573
▁F	-9.30767
▁higher	-9.30781
▁stocks	-9.30809
▁because	-9.30832
▁thereto	-9.30836
▁Code	-9.31016
▁making	-9.31047
▁act	-9.31135
A	-9.31171
uch	-9.3119
▁setting	-9.31214
Article	-9.31293
▁restructuring	-9.31402
▁avoid	-9.31441
▁Title	-9.31574
▁met	-9.31643
▁requires	-9.31725
▁address	-9.3217
▁expiry	-9.32182
▁transactions	-9.32247
▁VI	-9.32312
HALL	-9.3237
▁possibility	-9.3256
▁remain	-9.32625
▁fruit	-9.32667
▁statistics	-9.32686
▁tests	-9.32713
▁overall	-9.32718
▁geographical	-9.32721
▁Standing	-9.32837
▁delay	-9.32838
▁gas	-9.32887
▁thus	-9.32898
▁surveillance	-9.33036
▁An	-9.33141
▁intra	-9.33472
▁varieties	-9.3364
▁operator	-9.33782
▁kept	-9.34136
▁four	-9.34513
▁interested	-9.35138
▁packaging	-9.35184
▁constitute	-9.35245
▁respectively	-9.35248
▁determining	-9.35311
▁confirmed	-9.35516
▁agreed	-9.3567
▁arising	-9.35767
▁implement	-9.35791
▁considers	-9.35893
▁euro	-9.35922
▁certification	-9.35935
▁board	-9.35941
▁verification	-9.36074
▁Centre	-9.36215
▁W	-9.3625
▁design	-9.36335
▁did	-9.36377
▁section	-9.36481
▁mutual	-9.36551
▁stage	-9.36741
▁Spain	-9.3691
to	-9.36949
▁definitive	-9.37006
▁French	-9.37103
▁restrictions	-9.37138
▁tasks	-9.37162
▁while	-9.3726
▁accession	-9.37368
▁words	-9.37519
▁important	-9.37648
▁coordination	-9.37861
▁check	-9.37875
▁rice	-9.37913
▁declared	-9.38116
▁findings	-9.38166
▁responsibility	-9.38394
▁net	-9.38408
out	-9.38644
▁proposals	-9.38747
▁incorporated	-9.38754
▁several	-9.38775
▁uniform	-9.38792
▁submission	-9.38892
▁Euratom	-9.38899
▁forms	-9.39109
▁manufacturer	-9.39725
▁lower	-9.39735
▁fish	-9.39883
▁every	-9.40004
▁N	-9.40009
▁guarantees	-9.40052
▁needs	-9.40531
▁hand	-9.4058
▁variety	-9.40622
▁ex	-9.40789
on	-9.41064
▁adequate	-9.41125
▁among	-9.41371
▁exception	-9.41505
and	-9.41537
▁requirement	-9.41796
▁poultry	-9.41855
▁live	-9.41921
▁course	-9.41996
▁release	-9.42435
▁feedingstuffs	-9.42593
▁satisfy	-9.42661
▁personal	-9.42698
▁size	-9.42718
▁written	-9.42733
notified	-9.42831
▁holdings	-9.42883
▁incurred	-9.42884
▁subsequent	-9.42943
▁accounting	-9.43246
▁shares	-9.43373
▁recognised	-9.43377
▁test	-9.43447
▁All	-9.43926
▁funds	-9.43933
▁collection	-9.44075
▁improve	-9.44288
▁acceptance	-9.44508
▁experts	-9.44658
▁about	-9.44792
▁entities	-9.44929
▁model	-9.44943
▁calendar	-9.45284
▁Government	-9.45358
▁alia	-9.45396
▁delivery	-9.45579
▁open	-9.45617
▁residence	-9.45696
▁Director	-9.45796
▁agencies	-9.46075
▁indicate	-9.46106
▁transmission	-9.46141
▁actually	-9.46225
▁lists	-9.46262
▁presentation	-9.46291
▁hereinafter	-9.46324
▁allowed	-9.46382
▁known	-9.46513
▁CHAPTER	-9.47322
▁even	-9.47324
▁China	-9.47351
▁maintain	-9.47427
▁importers	-9.47443
▁road	-9.47454
▁nationals	-9.48035
▁facilities	-9.48036
▁disposal	-9.48173
▁administration	-9.48209
▁central	-9.48283
▁Accession	-9.48416
▁industrial	-9.48425
▁specifications	-9.48478
▁situated	-9.48548
▁achieve	-9.48553
▁validity	-9.48565
▁independent	-9.48572
▁description	-9.48598
▁fisheries	-9.48709
▁problems	-9.48743
▁indication	-9.48752
▁promote	-9.48756
▁inspections	-9.48932
▁amendment	-9.48964
▁amend	-9.49013
▁claim	-9.49231
▁operational	-9.49537
▁sentence	-9.49611
▁ECB	-9.49638
▁associated	-9.49655
▁Cooperation	-9.49684
▁register	-9.49754
▁joint	-9.49964
▁butter	-9.5022
▁fully	-9.50251
▁exceeding	-9.50278
▁future	-9.50365
▁adjustment	-9.504
C	-9.50545
▁charges	-9.50648
▁names	-9.50746
▁determination	-9.5084
▁draw	-9.51072
▁complete	-9.51106
▁knowledge	-9.51184
▁additives	-9.51286
▁combined	-9.51303
▁i	-9.51359
▁comments	-9.5144
▁contribute	-9.51525
▁languages	-9.51677
▁invitation	-9.51687
▁bear	-9.51822
▁reason	-9.51906
▁expenses	-9.52029
▁plans	-9.52048
▁needed	-9.52117
▁statement	-9.52144
▁ECU	-9.52161
▁alcohol	-9.52223
▁consignment	-9.52243
▁General	-9.52318
▁At	-9.52375
▁levy	-9.52392
▁officials	-9.52401
▁waters	-9.52413
▁region	-9.52472
▁preparation	-9.52654
▁regular	-9.52666
term	-9.52681
▁Ireland	-9.52849
▁reduce	-9.52977
▁claims	-9.53037
▁details	-9.53181
▁conversion	-9.53314
▁certified	-9.53317
▁consumers	-9.53512
▁controls	-9.53596
▁protected	-9.53859
▁property	-9.53889
▁communicated	-9.53961
▁beneficiary	-9.54117
▁developments	-9.54294
▁throughout	-9.54651
▁connection	-9.54867
▁completion	-9.54947
▁participating	-9.54966
▁residues	-9.55088
▁writing	-9.55195
▁organizations	-9.5522
▁reasonable	-9.55265
▁qualified	-9.5534
▁land	-9.55603
▁host	-9.55886
▁itself	-9.559
▁cereals	-9.56033
▁low	-9.56065
▁recorded	-9.56079
▁%.	-9.56138
▁Therefore	-9.56141
▁allocated	-9.56156
▁presence	-9.56294
▁contracting	-9.56332
▁initiative	-9.56406
▁uses	-9.56408
▁achieved	-9.56684
▁co	-9.56973
▁factors	-9.57019
▁requests	-9.57082
▁budgetary	-9.57121
▁clearly	-9.57338
▁ships	-9.57354
th	-9.57362
iii	-9.57386
▁difference	-9.57656
▁M	-9.57798
▁examine	-9.57897
up	-9.58032
▁prohibit	-9.58243
▁WITH	-9.58261
▁initial	-9.58313
▁specify	-9.58325
▁regulatory	-9.58559
▁obtain	-9.58703
▁records	-9.58721
▁external	-9.58896
▁items	-9.58981
▁allocation	-9.59026
▁proper	-9.59104
▁swine	-9.59142
▁abovementioned	-9.59213
▁jurisdiction	-9.59275
▁affected	-9.59367
▁BY	-9.59544
▁functioning	-9.59784
▁instrument	-9.59921
▁ARTICLE	-9.60176
▁ON	-9.6022
▁annexed	-9.60281
▁physical	-9.60303
▁large	-9.60306
▁ACP	-9.60336
▁issuing	-9.60415
▁themselves	-9.60455
▁component	-9.60663
▁modified	-9.60863
▁lead	-9.60923
▁examined	-9.61
▁prohibited	-9.61147
▁calculation	-9.61206
▁regulation	-9.61306
▁sampling	-9.61461
▁maintenance	-9.61486
▁purchase	-9.61542
▁sources	-9.61552
▁exceptional	-9.61748
▁Nations	-9.61778
▁released	-9.61785
▁duration	-9.61813
▁loss	-9.62018
▁potential	-9.62046
▁pollution	-9.6205
▁conservation	-9.62065
▁Tariff	-9.62283
▁consider	-9.62344
▁steps	-9.62441
▁publish	-9.62485
▁meetings	-9.6263
▁Portugal	-9.62821
▁cross	-9.63032
▁fall	-9.63112
▁return	-9.63309
▁once	-9.63317
▁Austria	-9.63329
▁appointed	-9.63354
▁withdrawal	-9.63511
▁R	-9.63579
▁components	-9.63655
▁treated	-9.64194
▁networks	-9.64277
▁noted	-9.64361
I	-9.64425
▁duly	-9.64438
▁emissions	-9.64442
▁proportion	-9.64479
▁justified	-9.64526
▁Scientific	-9.64626
▁elements	-9.64709
▁fulfilled	-9.64779
▁project	-9.65154
▁attached	-9.652
▁keep	-9.65288
.";	-9.65333
▁difficulties	-9.65379
▁hereto	-9.6539
▁Sweden	-9.65492
▁dangerous	-9.65548
▁power	-9.65591
ic	-9.65715
▁letter	-9.658
▁stock	-9.65902
▁Association	-9.65961
▁still	-9.65965
▁receive	-9.6597
▁territories	-9.65995
▁beef	-9.66054
▁VII	-9.6609
▁charge	-9.6625
▁texts	-9.6631
▁association	-9.66318
▁flag	-9.66816
▁tenders	-9.66893
▁recovery	-9.67074
▁language	-9.67132
▁close	-9.67175
▁regarded	-9.67179
▁respective	-9.67186
▁port	-9.67206
E	-9.67262
▁income	-9.67475
▁Health	-9.67868
▁classified	-9.67873
▁marketed	-9.68013
▁greater	-9.68046
▁Bank	-9.6827
▁nuclear	-9.68338
▁governed	-9.68399
▁dossier	-9.68594
▁awarded	-9.687
▁caused	-9.68898
▁authorise	-9.68931
▁permitted	-9.6896
▁covering	-9.68982
▁protect	-9.69229
General	-9.6923
▁designed	-9.69281
CFSP	-9.69282
▁That	-9.69296
▁policies	-9.69392
▁send	-9.6947
able	-9.69563
very	-9.69563
▁fulfil	-9.69598
▁diseases	-9.69622
▁indications	-9.69747
▁testing	-9.69841
▁offered	-9.69886
▁carrier	-9.69974
▁called	-9.70101
▁debt	-9.70129
▁recital	-9.70218
▁liable	-9.70417
▁aspects	-9.70607
▁major	-9.70619
▁residue	-9.70937
▁collected	-9.70969
▁claimed	-9.7116
▁undertaken	-9.712
▁un	-9.71256
▁verify	-9.71327
▁aim	-9.71449
▁Norway	-9.71578
▁Group	-9.71588
▁civil	-9.71625
▁electricity	-9.71628
▁Italy	-9.71658
ithout	-9.71724
▁Denmark	-9.71764
▁conduct	-9.71792
▁takes	-9.71856
▁zones	-9.7217
▁DECISION	-9.72507
▁differences	-9.72531
▁withdrawn	-9.73083
▁Action	-9.73166
▁extend	-9.73978
▁firm	-9.74088
▁sectors	-9.74197
▁premises	-9.74228
▁existence	-9.74256
▁Finland	-9.74331
▁Czech	-9.74434
▁nor	-9.74434
▁column	-9.7447
▁towards	-9.7447
▁chemical	-9.74653
▁post	-9.74725
▁pay	-9.74776
▁Co	-9.74794
▁inclusion	-9.74804
▁acts	-9.74892
▁negotiations	-9.74934
▁show	-9.75019
▁structure	-9.75033
▁contributions	-9.75092
▁Furthermore	-9.75202
▁located	-9.75202
▁declarations	-9.75281
▁safeguard	-9.75307
▁formal	-9.75336
▁might	-9.75373
▁quantitative	-9.75387
▁Total	-9.75391
▁Trade	-9.75603
▁compatible	-9.75635
▁devices	-9.75839
▁officially	-9.75844
▁derogations	-9.75879
";	-9.76047
▁developing	-9.76403
▁samples	-9.76487
▁designate	-9.76564
▁agents	-9.76613
▁supplier	-9.76746
▁Authority	-9.76756
▁authorisations	-9.76845
▁suitable	-9.76853
▁Since	-9.76928
B	-9.7697
▁judicial	-9.77098
▁Decisions	-9.77169
▁adjusted	-9.77195
▁consultations	-9.77362
▁importer	-9.77444
▁laboratory	-9.77454
▁firms	-9.78188
▁refuse	-9.78192
▁complied	-9.78413
▁Under	-9.78497
▁supplies	-9.78538
▁profit	-9.78554
▁entity	-9.78604
▁appear	-9.78759
▁conform	-9.78768
▁forthwith	-9.78812
▁revenue	-9.78886
▁opening	-9.79024
▁medical	-9.79031
▁studies	-9.79047
▁involving	-9.79095
▁Suc	-9.79135
▁home	-9.79224
▁currency	-9.7926
▁come	-9.79359
es	-9.79782
▁assisted	-9.79791
▁offer	-9.79855
▁followed	-9.80151
▁America	-9.80164
▁ship	-9.8052
▁exposure	-9.80592
▁investments	-9.80608
▁enforcement	-9.80698
▁excluded	-9.80758
▁Chinese	-9.80771
▁repeal	-9.80907
▁exporter	-9.81013
▁contact	-9.81081
▁medium	-9.81096
Notwithstanding	-9.8113
T	-9.81173
▁linked	-9.81187
▁produce	-9.81311
r	-9.81391
▁marking	-9.81497
▁payable	-9.81497
▁maintained	-9.81601
▁customers	-9.817
▁participate	-9.81721
▁works	-9.81766
▁Poland	-9.82108
▁receiving	-9.82408
▁effectively	-9.82522
▁preparations	-9.82536
▁infrastructure	-9.82574
▁rule	-9.82631
▁encourage	-9.82723
▁liability	-9.82836
▁family	-9.82945
▁permanent	-9.82963
▁education	-9.83091
▁After	-9.83146
▁award	-9.83153
▁former	-9.8335
▁qualify	-9.83382
round	-9.83393
▁him	-9.83416
▁giving	-9.83419
▁reserve	-9.83422
▁priority	-9.8346
▁dumped	-9.83637
▁comparable	-9.8374
▁item	-9.83769
▁regulated	-9.83805
▁sample	-9.83938
▁communications	-9.83952
▁label	-9.84217
▁clear	-9.8432
▁derived	-9.84325
▁slaughter	-9.84365
▁sea	-9.84556
▁MEMBER	-9.84568
▁normally	-9.84617
▁Central	-9.84746
▁definitions	-9.85009
▁substantial	-9.8513
▁stored	-9.8513
spot	-9.8518
▁Energy	-9.85397
▁Hungary	-9.85972
▁Social	-9.85974
▁penalties	-9.86057
▁importance	-9.86075
▁functions	-9.86104
▁exporters	-9.86201
.'	-9.86388
▁cause	-9.86507
▁supporting	-9.86656
▁opened	-9.86683
▁employed	-9.86724
▁world	-9.86816
▁financed	-9.86875
▁brought	-9.86923
▁Justice	-9.86932
▁stated	-9.87099
▁EC	-9.87224
▁accompanying	-9.87321
▁what	-9.87531
▁qualifications	-9.8757
▁Products	-9.87646
▁trading	-9.87696
▁conclusions	-9.87697
▁Information	-9.87844
▁extension	-9.8794
▁reporting	-9.88074
▁Food	-9.88085
▁court	-9.88272
▁prevention	-9.88529
at	-9.88537
▁life	-9.88584
▁designation	-9.8867
▁head	-9.89001
▁beyond	-9.89113
▁undertake	-9.89172
▁employees	-9.89217
▁construction	-9.89294
▁weighted	-9.8931
▁consent	-9.89346
▁integrated	-9.89356
▁adjustments	-9.89418
▁chairman	-9.89677
▁short	-9.89776
▁manufactured	-9.89812
▁references	-9.89849
▁wines	-9.89866
▁steel	-9.89929
▁heading	-9.90133
▁losses	-9.90275
▁transferred	-9.90364
▁relate	-9.90371
▁currently	-9.90451
▁subsidy	-9.90545
▁dispatch	-9.90735
▁acquired	-9.90821
▁recommendations	-9.9098
The	-9.91021
▁harmful	-9.91067
▁WHICH	-9.91117
▁damage	-9.91146
▁[...]	-9.91177
▁traditional	-9.91375
▁emergency	-9.91383
▁consistent	-9.91462
▁sheet	-9.91602
▁significantly	-9.91616
▁appears	-9.91995
▁conducted	-9.92077
▁exclusively	-9.92276
▁Financi	-9.9236
▁supplementary	-9.92551
▁best	-9.9267
▁harmonised	-9.92685
▁commitments	-9.92791
▁cooperate	-9.92797
▁taxes	-9.92831
▁expected	-9.93098
▁affecting	-9.93118
▁appropriation	-9.93283
▁fourth	-9.93431
▁passenger	-9.93464
▁effected	-9.93552
▁taxation	-9.9356
▁manufacturing	-9.93573
▁personnel	-9.93779
▁imposition	-9.93904
▁composition	-9.93966
▁satisfied	-9.94116
▁Paragraph	-9.94244
▁government	-9.94279
▁technology	-9.94312
):	-9.94317
▁reached	-9.94362
▁centre	-9.945
▁People	-9.94538
▁adverse	-9.94725
▁Advisory	-9.94838
▁emission	-9.95024
▁transmitted	-9.95284
▁beginning	-9.95303
▁practical	-9.95377
▁Rule	-9.95887
▁fuel	-9.95909
▁negative	-9.95927
▁monitor	-9.95967
▁farmers	-9.96258
▁fair	-9.96321
▁envisaged	-9.96459
▁allowances	-9.96476
▁demand	-9.96489
▁sound	-9.96584
▁response	-9.96592
▁improvement	-9.96697
▁comparison	-9.96956
▁criminal	-9.97247
▁forwarded	-9.97273
▁assigned	-9.97356
▁source	-9.97416
▁organisms	-9.97439
▁subsequently	-9.97443
▁vegetables	-9.97581
▁competence	-9.97646
▁prescribed	-9.97685
▁freedom	-9.97711
▁Schengen	-9.97745
▁rise	-9.9779
▁investigations	-9.9784
▁estimated	-9.97883
▁refer	-9.98008
▁Turkey	-9.98052
▁India	-9.98093
▁withdraw	-9.98108
▁vaccination	-9.98206
▁compulsory	-9.98236
▁foot	-9.98272
▁border	-9.98375
▁Security	-9.98383
▁sufficiently	-9.98426
▁infringement	-9.98436
▁compared	-9.98446
▁associations	-9.98494
▁conferred	-9.98506
▁centres	-9.98513
▁enterprises	-9.98515
▁drawing	-9.98633
▁AS	-9.98651
▁effectiveness	-9.98667
▁assess	-9.98735
▁like	-9.98741
▁whom	-9.98804
▁pre	-9.99118
▁copies	-9.99261
▁According	-9.99344
▁facts	-9.99351
▁concerns	-9.99434
▁recognized	-9.99683
▁approach	-9.99702
mouth	-9.99729
▁exempt	-9.99885
▁Romania	-9.99954
▁proceeding	-9.99998
▁Executive	-10.0014
▁kg	-10.0016
▁reviewed	-10.0027
▁letters	-10.0033
▁Staff	-10.0033
▁therein	-10.0034
▁threshold	-10.0051
▁correct	-10.0056
year	-10.0063
▁favourable	-10.0067
▁THAT	-10.0071
▁sustainable	-10.008
▁solely	-10.0086
▁allowance	-10.0086
▁better	-10.0087
▁base	-10.0092
▁desirable	-10.0098
▁establishes	-10.0135
▁suspension	-10.0137
▁Secretariat	-10.0149
▁farmer	-10.0152
▁notes	-10.0163
▁assessed	-10.0164
▁Guarantee	-10.0168
▁bank	-10.0176
▁cooperating	-10.0184
▁virtue	-10.0185
▁Greece	-10.0186
▁opportunity	-10.0198
▁charged	-10.0213
▁replace	-10.0234
▁Cyprus	-10.0236
▁installation	-10.024
▁PRC	-10.0244
▁articles	-10.0248
▁yet	-10.0248
▁traffic	-10.0254
supervisory	-10.0259
▁accept	-10.0267
▁assist	-10.0272
▁addressed	-10.0281
▁consist	-10.0285
▁formalities	-10.0298
▁prepared	-10.0301
▁dates	-10.0303
▁carriage	-10.031
▁restricted	-10.0323
▁self	-10.0325
▁Iceland	-10.0331
▁efficient	-10.0347
▁pigs	-10.0352
▁removal	-10.0352
▁binding	-10.038
▁range	-10.0391
▁breeding	-10.0394
▁Lithuania	-10.0395
▁profitability	-10.0404
k	-10.041
▁sum	-10.0411
▁constitutes	-10.0411
▁Bulgaria	-10.0421
▁surveys	-10.0452
FROM	-10.046
based	-10.0461
▁aquaculture	-10.0474
▁controlled	-10.0474
▁suspended	-10.0481
▁departure	-10.0507
▁fee	-10.0529
border	-10.0535
▁COMMUNITY	-10.0544
▁revised	-10.0546
▁title	-10.0549
▁numbers	-10.0567
▁tobacco	-10.057
▁Moreover	-10.0571
▁radio	-10.0575
.`	-10.0579
▁empowered	-10.0608
▁relations	-10.0623
▁hours	-10.0626
▁promotion	-10.0627
▁installations	-10.0634
▁notifications	-10.0643
▁introduce	-10.0646
▁box	-10.0649
▁deadline	-10.0676
▁transaction	-10.0692
▁VIII	-10.0707
▁pending	-10.0711
▁previously	-10.0717
▁Before	-10.072
▁marine	-10.0727
▁Exchange	-10.0758
▁consignments	-10.0759
▁adapted	-10.076
member	-10.0781
▁Estonia	-10.0803
▁prohibition	-10.0811
▁decreased	-10.0811
▁represented	-10.0814
▁carriers	-10.0816
rate	-10.0821
▁selling	-10.0824
▁Secretary	-10.0835
▁belonging	-10.0838
▁role	-10.0838
▁Protection	-10.0849
▁contains	-10.0852
EUR	-10.0862
")	-10.0875
▁departments	-10.0885
▁bilateral	-10.0887
▁includes	-10.0894
▁structural	-10.0896
▁vote	-10.0904
▁oils	-10.0904
▁economy	-10.0911
▁operate	-10.0916
▁fees	-10.0928
▁adapt	-10.0933
▁makes	-10.0936
▁concern	-10.0939
▁discharge	-10.0957
▁pension	-10.0962
dministrative	-10.0962
▁alternative	-10.0969
▁concentration	-10.0992
▁summary	-10.0996
▁record	-10.1005
▁Programme	-10.1015
▁length	-10.1016
▁efforts	-10.1018
▁rail	-10.1031
▁user	-10.1034
▁Rules	-10.1038
▁transported	-10.1042
▁turnover	-10.1054
▁survey	-10.1076
▁Islands	-10.1078
er	-10.108
▁Malta	-10.108
▁indicating	-10.1082
▁aircraft	-10.1083
▁represent	-10.109
of	-10.1094
▁identify	-10.1111
▁foreign	-10.1111
▁disclosure	-10.1127
▁figures	-10.1131
▁authentic	-10.1139
L	-10.1142
▁population	-10.1145
▁especially	-10.1152
▁shows	-10.1156
▁regularly	-10.1163
▁starch	-10.1188
▁start	-10.1194
▁NOT	-10.1209
▁combat	-10.1212
▁laboratories	-10.1232
▁excess	-10.1244
▁transparency	-10.1245
▁replacement	-10.1265
st	-10.1277
▁requesting	-10.1278
▁improving	-10.1289
▁eradication	-10.13
▁exist	-10.1308
▁consequently	-10.1314
▁New	-10.1316
▁appropriations	-10.132
▁now	-10.1322
▁coming	-10.1328
▁equidae	-10.133
▁strategy	-10.1343
▁Subject	-10.1351
▁age	-10.1367
▁immediate	-10.137
▁reflect	-10.1387
▁sign	-10.1394
▁developed	-10.1394
▁issues	-10.1401
▁agree	-10.1407
▁textile	-10.1411
▁format	-10.1417
▁kind	-10.1421
▁fix	-10.143
▁Latvia	-10.1437
▁airport	-10.1442
▁confidential	-10.1449
▁preferential	-10.1452
European	-10.1458
▁removed	-10.1459
▁efficiency	-10.1466
▁broken	-10.1477
▁develop	-10.1478
▁degree	-10.1483
▁protective	-10.1486
▁kilograms	-10.149
▁identity	-10.1503
▁bearing	-10.1511
▁potatoes	-10.1514
▁remaining	-10.1517
▁calculating	-10.1528
▁sub	-10.1529
▁deal	-10.1535
▁EUROPEAN	-10.1546
▁maritime	-10.155
▁define	-10.155
▁t	-10.1555
▁taxable	-10.1557
▁primary	-10.156
▁failure	-10.1574
▁introducing	-10.1592
▁consulting	-10.1592
▁impose	-10.1594
▁checking	-10.1597
▁updated	-10.1604
▁fields	-10.1628
▁continued	-10.1643
▁contrary	-10.1644
▁performed	-10.1646
▁poultrymeat	-10.165
▁Members	-10.1652
▁Slovenia	-10.1653
▁semen	-10.1655
▁reinsurance	-10.1656
▁growth	-10.1675
▁half	-10.1681
▁approve	-10.1701
▁liabilities	-10.1703
▁%,	-10.1715
▁relevance	-10.1717
▁crops	-10.1721
▁Netherlands	-10.1731
▁admission	-10.1736
▁recent	-10.1744
▁carcases	-10.1746
▁namely	-10.175
.`;	-10.1765
▁mechanism	-10.1765
▁rapporteur	-10.1771
▁farm	-10.1787
▁aimed	-10.1789
▁create	-10.1793
▁selected	-10.1801
▁tonne	-10.1805
▁agent	-10.1805
▁producing	-10.1815
▁exceeds	-10.1819
▁package	-10.1821
▁scale	-10.1827
▁Italian	-10.1835
▁documentation	-10.1838
▁wild	-10.184
▁follow	-10.1855
ion	-10.1882
Y	-10.1885
▁exceeded	-10.1895
▁applicants	-10.1906
▁flat	-10.1907
▁deliver	-10.1911
▁leave	-10.1919
▁help	-10.1937
country	-10.1944
▁committed	-10.1947
▁reductions	-10.1957
▁labour	-10.1957
▁complying	-10.1966
▁initiation	-10.1984
▁creation	-10.1989
▁effort	-10.1991
▁Korea	-10.2004
▁Basic	-10.2011
▁rejected	-10.2015
▁Technical	-10.2016
▁ingredients	-10.202
▁dated	-10.2032
▁appeal	-10.2032
▁authorize	-10.2035
▁increasing	-10.204
▁thereby	-10.207
▁political	-10.2075
▁Veterinar	-10.2092
▁volumes	-10.2095
▁Resolution	-10.2099
▁via	-10.21
ursuant	-10.2101
▁consult	-10.2114
▁birds	-10.2138
▁transmit	-10.2147
▁task	-10.2159
▁guaranteed	-10.2162
▁Belgium	-10.2163
▁fodder	-10.2167
▁crisis	-10.2167
▁Safety	-10.217
▁commitment	-10.2173
▁location	-10.218
▁observed	-10.2187
▁real	-10.2187
▁mutandis	-10.2196
▁class	-10.22
▁veterinarian	-10.2202
j	-10.2214
▁simplified	-10.2233
▁specifically	-10.2246
▁Mission	-10.2267
an	-10.227
as	-10.2271
▁assurance	-10.2273
▁competitive	-10.2283
▁execution	-10.2291
▁Letters	-10.2291
▁importing	-10.2295
▁H	-10.2326
▁processes	-10.233
▁South	-10.2338
▁recommendation	-10.2348
tomic	-10.2349
▁EEC	-10.2357
▁concentrated	-10.236
▁gross	-10.2362
▁Conference	-10.2379
▁opportunities	-10.2383
▁travel	-10.2402
▁connected	-10.2427
▁dried	-10.2434
▁entitlement	-10.2436
▁fever	-10.2449
▁recipient	-10.2476
▁packages	-10.2479
▁hold	-10.248
▁technological	-10.248
▁entering	-10.2485
▁adopting	-10.249
▁option	-10.2523
▁mutati	-10.2534
▁German	-10.2541
▁Consequently	-10.2541
▁correspond	-10.2542
▁integration	-10.2543
▁comprise	-10.2547
▁Ukraine	-10.255
▁representing	-10.2554
▁argued	-10.2557
▁series	-10.2586
▁recitals	-10.2592
▁blood	-10.2596
▁offices	-10.2596
▁passengers	-10.2607
▁collective	-10.261
▁military	-10.2614
▁WHEREAS	-10.262
▁paying	-10.2625
▁allowing	-10.2633
▁Additional	-10.2634
▁handling	-10.2643
▁indirect	-10.2653
▁veal	-10.2659
▁Agricultural	-10.266
▁supplemented	-10.2688
▁ratio	-10.2688
▁fibre	-10.2688
▁virus	-10.2689
▁trans	-10.2696
▁frozen	-10.2709
▁suppliers	-10.271
▁suffered	-10.2717
▁satisfactory	-10.2718
▁loan	-10.272
▁initiated	-10.2741
▁suspend	-10.2742
▁obtaining	-10.2749
▁consulted	-10.2753
▁situations	-10.2757
▁consisting	-10.276
is	-10.2779
▁There	-10.2783
▁excise	-10.2785
▁separately	-10.2803
▁remuneration	-10.2805
▁thereafter	-10.2805
▁confidentiality	-10.2815
▁concessions	-10.2822
▁complaint	-10.2824
▁National	-10.2839
▁grape	-10.2841
▁reported	-10.2849
▁opinions	-10.2851
▁Follow	-10.2854
▁alleged	-10.2865
▁consequences	-10.2868
▁reserves	-10.2871
▁GDP	-10.2886
▁US	-10.2891
▁contractual	-10.2895
▁generally	-10.2896
▁Auditors	-10.2897
▁mm	-10.29
▁quarter	-10.2909
▁reducing	-10.2921
re	-10.2924
▁earlier	-10.2932
▁movements	-10.2935
▁techniques	-10.2935
▁choice	-10.294
ary	-10.2949
▁Taiwan	-10.2954
▁participants	-10.2967
▁Agreements	-10.2973
▁adaptation	-10.2974
▁Organisation	-10.2974
▁additive	-10.299
▁cash	-10.2995
▁involve	-10.2997
▁designations	-10.3002
▁pressure	-10.3006
▁planned	-10.3008
▁interim	-10.3008
▁signature	-10.3016
including	-10.3018
▁resolution	-10.3022
▁restrict	-10.3031
▁PROVISIONS	-10.3031
▁manufacturers	-10.3058
▁Federa	-10.3075
▁entire	-10.3078
▁banks	-10.3083
▁harmonized	-10.3109
▁Other	-10.3113
▁complies	-10.3113
▁properly	-10.3117
▁owner	-10.3117
▁database	-10.3126
▁stages	-10.3128
`,	-10.3133
▁justify	-10.3136
▁attention	-10.3166
▁IS	-10.3168
▁processors	-10.3171
▁agriculture	-10.3171
▁loans	-10.3177
▁call	-10.3181
▁global	-10.3182
▁containers	-10.3183
▁dispute	-10.3201
▁back	-10.3206
▁showing	-10.3212
▁premiums	-10.3224
making	-10.3234
▁Nomenclature	-10.324
▁deposit	-10.3254
▁target	-10.3265
▁promoting	-10.327
▁seeds	-10.3278
▁principal	-10.3279
Euratom	-10.3288
▁African	-10.3289
▁positive	-10.3292
▁substantially	-10.3303
▁ensured	-10.3308
▁times	-10.331
▁Luxembourg	-10.3328
▁genetically	-10.3335
▁irregularities	-10.3337
▁modification	-10.3345
▁termination	-10.3349
▁plus	-10.3356
▁spread	-10.3367
▁excluding	-10.3369
▁beneficiaries	-10.3377
▁arrangement	-10.3383
▁indirectly	-10.3385
▁checked	-10.339
▁Area	-10.3398
▁study	-10.3399
▁although	-10.3408
▁flying	-10.3409
▁Swiss	-10.341
▁Special	-10.3419
▁Canada	-10.344
▁influenza	-10.3456
▁STATES	-10.3457
▁officer	-10.3472
▁rural	-10.3476
▁propagating	-10.348
▁VAT	-10.3488
▁System	-10.3498
▁warehouse	-10.3506
▁advice	-10.351
▁verified	-10.3512
▁covers	-10.3537
▁foods	-10.354
▁pesticide	-10.3551
▁temporarily	-10.3561
▁conclude	-10.3563
▁engaged	-10.3563
▁marks	-10.3571
us	-10.3571
products	-10.3578
▁states	-10.3593
▁clarity	-10.3596
▁.	-10.3603
▁ports	-10.3607
▁embryos	-10.3621
▁questionnaire	-10.3643
▁subsidiary	-10.3646
▁consolidated	-10.3669
▁ARE	-10.367
▁cultural	-10.3681
▁measurement	-10.3686
▁organic	-10.3709
▁partial	-10.3712
▁adapting	-10.3714
▁maize	-10.3718
▁acid	-10.3721
▁settlement	-10.3737
▁acquis	-10.3742
▁capable	-10.3744
▁livestock	-10.3749
▁marked	-10.3752
▁function	-10.3759
related	-10.3765
▁Russia	-10.3776
N	-10.3781
▁read	-10.3785
▁views	-10.3788
▁mechanisms	-10.3788
▁favour	-10.3798
▁monetary	-10.3808
LY	-10.3816
▁("	-10.382
▁funding	-10.3825
ive	-10.3829
▁Croatia	-10.383
▁children	-10.3833
▁white	-10.3837
▁Development	-10.3854
▁acquisition	-10.3864
▁Switzerland	-10.3871
▁individuals	-10.3873
▁gained	-10.3885
▁discrimination	-10.3886
▁harvested	-10.389
▁whereby	-10.3904
▁engine	-10.3922
▁borne	-10.3925
▁composed	-10.3939
▁Russian	-10.3944
▁trials	-10.3949
▁grants	-10.3957
▁decrease	-10.3977
▁parent	-10.3983
▁Statute	-10.3987
▁deficit	-10.4001
▁Position	-10.4004
▁provisionally	-10.4006
▁relates	-10.4018
▁Thailand	-10.4019
▁advantage	-10.4025
AL	-10.4038
▁mission	-10.4044
iv	-10.4046
▁exemptions	-10.4055
▁scheduled	-10.4067
took	-10.4072
▁loading	-10.4073
▁subsidies	-10.4075
▁,	-10.4077
▁interpretation	-10.4085
▁undergone	-10.4086
▁molluscs	-10.4089
▁RE	-10.4096
▁example	-10.4098
▁obliged	-10.4106
▁margins	-10.4108
▁occurred	-10.4142
▁character	-10.4145
▁selection	-10.4158
▁Mr	-10.416
▁yield	-10.4164
▁fat	-10.4176
▁version	-10.4192
▁Portuguese	-10.4198
▁reimbursement	-10.42
▁authorising	-10.4205
ions	-10.4208
▁O	-10.4216
▁sets	-10.4217
Text	-10.4224
▁money	-10.4234
▁continuation	-10.4243
▁structures	-10.4267
▁fundamental	-10.4267
▁harvest	-10.4271
▁Aid	-10.4274
▁lines	-10.4279
▁frequency	-10.4282
▁enabling	-10.4311
▁ECSC	-10.4314
▁transparent	-10.4315
▁catch	-10.4321
▁voting	-10.4322
▁Japan	-10.4324
▁ID	-10.4327
▁"(	-10.4327
▁care	-10.4329
▁hygiene	-10.4331
▁outcome	-10.4343
▁mainly	-10.4353
employed	-10.4358
▁powder	-10.4378
▁mass	-10.4379
▁skimmed	-10.438
▁expert	-10.4384
▁classes	-10.4387
▁estimates	-10.4393
▁propose	-10.4394
▁farming	-10.4397
▁ovine	-10.4402
▁society	-10.4406
▁neither	-10.4407
▁G	-10.4408
▁arise	-10.4412
▁legislative	-10.4433
▁slaughtered	-10.4435
▁Slovakia	-10.4439
MAY	-10.4442
▁pure	-10.4448
▁invoice	-10.4459
▁directives	-10.4477
less	-10.448
▁reach	-10.4482
▁daily	-10.4486
▁bound	-10.4492
▁exempted	-10.4494
month	-10.4494
▁Given	-10.4503
▁clinical	-10.4505
▁Spanish	-10.4505
▁notably	-10.4509
▁retain	-10.4511
▁initiate	-10.4512
avian	-10.4522
▁advertising	-10.4524
▁pig	-10.4524
▁supplement	-10.4526
▁harmonisation	-10.4542
.';	-10.4546
▁events	-10.4547
▁countervailing	-10.4547
▁judgment	-10.4562
▁exclusive	-10.4573
▁IT	-10.458
▁improved	-10.4601
▁Foundation	-10.4603
▁sanctions	-10.4606
▁acceptable	-10.4625
▁mandate	-10.4632
▁legitimate	-10.4641
▁transfers	-10.4641
▁reply	-10.4642
▁utilisation	-10.4645
▁incompatible	-10.4651
▁Should	-10.4661
',	-10.4665
▁engines	-10.4667
▁questions	-10.4673
▁consequence	-10.4673
▁verifying	-10.4675
▁pursuit	-10.4679
▁perform	-10.4683
▁living	-10.4684
▁wheat	-10.4684
▁sole	-10.4685
▁compensator	-10.4689
▁accident	-10.4699
▁element	-10.4702
▁Framework	-10.4711
▁object	-10.4717
▁Indonesia	-10.4718
▁majeure	-10.4719
▁preliminary	-10.4722
▁NCB	-10.4722
▁Reference	-10.4735
▁compound	-10.4738
▁heat	-10.474
▁Animal	-10.4742
▁caprine	-10.4744
▁pursue	-10.4744
▁indicative	-10.4777
▁Confederation	-10.4778
▁monthly	-10.479
▁breach	-10.4791
▁regime	-10.4794
▁crop	-10.4794
▁vegetable	-10.4798
▁requiring	-10.4799
▁customer	-10.4802
▁finance	-10.4817
▁inventory	-10.4817
▁infringements	-10.4821
▁Data	-10.4824
▁appoint	-10.4846
▁entitlements	-10.4849
▁Agriculture	-10.4857
▁prove	-10.4858
▁exploitation	-10.4864
▁relationship	-10.4878
by	-10.4879
▁injurious	-10.4891
▁intention	-10.4893
▁how	-10.4899
▁instructions	-10.4904
▁statements	-10.4904
▁Sea	-10.4911
▁preserved	-10.4913
▁occasion	-10.4926
▁partners	-10.493
▁resident	-10.4937
▁telecommunicat	-10.4948
▁retail	-10.4948
▁Measures	-10.4952
▁trend	-10.4954
▁Applications	-10.4955
`.	-10.4972
▁fund	-10.4973
responsibilities	-10.498
▁places	-10.498
▁exchanges	-10.4982
▁OTHER	-10.499
▁starting	-10.4991
▁entries	-10.4999
▁possession	-10.5002
▁paper	-10.5006
discriminatory	-10.5011
▁Gibraltar	-10.5022
▁suspected	-10.5042
▁recovered	-10.5043
▁Conditions	-10.5046
'.	-10.5075
▁One	-10.5081
▁unable	-10.5082
▁identical	-10.509
her	-10.5098
▁coordinated	-10.5102
▁cultivation	-10.5107
▁harmonization	-10.5124
▁permits	-10.5126
▁stating	-10.5129
▁'(	-10.5129
▁worker	-10.5132
▁ceiling	-10.5141
▁irrespective	-10.5144
▁Brussels	-10.5153
▁Norwegian	-10.5166
▁asylum	-10.5167
▁aims	-10.5188
▁thresholds	-10.5195
ce	-10.5216
▁stringent	-10.5225
▁employer	-10.5226
▁excessive	-10.5226
▁week	-10.5253
▁Chairman	-10.5266
▁NO	-10.5267
▁achieving	-10.5269
▁game	-10.5271
▁raised	-10.5272
▁First	-10.5275
`;	-10.5285
most	-10.5291
▁Plant	-10.5296
▁grapes	-10.5301
v	-10.5304
▁methodology	-10.5309
▁maintaining	-10.5332
▁imposing	-10.5335
▁multilateral	-10.5336
▁courts	-10.5336
▁specimen	-10.5349
▁Re	-10.5352
▁stability	-10.5355
ory	-10.5361
▁processor	-10.5362
ve	-10.5386
▁sheep	-10.5416
▁World	-10.5422
▁link	-10.5424
▁created	-10.5425
day	-10.5425
▁occur	-10.5428
▁admitted	-10.5431
▁coefficient	-10.5434
▁Fisheries	-10.544
▁speed	-10.5442
use	-10.5456
▁meets	-10.546
▁AN	-10.547
▁people	-10.5497
▁distillation	-10.5516
▁wholly	-10.5524
▁lot	-10.553
▁urgency	-10.5542
▁whenever	-10.5544
▁tendering	-10.5545
▁buildings	-10.5547
▁apparatus	-10.5548
▁Imports	-10.5564
▁recommended	-10.5566
▁estimate	-10.5577
▁models	-10.5579
▁Procedure	-10.5584
▁certifying	-10.5594
▁Partnership	-10.5612
▁seek	-10.5615
▁packing	-10.5619
▁prepare	-10.5623
▁entail	-10.5624
▁lodging	-10.5629
▁arrival	-10.5648
▁guidance	-10.5651
▁compatibility	-10.5652
▁stipulated	-10.5654
▁listing	-10.5657
TAL	-10.5671
▁comprehensive	-10.5673
▁priorities	-10.5694
▁past	-10.5702
▁extending	-10.5713
▁buying	-10.5724
▁profits	-10.5729
▁voluntary	-10.5731
▁sought	-10.5738
▁Accordingly	-10.574
▁limitation	-10.5741
▁factor	-10.5746
II	-10.5749
▁Slovak	-10.576
▁terminated	-10.5764
▁holders	-10.5777
▁specifying	-10.5783
ian	-10.5785
▁intervals	-10.5785
▁inland	-10.5807
▁orders	-10.581
▁cease	-10.5816
▁fifth	-10.582
▁hazardous	-10.5822
▁satisfies	-10.5826
▁considerations	-10.5829
▁committees	-10.5829
▁jointly	-10.583
▁rest	-10.5832
▁computer	-10.5843
▁concept	-10.5845
▁burden	-10.5845
▁eligibility	-10.5857
▁annually	-10.5858
▁biological	-10.5865
▁express	-10.587
▁votes	-10.5889
▁restriction	-10.5892
▁facility	-10.5892
▁continuous	-10.5893
▁combination	-10.5893
▁satisfaction	-10.5893
▁Guidance	-10.5894
▁consistency	-10.5916
▁satisfying	-10.5917
▁shipping	-10.5918
▁weeks	-10.5919
▁note	-10.5931
▁analytical	-10.594
▁leaving	-10.5941
▁Head	-10.595
▁precise	-10.5958
▁nevertheless	-10.5959
▁issuer	-10.5963
▁contents	-10.5965
▁Eurostat	-10.5972
▁division	-10.5975
▁trailers	-10.5976
▁rapid	-10.5981
▁Uruguay	-10.5989
▁stamp	-10.599
▁corrected	-10.5991
▁safe	-10.6004
▁AT	-10.6008
▁managed	-10.6011
▁sulphur	-10.6016
▁differ	-10.6031
▁depending	-10.6032
▁reform	-10.6033
▁m	-10.6034
▁dispatched	-10.6051
▁Morocco	-10.6059
▁autonomous	-10.6059
▁stable	-10.6075
▁indicators	-10.6081
▁ceilings	-10.6083
▁file	-10.6089
▁exists	-10.6092
▁intermediate	-10.6096
▁repair	-10.6101
▁reciprocal	-10.6103
▁strengthening	-10.6105
▁susceptible	-10.6108
▁Govern	-10.6112
▁operated	-10.612
▁showed	-10.6127
▁exclude	-10.6128
▁diplomas	-10.6129
▁accuracy	-10.6129
▁aforementioned	-10.614
▁simple	-10.6141
▁mesh	-10.6143
▁expire	-10.6156
▁recording	-10.6157
▁fraud	-10.6159
▁forestry	-10.6163
▁servants	-10.6165
▁comes	-10.6169
▁invited	-10.6169
▁demonstrate	-10.6199
ANNE	-10.6222
▁left	-10.6232
▁returned	-10.6244
▁child	-10.6246
▁assessing	-10.6247
▁compensat	-10.6251
▁subparagraphs	-10.6255
▁comprising	-10.626
▁ad	-10.6262
▁reliable	-10.6279
▁site	-10.629
▁mandatory	-10.6294
▁her	-10.6309
▁periodic	-10.6315
▁tractors	-10.6322
▁changed	-10.6336
▁managing	-10.6353
▁offences	-10.637
▁machinery	-10.6381
▁remained	-10.6385
▁Th	-10.6388
▁technologies	-10.6395
▁early	-10.64
▁pigmeat	-10.6403
▁occupational	-10.6404
▁identifying	-10.6407
▁availability	-10.641
▁led	-10.641
▁strength	-10.6418
M	-10.6423
▁supported	-10.6434
▁batch	-10.6434
▁colour	-10.6435
▁enjoy	-10.6435
▁intends	-10.6437
p	-10.6444
▁PRODUCTS	-10.6444
▁vocational	-10.6445
▁tenderer	-10.6451
ofar	-10.6468
▁insolvency	-10.6475
▁conditional	-10.6476
free	-10.6477
▁word	-10.6478
▁recourse	-10.6488
▁TITLE	-10.6488
▁trends	-10.6493
▁finds	-10.6501
▁ask	-10.6502
▁Indian	-10.6517
▁demonstrated	-10.6519
▁safeguards	-10.6526
▁bulk	-10.6536
▁explained	-10.6561
▁fitted	-10.6562
▁railway	-10.6569
▁providers	-10.6574
▁pattern	-10.6581
▁influence	-10.6585
est	-10.6585
▁measured	-10.6587
▁Bosnia	-10.6591
▁increases	-10.6595
▁Detail	-10.66
▁organised	-10.6614
▁evaluate	-10.6615
▁ordinary	-10.6625
▁catches	-10.6627
▁hops	-10.6646
▁finished	-10.6655
▁building	-10.6674
▁factory	-10.6675
▁Appendix	-10.668
▁genetic	-10.6684
▁fell	-10.6694
▁old	-10.6695
▁profession	-10.6701
▁entrusted	-10.6704
▁device	-10.6707
▁equivalence	-10.671
▁Regions	-10.6712
▁calls	-10.6714
▁merger	-10.6715
HIS	-10.6719
").	-10.6726
▁solution	-10.6739
▁Work	-10.6746
▁cosmetic	-10.6753
▁Monitoring	-10.6753
▁STATE	-10.6755
▁branch	-10.6757
▁allows	-10.6762
▁Canary	-10.6775
▁slaughterhouse	-10.6776
▁tuna	-10.6784
▁provider	-10.6791
▁preventing	-10.6796
▁behaviour	-10.6797
▁successful	-10.6799
▁destruction	-10.6801
▁route	-10.6804
▁refused	-10.6818
▁industries	-10.6826
▁negotiated	-10.6832
▁lamps	-10.6835
▁subheading	-10.6841
▁whatever	-10.6851
▁fulfilment	-10.6857
▁levies	-10.6873
ANCE	-10.6876
▁seven	-10.6877
▁noise	-10.6883
en	-10.6886
▁planting	-10.6909
▁inward	-10.6917
▁wish	-10.6931
▁micro	-10.6937
▁decides	-10.6951
▁store	-10.6955
▁Ministry	-10.696
▁posts	-10.6962
▁SCE	-10.6965
▁insufficient	-10.6972
▁features	-10.6977
▁pollutants	-10.6978
▁Eurojust	-10.6979
▁serve	-10.6991
▁concentrations	-10.6992
▁Steel	-10.6996
▁hatching	-10.7
▁viability	-10.7
compliance	-10.7003
appearing	-10.701
Commission	-10.7013
▁procurement	-10.7018
▁cereal	-10.7021
▁reasonably	-10.7035
▁ability	-10.7041
▁confirmation	-10.7049
▁repayment	-10.7052
▁eight	-10.7052
▁mobile	-10.7055
▁operative	-10.7059
▁confirm	-10.7068
▁detail	-10.7068
▁bivalve	-10.7072
▁death	-10.7073
▁surface	-10.708
▁Supplement	-10.7087
▁CE	-10.7122
▁accidents	-10.713
▁off	-10.7134
▁accompany	-10.7139
▁exceptions	-10.7141
▁etc	-10.7153
▁usual	-10.7153
▁PSF	-10.7154
▁advances	-10.7155
▁observations	-10.7158
▁farmed	-10.7159
▁standing	-10.717
▁Except	-10.7176
▁Law	-10.7181
▁go	-10.7182
milk	-10.7183
▁WTO	-10.7187
▁Import	-10.7197
▁consignee	-10.7199
▁run	-10.7239
▁dossiers	-10.7242
▁Northern	-10.7243
he	-10.7248
▁accessible	-10.7249
▁Brazil	-10.7251
▁drinks	-10.7255
▁partly	-10.7258
▁definitively	-10.7279
▁keeping	-10.7285
▁lack	-10.7288
▁done	-10.7291
▁clarify	-10.7299
▁undercutting	-10.7311
▁ratification	-10.7325
▁offence	-10.7328
▁Mediterranean	-10.7329
▁notifier	-10.7331
for	-10.7343
▁integral	-10.7355
▁referring	-10.7381
▁contamination	-10.7383
▁preferences	-10.7385
▁update	-10.7401
▁revision	-10.7402
▁women	-10.7404
▁undergo	-10.7418
▁relative	-10.7425
▁chosen	-10.7428
▁Table	-10.7428
▁achievement	-10.743
▁disclosed	-10.7437
▁subjected	-10.7442
ch	-10.7448
▁spirit	-10.745
▁threat	-10.7454
▁sell	-10.7457
▁lighters	-10.7458
▁retained	-10.746
▁consigned	-10.7482
▁improvements	-10.7483
putting	-10.7486
▁bananas	-10.7489
▁printed	-10.7505
▁Icelandic	-10.751
▁growing	-10.7516
▁inspectors	-10.7518
▁craft	-10.752
▁Africa	-10.7526
▁shareholders	-10.7526
▁overseas	-10.7532
▁next	-10.7533
▁initiatives	-10.7536
▁programming	-10.7537
▁ownership	-10.7539
▁pursued	-10.7542
▁conjunct	-10.7559
▁specification	-10.7575
▁young	-10.7578
approved	-10.7579
▁constituted	-10.759
▁Representative	-10.7597
▁cold	-10.7598
▁SA	-10.7599
▁container	-10.7603
over	-10.7607
it	-10.7613
▁eco	-10.7623
▁renewable	-10.7631
ose	-10.7659
▁seat	-10.766
label	-10.7664
▁proportionality	-10.7666
▁protein	-10.7666
▁cif	-10.7666
▁nutrition	-10.7683
▁captive	-10.7685
▁generation	-10.7686
▁danger	-10.7693
▁comparative	-10.7693
▁hearing	-10.7697
▁solvency	-10.7704
▁offers	-10.7708
▁difficult	-10.7714
▁remains	-10.7718
UCH	-10.7719
▁rather	-10.772
▁useful	-10.774
▁frontier	-10.7742
▁phase	-10.7744
▁destined	-10.7745
▁Rights	-10.7749
▁barriers	-10.775
▁cargo	-10.7761
▁eliminate	-10.7766
▁Herzegovina	-10.7767
▁exportation	-10.7771
▁foreseen	-10.7775
▁participant	-10.7778
▁highly	-10.7787
▁recalled	-10.7799
▁proportionate	-10.7804
▁Funds	-10.781
▁individually	-10.7811
▁temperature	-10.7813
▁detection	-10.7827
▁planning	-10.7828
▁distance	-10.7835
Member	-10.7835
▁corresponds	-10.7842
▁hemp	-10.7853
▁dry	-10.7853
▁authorizations	-10.7857
▁GATT	-10.7864
▁renewal	-10.7878
▁deterioration	-10.7879
▁again	-10.788
▁closely	-10.7885
▁film	-10.7888
▁flow	-10.7892
▁appliances	-10.7894
▁distort	-10.7899
▁legally	-10.7899
▁Ltd	-10.7913
▁multiannual	-10.7914
IV	-10.7919
▁infected	-10.7928
▁refusal	-10.7934
▁restrictive	-10.7934
▁exclusion	-10.7937
▁considerable	-10.7941
▁running	-10.7941
▁strengthen	-10.7951
▁dialogue	-10.7961
▁properties	-10.7961
▁Greek	-10.7963
▁Albania	-10.7967
▁analogue	-10.797
▁objects	-10.7972
▁modifications	-10.7973
▁key	-10.7978
▁possibilities	-10.7988
Council	-10.8002
▁HAVE	-10.8015
▁highest	-10.8017
▁leading	-10.8018
▁grade	-10.8019
▁unloading	-10.8019
▁trees	-10.8021
▁television	-10.8022
▁article	-10.8038
▁conflict	-10.804
▁dissemination	-10.8046
▁driver	-10.805
▁moreover	-10.8051
▁step	-10.8066
F	-10.8068
▁terminal	-10.8083
hose	-10.8084
▁Un	-10.8095
▁affixed	-10.81
▁traders	-10.812
▁falls	-10.8124
▁EAGGF	-10.8136
▁indents	-10.8157
EN	-10.8168
▁fuels	-10.8186
many	-10.8192
▁instead	-10.8213
▁asked	-10.8217
▁K	-10.823
▁relief	-10.8241
export	-10.8249
"),	-10.8258
IR	-10.8262
▁fats	-10.8265
▁tomatoes	-10.8282
▁dependent	-10.8289
rom	-10.8294
▁Employment	-10.8297
▁renewed	-10.8297
▁gear	-10.8302
▁e	-10.8307
▁qualification	-10.8307
▁Berlin	-10.831
▁evaluated	-10.8315
▁irregularity	-10.8328
▁Guidelines	-10.8329
▁Malaysia	-10.8332
▁secured	-10.8332
▁Australia	-10.8338
▁disposed	-10.8355
▁fittings	-10.8367
▁examining	-10.8367
▁remove	-10.8368
▁rear	-10.8368
▁levied	-10.838
▁subsidiarity	-10.838
▁deducted	-10.8381
▁J	-10.8402
▁schedule	-10.8408
▁doubts	-10.8424
▁secure	-10.8427
▁ground	-10.8429
▁ecological	-10.844
▁crime	-10.8441
▁minor	-10.8444
ous	-10.8446
▁measuring	-10.8449
▁collateral	-10.8463
▁nationality	-10.8478
▁closing	-10.848
▁Euro	-10.8491
▁MEASURES	-10.8494
▁NCBs	-10.8498
▁furnished	-10.8498
▁d	-10.8516
▁aware	-10.8518
sized	-10.8526
interoperability	-10.8526
▁sixth	-10.853
▁EDF	-10.8542
▁Israel	-10.8543
▁enters	-10.8547
▁Presidency	-10.8552
▁figure	-10.8553
▁extract	-10.8557
▁journey	-10.8559
see	-10.8568
▁gives	-10.857
▁ban	-10.8584
▁creditors	-10.8593
ealand	-10.8607
▁Macedonia	-10.8611
▁constructed	-10.8616
▁dioxide	-10.8618
▁territorial	-10.8626
▁UN	-10.8635
▁despite	-10.8643
▁investors	-10.8662
▁sections	-10.8667
▁receives	-10.867
▁Belarus	-10.867
▁exit	-10.8672
▁branches	-10.8672
▁submitting	-10.8675
▁continuing	-10.8675
▁indicates	-10.8691
▁REFERR	-10.8691
ertain	-10.8693
▁competitiveness	-10.8699
tory	-10.8701
▁syrup	-10.8704
▁UK	-10.8718
▁adjust	-10.8718
▁frontiers	-10.8729
▁contributing	-10.873
▁flows	-10.8731
▁others	-10.8741
▁hectare	-10.8743
▁HAS	-10.8759
▁attest	-10.876
ation	-10.8761
▁distributed	-10.8767
▁targets	-10.8772
▁pesticides	-10.8778
▁remedy	-10.8779
▁illegal	-10.8788
▁invoked	-10.8791
▁PET	-10.8792
▁GMOs	-10.8797
▁Until	-10.8798
uring	-10.881
▁Yugoslav	-10.8818
O	-10.8824
▁audit	-10.8825
▁grown	-10.8826
▁filed	-10.8829
III	-10.8837
▁ova	-10.8848
▁membership	-10.8849
▁ACCORD	-10.8875
▁SE	-10.8877
▁authenticity	-10.8878
▁publicly	-10.8885
▁exercised	-10.8888
▁executive	-10.889
ally	-10.8893
▁construed	-10.8907
▁appointment	-10.8914
▁examinations	-10.8925
▁arguments	-10.893
▁consists	-10.8938
▁OUT	-10.8952
▁adaptations	-10.8952
▁s	-10.8959
▁acted	-10.8966
▁Charter	-10.8968
▁Category	-10.8975
▁master	-10.8975
▁refers	-10.8977
▁consignor	-10.8978
um	-10.8986
▁stipulates	-10.8987
▁landing	-10.9003
▁outbreak	-10.9011
▁reserved	-10.902
▁wood	-10.9021
▁welfare	-10.9032
▁clearance	-10.9043
▁:	-10.9045
▁Investment	-10.9046
▁furthermore	-10.906
▁transition	-10.9064
▁administrations	-10.9071
▁routes	-10.9091
▁files	-10.9092
▁divided	-10.9094
▁registry	-10.9094
▁save	-10.9104
▁double	-10.9108
▁Form	-10.9112
▁smooth	-10.9118
▁liquid	-10.9122
▁satellite	-10.9136
▁officers	-10.9141
▁nominal	-10.9165
▁respected	-10.9171
▁whilst	-10.9181
▁warrant	-10.9181
▁Egypt	-10.9182
▁purchases	-10.9184
▁agenda	-10.9186
▁positions	-10.9189
AID	-10.92
▁secrecy	-10.9212
▁likelihood	-10.9215
▁WHERE	-10.9216
▁therefrom	-10.9219
▁defence	-10.922
▁substituted	-10.9223
▁lots	-10.9229
▁deadlines	-10.924
▁invite	-10.9251
▁deliveries	-10.9254
▁buyer	-10.9261
';	-10.9261
▁Recommendation	-10.9263
▁cut	-10.9268
▁abolition	-10.9277
▁Federation	-10.9277
▁purity	-10.9277
▁deduction	-10.9281
▁understood	-10.9282
▁Stabilisation	-10.9283
▁equally	-10.9285
▁banknotes	-10.9285
▁islands	-10.9285
▁sheets	-10.9294
▁sites	-10.9309
:"	-10.9317
▁breakdown	-10.932
▁disputes	-10.932
▁specimens	-10.9344
▁Danish	-10.9345
▁citizens	-10.9345
growing	-10.9346
▁sectoral	-10.9346
▁monitored	-10.9348
time	-10.9355
▁evolution	-10.9361
▁raise	-10.9368
▁purchased	-10.937
▁Madeira	-10.9371
▁notwithstanding	-10.9371
▁timetable	-10.9378
▁competitors	-10.9378
▁seats	-10.9395
▁g	-10.9397
▁computerised	-10.9405
▁initially	-10.9406
▁representation	-10.9413
▁la	-10.9427
▁elimination	-10.9438
▁c	-10.9441
▁Declaration	-10.9453
▁EUPM	-10.9466
▁equipped	-10.9469
▁endorsed	-10.9469
▁MET	-10.9469
▁department	-10.9475
▁involves	-10.9482
kg	-10.949
▁consecutive	-10.9494
▁periodically	-10.9498
▁Specific	-10.9504
ted	-10.9508
▁advantages	-10.951
▁Dur	-10.9513
▁productivity	-10.9527
▁strictly	-10.9528
▁relatively	-10.9529
▁easily	-10.953
▁mixed	-10.9531
▁defining	-10.9532
▁n	-10.9532
▁tolerance	-10.9537
▁smaller	-10.9538
▁analyses	-10.9544
▁distortions	-10.9551
▁THI	-10.9558
▁calculate	-10.9559
▁nitrogen	-10.9565
▁forces	-10.9565
▁symbol	-10.9569
▁brucellosis	-10.9569
▁invitations	-10.9573
V	-10.9577
▁egg	-10.9586
▁billion	-10.9592
▁lowest	-10.9592
▁procedural	-10.9599
▁juice	-10.96
▁labels	-10.9601
▁Bureau	-10.9607
▁dealing	-10.9612
▁parameters	-10.9626
▁liaison	-10.963
▁partially	-10.9631
▁oral	-10.9633
▁unfair	-10.9633
▁cotton	-10.9633
▁links	-10.9634
▁flax	-10.9639
▁beet	-10.9645
▁know	-10.965
▁b	-10.9655
Annex	-10.9657
▁entirely	-10.9658
▁chapter	-10.9665
▁heavy	-10.9669
▁hectares	-10.9688
▁impossible	-10.9688
▁criterion	-10.969
▁represents	-10.9691
▁recurrence	-10.9691
▁updating	-10.9692
▁approving	-10.9692
▁choose	-10.9695
▁comparability	-10.9696
▁ancillary	-10.9701
▁aids	-10.9716
▁universal	-10.9721
ng	-10.9741
▁installed	-10.9756
▁DOWN	-10.9759
▁finding	-10.9778
▁Provisions	-10.9781
▁o	-10.9782
▁visit	-10.9789
▁Appeal	-10.9793
▁wishing	-10.9797
▁understanding	-10.9797
ised	-10.9798
bred	-10.9799
▁Register	-10.9804
▁diagnostic	-10.9805
▁airports	-10.9813
▁Policy	-10.9819
▁simultaneously	-10.982
▁converted	-10.9824
▁constituting	-10.9824
▁statutory	-10.983
▁beneficial	-10.9833
▁addresses	-10.9833
▁modify	-10.9844
▁preclude	-10.9847
▁simplification	-10.986
▁limitations	-10.9861
▁Chile	-10.9866
▁tractor	-10.9868
▁candidate	-10.9868
▁circumvention	-10.987
":	-10.9878
▁calculations	-10.9887
▁contaminated	-10.9889
▁fiscal	-10.9893
▁disturbance	-10.9894
▁reproduction	-10.9896
▁team	-10.9898
▁controller	-10.9898
▁Public	-10.9919
▁advisory	-10.9919
▁automatically	-10.9922
▁feeding	-10.9923
▁transferable	-10.9923
one	-10.9929
▁enhance	-10.9937
▁potato	-10.9949
▁PARAGRAPH	-10.9953
▁lost	-10.9954
▁sickness	-10.9959
▁attributed	-10.9963
▁adjusting	-10.9964
anitary	-10.9973
▁sums	-10.9979
▁subsidiaries	-10.9987
▁considering	-10.9995
▁collect	-10.9997
▁reasoned	-11.0005
▁Committees	-11.0005
▁AG	-11.001
▁recognise	-11.0016
▁GOODS	-11.0019
▁Newcastle	-11.0021
▁heard	-11.0022
▁Environment	-11.0022
▁objection	-11.003
▁vary	-11.0034
▁closed	-11.0036
▁much	-11.0037
▁banking	-11.0048
▁advisable	-11.0053
▁visa	-11.0059
▁Organization	-11.0059
▁zero	-11.0078
▁caught	-11.0088
▁coordinating	-11.009
▁investor	-11.0103
▁manager	-11.0119
▁navigation	-11.0127
▁epidemiological	-11.0129
▁automatic	-11.0141
▁comment	-11.0153
▁Azores	-11.0154
▁REGARD	-11.0154
▁quickly	-11.0155
▁nine	-11.0161
▁argument	-11.0164
▁asset	-11.0172
▁sensitive	-11.0194
▁Acting	-11.0199
▁error	-11.0203
▁grading	-11.0208
commercial	-11.0222
▁English	-11.0224
▁coins	-11.0225
▁deposited	-11.0232
▁Provision	-11.0235
▁pro	-11.0235
▁conforming	-11.0237
▁objections	-11.0248
▁expertise	-11.0257
▁instance	-11.026
▁forecast	-11.026
▁Round	-11.026
▁operates	-11.0288
▁purchaser	-11.0288
▁waterway	-11.0303
R	-11.0303
▁fails	-11.031
ANY	-11.0319
▁ADOPT	-11.0326
▁Europol	-11.0327
▁wide	-11.0329
▁)	-11.0332
▁alternate	-11.0335
▁radioactive	-11.0344
Mediterranean	-11.0345
▁fulfill	-11.035
ECSC	-11.0351
▁electrical	-11.0354
▁PROVIDED	-11.0361
▁facilitating	-11.0362
▁COUNTRY	-11.0365
▁Atlantic	-11.0368
▁justification	-11.0371
▁Some	-11.0384
▁chemicals	-11.0392
▁Although	-11.0397
▁BNFL	-11.0398
▁mg	-11.0399
▁stations	-11.0421
▁household	-11.0427
▁MRLs	-11.0432
▁aviation	-11.0436
▁adequately	-11.0446
▁drugs	-11.0448
protection	-11.0457
▁critical	-11.0463
Every	-11.0465
▁sealed	-11.0469
▁intellectual	-11.0475
▁cheese	-11.0477
ry	-11.0479
▁CONDITIONS	-11.0501
financing	-11.0509
other	-11.0511
▁Guideline	-11.0513
▁benefiting	-11.0527
▁Indeed	-11.0538
producing	-11.0541
▁lodge	-11.0542
▁solutions	-11.0542
▁documentary	-11.0551
▁execut	-11.0557
▁media	-11.0563
▁exposed	-11.0579
▁Network	-11.0587
▁Interi	-11.0595
▁vaccines	-11.06
▁destroyed	-11.0609
▁minutes	-11.0609
▁expressly	-11.061
▁wishes	-11.061
▁declare	-11.0611
▁chaired	-11.0611
▁quarterly	-11.0613
▁incorrect	-11.0618
▁originate	-11.062
▁contributed	-11.0641
▁shipment	-11.0646
▁EFTA	-11.066
▁drawback	-11.0661
▁fulfils	-11.0673
▁strict	-11.0674
ex	-11.0676
▁mixtures	-11.068
▁RTP	-11.0681
▁expired	-11.0684
▁hoc	-11.0689
▁distortion	-11.0692
▁translation	-11.0693
▁mineral	-11.0694
▁et	-11.0696
▁di	-11.0707
▁Protocols	-11.0724
wide	-11.0725
▁conventions	-11.0726
▁belong	-11.0727
▁horses	-11.0734
▁assembly	-11.0736
▁closure	-11.0741
▁Amendments	-11.0742
▁spp	-11.0752
▁confer	-11.0758
▁owing	-11.076
▁outer	-11.0769
▁invalidity	-11.0771
▁asbestos	-11.0773
▁police	-11.0792
▁moving	-11.0796
▁inside	-11.0799
▁farms	-11.0819
▁prospectus	-11.0823
▁collaboration	-11.0824
▁secondary	-11.0827
▁Instance	-11.0832
▁terminate	-11.0833
▁partnership	-11.0838
▁clause	-11.084
▁weighing	-11.084
▁candidates	-11.0851
▁generated	-11.0854
▁endeavour	-11.0868
▁problem	-11.0871
▁directive	-11.0878
▁regardless	-11.0879
▁flint	-11.0897
▁psr	-11.0898
▁fibres	-11.0917
▁seeking	-11.0917
▁resulted	-11.0918
▁output	-11.0931
▁soil	-11.0931
▁families	-11.0933
▁institutional	-11.0934
▁Nevertheless	-11.0937
▁tenderers	-11.0937
▁recover	-11.0938
▁Unit	-11.0939
▁THIRD	-11.0941
▁diversity	-11.0942
▁obstacles	-11.0948
▁parcels	-11.0951
▁director	-11.0969
njunction	-11.0973
▁offering	-11.0979
▁stay	-11.0981
▁conventional	-11.0982
▁select	-11.0991
▁owned	-11.0992
▁aggregate	-11.1013
▁constituents	-11.1023
▁Point	-11.1023
▁Final	-11.1025
▁seller	-11.103
▁Host	-11.1042
▁intend	-11.1044
▁implications	-11.1046
▁retention	-11.1046
▁administered	-11.1047
▁penalty	-11.1048
off	-11.1049
▁true	-11.1055
case	-11.1064
▁passport	-11.1065
▁Market	-11.1077
▁currencies	-11.1082
▁organism	-11.1082
▁progressively	-11.1083
▁seems	-11.109
▁Hel	-11.1092
▁tanks	-11.1093
▁medicine	-11.1095
▁seconded	-11.1102
▁concludes	-11.1104
▁Control	-11.1112
ro	-11.1115
RTGS	-11.1117
▁promptly	-11.112
▁involvement	-11.1125
▁parallel	-11.1126
▁urgent	-11.1131
▁systematic	-11.1133
TARIC	-11.1133
▁labelled	-11.1134
▁bringing	-11.1137
▁ingredient	-11.1139
▁Up	-11.1141
▁Application	-11.1142
▁olives	-11.1143
▁Argentina	-11.1147
▁isoglucose	-11.115
▁attain	-11.115
▁arable	-11.1157
▁index	-11.1162
▁SECTION	-11.1164
▁vaccine	-11.1173
JHA	-11.1174
▁pensions	-11.1177
▁winding	-11.1178
▁man	-11.1184
▁mind	-11.1186
▁substantiated	-11.12
▁BGB	-11.1206
IN	-11.1207
▁grain	-11.1214
▁mixture	-11.122
▁discharges	-11.1227
▁HAV	-11.1231
▁bought	-11.1233
▁exercising	-11.1233
▁GmbH	-11.1234
▁derogating	-11.1235
▁al	-11.1244
▁sending	-11.1245
▁employee	-11.1247
▁hot	-11.1255
▁late	-11.1269
▁replies	-11.1271
▁flexibility	-11.1271
▁Yugoslavia	-11.1274
▁proceed	-11.1279
▁Democrati	-11.128
aside	-11.1281
▁broadcasting	-11.1285
▁aside	-11.1291
▁Objective	-11.1299
▁PROCEDURE	-11.1309
▁reproductive	-11.1311
▁North	-11.1311
▁dimension	-11.1318
▁notices	-11.1325
▁nutritional	-11.1325
▁Chapters	-11.1334
▁space	-11.1335
▁enterprise	-11.1335
▁herd	-11.1337
▁carcase	-11.1337
▁OCT	-11.1339
▁tables	-11.1341
▁preparing	-11.1348
▁detected	-11.1349
▁creating	-11.1354
▁Institute	-11.1354
▁trial	-11.1356
▁des	-11.1362
▁foodstuff	-11.1362
▁attestation	-11.1366
▁books	-11.137
▁vol	-11.1373
▁encouraging	-11.1386
▁derogate	-11.139
▁digital	-11.1395
▁duplicate	-11.141
▁signing	-11.1418
▁acquire	-11.1418
▁Communication	-11.142
▁semi	-11.1421
▁MUST	-11.1424
▁undue	-11.1427
▁cm	-11.1433
▁filing	-11.1436
▁incineration	-11.1436
▁appointing	-11.1446
▁retirement	-11.145
▁l	-11.1454
▁goats	-11.1461
▁presumed	-11.1464
▁coordinate	-11.1469
▁fax	-11.1469
lenic	-11.1471
P	-11.1472
▁carbon	-11.1484
▁inputs	-11.1485
▁decline	-11.1496
▁extracts	-11.1497
▁Regional	-11.1497
ar	-11.15
▁grouping	-11.1502
▁ITS	-11.1504
)."	-11.1506
▁licensed	-11.1506
▁unrelated	-11.1508
▁recipients	-11.1525
▁complement	-11.1532
▁alone	-11.1537
▁U	-11.1538
▁Kyo	-11.1548
▁sake	-11.1548
▁packs	-11.1549
▁copyright	-11.1554
▁yields	-11.1554
▁registers	-11.1563
inancial	-11.1579
▁complainant	-11.1581
▁He	-11.1616
▁cancelled	-11.162
▁repeated	-11.1621
▁apparent	-11.1622
▁male	-11.1622
▁Greenland	-11.1623
▁difficulty	-11.1623
▁stipulate	-11.1627
te	-11.1629
▁complementary	-11.1632
▁postal	-11.1635
▁precaution	-11.1636
▁measurements	-11.1638
▁balanced	-11.1645
▁side	-11.1661
▁freight	-11.1662
▁pricing	-11.1663
▁Great	-11.1664
▁core	-11.1665
▁Research	-11.1666
▁holds	-11.1689
▁headings	-11.1691
▁accurate	-11.17
▁technically	-11.1704
▁completely	-11.1707
▁guide	-11.171
▁reception	-11.1712
▁serial	-11.1712
▁failed	-11.1742
▁directed	-11.1744
▁fire	-11.1744
▁Tunisia	-11.1746
▁borders	-11.1746
▁analysed	-11.1746
▁seriously	-11.1748
▁Further	-11.1751
▁manage	-11.1755
▁reject	-11.1763
▁coastal	-11.1768
▁USA	-11.1784
▁software	-11.1784
iform	-11.1806
▁printing	-11.1825
organisms	-11.1827
▁fight	-11.1832
▁UNDER	-11.1838
▁exact	-11.1842
▁formation	-11.1845
▁near	-11.1851
▁simplify	-11.1851
▁Taking	-11.186
▁proved	-11.1861
ness	-11.1872
▁distinction	-11.1872
▁undertakes	-11.1875
▁expression	-11.1878
▁Training	-11.1881
▁remedies	-11.19
▁front	-11.1903
▁subsidised	-11.1907
▁pilot	-11.1924
▁visits	-11.1929
▁flight	-11.1941
▁referral	-11.1943
▁Alstom	-11.1943
▁correctly	-11.1945
▁resale	-11.1947
governmental	-11.1957
▁variable	-11.1959
▁extra	-11.1963
▁abolished	-11.1983
ATION	-11.1989
▁primarily	-11.199
▁density	-11.1995
▁across	-11.1999
▁Export	-11.2017
▁render	-11.202
▁Treaties	-11.2022
▁strategies	-11.2022
▁protecting	-11.2022
▁illicit	-11.2024
▁spong	-11.2026
ABLE	-11.2026
▁independence	-11.2026
traditional	-11.2027
▁why	-11.203
▁onwards	-11.203
▁collecting	-11.2036
▁chain	-11.2044
tic	-11.2049
▁certify	-11.2055
▁debtor	-11.2063
▁equality	-11.2067
▁mention	-11.2069
▁ARTICLES	-11.207
▁finally	-11.2077
▁recycling	-11.2091
▁prevented	-11.2102
boundary	-11.2103
▁correlation	-11.2104
▁endanger	-11.2105
▁Finally	-11.2106
▁tools	-11.2115
▁reflected	-11.2116
▁fine	-11.212
▁telephone	-11.213
▁CCAMLR	-11.2134
▁flavouring	-11.2138
▁play	-11.2139
▁COMMITTEE	-11.2144
▁unanimously	-11.2146
▁forest	-11.2151
▁ecus	-11.2152
▁disclose	-11.2159
frontier	-11.2172
▁attend	-11.2176
▁fleet	-11.2177
ombined	-11.2185
▁purchasing	-11.2192
▁confidence	-11.2193
▁organ	-11.2194
▁Swedish	-11.2195
▁combustion	-11.2199
▁latitude	-11.2199
In	-11.22
▁compounds	-11.2204
▁cutting	-11.2205
▁intermediaries	-11.2229
▁moment	-11.223
▁Dutch	-11.2231
▁MobilCom	-11.2231
▁salary	-11.2233
▁intermediary	-11.2238
▁insured	-11.2239
▁incomplete	-11.2247
▁IF	-11.2252
▁vine	-11.2256
▁vaccinated	-11.2265
▁impede	-11.227
▁twice	-11.2273
▁preserve	-11.2281
▁'-	-11.2287
▁requisite	-11.2287
▁secretariat	-11.2289
▁colouring	-11.229
▁Land	-11.2304
▁THOSE	-11.2313
▁himself	-11.2313
▁coverage	-11.232
▁metres	-11.2322
▁Belgian	-11.2325
▁coast	-11.2326
date	-11.2335
▁toxic	-11.2335
▁BSE	-11.2342
▁wording	-11.2342
▁coal	-11.2357
▁constraints	-11.2359
▁incorporation	-11.2361
▁inspected	-11.2363
▁certainty	-11.237
▁cows	-11.2372
ir	-11.2375
▁move	-11.2376
▁exhaust	-11.241
▁though	-11.2412
▁wastes	-11.2417
▁tonnage	-11.2424
▁antigen	-11.2433
▁ongoing	-11.2434
▁outbreaks	-11.2434
▁attainment	-11.2442
▁subheadings	-11.2444
▁tariffs	-11.2444
▁harm	-11.2448
▁assume	-11.2452
▁r	-11.246
▁km	-11.2464
▁failing	-11.2464
▁passed	-11.2466
▁EN	-11.2472
▁owners	-11.2475
▁UP	-11.2484
▁multiplied	-11.2488
▁outstanding	-11.2488
ever	-11.2496
▁Officer	-11.25
▁Adaptation	-11.2501
▁protocols	-11.2501
▁counter	-11.2505
▁prescribe	-11.2523
▁born	-11.2527
▁driving	-11.2527
▁surplus	-11.2534
▁altered	-11.2536
▁observers	-11.2541
▁union	-11.2546
▁reliability	-11.255
▁IMPORT	-11.2551
speed	-11.2558
▁none	-11.2564
▁SG	-11.2565
▁practicable	-11.2572
▁genuine	-11.2572
▁Vietnam	-11.2574
▁coefficients	-11.2578
side	-11.2579
▁abuse	-11.2581
▁extensive	-11.2585
▁doubt	-11.2585
▁started	-11.2588
▁Service	-11.2597
▁cooperated	-11.2598
▁Civil	-11.2598
ten	-11.2602
▁profitable	-11.2602
▁UNDERTAKING	-11.2613
▁FOLLOWING	-11.2614
▁she	-11.2617
▁wholesale	-11.2622
▁mail	-11.2626
▁GRANT	-11.2627
processing	-11.2629
▁perspective	-11.2632
▁delegation	-11.2635
▁plastic	-11.2637
▁warehousing	-11.2644
▁spreading	-11.2651
▁petroleum	-11.2658
▁foreseeable	-11.266
▁zootechnical	-11.2662
▁Kong	-11.2663
▁misleading	-11.2671
disproportionate	-11.2674
▁radiation	-11.2675
▁MEAT	-11.2687
▁alter	-11.2693
▁book	-11.2696
▁guaranteeing	-11.2698
▁false	-11.2701
▁Principality	-11.2704
▁declarant	-11.2705
all	-11.2706
PIC	-11.2715
▁ways	-11.2726
▁advise	-11.2738
▁station	-11.2747
▁necessarily	-11.2748
▁dominant	-11.2749
▁statutes	-11.2751
▁ceased	-11.2761
▁correction	-11.2769
▁multi	-11.2771
▁ascertain	-11.2774
H	-11.2779
▁aquatic	-11.2796
▁en	-11.2802
▁thereon	-11.2802
▁depreciation	-11.2806
▁contacts	-11.2809
▁black	-11.2809
▁FAO	-11.281
▁moved	-11.2813
accession	-11.2816
▁Not	-11.2822
▁optional	-11.2826
▁along	-11.283
▁freezing	-11.2834
▁doing	-11.2834
▁Progress	-11.2835
▁spot	-11.2838
▁attained	-11.284
▁economically	-11.2842
▁ozone	-11.2843
▁biocid	-11.2858
▁arms	-11.2862
▁iron	-11.2887
▁microdisks	-11.2888
▁eliminated	-11.289
▁respond	-11.2896
▁UCITS	-11.2898
▁substitution	-11.2898
▁find	-11.2903
▁cancellation	-11.2904
▁partner	-11.2904
▁occurrence	-11.2906
ending	-11.2907
▁clauses	-11.2909
ECB	-11.2914
▁organise	-11.2922
▁durum	-11.2923
▁barley	-11.2927
▁offset	-11.2928
▁exhausted	-11.2928
CE	-11.2928
▁percentages	-11.2933
▁licensing	-11.2936
▁interference	-11.2937
▁subjects	-11.2943
▁boxes	-11.2954
▁ISO	-11.2958
▁assessments	-11.2976
▁preventive	-11.2977
▁negligible	-11.2979
▁Internet	-11.2981
▁tested	-11.2981
▁indelible	-11.3014
▁rapidly	-11.3016
▁causing	-11.3017
▁revealed	-11.3018
▁prohibiting	-11.302
▁cream	-11.303
▁extraction	-11.3036
▁versions	-11.304
▁ending	-11.3046
▁ICES	-11.3051
▁Transport	-11.3053
▁approximately	-11.3055
▁random	-11.3061
▁CUSTOMS	-11.3061
▁suckler	-11.3065
▁display	-11.3066
residual	-11.3068
tonne	-11.3071
▁minimis	-11.3071
▁enlargement	-11.3072
▁Insurance	-11.3072
▁allocate	-11.3104
▁indeed	-11.3106
▁exchanged	-11.3108
▁evaluations	-11.3117
▁destinations	-11.3118
▁propagation	-11.3122
▁manual	-11.313
EU	-11.3133
▁performing	-11.3134
SE	-11.314
with	-11.3143
▁reaction	-11.3143
▁broad	-11.315
▁AUTHORITIES	-11.3151
▁standardisation	-11.3152
▁direction	-11.3155
▁multiple	-11.3155
lways	-11.316
▁Opinion	-11.3175
▁APPLY	-11.3197
▁Japanese	-11.32
▁signs	-11.3203
▁deem	-11.321
▁served	-11.3219
she	-11.3222
TIR	-11.3228
▁GENERAL	-11.3243
▁humanitarian	-11.3243
▁continuity	-11.3244
▁quarantine	-11.3246
▁absolute	-11.3246
▁admissible	-11.3248
▁dairy	-11.3249
▁permanently	-11.3251
▁occurs	-11.3252
▁visible	-11.3252
▁derivatives	-11.3256
vis	-11.3256
▁unprocessed	-11.3256
▁Implementation	-11.3261
▁approvals	-11.3265
▁Maritime	-11.3268
▁threaten	-11.3268
▁errors	-11.3277
▁spare	-11.3285
▁preservation	-11.329
▁gave	-11.329
▁slaughterhouses	-11.3291
▁spectrum	-11.3294
▁fail	-11.3298
▁auditors	-11.3306
▁foster	-11.331
▁cooperative	-11.3323
▁cuts	-11.3327
▁countervailable	-11.3332
▁civilian	-11.3337
▁stand	-11.3337
▁underlying	-11.3341
ECU	-11.3348
▁serving	-11.3353
age	-11.3373
▁flights	-11.3376
▁hinder	-11.338
▁cattle	-11.3383
▁deficiencies	-11.3384
▁occurring	-11.3386
▁permissible	-11.3388
▁afford	-11.3391
▁TYPE	-11.3398
▁litres	-11.3406
▁COM	-11.3416
▁distinct	-11.3421
▁compensate	-11.3442
▁warehouses	-11.3451
▁variation	-11.3457
▁f	-11.3471
▁nets	-11.3475
▁Britain	-11.3478
▁earliest	-11.348
▁arrange	-11.3481
▁REPUBLIC	-11.3482
▁channels	-11.3488
▁victims	-11.3488
▁newly	-11.349
▁cycle	-11.3494
▁supplementing	-11.3498
management	-11.3501
▁begin	-11.3508
▁infectious	-11.3511
▁Hong	-11.3521
▁believe	-11.3543
▁questionnaires	-11.3545
▁turn	-11.3549
▁encouraged	-11.3558
▁Understanding	-11.3574
▁capacities	-11.3574
▁strong	-11.3577
▁estate	-11.3577
▁ambient	-11.358
▁occupation	-11.3594
▁concer	-11.3597
ingle	-11.3598
▁timely	-11.3603
▁unlikely	-11.3622
▁remainder	-11.3629
▁trafficking	-11.3631
▁card	-11.3632
▁Supervisor	-11.3632
▁CO	-11.3639
▁differentiated	-11.3647
▁options	-11.3651
▁focus	-11.3659
▁businesses	-11.3661
▁men	-11.3668
basic	-11.3668
▁Monetary	-11.367
▁elsewhere	-11.367
▁scrutiny	-11.367
▁initiating	-11.3673
▁Thus	-11.3676
▁convened	-11.3676
▁reimbursed	-11.3676
▁formula	-11.3679
▁audiovisual	-11.3682
▁remission	-11.3683
▁unlawful	-11.3683
▁supervised	-11.3685
cal	-11.3688
▁patent	-11.3691
▁descriptions	-11.3694
▁assurances	-11.371
▁High	-11.372
▁CD	-11.3721
▁announced	-11.3726
▁Liechtenstein	-11.3727
▁possibly	-11.3728
▁block	-11.3734
astern	-11.3734
ance	-11.3736
▁band	-11.3737
▁reveal	-11.3738
aid	-11.3747
▁Use	-11.3751
▁Inspection	-11.3751
▁proceeds	-11.3761
terinstitutional	-11.3761
▁pursuing	-11.3772
▁mobility	-11.3773
▁warning	-11.3781
▁footnote	-11.3791
▁rescue	-11.38
▁adult	-11.3804
▁bind	-11.3813
▁page	-11.3816
▁frequently	-11.3819
▁adding	-11.3834
▁negotiate	-11.3838
▁proprietor	-11.3843
▁Meeting	-11.3845
▁Governments	-11.3846
▁transhipment	-11.3849
▁add	-11.3859
▁engage	-11.3865
▁COMMUNITIES	-11.3866
▁Police	-11.3866
▁FREE	-11.3872
▁distinguishing	-11.3886
▁commission	-11.3887
▁rendered	-11.3887
▁diploma	-11.3888
▁incentive	-11.3892
▁considerably	-11.3915
▁returns	-11.3915
▁telex	-11.3918
▁outlined	-11.3919
▁flexible	-11.3925
▁valuation	-11.3928
G	-11.3938
▁seen	-11.3943
▁"-	-11.3946
▁flavourings	-11.3947
lecommunications	-11.395
▁Serbia	-11.395
▁courses	-11.3951
▁community	-11.3951
However	-11.3953
▁IMO	-11.3963
▁integrity	-11.3965
▁Two	-11.3971
▁Non	-11.3979
▁proves	-11.398
▁lending	-11.3987
▁seventh	-11.3987
▁Division	-11.3991
▁ten	-11.4012
▁goatmeat	-11.4015
▁SMEs	-11.4015
▁Pakistan	-11.4017
▁RULES	-11.4019
▁twelve	-11.4021
▁Singapore	-11.4026
▁Box	-11.4028
▁Anti	-11.4035
▁savings	-11.4038
▁grams	-11.4045
▁packed	-11.4046
area	-11.4047
▁Thes	-11.4059
▁job	-11.4061
▁arrest	-11.4063
end	-11.4067
▁publications	-11.407
▁skills	-11.4071
▁recently	-11.4072
▁cleaning	-11.4077
▁independently	-11.4078
▁wheeled	-11.4079
▁avoiding	-11.4081
▁surrender	-11.4082
ES	-11.4084
▁gases	-11.4086
▁causes	-11.4088
▁hire	-11.4089
▁discharged	-11.4095
▁administrator	-11.4097
▁reservation	-11.4103
▁successive	-11.4117
▁suffering	-11.4119
▁accorded	-11.412
▁supervising	-11.4121
▁CELF	-11.4124
▁employers	-11.4125
▁chargeable	-11.4126
POL	-11.4127
▁laundering	-11.4132
▁Operation	-11.4153
▁Services	-11.4161
▁depositary	-11.417
▁transferring	-11.4171
▁airspace	-11.4173
▁earnings	-11.4174
▁furnish	-11.4181
▁disposable	-11.4189
▁Production	-11.4192
▁avail	-11.4194
▁deposits	-11.4196
▁Fro	-11.42
▁accepting	-11.42
▁damaged	-11.4205
▁visas	-11.4206
▁classic	-11.4207
▁cow	-11.4209
▁pharmaceutical	-11.4212
▁gastropods	-11.4218
▁revocation	-11.422
▁outward	-11.4243
▁strategic	-11.4243
▁databases	-11.4249
▁arbitration	-11.4269
▁deriving	-11.4269
▁slightly	-11.4269
▁permitting	-11.4273
▁worked	-11.4276
quality	-11.428
▁sealing	-11.4283
▁designs	-11.4287
▁invoices	-11.4289
▁pieces	-11.4293
▁shipments	-11.4313
▁corporate	-11.4317
▁OCTs	-11.4319
▁gradual	-11.4319
▁travellers	-11.4324
▁prevailing	-11.4324
▁unused	-11.4325
▁immovable	-11.4343
etailed	-11.4343
▁reorganisation	-11.4354
▁segment	-11.436
▁purchasers	-11.4362
▁pass	-11.4368
▁PARTICULAR	-11.437
DEM	-11.4371
▁separation	-11.4372
▁pathogenic	-11.4373
▁buy	-11.4373
▁salaries	-11.4375
▁evaluating	-11.4375
▁grades	-11.4377
▁then	-11.4379
▁intensity	-11.4379
▁feasibility	-11.4381
▁Cha	-11.4395
▁opposition	-11.4396
▁freezer	-11.4399
▁groundwater	-11.4402
▁Notification	-11.4405
holding	-11.4407
▁hazard	-11.4408
▁north	-11.4413
▁educational	-11.4415
▁notifiers	-11.4421
▁fattening	-11.4424
▁inquiry	-11.4428
▁refugee	-11.4428
▁peaches	-11.4429
▁Montenegro	-11.4433
▁consolidation	-11.4435
▁instituted	-11.4435
▁rendering	-11.4442
▁CTVs	-11.445
▁catalogue	-11.4452
▁belongs	-11.4461
▁presenting	-11.4464
▁carrie	-11.4466
▁Access	-11.447
▁fit	-11.447
▁ACCOUNTS	-11.4477
▁undesirable	-11.4479
▁see	-11.448
▁Plan	-11.4483
tatistical	-11.4489
▁Statistics	-11.4493
▁competing	-11.4495
▁disciplinary	-11.4501
▁directors	-11.4501
▁heating	-11.4508
▁secondment	-11.4512
▁hop	-11.4515
▁growers	-11.4518
▁affects	-11.4527
▁unduly	-11.4529
▁explicitly	-11.453
▁While	-11.4533
▁specifies	-11.4534
▁silicon	-11.4535
▁rata	-11.4544
▁VALUE	-11.4551
▁reactions	-11.4558
▁Lebanon	-11.4561
specific	-11.4569
▁informing	-11.4569
▁load	-11.4575
▁benefited	-11.4575
▁NECESSARY	-11.4582
▁stores	-11.4587
▁deliberate	-11.4588
▁potentially	-11.459
vi	-11.4595
▁GBP	-11.46
methyl	-11.4601
▁landed	-11.4607
▁deep	-11.4616
▁tranche	-11.4617
▁internationally	-11.4617
etween	-11.462
▁conference	-11.4632
▁Licence	-11.4634
▁attributable	-11.4635
▁consumed	-11.4637
market	-11.4638
▁background	-11.464
▁gaseous	-11.4645
▁subscribed	-11.4646
▁fertilizers	-11.4648
▁consortium	-11.4649
▁endorsements	-11.4652
▁discussions	-11.4655
▁Directorate	-11.4668
▁actors	-11.4671
▁great	-11.4678
▁USE	-11.4679
Where	-11.4684
▁Ombudsman	-11.4688
▁dissuasive	-11.4688
▁gradually	-11.469
▁fluctuations	-11.4692
▁cultivated	-11.4696
▁investigated	-11.4699
▁Korean	-11.4711
how	-11.472
▁inspector	-11.4723
▁validated	-11.4728
▁teams	-11.473
▁Payment	-11.4736
▁entirety	-11.4743
▁crossing	-11.4743
▁interconnection	-11.4744
▁Plants	-11.4752
▁exceptionally	-11.4753
▁Contracts	-11.4753
▁OECD	-11.4754
originating	-11.477
▁pears	-11.4774
▁infection	-11.4779
▁audits	-11.4788
▁verifications	-11.4789
▁democratic	-11.4796
▁UNDERTAKINGS	-11.4798
▁DATE	-11.4799
▁Registry	-11.4801
▁session	-11.4803
▁existed	-11.4813
▁allocations	-11.4817
ity	-11.4819
▁SWR	-11.4827
▁suggest	-11.4843
▁drivers	-11.4848
▁became	-11.4852
▁salmon	-11.4853
▁appropriately	-11.4853
▁Boards	-11.4855
▁solid	-11.4855
forming	-11.4857
▁sense	-11.486
▁mechanical	-11.4863
▁humans	-11.4867
▁Ministers	-11.487
▁contingent	-11.487
▁vines	-11.4883
▁alternatives	-11.4897
▁refrain	-11.4905
▁sides	-11.4908
▁zinc	-11.4909
▁expires	-11.4911
▁Body	-11.4912
u	-11.4916
▁weighting	-11.4931
▁managers	-11.4941
▁concession	-11.4949
UIREMENTS	-11.4956
▁unnecessary	-11.4961
▁concluding	-11.4961
▁beverages	-11.4964
▁Requests	-11.4965
▁balances	-11.4965
limit	-11.4973
▁controlling	-11.4978
▁machines	-11.4984
▁appeared	-11.4985
▁compilation	-11.4988
▁join	-11.4991
▁Report	-11.4994
▁incorporate	-11.5001
▁coherent	-11.5014
▁valorem	-11.5015
▁Finnish	-11.5015
▁awareness	-11.5018
▁transposition	-11.5018
▁foregoing	-11.5018
type	-11.5024
▁sheepmeat	-11.503
▁methyl	-11.5031
▁art	-11.5032
▁COMPETEN	-11.5042
▁variations	-11.5044
▁domain	-11.5046
▁greenhouse	-11.5047
▁Department	-11.5049
▁TRADE	-11.507
▁COUNTRIES	-11.5071
▁serological	-11.5072
▁deciding	-11.5072
▁roll	-11.5088
▁lasting	-11.5089
▁Goods	-11.5089
▁diesel	-11.5101
▁explain	-11.5101
▁overrun	-11.5104
▁reaching	-11.511
▁forecasts	-11.5112
No	-11.5115
▁Third	-11.5116
▁severe	-11.5126
▁frequencies	-11.5127
▁specialized	-11.5129
▁justice	-11.5129
▁confined	-11.5131
▁anticipated	-11.5133
Eurostat	-11.5134
▁tuberculosis	-11.5134
▁publicity	-11.5136
▁CONSIDERING	-11.5137
▁wherever	-11.514
▁Air	-11.5151
wheel	-11.5155
le	-11.5156
▁incentives	-11.5157
▁freely	-11.5165
▁inadequate	-11.5174
▁viable	-11.5177
High	-11.5182
▁negligence	-11.5183
▁replied	-11.5183
▁precisely	-11.5186
▁compiled	-11.5188
▁assumed	-11.5192
▁shipbuilding	-11.5193
▁Andorra	-11.5195
▁Assessment	-11.5205
▁clients	-11.5206
▁terrorist	-11.5208
▁proposes	-11.5209
▁carnet	-11.5214
▁observation	-11.5217
▁mid	-11.5222
be	-11.5227
▁waive	-11.523
▁AGREEMENT	-11.5238
▁TH	-11.5239
▁Affairs	-11.524
▁encountered	-11.5241
▁weapons	-11.5246
▁recommend	-11.5249
▁contributes	-11.5262
▁herds	-11.5275
▁dimensions	-11.5279
▁formed	-11.5284
law	-11.5285
▁slots	-11.5309
▁residing	-11.532
▁larger	-11.5321
▁corrections	-11.5332
▁sizes	-11.5335
▁trader	-11.5338
▁build	-11.5346
▁artificial	-11.5352
▁discretion	-11.5353
▁SUBJECT	-11.5353
▁interpreted	-11.5355
▁peace	-11.5355
▁fruits	-11.5357
▁convergence	-11.5359
▁vis	-11.536
▁acquiring	-11.5364
▁inherent	-11.537
▁supplements	-11.5373
▁concert	-11.5373
EAGGF	-11.5376
▁Scheme	-11.5387
▁rolled	-11.5392
▁waterways	-11.5395
▁moisture	-11.5411
▁freedoms	-11.5416
▁remote	-11.5418
▁terrorism	-11.5421
▁del	-11.5425
▁suspect	-11.5425
▁markings	-11.5435
▁cod	-11.5443
▁advanced	-11.5447
▁pet	-11.5462
▁headquarters	-11.5469
▁liquidation	-11.547
▁revoked	-11.5474
▁fo	-11.5476
▁chilled	-11.5476
▁transnational	-11.548
▁NAFO	-11.548
▁essentially	-11.5486
▁transportation	-11.549
▁segments	-11.5497
▁INFORMATION	-11.5498
▁closer	-11.55
▁hazards	-11.5512
▁delegate	-11.5525
▁porcine	-11.5527
▁largest	-11.5537
scale	-11.5537
▁goat	-11.5549
▁contractor	-11.5549
▁PART	-11.5554
nce	-11.5559
▁innovation	-11.5562
▁drug	-11.5565
▁sphere	-11.5565
▁disturbances	-11.5571
▁denomination	-11.5572
▁forwarding	-11.5577
▁Amendment	-11.5579
▁DUTIES	-11.5585
▁sovereignty	-11.5585
▁Human	-11.5588
▁depends	-11.5611
▁EUSR	-11.5613
▁expense	-11.562
▁Arrangement	-11.5627
going	-11.5629
▁parcel	-11.5629
▁depend	-11.5638
▁ANIMALS	-11.5645
▁dose	-11.5645
▁Fishery	-11.5647
▁Aviation	-11.5652
▁litre	-11.5653
▁possess	-11.5664
▁cane	-11.5672
▁tankers	-11.5679
▁seas	-11.5682
▁CWP	-11.5705
▁longitude	-11.5706
▁RELIEF	-11.5708
▁diagnosis	-11.5709
▁transmissible	-11.5709
▁experimental	-11.571
certified	-11.5713
▁sex	-11.5716
authorised	-11.572
▁built	-11.5723
▁urea	-11.5727
▁commence	-11.573
Directive	-11.5736
de	-11.5738
▁Memorandum	-11.5763
▁West	-11.5763
▁PURPOSES	-11.5764
▁preparatory	-11.5768
▁executed	-11.5772
▁loaded	-11.5785
service	-11.5791
discrimination	-11.5796
product	-11.5806
▁tunicates	-11.5823
▁incorporating	-11.5823
▁Companies	-11.5826
▁microbiological	-11.5826
▁afforded	-11.5827
▁Expenditure	-11.5827
▁zoonoses	-11.5828
▁bonds	-11.5831
▁quotations	-11.5833
▁governments	-11.5838
▁theoretical	-11.5841
▁fertilisers	-11.5844
▁credits	-11.5846
▁oxides	-11.5855
▁Producers	-11.5857
▁nitrate	-11.5858
▁initiall	-11.5863
▁respects	-11.5869
▁coordinator	-11.5869
▁specialist	-11.5873
▁revise	-11.588
▁correspondence	-11.5883
▁seriousness	-11.5884
▁progressive	-11.5886
W	-11.5888
▁agri	-11.5892
▁characters	-11.59
▁Certificates	-11.5902
economic	-11.5913
▁ESA	-11.5926
▁conducting	-11.5934
▁planted	-11.5938
Foreign	-11.5941
▁COMMON	-11.5943
▁implies	-11.5943
▁Eurosystem	-11.5947
exported	-11.5949
▁USED	-11.5954
▁chicks	-11.5956
▁TARGET	-11.5962
▁offal	-11.5964
▁arises	-11.5968
▁oxide	-11.5978
▁protocol	-11.5983
▁Madrid	-11.6003
▁pursuan	-11.6004
▁echinoderms	-11.6005
▁stricter	-11.6006
▁spent	-11.6008
▁cadmium	-11.601
▁entails	-11.6011
▁accommodation	-11.6011
▁ALL	-11.6012
▁SIDE	-11.6013
feral	-11.6014
▁sharing	-11.6015
▁selective	-11.6017
▁TSE	-11.6028
▁reinforce	-11.6032
▁comprises	-11.6036
▁avoided	-11.6046
▁rational	-11.605
▁likewise	-11.6066
▁liberalisation	-11.6066
▁repaid	-11.6069
▁baggage	-11.6071
▁MARKET	-11.6072
▁Combin	-11.6075
▁cumulation	-11.6076
▁issuers	-11.6077
▁enables	-11.6077
▁tissues	-11.6082
▁characteristic	-11.6102
▁panel	-11.6102
▁reviews	-11.6105
▁crew	-11.6109
VIII	-11.6112
▁negotiat	-11.6113
▁client	-11.6116
▁vendor	-11.6121
ne	-11.6129
▁authorizing	-11.6133
▁annexes	-11.6139
▁Notice	-11.6141
level	-11.6142
▁just	-11.6143
▁Milk	-11.6146
▁HICP	-11.6152
▁red	-11.6152
▁formulae	-11.6153
▁calling	-11.6157
▁imply	-11.6157
led	-11.6158
▁discipline	-11.6165
cooperating	-11.6169
▁contested	-11.6171
▁horizontal	-11.6173
▁cheeses	-11.6174
▁convert	-11.618
▁resolve	-11.6186
▁aforesaid	-11.619
▁cessation	-11.619
▁contingency	-11.619
OUT	-11.6193
▁packaged	-11.6195
▁Strategy	-11.6195
▁hence	-11.6197
▁environmentally	-11.6216
▁Review	-11.6227
▁HE	-11.6229
▁indicator	-11.623
▁birth	-11.6235
▁science	-11.6235
▁portion	-11.6241
▁restore	-11.6246
▁Palestinian	-11.6246
▁CERTAIN	-11.6253
▁PARLIAMENT	-11.6258
▁auction	-11.6258
▁INF	-11.6259
▁appearance	-11.6263
▁separated	-11.6266
▁petrol	-11.6269
▁recruitment	-11.6269
▁institutes	-11.6275
▁ONE	-11.6295
▁ensures	-11.6307
▁amounting	-11.6308
ies	-11.631
▁leased	-11.6311
▁returning	-11.6313
▁CONCERNED	-11.6316
▁continuously	-11.6319
▁affixing	-11.6321
▁economies	-11.6322
▁spirits	-11.6326
▁rental	-11.6338
▁treatments	-11.6341
which	-11.6346
▁resolutions	-11.6347
▁CONSOLIDATE	-11.635
▁honey	-11.6361
▁submissions	-11.6361
▁hybrid	-11.637
▁input	-11.637
board	-11.6372
▁Assembly	-11.6378
▁clothing	-11.6379
▁OFFICIAL	-11.6381
ollowing	-11.6381
▁elapsed	-11.6386
not	-11.6387
▁defines	-11.6387
▁administering	-11.6388
▁sucrose	-11.6392
▁stamped	-11.6395
▁combinations	-11.6398
▁distributors	-11.6407
▁employ	-11.6408
▁San	-11.6409
▁vertical	-11.6417
uality	-11.6418
ECE	-11.6419
▁sowing	-11.643
▁river	-11.6431
▁log	-11.6435
▁conflicts	-11.6436
▁consequent	-11.644
▁forfeit	-11.644
▁SHOULD	-11.6442
▁TERRITORY	-11.6442
examination	-11.6442
▁suitability	-11.6442
▁FILE	-11.6443
▁few	-11.6443
▁unemployment	-11.6445
▁ECONOMIC	-11.6448
▁Interest	-11.6448
▁efficiently	-11.6451
▁introduces	-11.6453
▁ratites	-11.6454
range	-11.6459
▁Medicina	-11.6461
▁approximate	-11.6479
▁urban	-11.6479
▁pipeline	-11.6484
undamental	-11.6499
▁renew	-11.6506
▁confusion	-11.6506
For	-11.6507
▁climate	-11.6507
▁Support	-11.6516
▁mercury	-11.6518
▁experiments	-11.652
▁subsistence	-11.6522
▁row	-11.6529
▁season	-11.6543
▁PCBs	-11.6549
▁Class	-11.6559
▁yearly	-11.6574
▁prudential	-11.6576
▁Baltic	-11.6576
▁privileges	-11.6578
▁continues	-11.6581
▁tubes	-11.6591
▁harmonise	-11.6591
▁enhanced	-11.6599
▁jobs	-11.6602
▁organisational	-11.6607
VI	-11.6617
▁toxicological	-11.6618
▁machine	-11.6619
▁debts	-11.6619
▁divisions	-11.662
IS	-11.6624
▁gain	-11.6626
Other	-11.663
▁prohibitions	-11.6631
▁Deputy	-11.6635
▁SPECIAL	-11.6641
▁threatened	-11.6641
▁Pollution	-11.6641
▁Sales	-11.6642
▁lawfully	-11.6642
frozen	-11.6642
▁charging	-11.6642
new	-11.6646
▁transmitting	-11.6646
▁width	-11.6668
▁complaints	-11.667
▁judgments	-11.6672
▁compete	-11.6694
▁standardised	-11.6704
▁forfeited	-11.6705
▁Arab	-11.6705
▁allocating	-11.6706
▁STAFF	-11.6706
▁Pend	-11.6709
▁RELAT	-11.6716
▁Legal	-11.6718
▁RESPECT	-11.6725
ment	-11.6739
▁Paris	-11.6743
hand	-11.6744
)"	-11.6752
▁Du	-11.6755
▁Sections	-11.6764
▁forests	-11.6765
▁Fruit	-11.6766
▁clarified	-11.6767
▁prospects	-11.6771
▁fishermen	-11.6775
▁replacing	-11.6776
▁complex	-11.6783
▁green	-11.6788
▁recognize	-11.6801
▁Geneva	-11.6802
▁observe	-11.6802
▁Payments	-11.6812
ial	-11.6812
x	-11.6814
▁kinds	-11.6816
▁neighbour	-11.682
▁permission	-11.682
▁Polish	-11.6833
▁unaltered	-11.6833
▁Thai	-11.6833
▁finalised	-11.6835
▁manure	-11.6836
▁coherence	-11.6838
▁breaches	-11.6841
▁geographic	-11.6846
ri	-11.6877
▁Olive	-11.6879
▁SP	-11.6885
▁Austrian	-11.6886
▁inclusive	-11.6889
▁GMO	-11.6892
▁annex	-11.6897
▁isolation	-11.69
▁unpaid	-11.6903
▁designating	-11.6903
▁diversion	-11.6903
▁regulating	-11.6904
▁Company	-11.6906
▁equine	-11.6907
▁principally	-11.6908
▁nuts	-11.6934
nterim	-11.695
▁rearing	-11.6952
specially	-11.6955
▁citrus	-11.6967
▁accede	-11.6967
▁Industry	-11.6971
▁malt	-11.6973
▁par	-11.6973
▁du	-11.6975
▁unchanged	-11.6979
▁virgin	-11.6986
▁maturity	-11.6987
▁v	-11.6992
▁defer	-11.6993
▁cast	-11.6994
▁metals	-11.6994
▁Schedule	-11.7005
▁ready	-11.7007
▁particulate	-11.7009
▁horse	-11.7009
▁discussion	-11.701
▁debate	-11.7012
▁constituent	-11.7013
▁Others	-11.7015
▁consensus	-11.7034
▁sharp	-11.7038
▁isolated	-11.7038
▁changing	-11.7039
▁prudent	-11.704
treated	-11.704
▁stocking	-11.7041
▁injured	-11.7041
▁Standard	-11.7042
▁crude	-11.7043
▁bankruptcy	-11.7043
▁largely	-11.7048
▁merging	-11.7058
CEE	-11.7066
▁belts	-11.7068
▁culture	-11.7072
▁Registrar	-11.7079
works	-11.7082
▁elect	-11.7086
▁Administration	-11.709
▁analyse	-11.7091
▁PERSONS	-11.7103
▁Taiwanese	-11.7103
▁missions	-11.7105
▁Compliance	-11.7112
▁computerized	-11.7112
users	-11.7113
▁dental	-11.7115
▁gold	-11.7119
▁Nuclear	-11.7127
▁towed	-11.7134
▁bases	-11.7152
▁Mexico	-11.7157
▁alert	-11.7161
▁EIB	-11.7163
▁Tax	-11.7169
▁modalities	-11.7171
▁obligatory	-11.7171
▁tyres	-11.7178
▁came	-11.7179
▁%)	-11.718
▁Measure	-11.718
holder	-11.7183
▁sodium	-11.7184
▁cumulative	-11.7186
▁qualities	-11.719
▁counterfeiting	-11.7194
like	-11.7204
▁CMR	-11.7209
▁Examination	-11.7209
▁going	-11.7218
▁answer	-11.7231
deems	-11.7236
▁constant	-11.7238
▁enough	-11.7239
▁Hungarian	-11.724
▁rectified	-11.724
▁indispensable	-11.7241
▁Vice	-11.7242
▁deferred	-11.7243
paddy	-11.7246
▁phrase	-11.7247
▁ceases	-11.7249
▁modes	-11.7251
▁waived	-11.7251
▁accreditation	-11.7251
▁historical	-11.7255
▁targeted	-11.7262
nnual	-11.7264
▁Provisional	-11.7265
▁minimise	-11.7271
;"	-11.7279
▁custom	-11.7281
▁detect	-11.7285
▁projected	-11.7288
▁waiver	-11.7294
▁totally	-11.7297
et	-11.7299
▁lamp	-11.7303
▁Sector	-11.7305
▁formulation	-11.7306
▁cigarettes	-11.7312
▁worldwide	-11.7313
▁handled	-11.7314
▁organized	-11.7317
▁synthetic	-11.7318
▁Drugs	-11.7321
▁disasters	-11.7324
▁injection	-11.7327
profit	-11.733
▁Participation	-11.7332
▁Prior	-11.7334
▁reside	-11.7336
ice	-11.7346
▁Licences	-11.7348
w	-11.7351
real	-11.7352
▁refugees	-11.7358
▁Account	-11.7359
▁contagio	-11.7359
▁Region	-11.7359
▁transporting	-11.736
▁ultimate	-11.7367
ARY	-11.7367
▁university	-11.7369
section	-11.7369
▁organs	-11.7372
▁commencement	-11.7379
▁stressed	-11.7383
AR	-11.7384
▁Enforcement	-11.7385
▁sorting	-11.7387
Regulation	-11.7391
▁routine	-11.7393
▁identifiable	-11.7393
Rs	-11.7411
▁variet	-11.7412
▁Standards	-11.7415
▁west	-11.7422
▁Mont	-11.7433
emporary	-11.7434
▁APPLICATION	-11.7451
▁gender	-11.7453
▁withheld	-11.747
▁functional	-11.7473
▁Free	-11.7481
▁weightings	-11.7483
▁faith	-11.7493
▁scenario	-11.7495
▁alteration	-11.7499
▁amounted	-11.7502
▁appraisal	-11.7503
▁Approval	-11.7505
▁gains	-11.7507
▁Officials	-11.751
▁blue	-11.7511
▁withdrawals	-11.7516
▁leads	-11.752
▁narcotic	-11.752
▁multiplying	-11.7521
▁widely	-11.7523
▁personality	-11.7523
▁potassium	-11.753
▁cabotage	-11.7536
▁Conventions	-11.7538
▁enhancing	-11.754
▁salts	-11.7541
▁Chemical	-11.7543
non	-11.7544
▁ro	-11.7548
▁break	-11.7556
▁detention	-11.756
▁dispose	-11.7564
▁negotiation	-11.7585
▁counterfeit	-11.7587
▁Moldova	-11.7588
▁expansion	-11.7591
▁immunities	-11.7592
▁feasible	-11.7595
▁Iraq	-11.7595
▁ORGANI	-11.7595
THER	-11.7596
▁search	-11.7601
▁reforms	-11.7603
▁specialise	-11.7605
ant	-11.7606
▁plate	-11.7609
▁traceability	-11.7611
▁GNP	-11.7614
▁Nos	-11.7616
▁submits	-11.762
▁harvesting	-11.7629
▁resistance	-11.764
▁shared	-11.7645
▁Kinshasa	-11.7646
▁pasture	-11.7648
▁BB	-11.7651
branch	-11.7653
▁quarters	-11.7659
▁lease	-11.766
▁Representatives	-11.766
▁compile	-11.7663
▁SEPI	-11.7663
▁FRESH	-11.7663
▁macroeconomic	-11.7664
▁diplomatic	-11.7666
▁Sub	-11.7669
▁shipyards	-11.7669
▁Even	-11.767
▁wider	-11.7672
▁poly	-11.7679
refillable	-11.7684
UIRE	-11.7705
▁School	-11.7711
▁equity	-11.7711
▁assisting	-11.7712
▁Material	-11.7714
subsidy	-11.7715
▁Algeria	-11.7716
▁ruling	-11.7721
▁bears	-11.7724
▁Jordan	-11.7729
▁disinfection	-11.7736
▁unlimited	-11.7736
▁intake	-11.7742
▁therefor	-11.7743
▁Ea	-11.7744
▁consistently	-11.7745
▁warranted	-11.7746
▁Foodstuffs	-11.775
▁qualitative	-11.7751
▁proportional	-11.7756
▁Al	-11.7759
▁auditor	-11.7761
▁trawls	-11.7764
▁sparkling	-11.7772
▁revenues	-11.7774
▁hybrids	-11.7778
▁%;	-11.7781
ia	-11.7782
▁prosecution	-11.7784
▁thermal	-11.7784
▁Change	-11.7789
▁weights	-11.7796
▁journeys	-11.7799
old	-11.78
▁Second	-11.7801
vehicle	-11.7804
testing	-11.7805
▁explicit	-11.7808
▁inventories	-11.7813
▁unique	-11.7815
▁acknowledgement	-11.7818
▁never	-11.7819
▁accountancy	-11.783
▁wages	-11.7838
▁camera	-11.7857
▁ammonium	-11.7858
▁validation	-11.7862
▁school	-11.7862
▁rolling	-11.7862
▁privacy	-11.7883
▁commodities	-11.7883
▁Commissioner	-11.7883
▁void	-11.7885
▁legible	-11.7885
▁car	-11.7888
▁increasingly	-11.7889
▁ascertained	-11.7889
▁sexual	-11.7892
such	-11.7893
▁stop	-11.7902
▁CP	-11.7905
▁preference	-11.7936
▁TSI	-11.7936
▁obstacle	-11.7941
taining	-11.7945
▁tolerances	-11.7948
▁hereafter	-11.7951
▁creditor	-11.7954
▁Forestry	-11.796
▁disparities	-11.796
▁restraint	-11.7963
▁electronically	-11.7964
▁husked	-11.7976
▁REWS	-11.7989
▁manifest	-11.7992
▁funded	-11.7996
▁leaves	-11.8013
▁Her	-11.8027
▁face	-11.8028
▁Prevention	-11.8032
competitive	-11.8032
▁preceded	-11.8033
▁Governors	-11.8033
▁expiring	-11.8035
▁innovative	-11.8036
▁Tenders	-11.804
▁potash	-11.8041
▁successfully	-11.8045
▁weekly	-11.8046
▁conciliation	-11.8047
thing	-11.8049
▁lighting	-11.8051
▁explanations	-11.8054
▁produces	-11.8056
▁settled	-11.8058
os	-11.8063
▁cooperatives	-11.8071
▁exposures	-11.8071
▁repay	-11.808
▁institute	-11.8086
▁reflecting	-11.8086
▁TIME	-11.8089
▁observer	-11.8091
▁assignment	-11.8091
▁exclusions	-11.81
ualify	-11.8103
▁poverty	-11.8106
▁bluetongue	-11.8107
▁therapeutic	-11.8109
▁vulnerable	-11.811
▁patterns	-11.811
▁INTEND	-11.8121
▁occasional	-11.8125
▁meal	-11.8125
▁named	-11.814
▁drinking	-11.8143
book	-11.8166
▁distinguish	-11.8167
▁elected	-11.8178
encephalopathies	-11.8181
▁grower	-11.8181
▁slight	-11.8182
▁uranium	-11.8182
▁THEREOF	-11.8182
▁commencing	-11.8186
▁restoration	-11.8193
▁detrimental	-11.8193
▁credited	-11.8194
▁researchers	-11.8196
▁instalments	-11.8201
▁migration	-11.8202
▁flocks	-11.8204
▁detergents	-11.8213
▁ornamental	-11.8226
▁wire	-11.8228
▁sponsor	-11.8234
▁suspicion	-11.8235
▁Definition	-11.824
▁replaces	-11.8251
third	-11.8252
EMPTION	-11.8254
▁Evaluation	-11.8256
▁revoke	-11.8256
▁FIRST	-11.8258
▁Pacific	-11.8258
▁decreasing	-11.8259
▁sustained	-11.826
sheet	-11.8262
▁NATIONAL	-11.8262
▁De	-11.8264
▁confirms	-11.8264
▁FINANCI	-11.8264
▁LIST	-11.8266
▁Ukrain	-11.8268
▁delegated	-11.8268
▁Stability	-11.8269
▁Persons	-11.827
▁Budget	-11.8272
▁minced	-11.8278
▁interventions	-11.8279
▁minus	-11.8285
▁sown	-11.8286
▁cogeneration	-11.829
Conservation	-11.8295
▁pose	-11.8303
uta	-11.8305
▁gene	-11.8306
▁metal	-11.8309
▁command	-11.8311
▁interruption	-11.8312
line	-11.8314
▁endorsement	-11.8321
▁governmental	-11.8323
itz	-11.8334
ist	-11.8334
▁Manual	-11.8336
▁satisfactorily	-11.8336
▁analysing	-11.8337
▁fines	-11.8339
▁willing	-11.834
▁shorter	-11.8343
).";	-11.8347
▁advised	-11.8348
isation	-11.8354
▁%).	-11.8355
Articles	-11.8357
▁mandates	-11.8357
▁phrases	-11.8358
▁seal	-11.8358
▁upper	-11.8361
▁SO	-11.8362
▁rose	-11.8376
▁lapse	-11.8382
▁magnitude	-11.8384
▁EFSA	-11.8385
▁disruption	-11.8388
▁appliance	-11.8392
▁oblige	-11.8393
▁aiming	-11.8404
▁treat	-11.8406
▁aspect	-11.8406
PENDITURE	-11.841
▁transferee	-11.841
▁postpone	-11.8411
▁populations	-11.8413
▁cohesion	-11.8413
▁PERIOD	-11.8416
▁figs	-11.8416
▁calves	-11.8416
▁APPROPRIATE	-11.8417
▁complexity	-11.8417
▁telephony	-11.8417
▁Whenever	-11.8419
exportation	-11.8422
▁concepts	-11.8422
▁utilization	-11.8422
▁Amsterdam	-11.8423
▁outlets	-11.8424
▁missing	-11.8425
tructural	-11.8426
balance	-11.8433
▁Fishing	-11.8436
▁apart	-11.8437
VE	-11.8445
▁PLACE	-11.8453
▁HIS	-11.8455
ON	-11.8456
▁enabled	-11.846
▁hectolitre	-11.8473
▁symbols	-11.8474
▁rabies	-11.8475
▁split	-11.849
▁easier	-11.8491
▁sustainability	-11.8491
▁FUND	-11.8493
ese	-11.8497
▁Asian	-11.8503
▁acceding	-11.8503
▁vice	-11.8506
▁proven	-11.8519
▁pertain	-11.8524
▁ordered	-11.8526
▁drying	-11.8533
life	-11.8536
▁discuss	-11.8536
▁Politic	-11.8546
yearly	-11.8547
▁govern	-11.8558
▁unloaded	-11.8574
▁schedules	-11.8574
▁intentionally	-11.8575
▁desired	-11.8575
▁Province	-11.8576
▁seminars	-11.8577
▁premixtures	-11.8579
▁determines	-11.858
▁assumptions	-11.858
▁equitable	-11.8582
▁electromagnetic	-11.8586
▁agrees	-11.8591
▁mill	-11.8592
▁abolish	-11.8593
▁hens	-11.86
▁psycho	-11.8608
▁administer	-11.8611
▁diameter	-11.8619
▁portfolio	-11.8624
▁fertiliser	-11.8624
▁workplace	-11.8631
▁Banks	-11.8634
▁Harmoniz	-11.8634
▁chloride	-11.8636
▁exercises	-11.8636
national	-11.8643
digit	-11.8643
▁imposes	-11.8646
▁top	-11.8649
▁Conciliation	-11.8649
▁Guinea	-11.8652
▁decisive	-11.8653
▁distinguished	-11.8654
▁enforced	-11.8657
▁Experts	-11.866
▁additions	-11.8664
▁Workers	-11.8665
▁connections	-11.8668
IES	-11.868
▁zoono	-11.8681
▁armed	-11.8686
▁reservations	-11.8689
▁AID	-11.8694
▁trace	-11.8698
except	-11.87
▁boned	-11.8704
▁spouse	-11.8707
▁affix	-11.8713
hereafter	-11.8716
Committee	-11.8721
coming	-11.8721
JUST	-11.8724
▁necessity	-11.8729
▁enquiries	-11.8729
▁vesicula	-11.8729
▁complementarity	-11.8729
▁traded	-11.873
▁vital	-11.873
▁accessories	-11.8734
▁coumarin	-11.8734
▁piece	-11.8735
▁abroad	-11.8742
▁Prices	-11.8747
▁Steer	-11.8748
▁locally	-11.8748
▁distilled	-11.8751
▁formally	-11.8754
EACH	-11.876
▁regulate	-11.876
liability	-11.8764
▁commercially	-11.8765
operation	-11.8768
▁honour	-11.8772
▁generate	-11.8773
▁compell	-11.8775
▁precautions	-11.878
▁shareholder	-11.879
▁invest	-11.8797
▁disturb	-11.8806
▁empower	-11.8807
▁Lanka	-11.8809
▁Melilla	-11.881
▁grubbing	-11.881
▁causal	-11.881
▁Recognition	-11.881
▁provenance	-11.881
▁cited	-11.8813
▁Scope	-11.8813
▁adequacy	-11.8813
▁smoke	-11.8814
▁attaching	-11.8817
▁privatisation	-11.8817
▁Ships	-11.8818
▁shortcomings	-11.8818
▁signatory	-11.8819
competent	-11.8826
▁IMPORTATION	-11.8832
▁BEING	-11.8846
public	-11.8853
financed	-11.8857
▁acknowledge	-11.886
regional	-11.8861
▁DEPB	-11.8862
▁participated	-11.8868
▁safeguarding	-11.8877
▁bill	-11.888
▁island	-11.888
▁Document	-11.8889
▁MEANS	-11.8891
▁plasma	-11.8891
▁Countries	-11.8892
▁imminent	-11.8895
▁Regarding	-11.8895
▁Vegetables	-11.8895
▁residents	-11.8896
participating	-11.8897
EEN	-11.8898
▁projections	-11.8898
▁archives	-11.89
▁recycled	-11.8902
▁netting	-11.8906
▁precision	-11.8915
incineration	-11.8935
▁describe	-11.8935
▁introduc	-11.8938
▁contracted	-11.8944
▁presents	-11.8946
▁tube	-11.8949
ICAL	-11.895
▁message	-11.8952
water	-11.8953
if	-11.8956
▁toys	-11.8959
▁casein	-11.8961
▁doctor	-11.8969
▁neutral	-11.897
▁homogeneous	-11.8972
▁democracy	-11.8973
▁Experience	-11.8973
▁travelling	-11.8974
▁substantive	-11.8975
▁Similarly	-11.8977
▁motion	-11.8978
▁discriminatory	-11.8984
▁ethyl	-11.8987
▁pathogens	-11.8988
▁ecopoints	-11.899
▁reuse	-11.8991
':	-11.8992
▁hectolitres	-11.9
▁infrastructures	-11.9013
▁assign	-11.9026
▁beam	-11.9029
▁explanation	-11.9031
▁confers	-11.9033
K	-11.9038
▁clearing	-11.905
▁CARRIED	-11.9055
▁weather	-11.9056
▁furniture	-11.9056
▁whatsoever	-11.9056
▁demonstrating	-11.9056
▁carcasses	-11.9058
▁sorghum	-11.9059
▁securing	-11.9059
▁refining	-11.9063
▁professions	-11.9066
This	-11.9067
▁colours	-11.907
▁audited	-11.907
otonou	-11.9071
▁leasing	-11.9071
▁supervise	-11.9072
▁para	-11.9073
▁enjoyed	-11.9073
▁FORCE	-11.908
▁counted	-11.9082
TO	-11.9084
▁authorises	-11.9089
▁finances	-11.909
▁Establishment	-11.9097
▁correcting	-11.91
established	-11.9106
▁Minister	-11.9107
▁delayed	-11.9108
▁Su	-11.9112
▁violation	-11.9114
▁graded	-11.9121
▁efficacy	-11.9139
▁Depositary	-11.9139
▁punishable	-11.9139
▁immigration	-11.9139
▁American	-11.914
▁shift	-11.914
▁INTEREST	-11.914
▁declaring	-11.9141
▁liquidity	-11.9143
▁automated	-11.9153
▁online	-11.9154
▁Lisbon	-11.9154
ignition	-11.9154
active	-11.9155
▁quick	-11.916
▁damages	-11.916
▁indices	-11.9163
▁relationships	-11.9168
ers	-11.9175
▁presumption	-11.9193
▁Paper	-11.9193
▁demonstration	-11.9198
▁filled	-11.92
▁incident	-11.9211
▁th	-11.9215
▁Producer	-11.9222
▁commodity	-11.9223
▁simply	-11.9223
▁raising	-11.9225
▁serum	-11.9227
▁removing	-11.9228
▁flowers	-11.9229
▁APPLICABLE	-11.923
▁Kazakhstan	-11.9231
▁applicability	-11.9232
▁commerce	-11.9233
thirds	-11.9235
▁physically	-11.9237
extremely	-11.9239
▁habitats	-11.9242
▁Georgia	-11.9247
▁inspecting	-11.9249
▁GOI	-11.9257
%	-11.9263
▁inappropriate	-11.9276
▁calcium	-11.9282
▁conglomerate	-11.9282
mplementing	-11.9285
▁representations	-11.9289
▁landfill	-11.929
Police	-11.9297
▁Declarations	-11.9298
▁WHO	-11.9307
(%	-11.9308
▁rejection	-11.9311
▁trigger	-11.9311
▁explanatory	-11.9312
▁commenced	-11.9322
▁housing	-11.9322
▁Appropriate	-11.9323
▁solvents	-11.9327
▁rely	-11.9338
▁infants	-11.9339
▁dioxins	-11.9347
▁Mauritania	-11.9353
▁SET	-11.9358
NTO	-11.936
▁resignation	-11.9363
▁website	-11.9367
control	-11.9368
▁exhibition	-11.9368
▁adopts	-11.937
▁convention	-11.937
Register	-11.937
elecommunication	-11.9374
▁tribunal	-11.9375
▁secret	-11.9376
▁movable	-11.9376
▁tourism	-11.9393
▁unjustified	-11.9393
▁duplication	-11.9394
▁unacceptable	-11.9394
▁Secondly	-11.9395
▁socio	-11.9397
▁investigate	-11.9397
▁inulin	-11.9406
▁approaches	-11.941
▁layer	-11.9413
back	-11.9415
ALTH	-11.942
▁fixes	-11.9422
▁count	-11.9423
▁differs	-11.9425
▁alterations	-11.9425
▁beings	-11.9438
▁incumbent	-11.9451
▁kilogram	-11.9453
▁Sixth	-11.9455
▁arrive	-11.9456
▁List	-11.9462
▁phytosanita	-11.9467
▁mislead	-11.9471
▁seasonal	-11.9473
▁thorough	-11.9478
▁fraudulent	-11.9478
▁analogy	-11.9479
▁uncertainty	-11.948
▁affairs	-11.948
▁discovered	-11.948
▁Cereals	-11.9481
▁disregarded	-11.9482
▁climatic	-11.9482
▁contaminants	-11.9483
▁reproduced	-11.9483
▁lawful	-11.9484
▁ecosystems	-11.9484
▁salmonella	-11.9487
▁completeness	-11.9487
▁acknowledged	-11.9492
▁standardization	-11.9492
▁Proof	-11.9494
▁forth	-11.9495
▁execute	-11.9502
▁auditing	-11.9503
▁round	-11.9511
▁ESTABLISH	-11.9512
food	-11.952
▁subdivisions	-11.9523
▁firstly	-11.9524
▁attachment	-11.9542
▁variables	-11.9544
▁textiles	-11.9546
from	-11.9547
▁female	-11.9547
▁instruction	-11.955
ting	-11.9554
▁deductions	-11.956
SAME	-11.9564
▁Ce	-11.9565
▁ABOVE	-11.9566
▁communities	-11.9567
▁systematically	-11.9567
▁straw	-11.957
▁colorformers	-11.957
▁Checks	-11.9571
▁meantime	-11.9572
▁accelerated	-11.9572
▁suggested	-11.9572
▁jeopardise	-11.9573
▁Antarctic	-11.9574
▁batches	-11.9576
▁broadcasters	-11.9576
▁PARTIES	-11.9578
▁PRESIDENT	-11.9578
▁Procedures	-11.9581
technical	-11.9583
▁reaches	-11.9588
examined	-11.9593
lassical	-11.9605
▁Canad	-11.9605
▁IIP	-11.9606
▁simultaneous	-11.9608
▁accord	-11.9608
▁receipts	-11.9611
▁passports	-11.9625
▁resource	-11.9633
▁...	-11.9635
▁venture	-11.9636
▁mountain	-11.964
Contracting	-11.965
▁mere	-11.9653
▁extensification	-11.9654
▁autonomy	-11.9654
▁Pact	-11.9656
▁reimburse	-11.9657
▁seafarers	-11.9658
▁Easter	-11.9658
▁Securities	-11.9658
▁flora	-11.9658
▁beforehand	-11.966
AN	-11.966
▁postponed	-11.9662
▁began	-11.9664
▁things	-11.9666
▁dynamic	-11.9671
▁Industrial	-11.9671
▁modules	-11.9672
▁CONCERN	-11.9675
▁MORE	-11.9678
▁AMENDE	-11.9678
`:	-11.9696
▁conferences	-11.9704
▁aggregated	-11.9706
▁derive	-11.9709
inclusion	-11.9714
▁dual	-11.9724
▁warrants	-11.9726
▁founded	-11.9728
▁embryo	-11.9732
▁landings	-11.9735
▁AUTHORI	-11.9735
me	-11.974
▁say	-11.9742
▁Considering	-11.9743
▁modernisation	-11.9743
▁justifies	-11.9744
▁assured	-11.9746
▁FINAL	-11.9746
▁heritage	-11.9746
▁reciprocity	-11.9747
▁stabilisation	-11.9749
▁dogs	-11.975
▁extradition	-11.9751
▁compression	-11.9755
▁cats	-11.9757
▁Processing	-11.9764
▁Limited	-11.9767
terim	-11.9771
CN	-11.9778
▁oppose	-11.9787
▁actively	-11.9788
▁helping	-11.9789
▁Wine	-11.9814
▁vir	-11.982
▁distributor	-11.9826
▁Tariffs	-11.9829
▁germination	-11.9832
z	-11.9832
▁encephalopathy	-11.9832
▁transposing	-11.9832
▁suited	-11.9836
▁authenticated	-11.9837
▁Inter	-11.9838
health	-11.9841
▁tomato	-11.9842
▁Sardinia	-11.9844
▁engineering	-11.9845
▁marker	-11.9845
▁Removal	-11.9856
▁Sapard	-11.9856
▁CEPOL	-11.9856
▁breeders	-11.9856
▁migrat	-11.9862
TH	-11.9866
▁glucose	-11.9866
favoured	-11.987
▁doses	-11.9876
▁Lithuanian	-11.9877
▁drafting	-11.9878
▁antigens	-11.9885
▁accidental	-11.9891
▁withdrawing	-11.9898
▁pipe	-11.9903
▁Statistic	-11.9906
▁CASE	-11.9907
▁Bo	-11.9909
▁tissue	-11.9917
▁disinfected	-11.9922
▁recognising	-11.9925
ling	-11.9925
▁Bull	-11.9926
▁ONLY	-11.9928
▁Personnel	-11.993
▁instances	-11.9933
▁feathers	-11.9942
▁elections	-11.9942
▁subscribers	-11.9942
FTER	-11.9943
care	-11.9947
▁Vienna	-11.9954
matter	-11.9959
▁FRF	-11.9976
▁Trans	-11.9981
▁electric	-11.9986
▁declares	-11.9994
▁locations	-11.9994
▁rabbit	-11.9995
▁minors	-12
point	-12.0002
▁align	-12.0012
▁PROPERTY	-12.0013
▁Corporation	-12.0013
▁Operators	-12.0016
ST	-12.0017
▁discussed	-12.0017
▁domiciled	-12.0017
▁killed	-12.0019
▁liqueur	-12.0019
▁displayed	-12.0021
▁students	-12.0035
▁fly	-12.0038
▁marginal	-12.0041
payment	-12.0054
▁Process	-12.0054
▁Grand	-12.0058
▁undermine	-12.0084
▁Structur	-12.0086
om	-12.0088
▁emphasis	-12.009
▁fitting	-12.0097
shall	-12.01
▁author	-12.0101
▁DUTY	-12.0104
▁organoleptic	-12.0105
▁BASIS	-12.0105
▁deliberations	-12.0106
▁NACE	-12.0106
▁delete	-12.0107
▁concrete	-12.0109
▁decentralised	-12.0109
▁Faroe	-12.011
▁nominated	-12.0111
▁mergers	-12.0112
injurious	-12.0113
▁meshes	-12.0113
▁caseinates	-12.0114
▁Conduct	-12.0114
▁ORIGIN	-12.0115
▁carcinogenic	-12.0116
▁Coordination	-12.0118
▁organising	-12.0121
▁cars	-12.0122
▁antibiotics	-12.0125
▁UNFCCC	-12.0133
pointed	-12.0144
▁signatures	-12.0151
▁begins	-12.0157
▁partnerships	-12.0168
▁grains	-12.017
▁shortage	-12.0173
▁Consultation	-12.0175
HAN	-12.0177
▁scales	-12.0184
▁GHz	-12.0196
▁vacant	-12.0197
▁TAKE	-12.0197
▁Three	-12.0198
▁East	-12.0198
▁thickness	-12.0199
nuclear	-12.0199
▁fauna	-12.0201
▁Caribbean	-12.0201
▁Codex	-12.0203
▁artificially	-12.0203
▁expectations	-12.0203
▁strain	-12.0205
▁constitutional	-12.0206
▁municipal	-12.0209
▁Permanent	-12.021
▁Transmission	-12.021
▁conferr	-12.0211
view	-12.0211
▁declined	-12.0214
▁complet	-12.0225
▁Tetra	-12.0226
▁IA	-12.023
▁suspending	-12.0243
▁mine	-12.0248
▁realised	-12.025
▁beans	-12.0253
▁airline	-12.0268
▁TREATY	-12.029
▁Gaza	-12.0291
▁Restructuring	-12.0291
▁TAKEN	-12.0291
▁herring	-12.0291
▁preserving	-12.0291
▁gathered	-12.0292
▁gravity	-12.0295
▁hydrocarbons	-12.0299
▁seamless	-12.0299
▁peaceful	-12.0302
▁milled	-12.0303
▁incidental	-12.0315
▁FORM	-12.0332
▁restricting	-12.0338
▁straight	-12.0339
`)	-12.0343
▁shipped	-12.0346
▁ATA	-12.0352
▁concentrate	-12.0353
▁basin	-12.0356
▁WHEN	-12.0357
▁fraction	-12.0359
certificate	-12.036
▁aflatoxin	-12.0368
▁feedingstuff	-12.0368
▁explosive	-12.0368
▁derivative	-12.0372
chemical	-12.0381
▁braking	-12.0385
▁bromide	-12.0385
▁AHF	-12.0389
▁Rhine	-12.0389
▁refined	-12.0391
▁ruled	-12.0391
▁Seychelles	-12.0393
▁PBS	-12.0394
▁traditionally	-12.0397
▁repute	-12.04
▁commit	-12.0402
▁rough	-12.0402
▁avoidance	-12.0402
▁Reporting	-12.0402
registration	-12.0403
adiological	-12.0408
▁pipes	-12.0411
po	-12.0413
▁FT	-12.0436
▁guarantor	-12.0455
▁practitioner	-12.0455
▁households	-12.0457
▁appeals	-12.0458
▁height	-12.0458
▁licensee	-12.0461
▁attach	-12.0465
tive	-12.0466
▁Barrier	-12.0467
▁skin	-12.0468
▁clarification	-12.0472
▁PURPOSE	-12.0478
▁frequent	-12.0479
▁senior	-12.048
▁Appendices	-12.048
▁accruing	-12.048
▁pertinent	-12.048
▁prolonged	-12.0483
▁significance	-12.0483
VII	-12.0484
▁teaching	-12.0484
▁ends	-12.0486
▁inflation	-12.0488
▁CONTRACT	-12.049
▁Duferco	-12.0497
▁Monday	-12.0497
▁glass	-12.0502
▁sampled	-12.0503
▁exhaustive	-12.0509
▁RBMs	-12.051
▁Arrangements	-12.0527
audi	-12.0535
▁Presidents	-12.0538
▁patents	-12.0541
agricultural	-12.0546
▁PRODUCT	-12.0552
▁Bas	-12.0554
▁downward	-12.0557
▁onto	-12.056
▁aromatic	-12.0562
examine	-12.0562
▁bone	-12.0566
▁enquiry	-12.0576
▁Te	-12.0577
▁ACCOUNT	-12.0578
▁Substances	-12.0578
▁ratios	-12.0584
▁surrendered	-12.0584
▁fallen	-12.0584
▁Fourth	-12.0585
▁epizootic	-12.0589
▁proving	-12.0593
▁accepts	-12.0603
▁incidence	-12.0604
TED	-12.0612
▁Target	-12.0612
▁merchant	-12.0613
▁Eurocontrol	-12.0616
▁passing	-12.0627
▁IAS	-12.0629
q	-12.0629
Environmental	-12.0632
▁substitute	-12.0643
▁Subsequent	-12.0672
▁Strip	-12.0673
▁numerous	-12.0673
▁broadly	-12.0676
▁Titles	-12.0681
stichu	-12.0684
▁preferably	-12.0686
▁competences	-12.0687
▁enforce	-12.0688
▁Argentine	-12.069
drafted	-12.0695
el	-12.0702
▁eighth	-12.0702
▁Documents	-12.0702
▁structured	-12.0706
▁THEM	-12.0708
▁bands	-12.0709
▁grouped	-12.072
▁ACT	-12.0731
▁forum	-12.0734
holders	-12.0741
▁trawl	-12.0749
▁mining	-12.075
site	-12.0752
▁ins	-12.0754
▁transformation	-12.0754
▁terminals	-12.0761
▁irregular	-12.0767
▁ha	-12.0768
▁terminat	-12.0769
▁Harmonis	-12.0769
▁CERTIFICATE	-12.077
▁unanimous	-12.077
▁Resources	-12.0772
▁heifers	-12.0772
▁Disso	-12.0775
risk	-12.0778
▁expect	-12.0779
▁surgery	-12.078
▁undercut	-12.0781
▁delays	-12.0781
▁wheels	-12.0782
▁EUFOR	-12.0793
effectiveness	-12.0796
▁Financing	-12.0796
▁provinces	-12.0799
▁Marine	-12.0804
▁rape	-12.0805
▁experienced	-12.0811
▁faced	-12.0813
▁prevail	-12.083
▁decimal	-12.0846
land	-12.0848
ci	-12.0849
▁province	-12.0852
▁seem	-12.0855
▁GIVE	-12.0864
▁ORDER	-12.0869
▁Aegean	-12.087
▁governance	-12.0871
▁bar	-12.0871
▁Aujeszky	-12.0875
▁disabled	-12.0875
▁Philippines	-12.0875
▁regionalisation	-12.0876
▁earth	-12.0877
▁reinforced	-12.0882
ized	-12.0886
▁Radio	-12.0889
▁regularity	-12.0891
▁Transitional	-12.0891
▁CIS	-12.0895
▁omission	-12.09
trade	-12.0908
▁seals	-12.091
▁aromatized	-12.0914
▁TSIs	-12.0921
ent	-12.0921
▁undertook	-12.0924
traders	-12.0929
made	-12.093
ble	-12.0938
dividing	-12.0938
▁kilometres	-12.0943
▁IB	-12.0949
▁Commercial	-12.0951
first	-12.0952
▁architecture	-12.0952
▁logbook	-12.0953
financial	-12.0956
▁learning	-12.0961
authorized	-12.0962
▁Turkish	-12.097
▁auspices	-12.097
▁Tribunal	-12.097
▁transhipped	-12.097
▁capabilities	-12.097
▁vegetative	-12.097
▁Conformity	-12.097
▁Standardisation	-12.0971
▁workforce	-12.0974
ALSO	-12.0974
▁purification	-12.0975
▁publishing	-12.0975
▁Investments	-12.0975
▁attractive	-12.0976
▁PUBLIC	-12.0977
▁College	-12.0979
▁ropes	-12.0983
▁Entry	-12.0984
▁seeks	-12.0988
otropic	-12.0989
▁donors	-12.0992
▁reared	-12.0992
▁incidents	-12.1001
▁con	-12.1007
▁PERSON	-12.1019
▁incomes	-12.1025
▁Case	-12.1026
ical	-12.1028
▁owed	-12.103
capital	-12.1031
▁drink	-12.1031
▁grass	-12.1038
tergovernmental	-12.1044
▁unfit	-12.1046
State	-12.1049
▁redress	-12.1052
▁extends	-12.1053
▁SOLAS	-12.1057
▁Order	-12.1068
▁carbide	-12.1071
▁integrat	-12.1072
▁Territories	-12.1072
▁comparing	-12.1072
▁varied	-12.1074
▁LAST	-12.1074
▁fluorspar	-12.1076
▁charitable	-12.1076
▁Measurement	-12.1076
▁reverse	-12.1077
▁Man	-12.1077
▁infringed	-12.1078
▁precursors	-12.1081
▁Undertakings	-12.1083
Maximum	-12.1085
▁killing	-12.109
▁acute	-12.1091
▁KLM	-12.1094
▁Sudan	-12.1098
▁addressing	-12.11
▁strains	-12.1102
sum	-12.1106
▁yellow	-12.1112
▁acquisitions	-12.1115
▁numbered	-12.1117
▁Arabia	-12.1118
▁music	-12.1123
▁warnings	-12.1124
▁instalment	-12.1148
▁Medicin	-12.1149
▁prolongation	-12.1149
▁originates	-12.115
▁visual	-12.1155
IP	-12.116
▁Finance	-12.1161
▁crimes	-12.1163
▁retroactive	-12.1173
▁wrongly	-12.1174
▁underlined	-12.1175
▁flock	-12.1175
Mutual	-12.1175
▁YEAR	-12.1176
ty	-12.1178
▁overcome	-12.118
union	-12.1187
▁circumvent	-12.1189
▁collectors	-12.119
▁voyages	-12.1196
▁affiliated	-12.1196
▁generating	-12.1197
▁modifying	-12.1198
▁discounts	-12.1198
▁unreasonable	-12.12
▁Derogations	-12.1201
▁refunded	-12.1201
▁strengthened	-12.1202
▁explosives	-12.1205
cooperation	-12.1206
▁Power	-12.1208
▁confirming	-12.1211
▁east	-12.1225
ol	-12.1228
▁ICCAT	-12.1237
▁entrust	-12.124
gate	-12.1244
▁subscription	-12.1253
▁accomplish	-12.1269
alloy	-12.127
▁Translation	-12.1271
▁wage	-12.1272
▁violence	-12.1276
▁JOINT	-12.1276
▁mortality	-12.1277
▁SERVICES	-12.1277
▁VEHICLES	-12.1278
▁INSPECTION	-12.1279
▁Verification	-12.1281
▁practised	-12.1282
▁impacts	-12.1282
▁subregional	-12.1284
▁signals	-12.1285
▁collectively	-12.1285
▁Obligations	-12.1286
▁SPECIFIC	-12.1286
▁enforceable	-12.1289
▁inspect	-12.1293
▁EDP	-12.1303
▁Decree	-12.1307
▁prompt	-12.131
▁ring	-12.1312
vii	-12.1324
▁Congo	-12.1333
▁delegations	-12.1336
▁budgets	-12.1342
▁compromise	-12.1347
▁valued	-12.1355
▁remit	-12.1359
▁detriment	-12.1366
nautical	-12.1368
THE	-12.1368
▁pollutant	-12.1369
eu	-12.137
▁nomination	-12.1371
▁layout	-12.1374
▁Marino	-12.1381
▁durability	-12.1381
▁unforeseen	-12.1381
▁methodologies	-12.1381
▁temporis	-12.1381
▁bred	-12.1381
▁destroy	-12.1381
▁ESCB	-12.1383
▁novel	-12.1383
▁overcapacity	-12.1383
▁miles	-12.1385
▁bulbs	-12.1386
▁Personal	-12.1387
▁contrast	-12.1388
▁feature	-12.139
▁Seeds	-12.1394
▁Procurement	-12.1395
▁NEW	-12.1397
▁timing	-12.1399
▁unfavourable	-12.14
▁dead	-12.1402
▁exploit	-12.1406
US	-12.1406
▁recast	-12.1408
adjacent	-12.1409
▁fairs	-12.141
▁facilitated	-12.1429
▁lesser	-12.1431
▁Estonian	-12.1431
▁So	-12.1453
▁breed	-12.1463
▁technique	-12.1464
▁drive	-12.1465
▁TECHN	-12.1466
▁awarding	-12.1472
▁phases	-12.1479
▁little	-12.1486
▁optimum	-12.1486
▁ACTIVITIES	-12.1486
▁universities	-12.1486
▁settle	-12.1488
▁deletion	-12.1489
▁unlawfully	-12.1489
▁eliminating	-12.149
▁possesses	-12.149
▁Criminal	-12.149
▁Feedingstuffs	-12.1491
▁Firstly	-12.1492
ated	-12.1497
▁cleaned	-12.1497
▁SORENI	-12.15
▁stamps	-12.1503
▁GSC	-12.1504
▁extraordinar	-12.1511
▁bicycles	-12.1515
▁organize	-12.1518
ts	-12.1519
production	-12.1524
▁sugars	-12.153
▁malfunctioning	-12.1549
▁charter	-12.1558
▁JRC	-12.1561
▁campaign	-12.1567
▁salt	-12.1568
▁council	-12.1573
▁BASI	-12.1579
Com	-12.1589
Ivoire	-12.1589
▁sludge	-12.159
▁harmonious	-12.1591
▁te	-12.1592
▁downstream	-12.1592
▁oath	-12.1592
▁Brazilian	-12.1593
▁ratified	-12.1593
▁proposing	-12.1596
▁Olympic	-12.1597
▁verifiable	-12.1597
▁ultimately	-12.1599
▁memorandum	-12.1602
▁deployed	-12.1604
▁Vessels	-12.1605
HR	-12.1614
▁Programmes	-12.1614
▁kW	-12.1621
▁toxicity	-12.1624
▁invalid	-12.1625
▁subsidisation	-12.1635
insurance	-12.1657
went	-12.166
sed	-12.1665
excluding	-12.1672
▁DUR	-12.1673
▁edition	-12.1674
▁SNE	-12.1679
J	-12.1681
▁masters	-12.1683
▁forced	-12.1683
▁switch	-12.1685
polluting	-12.1692
▁MADE	-12.1699
▁THEMIS	-12.17
▁orphan	-12.1702
▁exchanging	-12.1702
▁bulls	-12.1704
▁displaced	-12.1704
▁prepackages	-12.1705
▁MONTHS	-12.1705
▁storing	-12.1706
▁anchorages	-12.1707
▁rye	-12.1707
▁tracing	-12.1708
▁sweeteners	-12.1708
▁enlarged	-12.171
▁mode	-12.1711
EMBER	-12.1721
▁distribute	-12.1725
▁regimes	-12.1726
waiting	-12.1727
▁patients	-12.1727
▁Rural	-12.1734
ok	-12.1737
▁practitioners	-12.1738
▁evident	-12.1739
▁Ocean	-12.174
▁habitat	-12.1741
▁examples	-12.1742
▁mills	-12.1745
▁invoiced	-12.175
ethyl	-12.1753
▁lies	-12.1761
▁meant	-12.1773
▁PURSUAN	-12.1775
▁alternates	-12.178
▁lose	-12.1783
▁bicycle	-12.1783
▁breeder	-12.1784
▁revaluation	-12.1789
▁infant	-12.1794
▁Last	-12.1804
▁peak	-12.1808
▁tanker	-12.1808
▁maternity	-12.1808
▁impurities	-12.1808
▁phasing	-12.1809
▁fermentation	-12.1809
▁retrospective	-12.1812
▁cancel	-12.1815
▁ENSURE	-12.1816
▁Revenue	-12.1816
▁PRS	-12.1818
▁apples	-12.1819
▁detecting	-12.1821
▁burdens	-12.1822
▁bid	-12.1825
▁Principles	-12.1828
oil	-12.1828
TWE	-12.1828
▁Small	-12.1828
▁campaigns	-12.1834
▁occasions	-12.1836
▁Kosovo	-12.1838
operating	-12.184
▁Forum	-12.184
▁generic	-12.1845
▁intensive	-12.1851
▁prime	-12.1855
▁press	-12.1857
▁typical	-12.1863
▁fleets	-12.1874
▁depart	-12.1874
▁outline	-12.1882
▁citizen	-12.1893
▁feather	-12.1896
▁shell	-12.1896
▁subdivision	-12.1898
entry	-12.1899
▁hour	-12.1902
▁Price	-12.1906
▁night	-12.1908
▁obvious	-12.1917
▁emoluments	-12.1918
▁PROTECTION	-12.1918
▁Commander	-12.1918
▁LAWS	-12.1919
▁YEARS	-12.1919
▁constantly	-12.192
▁emitted	-12.1922
▁proteins	-12.1923
▁discrepancy	-12.1923
▁Over	-12.1923
borne	-12.1924
▁players	-12.1924
▁Industries	-12.1924
▁aeroplanes	-12.1924
▁boning	-12.1925
▁factual	-12.1925
▁edible	-12.1925
▁tracking	-12.1926
▁realistic	-12.1926
▁Transavia	-12.1928
▁ADMINISTRATI	-12.1933
limits	-12.1943
mace	-12.1945
▁breeds	-12.1947
▁oenologi	-12.1948
▁rounded	-12.195
▁ignition	-12.197
value	-12.1976
▁ageing	-12.1979
▁Dec	-12.1993
▁Force	-12.2
▁radar	-12.2003
▁proportionately	-12.2008
▁successor	-12.201
▁Taric	-12.2012
monetary	-12.2016
▁NUTS	-12.2017
▁screening	-12.2019
▁success	-12.2021
▁OPINION	-12.2028
▁Monaco	-12.2029
▁Variety	-12.2029
▁corruption	-12.2029
▁manipulation	-12.203
▁refusing	-12.2031
▁BEFORE	-12.2034
▁rationalisation	-12.2035
▁Requirements	-12.2037
▁shipowners	-12.204
▁react	-12.2041
▁Wednesday	-12.2044
▁PRODUCTION	-12.2045
▁ECI	-12.205
▁MEMBERS	-12.206
▁contest	-12.2061
▁demers	-12.2064
▁STECF	-12.2064
▁dispense	-12.2066
▁resides	-12.2071
ave	-12.2077
▁invested	-12.2083
▁serves	-12.2093
▁adhere	-12.2097
EEA	-12.2097
▁expressions	-12.2101
▁contractors	-12.2117
▁polyester	-12.2121
▁train	-12.2125
▁syrups	-12.2129
▁program	-12.2132
guarantee	-12.2139
▁KINGDOM	-12.2141
▁FOLLOWS	-12.2142
▁Privileges	-12.2142
▁dealer	-12.2143
▁youth	-12.2143
▁shortfall	-12.2143
▁millimetres	-12.2144
▁decommissioning	-12.2147
▁mushrooms	-12.2147
▁stakeholders	-12.2147
▁steering	-12.2149
▁GOVERNMENT	-12.215
▁magnetic	-12.2151
▁UNIT	-12.2156
benefit	-12.2157
▁tangible	-12.2163
▁negotiable	-12.2167
▁Scotland	-12.2172
▁objectively	-12.2177
OUS	-12.2186
▁rooms	-12.219
▁PAYMENT	-12.2191
▁Classification	-12.2193
mm	-12.2193
▁maintains	-12.2214
▁Resolutions	-12.2226
▁donor	-12.2231
▁voyage	-12.2235
▁lawyer	-12.2235
▁Chairperson	-12.2238
▁me	-12.2238
▁Grade	-12.2239
conformity	-12.224
▁orally	-12.2251
▁subscriber	-12.2252
▁Taliban	-12.2255
▁hiring	-12.2255
▁Laboratory	-12.2255
▁easy	-12.2255
▁denaturing	-12.2256
▁compiling	-12.2256
▁prejudicial	-12.2256
▁modern	-12.2256
▁subdivided	-12.2258
▁accredited	-12.2261
▁runs	-12.2264
▁discriminate	-12.2267
▁denominated	-12.2274
▁viruses	-12.2277
▁lawyers	-12.228
▁offshore	-12.2282
▁slot	-12.2287
▁doctors	-12.229
▁vitamins	-12.2293
ternal	-12.2294
application	-12.2302
▁FI	-12.2311
no	-12.2315
▁columns	-12.2328
▁PENSION	-12.2329
▁soft	-12.2333
ACP	-12.2345
▁lump	-12.235
ons	-12.2364
▁CRS	-12.2364
▁WEEE	-12.2367
▁und	-12.2368
organism	-12.2368
▁trust	-12.2368
▁entitle	-12.2368
▁AMOUNT	-12.2368
▁Jahnke	-12.237
▁luggage	-12.237
▁linguistic	-12.237
▁SUBSTANCES	-12.237
▁pedigree	-12.237
▁updates	-12.2373
▁diamonds	-12.2376
▁room	-12.2378
▁defective	-12.2378
▁envisages	-12.238
▁differential	-12.2381
▁upgrading	-12.2381
▁communic	-12.2385
▁migra	-12.2385
▁persecution	-12.2386
▁launched	-12.2388
▁fewer	-12.2392
checking	-12.2393
▁retailers	-12.2393
▁Eggs	-12.2396
▁plates	-12.2402
▁infringe	-12.2416
▁commonly	-12.242
▁suggests	-12.2421
▁Amount	-12.2429
▁denatured	-12.2431
signalling	-12.2433
▁too	-12.2434
▁desire	-12.2434
stuffs	-12.2434
▁bio	-12.2435
▁fed	-12.2439
where	-12.2444
▁productive	-12.2454
▁picture	-12.2461
▁experiment	-12.2463
UALITY	-12.2467
▁victim	-12.2471
▁incur	-12.2476
▁Direct	-12.2477
▁lamb	-12.248
▁MOTOR	-12.2486
▁square	-12.2486
▁Maltese	-12.2486
▁molasses	-12.2487
▁Immunities	-12.2488
▁freshness	-12.2489
oncerning	-12.2489
▁HUMAN	-12.2491
▁British	-12.2491
▁mackerel	-12.2491
▁unginned	-12.2491
▁enrichment	-12.2492
▁refrigeration	-12.2492
▁promoted	-12.2493
▁clean	-12.2493
dietary	-12.2495
▁opposed	-12.2495
▁Relations	-12.2496
▁mirrors	-12.2496
▁Capacity	-12.2497
▁Fish	-12.2498
▁advisers	-12.25
▁Sanctions	-12.2502
▁stag	-12.2503
▁Barcelona	-12.2513
▁MHz	-12.2517
ITY	-12.2519
ocational	-12.2521
used	-12.2523
▁appreciabl	-12.2538
▁REGULATIONS	-12.2539
▁administrators	-12.2544
▁Certificate	-12.2556
▁taxed	-12.2557
▁Glob	-12.2559
OTHER	-12.2559
▁house	-12.2571
annual	-12.2588
▁deteriorate	-12.26
▁hygienic	-12.2604
▁sudden	-12.2604
▁INTERNATIONAL	-12.2604
▁disability	-12.2604
▁narrow	-12.2609
▁interrupted	-12.2609
▁Surveillance	-12.2609
▁indemnity	-12.261
▁More	-12.2613
▁facto	-12.2617
▁Meetings	-12.2619
▁Culture	-12.262
▁Analysis	-12.262
effective	-12.2623
▁yards	-12.2627
ring	-12.2627
▁uniformly	-12.2628
▁quoted	-12.2629
WTO	-12.2631
are	-12.2636
▁codend	-12.2636
▁roads	-12.265
▁classifi	-12.2653
▁formats	-12.2657
▁reveals	-12.2665
▁Equipment	-12.2667
ofluorocarbons	-12.2673
▁stain	-12.2683
▁Objectives	-12.2693
▁disaster	-12.2698
▁remedi	-12.2714
▁Exemption	-12.2714
existing	-12.272
▁Rapporteur	-12.2722
UESTION	-12.2723
▁locust	-12.2723
▁Society	-12.2723
▁Venezuela	-12.2723
▁survival	-12.2723
▁antibodies	-12.2724
▁AGENCY	-12.2724
▁minimal	-12.2727
▁discharging	-12.2729
▁investigating	-12.273
▁expanded	-12.2731
▁inaccurate	-12.2732
▁AESA	-12.2734
▁extracted	-12.274
▁distinctive	-12.2746
▁slu	-12.2746
▁advantageous	-12.275
▁lie	-12.2752
DB	-12.2767
▁Com	-12.2775
▁observes	-12.2776
▁handle	-12.2779
▁classifications	-12.2782
▁professionals	-12.2784
▁Chai	-12.2786
▁forage	-12.2793
▁pays	-12.2795
form	-12.2799
▁you	-12.28
▁broadcast	-12.2807
▁surrounding	-12.2819
▁competitor	-12.282
▁arriv	-12.2822
mentioned	-12.2828
▁Communications	-12.283
▁corporation	-12.2834
▁threats	-12.2836
▁ammunition	-12.2844
▁ferries	-12.2844
▁rehabilitation	-12.2844
▁declining	-12.2844
▁unavoidable	-12.2844
harmacovigilance	-12.2844
▁relocation	-12.2845
▁coils	-12.2845
▁uniformity	-12.2847
▁deprived	-12.2847
▁Asia	-12.2847
▁lifting	-12.285
▁posed	-12.2851
▁TAC	-12.2856
▁tubers	-12.2856
▁Fresh	-12.2858
▁cables	-12.2858
▁voluntarily	-12.2859
▁demonstrates	-12.286
fixing	-12.2862
▁Right	-12.2863
▁Wester	-12.2864
▁Growth	-12.2865
▁Stocks	-12.2866
AMINATION	-12.2868
▁TCS	-12.287
▁nr	-12.287
▁liver	-12.287
▁dehydrated	-12.2871
▁phased	-12.2876
▁south	-12.2879
▁permissions	-12.2894
sparkling	-12.2898
▁Type	-12.2902
port	-12.2906
shipment	-12.2906
▁Groups	-12.2908
▁delivering	-12.2911
ine	-12.292
▁van	-12.2923
▁Points	-12.2925
▁barrier	-12.294
▁subsystem	-12.2941
▁prescription	-12.2946
▁TRANSPORT	-12.295
▁channel	-12.2961
▁KWW	-12.2965
▁airworthiness	-12.2966
▁Regula	-12.2966
meat	-12.2966
▁Assistance	-12.2967
▁witnesses	-12.2967
▁TARIFF	-12.2971
▁Recovery	-12.2971
▁mixing	-12.2973
▁deliberately	-12.2974
▁denied	-12.2976
▁COOPERATION	-12.2976
▁recreational	-12.2988
▁PM	-12.2988
▁priced	-12.2991
being	-12.2993
▁Regulat	-12.2994
▁nothing	-12.2995
▁chief	-12.2999
Brussels	-12.2999
GATT	-12.301
▁Rev	-12.3019
▁Irish	-12.302
sector	-12.3025
logical	-12.3037
)".	-12.3038
▁composite	-12.3049
called	-12.3067
▁Tuesday	-12.3068
▁Nov	-12.3071
▁deduct	-12.3076
▁specialis	-12.3085
▁poor	-12.3085
▁Item	-12.3086
▁HOWEVER	-12.3089
▁religious	-12.3089
▁discrepancies	-12.3089
▁RECOGNISING	-12.3089
▁carefully	-12.3089
▁pistachios	-12.3091
▁Applicants	-12.3091
net	-12.3092
▁..."	-12.3095
▁GOK	-12.3099
▁issuance	-12.31
▁NON	-12.3101
▁probable	-12.3104
▁stimulate	-12.3104
▁ICO	-12.3108
▁severely	-12.3114
nd	-12.3125
▁appropriateness	-12.3127
▁Accounting	-12.3131
▁injections	-12.3135
▁financially	-12.3137
▁PERSONAL	-12.3138
▁commissions	-12.3142
▁prohibits	-12.3142
▁Latvian	-12.3145
▁war	-12.3163
▁CONTAIN	-12.3181
▁Settlement	-12.3188
▁banana	-12.3189
▁marriage	-12.3189
▁resume	-12.3192
▁prolong	-12.3195
▁Reports	-12.3203
▁NGOs	-12.3205
▁module	-12.3206
▁convene	-12.3209
▁absorption	-12.3212
▁INFORM	-12.3212
set	-12.3213
▁sativa	-12.3214
▁Bioscope	-12.3214
▁AUTHORITY	-12.3214
▁genus	-12.3214
▁metrological	-12.3214
▁emerging	-12.3215
▁lemons	-12.3216
▁describing	-12.322
▁Fr	-12.3222
▁Saint	-12.3222
▁inadmissible	-12.3224
▁Institutions	-12.3226
▁volatile	-12.3231
▁CHARGE	-12.3231
▁brand	-12.3233
▁arrived	-12.3233
▁goals	-12.3234
▁authors	-12.3235
ompetent	-12.3243
▁fault	-12.3245
▁subsystems	-12.3245
▁prima	-12.3252
▁DEM	-12.3255
▁roof	-12.3259
group	-12.3263
▁legislations	-12.3266
▁Capital	-12.3268
▁reward	-12.3269
your	-12.327
dried	-12.3274
SG	-12.328
RY	-12.328
▁Works	-12.328
▁Dublin	-12.3281
▁compensated	-12.3296
▁attestations	-12.3299
)`	-12.3302
▁discount	-12.3304
▁fares	-12.3309
▁Conclusion	-12.3316
▁spring	-12.332
▁fertilizer	-12.3321
ea	-12.3327
▁DE	-12.3327
▁Transfer	-12.333
▁St	-12.3331
Decision	-12.3331
▁mitigate	-12.3333
TABLE	-12.3333
▁stabilise	-12.3336
▁invoke	-12.3338
▁Welfare	-12.334
▁gametes	-12.3341
▁Neither	-12.3341
▁counterparty	-12.3342
its	-12.3345
▁agglomerations	-12.3345
▁summer	-12.3346
▁trucks	-12.3346
▁treaty	-12.3349
Feta	-12.3352
▁twenty	-12.3353
▁LU	-12.3353
▁legality	-12.3355
▁NORMAL	-12.3356
▁aluminium	-12.3357
▁headlamps	-12.3358
▁possessing	-12.3358
registered	-12.3359
▁nurses	-12.3361
ative	-12.3361
▁necessitates	-12.3363
▁repeals	-12.3365
▁"...	-12.3367
▁indigenous	-12.3367
▁Volume	-12.337
▁objected	-12.3371
▁immunity	-12.3371
▁stake	-12.3384
▁mix	-12.3385
▁meters	-12.3386
▁nutrients	-12.3387
▁shield	-12.3389
▁documented	-12.3394
im	-12.3395
▁hull	-12.3398
ability	-12.3399
▁integrate	-12.3407
ISO	-12.3411
auxiliary	-12.3428
▁sanction	-12.3438
▁RESULT	-12.3441
▁Assets	-12.3445
▁ml	-12.3447
▁atmospher	-12.3449
▁liquids	-12.3453
▁starts	-12.3457
▁EUMM	-12.346
ygiene	-12.3466
▁THA	-12.3467
▁VEHICLE	-12.3467
▁habitual	-12.3467
▁practise	-12.3468
▁garlic	-12.3468
▁crucial	-12.3469
▁Cambodia	-12.3469
▁Technology	-12.3469
▁diversification	-12.3469
▁unsatisfactory	-12.3469
▁practising	-12.3469
▁hear	-12.3469
▁Ambassadors	-12.347
▁readmission	-12.3471
▁Textile	-12.3472
▁annulment	-12.3475
▁SIS	-12.3475
▁railways	-12.3476
▁Particular	-12.348
▁disadvantage	-12.348
▁here	-12.3488
▁esters	-12.3488
▁estimation	-12.3489
▁carcinogens	-12.349
Turkey	-12.3506
▁Description	-12.351
▁Oil	-12.3512
▁evidenced	-12.3513
▁schools	-12.3518
▁mini	-12.3519
▁greate	-12.3521
▁bis	-12.3523
▁ecu	-12.3531
mission	-12.3548
▁unions	-12.3549
▁shape	-12.3549
▁bran	-12.3549
do	-12.355
ll	-12.3554
so	-12.3555
▁suffer	-12.3555
▁endorse	-12.3558
checks	-12.3561
▁Science	-12.357
APPROVAL	-12.3572
▁disseminate	-12.3573
▁ratite	-12.3573
▁Travel	-12.3578
▁brief	-12.358
▁profile	-12.358
▁insurer	-12.3583
IT	-12.3584
▁Eurodac	-12.3584
▁alway	-12.3595
▁emergencies	-12.3599
▁intensify	-12.3599
▁reinforcing	-12.3599
▁habitually	-12.36
▁lifetime	-12.3601
▁abnormal	-12.3602
long	-12.3604
▁Nepal	-12.3604
▁SCOPE	-12.3604
▁SCIENTIFIC	-12.3604
▁signatories	-12.3604
▁Home	-12.3605
▁interchangeable	-12.3606
ATIONS	-12.3609
▁oilseeds	-12.361
▁Thereafter	-12.361
▁polyethylene	-12.361
▁pharmacological	-12.361
▁MRL	-12.3611
▁oranges	-12.3612
▁ACTION	-12.3613
▁holidays	-12.3622
▁IDA	-12.3623
▁dioxin	-12.3626
▁recovering	-12.3628
▁societies	-12.3633
▁substitutes	-12.3634
▁Iran	-12.3637
Law	-12.3645
▁binder	-12.3647
▁reviewing	-12.3649
▁Animo	-12.365
▁sweet	-12.365
▁naturally	-12.3657
ding	-12.3658
organic	-12.3659
▁look	-12.3659
▁tranches	-12.3661
▁matching	-12.3662
Supplementary	-12.3663
▁questioned	-12.3664
▁TARIC	-12.3665
▁catalogues	-12.3667
▁disputed	-12.3678
▁See	-12.3689
▁frame	-12.3692
▁default	-12.3696
▁Me	-12.3698
▁interfere	-12.3702
ION	-12.3703
▁fob	-12.3704
▁buyers	-12.3705
▁distiller	-12.3708
▁tank	-12.371
▁loop	-12.3711
▁Consumer	-12.3716
produced	-12.3718
▁solvent	-12.3719
▁DESIR	-12.372
Convention	-12.3725
▁nickel	-12.373
▁COMPLY	-12.373
▁enzootic	-12.373
▁Species	-12.373
▁Alimentarius	-12.373
▁dedicated	-12.3731
▁sharply	-12.3732
▁usage	-12.3733
▁dangers	-12.3733
▁CCM	-12.3735
▁impair	-12.3735
▁Carsid	-12.3735
▁glyphosate	-12.3736
▁phosphorus	-12.3736
▁prunes	-12.3736
▁aligned	-12.3736
▁deteriorated	-12.3738
▁persistent	-12.374
If	-12.374
▁workshops	-12.3741
▁Withdrawal	-12.3741
▁alignment	-12.3745
▁rebates	-12.3745
proprietary	-12.3745
▁endangered	-12.3749
▁distillers	-12.3755
▁away	-12.3758
▁broadcasts	-12.376
▁subscriptions	-12.3763
▁inconsistent	-12.3763
▁Education	-12.3768
ities	-12.3773
personnel	-12.3776
▁ENTER	-12.378
▁transferor	-12.3781
▁TA	-12.3785
▁Judicia	-12.3786
▁denominations	-12.3787
▁welcome	-12.3791
target	-12.38
▁%),	-12.3801
▁cards	-12.3802
mer	-12.3807
▁STCW	-12.3813
▁Time	-12.382
▁compare	-12.3821
▁experiences	-12.3827
▁recall	-12.383
rassica	-12.3839
▁enzyme	-12.3841
▁AC	-12.3845
ern	-12.3848
tion	-12.3849
▁tool	-12.3852
▁generations	-12.3857
gt	-12.386
▁census	-12.3861
▁RBM	-12.3862
▁consolidate	-12.3862
▁dropped	-12.3863
▁FEEDINGSTUFFS	-12.3864
▁counterparties	-12.3864
▁deployment	-12.3864
▁transformed	-12.3865
▁abnormally	-12.3866
▁boneless	-12.3869
▁chickens	-12.387
▁Activities	-12.3871
▁da	-12.3873
▁ESTABLISHMENT	-12.3874
▁PROCESSING	-12.3875
▁sensitivity	-12.3875
▁bags	-12.3878
▁merits	-12.3878
▁replanting	-12.388
▁Intervention	-12.388
▁oxygen	-12.3882
oth	-12.3883
▁revisions	-12.3884
▁coccidiostats	-12.389
▁fairly	-12.3896
▁logo	-12.3899
▁responses	-12.3901
▁ma	-12.3902
▁secrets	-12.3903
▁extensions	-12.3909
adily	-12.391
▁External	-12.3911
BY	-12.3912
base	-12.3916
▁reading	-12.3928
▁Notifications	-12.3928
▁Divisions	-12.3932
▁boarding	-12.3935
▁dust	-12.3936
▁ADDITION	-12.394
catch	-12.3944
▁joining	-12.3944
▁marketable	-12.3946
▁REVENUE	-12.3952
▁guides	-12.3955
▁MTF	-12.3962
▁ENTITLE	-12.3965
capacity	-12.3968
▁Eco	-12.3969
▁drop	-12.3971
▁depot	-12.3975
▁INCLUDE	-12.3976
▁secondly	-12.3981
▁mortgage	-12.3991
▁ANIMAL	-12.3997
▁Botswana	-12.3998
▁sunflower	-12.3998
▁Tajikistan	-12.3998
▁treaties	-12.3999
▁repurchase	-12.3999
▁PROVIDE	-12.3999
▁burning	-12.4
groundhandling	-12.4
▁Subsequently	-12.4
▁lifted	-12.4002
▁unemployed	-12.4003
▁formulate	-12.4004
▁evasion	-12.4004
▁Status	-12.4004
▁quantified	-12.4004
▁biodiversity	-12.4004
▁notifiable	-12.4006
▁surpluses	-12.4006
▁judged	-12.4006
▁Banking	-12.4006
▁scientifically	-12.4008
▁GOES	-12.4008
▁plots	-12.4012
▁Cape	-12.4013
▁circulate	-12.4015
▁adds	-12.4016
▁repairs	-12.4019
▁Certification	-12.4023
▁fusion	-12.4024
▁APPROVE	-12.4027
▁Apart	-12.4027
▁interfaces	-12.4028
▁TSEs	-12.4032
▁malle	-12.404
▁Authorisation	-12.4054
▁Determination	-12.4054
▁seeker	-12.4059
▁mines	-12.4073
▁healthy	-12.4078
▁Term	-12.4087
▁rent	-12.4091
▁Gerona	-12.4096
▁chair	-12.411
▁arbitrator	-12.411
ur	-12.4111
▁WHE	-12.4114
▁bus	-12.4115
milled	-12.4119
▁draws	-12.4124
▁chairperson	-12.4131
▁REASON	-12.4132
▁Note	-12.4133
Tempus	-12.4134
▁atmosphere	-12.4135
▁SPECIES	-12.4135
▁fashion	-12.4135
▁COSTS	-12.4135
▁boundaries	-12.4135
▁nonetheless	-12.4135
▁capability	-12.4135
▁Oct	-12.4136
▁unforeseeable	-12.4136
▁confused	-12.4136
▁Horticulture	-12.4136
▁realisation	-12.4136
▁infringing	-12.4137
ca	-12.4138
▁Also	-12.4138
▁IMPORTS	-12.4139
▁PROCEDURES	-12.4141
▁opposite	-12.4142
▁arsenic	-12.4142
▁identifie	-12.4143
▁cable	-12.4144
▁thirty	-12.4147
communicating	-12.415
▁phosphate	-12.4153
inimum	-12.4154
▁situ	-12.4155
▁compulsorily	-12.416
▁hindquarters	-12.4162
▁reagents	-12.4163
▁homeopath	-12.4167
▁AMM	-12.4167
▁LIKE	-12.4172
producer	-12.4178
▁Chair	-12.4181
▁keeper	-12.4185
▁dispos	-12.42
▁domicile	-12.4203
▁meaningful	-12.4205
rs	-12.4208
▁COMMERCIAL	-12.4216
▁screen	-12.4223
▁SI	-12.423
▁illustrate	-12.4234
▁attempt	-12.4236
ought	-12.4239
defined	-12.4248
▁carbonate	-12.4249
priced	-12.4254
▁convey	-12.4255
▁w	-12.4256
▁GNI	-12.4258
▁temperatures	-12.4266
▁Improvement	-12.4266
▁Chamber	-12.4268
▁pool	-12.4268
▁misuse	-12.4273
▁COURT	-12.4274
▁Benelux	-12.4274
▁Comoros	-12.4274
▁Commerce	-12.4274
▁reputation	-12.4274
▁Games	-12.4275
▁absent	-12.4275
▁differentiation	-12.4276
grouping	-12.4278
▁PARENT	-12.4279
▁interpretati	-12.428
▁Varieties	-12.428
▁reconstruction	-12.4281
▁DEFINITIONS	-12.4281
co	-12.4283
AIDS	-12.4283
▁shops	-12.4284
▁disseminated	-12.4284
▁Sugar	-12.4286
▁nationally	-12.429
▁bottles	-12.4292
▁takeover	-12.4294
▁containment	-12.4296
▁Base	-12.43
▁ruminants	-12.43
▁Real	-12.4301
▁INCLUD	-12.4312
▁Chemicals	-12.4324
▁USD	-12.4343
▁None	-12.4353
▁acids	-12.4354
▁Di	-12.4361
abour	-12.4362
▁complainants	-12.4371
ak	-12.4385
▁disagreement	-12.4388
▁holiday	-12.439
▁academic	-12.4391
beam	-12.4391
▁appointments	-12.4394
▁EFFECT	-12.4401
▁films	-12.4408
▁instruct	-12.4409
imbabwe	-12.4413
▁yarn	-12.4413
▁CAPITAL	-12.4415
▁APPLIED	-12.4415
▁pharmacy	-12.4415
▁METHODS	-12.4415
▁constitution	-12.4419
];	-12.442
▁jute	-12.442
▁prospective	-12.442
▁shellfish	-12.4421
▁surfactants	-12.4425
▁Publication	-12.4425
▁Copenhagen	-12.4428
▁cells	-12.4429
▁mammals	-12.4429
▁restored	-12.4431
▁refinancing	-12.4432
▁Income	-12.4432
▁resolved	-12.4433
▁London	-12.4434
books	-12.4439
▁Islami	-12.4446
▁TRAINING	-12.4446
▁alternatively	-12.4448
▁APR	-12.4451
▁investigational	-12.4452
▁airlines	-12.4454
▁denounce	-12.447
▁harvests	-12.4471
▁panels	-12.4473
▁coding	-12.4473
▁bin	-12.4477
▁loads	-12.4486
National	-12.4488
▁interior	-12.449
▁ones	-12.4508
measure	-12.451
duty	-12.4517
▁ORIGINAT	-12.4522
▁necessitate	-12.4526
ties	-12.4527
▁sitting	-12.4533
ER	-12.4536
road	-12.454
United	-12.4545
▁Natura	-12.4548
▁Pa	-12.4552
▁REPORT	-12.4555
▁fifteen	-12.4558
▁radius	-12.4558
▁registries	-12.4558
▁artistic	-12.4558
▁unannounced	-12.4558
▁causation	-12.4558
▁liberalization	-12.4558
▁VHS	-12.4558
▁reconciliation	-12.4558
▁TWO	-12.4558
▁MARKETING	-12.456
▁seized	-12.4561
▁passage	-12.4561
▁qualifies	-12.4561
▁accurately	-12.4563
▁coffee	-12.4564
▁proportions	-12.4566
▁HIV	-12.4566
▁biofuels	-12.457
▁booking	-12.4574
▁chilli	-12.4576
▁EAEC	-12.4579
▁reallocation	-12.4579
▁Instruments	-12.458
▁Morocc	-12.4581
▁TR	-12.4584
▁Sol	-12.4585
▁ethnic	-12.4586
IMO	-12.4587
▁contests	-12.4587
▁subordinated	-12.4594
sea	-12.461
▁debit	-12.4616
▁coated	-12.463
▁suitabl	-12.4635
▁linking	-12.4637
▁transporter	-12.4654
▁Animals	-12.4656
▁groupings	-12.4656
▁notifie	-12.4672
▁assembled	-12.4674
▁enhancement	-12.4676
▁defendant	-12.4676
▁benzo	-12.468
▁interface	-12.4684
▁pallet	-12.4684
▁PSC	-12.4687
ver	-12.4687
▁Statement	-12.4688
▁assent	-12.469
▁GOVERN	-12.4692
▁ineligible	-12.4692
▁goal	-12.4697
▁Failure	-12.4703
▁haulage	-12.4703
▁grace	-12.4703
▁Shipbuilding	-12.4703
▁restoring	-12.4703
▁district	-12.4703
▁PROPOSAL	-12.4704
▁insignificant	-12.4708
▁Cash	-12.4709
▁scrapie	-12.471
▁standardized	-12.4713
Dumping	-12.4716
▁acceded	-12.4717
▁Number	-12.4722
▁grids	-12.4724
Agreement	-12.4731
▁Peru	-12.4732
▁characteris	-12.4735
▁formulated	-12.4737
▁bones	-12.475
▁messages	-12.4754
▁alphabetic	-12.476
industrial	-12.4763
▁sentences	-12.4769
▁Rome	-12.4771
▁FOD	-12.4774
▁Alpine	-12.4775
activity	-12.4779
▁ISSUE	-12.4779
▁Exports	-12.4794
▁associate	-12.4799
▁Republics	-12.4809
▁challenge	-12.4818
▁match	-12.482
On	-12.482
▁gauge	-12.4824
this	-12.4825
▁interval	-12.4825
tropic	-12.4825
▁addressee	-12.4831
▁patient	-12.4831
evaluation	-12.4834
▁telematic	-12.4836
▁lift	-12.4842
UMTS	-12.4847
▁COMMENT	-12.4849
▁batteries	-12.485
▁denunciation	-12.485
▁autumn	-12.485
▁stresses	-12.4852
▁capita	-12.4853
ship	-12.4856
▁disregard	-12.4859
▁subsection	-12.486
▁predominant	-12.4862
▁barium	-12.4863
▁victualling	-12.4863
▁symptoms	-12.4864
▁scheduling	-12.4864
▁intangible	-12.4865
▁AD	-12.4867
▁propulsion	-12.487
▁mediation	-12.487
▁der	-12.487
▁Aquaculture	-12.487
▁defects	-12.4871
▁acetate	-12.4873
MENT	-12.4875
▁Safe	-12.4875
▁confiscation	-12.4877
ular	-12.4886
▁Maintenance	-12.4894
▁violations	-12.4895
▁Green	-12.4895
▁copper	-12.4896
▁Medical	-12.4897
Comments	-12.4901
total	-12.4901
▁Product	-12.4904
▁Liv	-12.4907
IM	-12.4909
▁distorted	-12.4913
goods	-12.4917
▁extreme	-12.4929
▁herein	-12.4947
▁refillable	-12.4948
▁refuses	-12.4948
compensation	-12.495
▁titula	-12.4965
▁overview	-12.4972
▁abbreviation	-12.4973
▁imbalance	-12.4974
▁rotation	-12.4975
East	-12.498
▁expand	-12.4996
▁hamper	-12.4999
▁epidemic	-12.4999
▁Standardization	-12.4999
▁DECIDED	-12.4999
▁Reconstruction	-12.4999
▁reconstituted	-12.5
▁CONSOLIDATION	-12.5
▁retrospectively	-12.5001
▁remedied	-12.5003
▁Judges	-12.5005
▁absorb	-12.5005
▁convertible	-12.5006
environmental	-12.5007
▁mainland	-12.5008
▁demands	-12.5016
▁LBB	-12.5019
▁disadvantaged	-12.502
▁forequarters	-12.5024
▁disadvantages	-12.5027
▁insert	-12.503
▁albe	-12.5033
▁allowable	-12.5034
▁ASCM	-12.5034
▁sequence	-12.5035
ither	-12.5036
▁leaf	-12.5038
▁neare	-12.5038
▁election	-12.5039
▁boilers	-12.5042
UEST	-12.5046
▁unaccompanied	-12.5046
▁stationary	-12.5047
nless	-12.505
▁dis	-12.5058
▁Miscellaneous	-12.5063
▁Pre	-12.5064
nt	-12.5065
▁infections	-12.5068
stage	-12.5068
▁versa	-12.5074
▁oats	-12.5082
IVE	-12.5083
▁Sav	-12.5085
▁Nor	-12.5089
▁SCH	-12.5092
Social	-12.5101
▁enforceability	-12.5113
▁ASSOCIAT	-12.5121
▁conduc	-12.5124
▁accumulation	-12.5129
taxable	-12.513
▁rating	-12.5132
PRC	-12.5133
un	-12.5136
▁gap	-12.5137
▁pensioner	-12.5137
▁obstruct	-12.514
▁bottom	-12.5141
▁awards	-12.5141
▁liquidator	-12.5146
▁chronological	-12.5149
▁begun	-12.515
▁quorum	-12.515
▁ferry	-12.515
▁Tampere	-12.515
▁monoxide	-12.515
▁RESIDENCE	-12.5151
▁Madagascar	-12.5151
▁redemption	-12.5151
▁NATURE	-12.5151
▁propylene	-12.5151
▁flammable	-12.5151
See	-12.5152
▁RIGHTS	-12.5152
▁warehousekeeper	-12.5152
▁stem	-12.5152
▁reiterated	-12.5152
▁resort	-12.5156
▁SECOND	-12.5157
▁minority	-12.5158
▁MA	-12.5161
▁undermined	-12.5164
▁rang	-12.5165
▁chilling	-12.5165
down	-12.5168
id	-12.5171
marketing	-12.5173
▁tree	-12.5175
▁jeopardize	-12.5175
providing	-12.5177
▁vision	-12.5178
▁quit	-12.518
ortem	-12.5182
▁se	-12.5185
▁enzymes	-12.5213
▁programs	-12.5214
▁EURATOM	-12.5215
▁alike	-12.5223
▁wrapping	-12.5232
▁posted	-12.5237
▁graphic	-12.5241
▁exempting	-12.5257
▁track	-12.5258
▁minerals	-12.5258
▁CAS	-12.5258
▁interview	-12.5268
LE	-12.5273
▁SSC	-12.5275
▁kidney	-12.5279
▁Panel	-12.5279
readable	-12.528
▁orientation	-12.5294
employment	-12.5297
▁York	-12.5304
▁DETAIL	-12.5304
▁Nigeria	-12.5304
▁distress	-12.5304
▁Afghanistan	-12.5304
▁corpuscles	-12.5305
▁cancer	-12.5305
▁reality	-12.5307
▁conveyed	-12.5309
▁mutagenic	-12.5311
▁cinematographic	-12.5311
▁valves	-12.5312
▁hake	-12.5312
▁emergence	-12.5313
▁Actions	-12.5313
▁discourage	-12.5314
▁drawings	-12.5317
▁Refunds	-12.5317
▁overtime	-12.5317
▁unsuitable	-12.5318
▁filling	-12.5319
▁thereunder	-12.5322
▁organizer	-12.5324
▁Agenda	-12.5325
▁AGAIN	-12.5325
▁amends	-12.5327
liquefied	-12.5327
▁prevalence	-12.5329
▁Ministeri	-12.533
go	-12.5332
▁banned	-12.5332
▁acidification	-12.5333
▁Conclusions	-12.5335
▁Name	-12.5336
▁mother	-12.534
▁CPC	-12.5342
▁Movement	-12.5344
▁enclosed	-12.5347
▁passive	-12.535
▁Individual	-12.5352
▁OSCE	-12.5352
▁intentional	-12.5353
▁hired	-12.5361
▁Vehicles	-12.5364
▁cleared	-12.5366
▁vested	-12.537
that	-12.5371
▁collaborate	-12.5382
now	-12.5388
▁POSITION	-12.54
▁FRY	-12.5416
▁stands	-12.5417
user	-12.5422
ixed	-12.5424
▁LIMIT	-12.5427
▁ethic	-12.5432
▁gears	-12.5433
▁leaflet	-12.5435
▁vineyard	-12.5435
▁voucher	-12.5435
▁multiplication	-12.5438
▁Normal	-12.544
air	-12.5443
hour	-12.5446
▁BiH	-12.5449
exchange	-12.5452
▁GLP	-12.5456
scheduled	-12.5458
▁illness	-12.5458
▁LEAST	-12.546
▁Mexican	-12.546
▁precedence	-12.5461
Processors	-12.5461
▁retroactively	-12.5463
▁summarised	-12.5463
▁Nice	-12.5465
▁Libya	-12.5467
▁Corsica	-12.5467
▁terephthalate	-12.5467
ante	-12.5469
▁ninth	-12.5469
▁recruited	-12.547
▁image	-12.547
▁certifies	-12.5471
▁platforms	-12.5473
▁DBM	-12.5474
OCT	-12.5477
▁DIRECT	-12.5479
▁milling	-12.5479
▁treating	-12.548
▁phonograms	-12.548
▁MANAGEMENT	-12.5481
▁NEAFC	-12.5488
▁repeat	-12.5488
▁TAKING	-12.5491
▁simplifying	-12.5492
▁challenges	-12.5494
▁CAN	-12.5497
▁IMA	-12.55
▁Interna	-12.5501
▁similarly	-12.5502
▁papers	-12.5508
▁City	-12.5508
la	-12.5514
▁TRANSFER	-12.5515
▁dealers	-12.5517
▁incapacity	-12.5519
▁fortified	-12.5522
▁utilised	-12.5523
▁tied	-12.5525
▁DO	-12.5538
▁Overseas	-12.5538
▁HICPs	-12.5539
period	-12.5543
▁filament	-12.5544
spite	-12.5559
▁CONSIDER	-12.5565
▁insurers	-12.5567
▁precondition	-12.5582
▁''	-12.5598
▁PAC	-12.5599
▁typing	-12.5602
ESA	-12.5603
▁specificity	-12.561
▁rectify	-12.5611
▁Isle	-12.5613
code	-12.5615
▁harmonize	-12.5616
▁Tobacco	-12.5619
▁analogous	-12.5619
▁intrinsic	-12.5619
▁CONVENTION	-12.5619
▁ended	-12.5619
▁engaging	-12.562
▁sometimes	-12.562
▁correctness	-12.5622
▁Most	-12.5622
▁Adriatica	-12.5624
OOD	-12.5624
▁believing	-12.5624
▁CASES	-12.5625
▁Beef	-12.5626
▁Consumption	-12.5626
▁converters	-12.5627
▁alongside	-12.5628
▁plantations	-12.5628
▁reassessment	-12.5629
▁suggestions	-12.5629
▁SYSTEM	-12.5631
ecause	-12.5633
▁IMPLEMENTATION	-12.5634
▁GT	-12.5634
▁digits	-12.5635
▁SEL	-12.5635
▁wound	-12.5635
drew	-12.5638
▁virtual	-12.564
▁preservatives	-12.5642
▁commensurate	-12.5646
▁chemically	-12.5649
▁OIE	-12.5672
▁AGRICULTURA	-12.5681
▁Statutes	-12.5682
▁MIP	-12.5691
small	-12.5691
▁CI	-12.5694
▁LNG	-12.5703
ns	-12.571
▁('	-12.5711
quota	-12.5712
▁slaughtering	-12.5716
poses	-12.572
euro	-12.5723
▁leg	-12.5729
▁hard	-12.5731
▁avoidable	-12.5733
▁overlap	-12.5733
SC	-12.5739
▁makers	-12.5744
▁imprest	-12.5748
judicial	-12.5749
WITH	-12.5751
▁bond	-12.5755
▁subquota	-12.5755
▁Latin	-12.5756
▁bird	-12.5757
▁disseminat	-12.5759
▁grid	-12.5762
▁pack	-12.5762
▁floor	-12.5767
▁diet	-12.5774
building	-12.5779
▁ALLOWANCE	-12.5779
▁PLANT	-12.5779
▁ENTRY	-12.578
▁chicory	-12.578
▁Weapons	-12.578
▁speculation	-12.578
▁PREJUDIC	-12.578
▁Duties	-12.5781
▁magnesia	-12.5781
▁abatement	-12.5781
▁appreciation	-12.5781
▁equilibrium	-12.5781
▁Contact	-12.5781
▁releases	-12.5781
▁translated	-12.5782
▁visibility	-12.5782
confidential	-12.5784
▁steam	-12.5786
▁FSM	-12.5787
▁metabolites	-12.5787
▁haemorrhag	-12.5787
▁originator	-12.5792
▁Promotion	-12.5792
▁null	-12.5794
▁trailer	-12.5794
▁Colombia	-12.5795
▁remarks	-12.5797
Framework	-12.5799
▁Tables	-12.5803
▁varies	-12.5805
▁comparisons	-12.5807
▁DATA	-12.5809
▁soya	-12.5809
▁Life	-12.581
▁Propagati	-12.5816
▁periodical	-12.5816
▁England	-12.5817
mbined	-12.5817
▁La	-12.5819
sis	-12.5819
BSE	-12.5823
▁necro	-12.5824
▁Of	-12.5825
CEN	-12.583
▁borrowing	-12.5831
atory	-12.5835
▁EI	-12.5836
eous	-12.5837
expiration	-12.5843
▁ever	-12.5846
▁parents	-12.5851
▁architect	-12.5858
red	-12.5858
▁Consultations	-12.5861
▁safeguarded	-12.5864
▁pages	-12.5868
em	-12.5877
▁EMAS	-12.5882
▁park	-12.5884
special	-12.5902
▁sessions	-12.5911
▁Seas	-12.5918
▁COVER	-12.5927
▁maximise	-12.5938
▁removals	-12.594
▁LAW	-12.5942
▁IRELAND	-12.5944
▁Bodies	-12.5944
▁Otherwise	-12.5944
▁Navigation	-12.5944
▁payroll	-12.5945
▁apportioned	-12.5945
▁damaging	-12.5946
▁enacted	-12.5946
DRAWN	-12.5946
▁hormones	-12.595
▁repeatedly	-12.595
▁expulsion	-12.5951
▁royalties	-12.5951
▁magnesium	-12.5951
▁smoking	-12.5952
▁semiconductor	-12.5952
▁NATO	-12.5952
▁IHN	-12.5954
▁Ar	-12.5957
▁Cartagena	-12.5959
▁unusual	-12.596
▁occupied	-12.5961
▁sells	-12.5961
▁argues	-12.5964
▁ranges	-12.5965
ate	-12.5967
▁allegations	-12.5967
▁seagoing	-12.5967
▁confine	-12.5971
▁prescriptions	-12.5978
▁heads	-12.5979
▁peeled	-12.5985
fresh	-12.5994
fin	-12.5996
paragraph	-12.6003
▁logs	-12.6003
have	-12.6006
sectoral	-12.6014
▁portions	-12.6016
▁arranged	-12.6016
▁CONTROL	-12.6019
fuelled	-12.6028
▁TE	-12.6029
UAL	-12.6031
omon	-12.6033
▁Road	-12.6045
TR	-12.6045
▁marc	-12.6056
UN	-12.6058
▁Liabilities	-12.6063
▁Agro	-12.6064
environment	-12.6066
▁ICT	-12.6072
referred	-12.6074
AND	-12.6077
▁Thursday	-12.609
tested	-12.6094
June	-12.6096
men	-12.6096
residue	-12.6099
reliminary	-12.6105
▁quotation	-12.6107
▁psych	-12.6108
PENSES	-12.6109
▁PRICE	-12.6109
▁Matters	-12.6111
▁Likewise	-12.6111
▁INDUSTRY	-12.6111
▁plenary	-12.6111
▁Nutrition	-12.6111
▁solidarity	-12.6111
▁terminology	-12.6111
▁assimilated	-12.6112
▁Gabon	-12.6112
▁posteriori	-12.6113
▁regenerated	-12.6113
▁flowering	-12.6115
▁RIGHT	-12.6117
▁tourist	-12.6117
▁CARRY	-12.6118
▁physico	-12.6118
▁azoxystrobin	-12.6118
▁manifestly	-12.6121
▁indefinite	-12.6125
▁shrimps	-12.6125
▁DENMARK	-12.6126
▁entrants	-12.6127
▁foresees	-12.6127
▁Average	-12.6127
▁history	-12.6128
▁countrywide	-12.613
ium	-12.6131
▁vitro	-12.6131
▁instructed	-12.6133
▁IGH	-12.6138
fermented	-12.6139
▁LIFE	-12.614
▁Skagerrak	-12.6141
▁bottling	-12.6141
▁CERs	-12.6142
data	-12.6144
▁sardines	-12.6145
▁districts	-12.6147
▁MARPOL	-12.6148
▁disrupt	-12.6153
▁spouses	-12.6164
▁bills	-12.6164
▁performances	-12.6165
▁washing	-12.6166
▁parliamentar	-12.617
▁facing	-12.6175
ultilateral	-12.6175
▁PROVISION	-12.618
▁Areas	-12.6183
U	-12.6193
espite	-12.6195
feed	-12.6195
▁suppression	-12.621
extra	-12.6214
int	-12.6225
purchase	-12.6247
▁defect	-12.6248
▁haul	-12.6249
▁contravention	-12.6254
▁overshoot	-12.6255
▁genera	-12.6258
▁interchange	-12.6261
▁fixation	-12.6262
▁Stock	-12.6263
▁ADR	-12.6265
▁banknote	-12.627
▁hearings	-12.6271
▁withhold	-12.6276
▁OFFICE	-12.6278
▁PROTOCOL	-12.6279
▁Laden	-12.628
▁irrelevant	-12.6281
▁Jurisdiction	-12.6281
▁reunification	-12.6281
▁speculative	-12.6281
▁allotted	-12.6281
▁unequal	-12.6281
▁Initiation	-12.6281
adjusted	-12.6281
▁depression	-12.6282
▁contemplated	-12.6282
▁strongly	-12.6285
▁eighteen	-12.6288
▁longitudinal	-12.6288
▁codified	-12.6288
assurance	-12.6288
▁domestically	-12.629
▁axles	-12.6291
▁Athens	-12.6296
▁Suspension	-12.6296
▁freeze	-12.63
upervisory	-12.6304
▁WAS	-12.6308
EMPT	-12.6316
▁ante	-12.6319
standard	-12.6323
areas	-12.6325
▁ear	-12.6326
▁arbitra	-12.6335
▁Provide	-12.6336
▁mental	-12.6341
EFTA	-12.6347
▁Duch	-12.6349
▁stamping	-12.6358
il	-12.6359
▁mammal	-12.6374
▁pan	-12.6383
mail	-12.6384
▁Bern	-12.6394
table	-12.6397
▁justifications	-12.6405
▁fill	-12.6407
▁unbundl	-12.6418
▁raises	-12.6424
▁imperative	-12.6426
▁Instrument	-12.6428
ization	-12.6432
▁EuP	-12.6434
▁aggregation	-12.6435
▁titles	-12.6436
uantities	-12.6451
▁liberty	-12.6453
▁path	-12.6453
▁widespread	-12.6453
▁EMPLOYMENT	-12.6453
▁tracers	-12.6453
▁Verde	-12.6453
▁ARRANGEMENTS	-12.6453
▁physiological	-12.6453
▁OBTAINED	-12.6453
▁SITUATION	-12.6454
▁theft	-12.6456
▁Sampling	-12.646
▁valuable	-12.6461
▁abandonment	-12.6463
▁safely	-12.6464
▁circulated	-12.6464
▁DETERMINED	-12.6465
shed	-12.6466
▁Minutes	-12.6468
▁methodological	-12.647
▁ease	-12.6473
Compensation	-12.6473
▁scrap	-12.6473
▁Costs	-12.6476
▁bricks	-12.6479
▁Manufacturers	-12.648
▁worth	-12.648
");	-12.6484
▁injunction	-12.6485
▁stemm	-12.6487
▁JU	-12.6488
▁excludes	-12.649
arriage	-12.649
▁pasta	-12.6498
Private	-12.6507
ner	-12.6507
▁derives	-12.6508
▁administers	-12.6511
iological	-12.6514
PORT	-12.6516
▁Fees	-12.6519
▁THERE	-12.6524
▁Projects	-12.6524
▁baby	-12.6525
▁retaining	-12.6532
▁probabl	-12.6533
▁recommends	-12.6539
intensive	-12.6555
▁obtains	-12.6564
session	-12.6565
▁remunerated	-12.6568
ge	-12.657
▁explorat	-12.6571
▁map	-12.6577
▁coincide	-12.6588
▁dilution	-12.6599
▁originals	-12.6602
▁Calculation	-12.6606
▁halon	-12.6609
▁Credit	-12.6612
▁dealings	-12.6612
sama	-12.6613
post	-12.6614
▁receivable	-12.6616
mon	-12.6617
Official	-12.6619
▁install	-12.6622
icia	-12.6624
▁winter	-12.6627
▁pocket	-12.6628
▁Namibia	-12.6628
▁nursing	-12.6628
▁diligence	-12.6628
▁ADDED	-12.6628
▁uncertainties	-12.6628
▁PARTY	-12.6629
▁Negotiations	-12.663
▁preparedness	-12.663
▁seised	-12.663
▁eEurope	-12.6631
▁transpose	-12.6632
io	-12.6632
biodegradability	-12.6633
▁SECURITY	-12.6636
official	-12.6638
▁annum	-12.664
edicinal	-12.6643
▁severity	-12.6644
▁cargoes	-12.6644
▁catering	-12.6644
▁coupled	-12.6645
▁Entitlement	-12.6645
inding	-12.6647
international	-12.6651
▁relaying	-12.6654
▁ADMISSION	-12.6655
▁Seed	-12.6655
▁Request	-12.6656
▁Model	-12.6658
▁pallets	-12.6659
▁SENT	-12.666
ieth	-12.6664
▁retailer	-12.6666
▁implements	-12.6668
lo	-12.667
▁Extra	-12.6671
developed	-12.6677
▁tabled	-12.6677
▁dispatches	-12.6677
▁ANNUAL	-12.6679
com	-12.6683
▁Water	-12.6686
carcases	-12.6688
bank	-12.669
▁straddl	-12.6692
▁intervene	-12.6698
common	-12.6709
▁Slovenian	-12.671
▁prevents	-12.6717
▁Local	-12.6733
aida	-12.6734
▁Consultati	-12.6746
SAA	-12.6748
his	-12.6748
handling	-12.6759
threatening	-12.6761
▁po	-12.6766
▁oversee	-12.6775
▁falsification	-12.6777
ut	-12.6781
▁Disease	-12.6781
▁AU	-12.6784
▁Meat	-12.6797
▁eradicate	-12.6805
▁improper	-12.6805
▁SUBSIDIAR	-12.6807
▁RELEVAN	-12.6807
▁custody	-12.6807
▁APPARATUS	-12.6807
▁solemn	-12.6807
▁CIRCUMSTANCES	-12.6807
▁IMPLEMENT	-12.6807
▁INSTRUMENTS	-12.6807
▁newspapers	-12.6808
▁inquiries	-12.6808
▁restaurants	-12.6811
▁selectivity	-12.6814
▁cocoa	-12.6815
▁sweetening	-12.6815
▁degradation	-12.6816
▁interpreting	-12.6819
▁centralised	-12.6821
▁Laos	-12.6822
▁White	-12.6822
▁Electricity	-12.6823
▁acidity	-12.6824
▁SHAL	-12.6825
WORKING	-12.683
▁Pierre	-12.683
OIE	-12.6831
▁ministerial	-12.6836
▁pen	-12.6838
▁altering	-12.6845
▁broaden	-12.685
▁mouth	-12.6857
▁ventures	-12.6859
▁lean	-12.6862
▁assemblies	-12.6863
▁Helsinki	-12.6863
▁Definitions	-12.6866
▁competitions	-12.6867
▁reflection	-12.6882
▁bars	-12.6893
▁EMEP	-12.6895
▁suffice	-12.6896
▁deals	-12.69
▁rev	-12.6906
ISM	-12.6906
ropagating	-12.6907
party	-12.6911
It	-12.6913
▁WORK	-12.6915
▁IAEA	-12.692
▁Romanian	-12.6921
ried	-12.6928
With	-12.6942
private	-12.6944
owned	-12.6952
Presidents	-12.6957
▁counterclaim	-12.696
▁Delegation	-12.6962
▁ballast	-12.6963
▁cent	-12.6963
▁statute	-12.6964
▁allegation	-12.6964
▁interaction	-12.6966
▁sailing	-12.6966
ago	-12.6968
▁aromati	-12.6985
▁historic	-12.6986
▁DISEASE	-12.6987
▁NUMBER	-12.6988
▁royalty	-12.6989
▁Penalties	-12.6989
▁Evidence	-12.6989
▁Uzbekistan	-12.6989
▁cleansing	-12.6989
▁stopped	-12.6989
▁lactose	-12.6989
▁MAKE	-12.6989
▁licensor	-12.699
▁offsetting	-12.699
▁EVENT	-12.6992
FMS	-12.6993
measures	-12.6994
▁Friday	-12.6996
▁cellulose	-12.6996
▁footwear	-12.6996
▁summaries	-12.6996
▁pr	-12.6999
▁Proposal	-12.7002
▁But	-12.7007
▁hair	-12.7009
▁negatively	-12.701
exporter	-12.7011
▁firearms	-12.7012
▁Operat	-12.7012
opposing	-12.7013
▁investing	-12.7018
▁peoples	-12.7021
fire	-12.7027
CIF	-12.7029
▁PTY	-12.7038
▁RTD	-12.7041
grade	-12.7043
suspension	-12.7044
▁originated	-12.7046
PDO	-12.7046
▁roots	-12.7051
▁Accounts	-12.7056
resident	-12.7058
▁Whil	-12.7061
▁HERE	-12.7062
▁explains	-12.707
▁bodywork	-12.7071
HV	-12.7089
▁cycles	-12.7103
▁opt	-12.7107
general	-12.7108
▁interven	-12.7109
▁Eura	-12.7112
▁Port	-12.7127
▁suspens	-12.7127
IC	-12.7128
ter	-12.7129
▁cap	-12.7134
SIDE	-12.714
▁le	-12.7143
▁Cosmetic	-12.7147
▁bracket	-12.7148
▁judgement	-12.715
erely	-12.7156
▁supports	-12.7157
▁vector	-12.7163
▁heart	-12.7165
▁ratify	-12.7166
UIPMENT	-12.7172
▁midwife	-12.7173
▁Hague	-12.7173
▁deputy	-12.7174
▁Migrant	-12.7174
▁forbidden	-12.7174
▁competencies	-12.7174
▁entertainment	-12.7174
▁uninterrupted	-12.7174
▁annulled	-12.7174
▁enshrined	-12.7174
▁twent	-12.7174
▁comprehensible	-12.7174
▁Four	-12.7175
▁landmines	-12.7175
▁Veal	-12.7176
▁lading	-12.7177
▁CERTIFICATES	-12.7177
▁canteens	-12.7177
▁TCCA	-12.7181
▁deferment	-12.7182
▁hospital	-12.7184
▁counteract	-12.7187
▁gelatine	-12.7188
▁emphasised	-12.7189
▁durable	-12.7189
▁Oracle	-12.719
▁Duration	-12.7191
▁PRESENT	-12.7194
▁observ	-12.7194
▁Marks	-12.7195
▁proximity	-12.7198
▁Bangladesh	-12.7198
▁played	-12.72
factory	-12.72
▁utilized	-12.7201
▁EURES	-12.7201
▁Senior	-12.7206
Chapter	-12.7207
COM	-12.7211
▁geographically	-12.7215
▁Citrus	-12.7217
▁impeded	-12.7219
▁boats	-12.7226
▁attachments	-12.7229
TE	-12.7238
▁arisen	-12.7239
▁conclusive	-12.7242
▁deficits	-12.7243
▁bad	-12.7246
▁buffer	-12.7255
Switzerland	-12.7257
▁carnets	-12.7257
▁Pensions	-12.7258
▁Copy	-12.7266
▁ewe	-12.7268
▁IIa	-12.727
▁occurrences	-12.728
security	-12.7293
▁Farm	-12.7296
▁settl	-12.7302
IMU	-12.7306
▁Directors	-12.7307
res	-12.7313
friendly	-12.7318
OLAF	-12.732
▁timetables	-12.7327
xisting	-12.7332
▁gather	-12.7334
▁deviation	-12.7338
ti	-12.7344
▁Letter	-12.7344
▁rails	-12.7344
etic	-12.7346
▁pathogen	-12.7348
fat	-12.7354
▁bag	-12.7358
▁NOTIFICATION	-12.7361
▁accelerate	-12.7361
▁THREE	-12.7362
▁ENERGY	-12.7362
▁anomalies	-12.7362
▁Duty	-12.7362
▁wake	-12.7362
▁seniority	-12.7363
▁INSTITUTIONS	-12.7363
▁harmonizing	-12.7363
▁remitted	-12.7364
▁reimportation	-12.7365
▁HEAD	-12.7365
▁receptacles	-12.7367
▁onerous	-12.7369
▁telefax	-12.737
▁roadworthiness	-12.7371
▁Basle	-12.7371
▁illegally	-12.7371
LESS	-12.7372
▁UNION	-12.7373
▁Dominica	-12.7374
▁numerical	-12.7375
▁alpha	-12.7378
▁BASF	-12.7378
▁Tanzania	-12.7379
▁nurseries	-12.7379
▁Property	-12.7379
▁Farmers	-12.7379
▁upstream	-12.7379
▁SBS	-12.738
▁generators	-12.738
▁ERUs	-12.738
▁depth	-12.7383
▁BANK	-12.7384
▁photographs	-12.7385
▁vectors	-12.7388
▁rightholders	-12.7389
▁trained	-12.7393
any	-12.7395
▁hospitals	-12.7396
▁Burgenland	-12.7405
poi	-12.7419
▁outset	-12.7422
▁coach	-12.7422
treatment	-12.7427
▁manifests	-12.7428
▁observa	-12.744
▁beta	-12.7444
▁sports	-12.7453
▁Gas	-12.746
▁Level	-12.747
ohesion	-12.7473
▁nutrient	-12.7474
PGI	-12.7476
losing	-12.7479
▁SOEC	-12.7481
▁chlor	-12.7485
▁musts	-12.7497
OECD	-12.7497
International	-12.7527
EG	-12.7529
▁vertebrate	-12.7531
aemia	-12.7532
▁catchment	-12.7533
▁pineapple	-12.7546
▁accommodate	-12.7551
▁HR	-12.7552
▁pulp	-12.7554
▁Kenya	-12.7554
▁utility	-12.7555
▁pregnant	-12.7555
▁football	-12.7555
▁steadily	-12.7555
▁windscreen	-12.7555
▁probability	-12.7555
▁appended	-12.7555
▁Impact	-12.7555
▁Termination	-12.7555
▁disappearance	-12.7555
▁Facility	-12.7555
▁unfounded	-12.7555
▁assumption	-12.7555
▁OPERATIONS	-12.7556
▁Overall	-12.7556
▁expensive	-12.7557
▁recalculated	-12.7557
▁cumulatively	-12.7559
▁appreciably	-12.7559
▁interpreters	-12.7559
▁crustaceans	-12.7559
▁accrued	-12.7561
▁behind	-12.7563
▁unanimity	-12.7563
▁achievable	-12.7563
▁BENEFIT	-12.7563
▁impartiality	-12.7563
▁Among	-12.7563
▁traditions	-12.7566
cured	-12.7567
France	-12.7569
▁sorted	-12.757
▁Authorities	-12.7571
▁hardware	-12.7571
▁Profitability	-12.7572
▁doubted	-12.7574
▁Cuba	-12.7575
▁totality	-12.7576
▁promoters	-12.7578
▁norms	-12.7579
▁deficiency	-12.758
▁Long	-12.7583
▁arrivals	-12.7587
▁Galileo	-12.7589
▁ahead	-12.7609
run	-12.7613
▁divide	-12.7613
inned	-12.7623
▁emanat	-12.7626
▁Schools	-12.763
▁therewith	-12.7631
▁encompass	-12.7631
▁blocking	-12.764
▁contacted	-12.764
▁metric	-12.7643
ual	-12.7643
na	-12.7644
Technical	-12.7649
ORY	-12.7655
▁invert	-12.7656
▁tenth	-12.7662
▁Opinions	-12.767
▁pace	-12.7674
fraud	-12.7677
▁edge	-12.7678
▁participates	-12.7688
President	-12.7693
▁tour	-12.7693
fishing	-12.7697
Extra	-12.7698
▁fabric	-12.77
Country	-12.77
exhaustive	-12.7705
▁Agree	-12.7705
▁origins	-12.7711
▁understand	-12.7712
▁rank	-12.7712
module	-12.7719
▁stabilize	-12.7719
▁DUMPING	-12.772
▁electora	-12.7724
▁Drug	-12.7725
erated	-12.7728
▁privilege	-12.7729
▁aptitude	-12.7731
rd	-12.7737
▁Syria	-12.7747
▁gathering	-12.775
▁colza	-12.775
▁mutton	-12.7751
▁stolen	-12.7751
▁hitherto	-12.7751
▁midwives	-12.7751
▁terrestrial	-12.7751
▁DESCRIPTION	-12.7751
▁clementines	-12.7751
▁Cancellation	-12.7751
▁phosphoric	-12.7751
▁Wales	-12.7751
▁TREATMENT	-12.7752
▁facilitation	-12.7752
▁radioactivity	-12.7752
▁optimal	-12.7752
▁discovery	-12.7752
UNSCR	-12.7752
▁untreated	-12.7753
▁foil	-12.7754
▁cleaners	-12.7757
▁peanut	-12.7758
▁earmarked	-12.776
▁sp	-12.776
▁boards	-12.776
▁mobilization	-12.7762
▁pupils	-12.7762
▁feet	-12.7763
▁relieve	-12.7763
▁deducting	-12.7764
▁enjoys	-12.7765
▁Miquelon	-12.7768
Special	-12.7768
')	-12.7769
▁racial	-12.7769
rthwest	-12.777
▁Transit	-12.777
▁imp	-12.7772
▁Administrator	-12.7772
▁traced	-12.7772
▁assistants	-12.7773
▁occupy	-12.7774
▁brackets	-12.7777
▁directory	-12.7778
▁pirated	-12.778
▁Saxony	-12.7785
▁Competition	-12.7787
▁severally	-12.7791
▁Akzo	-12.7794
▁computers	-12.7795
account	-12.7797
sh	-12.7797
▁Peace	-12.7798
▁acetic	-12.7801
▁attract	-12.7807
▁distillate	-12.7808
lance	-12.7809
▁designates	-12.7812
▁belt	-12.7815
▁Designation	-12.7818
▁restraints	-12.7818
▁focused	-12.7819
▁EMCDDA	-12.7821
▁enforc	-12.7821
▁race	-12.7823
▁personally	-12.7824
▁consisted	-12.7824
everal	-12.7826
▁scenarios	-12.7827
conditioning	-12.7829
▁capture	-12.7837
Party	-12.7853
fir	-12.7858
▁chains	-12.7863
▁license	-12.7873
▁rescu	-12.788
▁Pr	-12.7887
▁Contract	-12.7889
▁sensing	-12.79
FREE	-12.7906
▁BALANCE	-12.7907
producers	-12.7915
▁posting	-12.7919
▁merit	-12.7923
▁rectification	-12.7923
▁Audit	-12.7924
▁filter	-12.793
▁Merger	-12.793
▁vibration	-12.7941
▁Rwanda	-12.7944
▁Angola	-12.7946
▁Onc	-12.7947
▁embargo	-12.7948
▁launch	-12.7948
Hijra	-12.7949
▁distances	-12.795
▁frameworks	-12.7951
▁ANALYSIS	-12.7951
▁redundancies	-12.7951
▁Productivity	-12.7951
▁religion	-12.7951
▁racism	-12.7951
▁restocking	-12.7951
▁insemination	-12.7952
▁detained	-12.7952
▁DRC	-12.7954
transport	-12.7957
▁circumvented	-12.7957
▁Catalogue	-12.7958
▁Stockholm	-12.7959
▁elaboration	-12.7959
▁coincided	-12.796
▁hermetic	-12.796
▁DEC	-12.7962
▁Balkans	-12.7963
▁absorbed	-12.7965
Germany	-12.7966
▁donations	-12.7967
▁hormonal	-12.7968
▁jeopardised	-12.7968
▁servicing	-12.797
▁Safeguards	-12.7975
▁MONTH	-12.7975
office	-12.7977
▁breast	-12.7978
▁MEETINGS	-12.7978
▁Loan	-12.7984
▁pH	-12.7986
▁interconnected	-12.7988
units	-12.7989
▁attending	-12.7991
▁Exemptions	-12.7994
▁skins	-12.7997
eterinary	-12.8002
import	-12.8003
category	-12.801
▁DEFINE	-12.8012
rolled	-12.8014
▁introduct	-12.8025
▁interpretations	-12.8027
▁mandated	-12.8027
▁NV	-12.8027
way	-12.8029
▁pipelines	-12.803
▁Advance	-12.8034
ning	-12.8046
▁differently	-12.8056
tax	-12.8058
▁Return	-12.8082
▁Climat	-12.8087
▁medicines	-12.8089
▁combine	-12.8106
Provisions	-12.8106
▁republic	-12.8107
EUPM	-12.8108
payable	-12.8109
▁linen	-12.811
▁emerge	-12.8112
sharing	-12.8112
▁insul	-12.8113
▁presentations	-12.8113
complete	-12.8114
ta	-12.8117
▁benchmark	-12.8121
▁bottle	-12.8128
▁ballot	-12.8128
▁replacements	-12.8133
▁devote	-12.8135
▁fished	-12.8135
▁phonogram	-12.8138
▁yard	-12.8138
IHN	-12.8139
▁suspensi	-12.814
▁deck	-12.8142
▁trademark	-12.8143
▁Authorization	-12.8148
omestic	-12.8149
▁appraise	-12.8149
vora	-12.815
▁coating	-12.8151
▁proliferation	-12.8152
▁eventual	-12.8152
▁drift	-12.8154
▁Defence	-12.8155
▁Narcotic	-12.8155
▁indelibly	-12.8155
▁Poultrymeat	-12.8155
▁diverted	-12.8155
▁socioeconomic	-12.8155
▁PRINCIPLES	-12.8155
▁DOCUMENTS	-12.8155
▁xenophobia	-12.8157
▁retraining	-12.8158
▁reimported	-12.8158
▁trapping	-12.816
▁Kattegat	-12.8161
▁wholesalers	-12.8162
▁BerlinHyp	-12.8163
▁topographies	-12.8163
▁forthcoming	-12.8163
▁Crop	-12.8165
▁nectarines	-12.8165
▁abandoned	-12.8166
▁SPECIFIE	-12.8167
▁broader	-12.8169
▁GOA	-12.8171
▁expanding	-12.8173
▁repairers	-12.8173
▁Registration	-12.8173
▁performers	-12.8175
▁survivors	-12.8176
▁phthalate	-12.8179
▁Year	-12.8179
▁excellence	-12.8181
▁prepackaged	-12.8185
▁periodicals	-12.8188
▁omissions	-12.8188
▁bids	-12.8189
▁arbitrators	-12.8193
▁entailed	-12.8193
▁collector	-12.8195
▁vertically	-12.8195
▁regain	-12.8197
▁bounded	-12.8197
▁Balance	-12.8198
within	-12.8198
▁PPE	-12.8199
▁brands	-12.8203
▁Transfers	-12.8203
▁playing	-12.8206
▁pest	-12.821
▁Origin	-12.8211
four	-12.8214
▁city	-12.8217
▁lacking	-12.8219
▁clerical	-12.8219
▁describes	-12.8234
Suppl	-12.8235
otic	-12.8243
▁Post	-12.8248
▁grow	-12.825
▁GRAN	-12.8252
▁RATE	-12.8255
▁PHARE	-12.8256
▁wet	-12.8262
▁Date	-12.8278
finance	-12.8296
▁closures	-12.8302
reference	-12.8314
▁accumulate	-12.8318
▁liner	-12.8318
▁Wi	-12.8321
cyclic	-12.8321
Tak	-12.8327
▁calibration	-12.8329
unless	-12.8329
Eurosystem	-12.8336
▁fluid	-12.8337
▁Conversion	-12.8337
▁nurse	-12.8338
▁fingerprint	-12.8338
▁upward	-12.8342
▁tally	-12.8344
Parties	-12.8348
Common	-12.835
SILC	-12.8361
▁okou	-12.8362
▁muscle	-12.8362
Myanmar	-12.8362
▁Rafah	-12.8363
▁SAFETY	-12.8363
▁Jamaica	-12.8363
▁elderly	-12.8363
▁thousand	-12.8363
▁Infineon	-12.8363
▁Addiction	-12.8363
▁melitensis	-12.8363
▁Eggborough	-12.8363
▁Martinique	-12.8363
▁arithmetic	-12.8363
▁misconduct	-12.8363
▁plutonium	-12.8363
▁repercussions	-12.8363
▁citizenship	-12.8363
▁unaffected	-12.8363
▁solipeds	-12.8363
contributory	-12.8363
▁AMENDMENTS	-12.8364
▁Hence	-12.8364
▁rationality	-12.8364
▁insertion	-12.8365
▁telegram	-12.8365
▁EFFECTS	-12.8365
▁perishable	-12.8365
▁Danube	-12.8366
▁Importers	-12.8367
▁ribs	-12.8367
▁consequential	-12.8367
▁anonymous	-12.8368
▁reconsidered	-12.8368
▁quantify	-12.8369
▁Baz	-12.8369
▁discontinued	-12.8369
▁carnations	-12.8371
▁Channel	-12.8372
▁Terminal	-12.8372
▁scrapping	-12.8372
▁Collection	-12.8372
▁middle	-12.8372
▁boost	-12.8373
▁actuarial	-12.8373
▁septic	-12.8375
▁Five	-12.8378
▁MATTER	-12.8379
▁SOCIAL	-12.8381
▁recordings	-12.8384
▁seines	-12.8385
▁knowing	-12.8385
▁ESDC	-12.839
▁staggered	-12.8391
▁fructose	-12.8391
▁reasoning	-12.8394
▁flo	-12.8394
▁tendered	-12.8394
▁optical	-12.8397
information	-12.8399
▁Rotterdam	-12.84
▁initials	-12.8401
▁POSSIBL	-12.8409
olive	-12.841
▁Supply	-12.8411
▁cumulated	-12.8415
▁ASOR	-12.8419
▁discretionary	-12.8421
NG	-12.8421
chlorinated	-12.8422
glement	-12.8426
▁Intrastat	-12.8429
investment	-12.8435
▁conversions	-12.8438
▁BV	-12.8441
CEPTION	-12.8446
RENCE	-12.8453
▁targeting	-12.8463
whether	-12.8471
▁hourly	-12.8477
▁Waste	-12.8483
▁materially	-12.8487
;`	-12.849
▁Sta	-12.8494
RECUR	-12.8498
▁sellers	-12.8513
▁PROHIBIT	-12.8519
added	-12.8529
▁Publications	-12.8533
dium	-12.8536
▁Forms	-12.8543
▁numbering	-12.8544
▁stud	-12.8549
▁oriented	-12.855
depth	-12.855
▁taste	-12.8551
▁crab	-12.8551
▁pain	-12.8552
VHS	-12.8553
▁Bayer	-12.8569
▁Purchase	-12.8569
▁judge	-12.857
Section	-12.8574
▁LESS	-12.8574
proliferation	-12.8575
▁Caremar	-12.8576
▁library	-12.8576
▁leucosis	-12.8576
▁peculiar	-12.8576
▁handicapped	-12.8576
▁permanganate	-12.8576
▁TRANSITIONAL	-12.8576
▁municipalities	-12.8576
▁flour	-12.8576
▁PRICES	-12.8577
▁reintroduced	-12.8579
body	-12.8579
▁favourably	-12.858
▁El	-12.858
house	-12.8581
▁glazing	-12.8585
▁biogas	-12.8585
▁Priority	-12.8585
▁Territory	-12.8586
▁constructing	-12.8586
▁assistant	-12.8586
▁Freedoms	-12.8588
▁depository	-12.8589
▁Claims	-12.859
Fraud	-12.8591
▁Designs	-12.8591
▁Tri	-12.8594
▁botanical	-12.8594
▁congestion	-12.8594
▁Intellectual	-12.8594
▁remoteness	-12.8594
▁inscriptions	-12.8595
▁undersigned	-12.8602
▁fitness	-12.8605
▁imbalances	-12.8612
▁GOT	-12.8613
▁Adjustments	-12.8614
December	-12.8622
▁deceased	-12.8624
▁Risk	-12.8625
bility	-12.8627
ccupied	-12.8628
ating	-12.8632
▁incoming	-12.8634
name	-12.8634
▁acquirer	-12.8638
▁PER	-12.8638
▁roses	-12.8641
▁twine	-12.8644
▁FTD	-12.8645
▁Croatian	-12.8653
▁counting	-12.8654
▁Acts	-12.866
▁lives	-12.8661
▁vendors	-12.8664
▁lighter	-12.8673
▁commences	-12.8674
▁catching	-12.8677
▁AGREE	-12.8678
▁mistake	-12.8686
▁determinations	-12.8691
▁TACs	-12.8696
▁OBD	-12.87
.".	-12.8707
▁ensu	-12.8708
▁leukosis	-12.871
▁spaces	-12.8717
▁les	-12.8723
▁VMS	-12.8729
▁announce	-12.8732
contractual	-12.8736
ISTING	-12.8736
ligible	-12.8739
▁sky	-12.874
▁hydrochlor	-12.8743
utonomous	-12.8747
accident	-12.8748
▁FIFG	-12.8749
▁amylo	-12.8755
▁flags	-12.876
farm	-12.8762
printed	-12.8762
▁reagent	-12.8769
▁Reduction	-12.8769
▁subtype	-12.877
▁prejudg	-12.8774
▁Pesticide	-12.8776
▁recur	-12.8776
GENERAL	-12.8777
ertaining	-12.8782
▁hydro	-12.8782
ue	-12.8784
▁student	-12.8787
VIEW	-12.8791
▁SERVICE	-12.8791
pyrene	-12.8792
▁Middle	-12.8792
UE	-12.8792
▁Team	-12.8792
▁Yugosla	-12.8793
▁Ethics	-12.8793
Burr	-12.8793
▁grubbed	-12.8793
▁deterrent	-12.8793
▁jelly	-12.8793
▁collagen	-12.8793
▁THEREFORE	-12.8793
▁apportioning	-12.8796
▁omitted	-12.8796
▁hazelnuts	-12.8797
▁greatly	-12.8798
▁formality	-12.8798
▁lieu	-12.8798
▁Notes	-12.8799
▁consultants	-12.8799
▁Nobel	-12.8799
▁ferrets	-12.88
▁admissibility	-12.88
▁intact	-12.8801
▁Records	-12.8802
▁Satellite	-12.8802
▁abbreviated	-12.8802
Part	-12.8802
▁smoothly	-12.8803
▁maps	-12.8803
▁NOTES	-12.8804
▁adviser	-12.8804
▁traps	-12.8805
▁Refugees	-12.8806
king	-12.8806
▁Instructions	-12.8807
▁reprocessing	-12.8807
▁weak	-12.8809
▁haemato	-12.8811
▁plc	-12.8817
▁visited	-12.8818
▁worst	-12.882
▁Heads	-12.882
▁Judgments	-12.8824
▁vouchers	-12.8828
▁sovereign	-12.8831
▁WILL	-12.8832
▁waiving	-12.8832
▁changeover	-12.8834
animal	-12.8834
UM	-12.8837
▁atmospheres	-12.8837
shore	-12.884
▁penetration	-12.884
▁NETHERLANDS	-12.8842
▁classifying	-12.8843
▁oC	-12.8844
▁Powers	-12.8845
▁IIIa	-12.8845
▁Contributions	-12.8845
▁lifts	-12.8849
▁circuit	-12.8849
▁Identification	-12.8853
▁ASSOCIATION	-12.8855
▁VOC	-12.8859
▁MAJOR	-12.886
▁beer	-12.8871
▁cultures	-12.8873
▁Electronic	-12.8874
▁networking	-12.8881
▁consortia	-12.8892
▁sun	-12.8898
▁LAY	-12.89
▁incorporates	-12.8915
▁NEED	-12.8916
▁performs	-12.8916
▁usable	-12.8925
▁directions	-12.8937
nternal	-12.8954
▁plastics	-12.8959
▁spiritu	-12.8966
direct	-12.8967
using	-12.898
▁encounter	-12.8985
▁ceramic	-12.8986
▁dismissal	-12.8988
rio	-12.8988
▁announcement	-12.899
▁servant	-12.899
▁Tuna	-12.8991
▁coin	-12.8997
▁approves	-12.8997
▁rightholder	-12.8998
▁construct	-12.9001
▁compartment	-12.9004
▁deposition	-12.9004
tified	-12.9006
▁rebate	-12.9009
▁boiler	-12.9009
▁decree	-12.9012
▁aeronautic	-12.9013
▁halibut	-12.9014
▁MEANING	-12.9014
▁REPRESENTATIVE	-12.9014
▁codification	-12.9014
▁sick	-12.9014
▁Burma	-12.9014
▁Intermed	-12.9015
OULD	-12.9015
▁Nacional	-12.9015
▁PREVIOUS	-12.9015
▁obsolete	-12.9015
▁Mauritius	-12.9015
▁somewhat	-12.9015
▁REPLACE	-12.9016
▁municipality	-12.9016
▁STANDARDS	-12.9016
epizootiological	-12.9016
▁unilaterally	-12.9016
▁aerosol	-12.9018
▁invalidate	-12.902
▁hides	-12.902
▁albumin	-12.9021
▁PARTS	-12.9021
▁solve	-12.9022
SMEs	-12.9022
▁GREECE	-12.9024
▁unknown	-12.9025
▁dismantling	-12.9025
▁Acceptance	-12.9025
▁weighed	-12.9026
▁excessively	-12.903
▁prospectuses	-12.903
▁Enterprises	-12.903
▁cherries	-12.9034
▁interlinking	-12.9035
▁Live	-12.9038
oriented	-12.904
▁policyholders	-12.9041
▁disturbed	-12.9042
▁authentication	-12.9044
▁Armenia	-12.9044
▁servers	-12.9047
▁grave	-12.9049
▁Submission	-12.9049
▁lent	-12.9051
▁recoverable	-12.9051
▁vineyards	-12.9051
▁addressees	-12.9051
▁vacuum	-12.9054
▁eye	-12.906
funds	-12.9061
▁purse	-12.9069
without	-12.907
▁distribut	-12.9071
▁notary	-12.9072
▁mitigation	-12.9072
Group	-12.9079
▁wires	-12.908
▁exhibitions	-12.9082
▁stress	-12.9082
▁Participat	-12.9085
▁Undertaking	-12.9091
aci	-12.9093
▁MON	-12.9099
▁Ex	-12.9107
endency	-12.9107
ising	-12.9107
▁blocks	-12.9132
recital	-12.9134
▁SHOW	-12.9134
▁responding	-12.9135
▁assure	-12.914
▁preside	-12.9141
▁Constitution	-12.9142
▁rem	-12.9145
New	-12.9153
Norway	-12.9155
ended	-12.916
metric	-12.916
mounts	-12.9161
▁we	-12.9166
ha	-12.9167
▁Costa	-12.9169
▁translations	-12.9172
goes	-12.9186
CEPT	-12.9199
▁enriched	-12.9206
▁alloy	-12.9213
▁counterpart	-12.9213
▁Effect	-12.9214
▁downturn	-12.9217
▁fear	-12.9218
▁alleviate	-12.9222
▁superior	-12.9227
WHO	-12.9227
▁broadcaster	-12.9229
▁IIA	-12.9235
▁mathematic	-12.9235
▁Trust	-12.9239
▁sustain	-12.924
connecting	-12.924
▁achievements	-12.9241
EMBOURG	-12.9241
▁COPPS	-12.9241
▁Emirates	-12.9241
▁LATTER	-12.9241
▁Swaziland	-12.9241
▁dignity	-12.9241
▁expedient	-12.9241
▁vacancies	-12.9241
▁parathion	-12.9241
▁synergies	-12.9241
▁SWINE	-12.9241
▁CONSIDERATION	-12.9241
▁pneumatic	-12.9241
▁Instead	-12.9241
▁harmonising	-12.9242
▁VEGETABLES	-12.9243
▁accessibility	-12.9243
▁usefulness	-12.9243
▁redistribution	-12.9244
▁internet	-12.9244
▁OBLIGATIONS	-12.9244
▁expeditiously	-12.9244
▁consolidating	-12.9244
▁FORTH	-12.9244
▁debentures	-12.9246
▁PERMIT	-12.9246
secondary	-12.9247
▁BOVIN	-12.9248
▁absolutely	-12.9249
▁unexpected	-12.9251
▁SUGAR	-12.9251
unit	-12.9254
▁molecul	-12.9254
▁revert	-12.9255
▁Rio	-12.9257
source	-12.9257
▁presume	-12.9259
NCBs	-12.926
▁hunting	-12.9261
▁consultancy	-12.9262
driven	-12.9262
ultimate	-12.9263
▁TI	-12.9265
SOLAS	-12.9266
▁FA	-12.9268
▁PWN	-12.9272
▁differentiate	-12.9275
▁reused	-12.9276
▁unsuccessful	-12.9281
▁Users	-12.9281
▁SMVP	-12.9282
▁FRANCE	-12.9283
▁cylinders	-12.9287
▁ANIMO	-12.9287
▁Index	-12.9289
▁CRL	-12.9292
▁monopoly	-12.9293
▁MISCELLANEOUS	-12.9293
own	-12.9297
▁NAME	-12.9314
▁AFS	-12.9315
▁balancing	-12.932
▁traces	-12.9324
determined	-12.9325
▁TLD	-12.9326
▁promoter	-12.9338
▁END	-12.9339
▁faces	-12.9345
▁tar	-12.9345
effect	-12.9362
▁RECOGNI	-12.9364
▁Militar	-12.9366
▁var	-12.938
▁LE	-12.9385
▁footing	-12.9389
▁Indication	-12.9394
dispatching	-12.9406
fruit	-12.9408
plant	-12.9408
▁thick	-12.9412
▁y	-12.9416
east	-12.9422
facie	-12.944
second	-12.9442
▁sulphate	-12.9445
▁waybill	-12.9448
▁Purpose	-12.9448
▁herbicide	-12.9448
▁Sunday	-12.9448
▁tend	-12.9448
▁Universal	-12.9449
▁cylinder	-12.945
▁tape	-12.9452
VAT	-12.9452
between	-12.9454
function	-12.9456
▁wave	-12.9458
CEED	-12.946
▁Mar	-12.9463
hazardous	-12.9465
▁divulge	-12.9468
▁deplete	-12.9469
Herzegovina	-12.9472
▁DEFINITION	-12.9472
▁DAY	-12.9473
▁FRUIT	-12.9474
▁Paraguay	-12.9474
▁SIMILAR	-12.9474
▁juvenile	-12.9474
▁napus	-12.9474
▁foliage	-12.9474
▁affirmative	-12.9474
▁GERMANY	-12.9474
▁GROUNDS	-12.9474
▁neutrality	-12.9474
▁Summit	-12.9474
▁SpA	-12.9474
▁resettlement	-12.9474
▁Selection	-12.9474
erial	-12.9475
▁rhinotracheitis	-12.9475
▁committing	-12.9476
TION	-12.9476
▁dissolved	-12.9477
OES	-12.9477
▁resold	-12.9477
▁minimize	-12.9477
▁accumulators	-12.9479
▁conserve	-12.9479
▁impression	-12.9479
▁Preparation	-12.948
▁BR	-12.948
▁divulged	-12.9481
▁furnishing	-12.9481
▁baselines	-12.9482
▁publishers	-12.9482
▁eventually	-12.9482
HICP	-12.9482
▁LEVEL	-12.9483
▁TF	-12.9484
▁subcontractors	-12.9484
▁ducks	-12.9484
▁prototype	-12.9485
▁flanges	-12.9485
customs	-12.9489
▁depriv	-12.949
▁exploiting	-12.9492
▁estimat	-12.9492
▁Separate	-12.9493
▁sows	-12.9494
▁afforestation	-12.9495
▁Sogepa	-12.9495
▁miscellaneous	-12.9495
▁continent	-12.9501
▁silage	-12.9501
Algeria	-12.9504
▁Estimate	-12.9504
Taric	-12.9505
▁ultra	-12.9506
▁Treatment	-12.9507
▁pressed	-12.9509
▁racing	-12.951
▁WAY	-12.9512
▁realized	-12.9513
propelled	-12.9519
assessment	-12.952
▁rare	-12.952
que	-12.952
▁SME	-12.9521
▁drafts	-12.9524
BER	-12.9527
▁benzene	-12.9528
▁Solas	-12.9529
sky	-12.9532
▁timescale	-12.9534
▁resolv	-12.9543
▁Ha	-12.9548
▁portfolios	-12.9549
▁descend	-12.9556
releasing	-12.9558
▁die	-12.9559
▁FAR	-12.9574
▁seq	-12.9578
▁Le	-12.9591
▁ginning	-12.9591
da	-12.9592
Spain	-12.96
▁Organisations	-12.9601
▁plot	-12.9602
per	-12.9613
▁photograph	-12.9614
▁SCF	-12.9617
▁ut	-12.9623
ado	-12.9626
▁rum	-12.9643
▁coordinates	-12.9644
).`;	-12.9646
▁RECEIVE	-12.9649
Italy	-12.9651
▁APPRO	-12.9655
▁OPERATION	-12.9655
▁LI	-12.9662
▁dell	-12.9664
SA	-12.9669
▁li	-12.9674
▁Oils	-12.968
▁Star	-12.9682
economy	-12.9682
▁storekeeper	-12.9683
▁reinforcement	-12.9684
▁wrong	-12.9684
▁Task	-12.9687
exporters	-12.9689
▁hereof	-12.9693
▁loose	-12.9696
wine	-12.9698
▁defend	-12.9698
under	-12.9703
▁linear	-12.9704
▁Leban	-12.9707
▁recruit	-12.9707
▁MW	-12.9707
▁survivor	-12.9709
ore	-12.971
che	-12.9711
▁Guyana	-12.9712
▁INJURY	-12.9712
▁Liaison	-12.9712
▁Traffic	-12.9712
▁dentistry	-12.9712
▁nullity	-12.9712
▁implied	-12.9712
▁impending	-12.9712
▁unavailable	-12.9713
▁presupposes	-12.9713
▁REMAIN	-12.9714
▁Bearing	-12.9716
nic	-12.9716
▁Exceptions	-12.9716
▁Rica	-12.9716
mobilisation	-12.9717
▁freenet	-12.9718
▁subcommittees	-12.9718
▁automot	-12.9718
▁unification	-12.9721
▁shelf	-12.9722
▁Equidae	-12.9723
▁tropical	-12.9723
▁chromium	-12.9723
▁carnivores	-12.9723
▁spices	-12.9724
Commodity	-12.9724
▁Draft	-12.9728
▁ILO	-12.9729
wing	-12.973
▁underwriting	-12.9731
▁saving	-12.9731
▁SHEET	-12.9731
▁web	-12.9732
▁Drumet	-12.9733
▁persistence	-12.9734
▁Storage	-12.9734
▁asparagus	-12.9735
▁specialisation	-12.9735
▁Additives	-12.9736
▁Territori	-12.9736
▁inventions	-12.9738
ra	-12.974
▁underground	-12.9741
▁thread	-12.9744
▁deductible	-12.9744
generated	-12.9745
▁challenged	-12.9745
▁SUBSIDY	-12.9755
▁Prime	-12.9757
▁turkeys	-12.9757
▁PO	-12.9764
▁authorizes	-12.9764
▁doubled	-12.9769
▁isomers	-12.9778
▁Value	-12.978
▁seine	-12.9781
equity	-12.9784
IMATION	-12.9786
aged	-12.9788
▁soluble	-12.9789
▁Reimbursement	-12.9789
▁ranking	-12.9791
▁fast	-12.98
▁CORRESPOND	-12.9805
▁write	-12.9807
▁IATTC	-12.9809
▁wrapped	-12.9815
ho	-12.9821
much	-12.9821
▁Modification	-12.9829
paid	-12.9832
▁mounted	-12.984
▁resistant	-12.985
▁assumes	-12.9858
▁tackle	-12.9863
▁remedia	-12.9872
▁breaks	-12.9881
▁induce	-12.9883
language	-12.989
applicant	-12.9894
▁controllers	-12.9907
lied	-12.9918
ordinary	-12.9921
▁informal	-12.9921
▁Stat	-12.9922
Food	-12.9922
▁degrees	-12.9923
▁cartel	-12.9926
▁seizure	-12.9928
▁almo	-12.9929
▁deflection	-12.993
▁silkworm	-12.993
▁reliefs	-12.993
efficiency	-12.9932
preferential	-12.9933
▁Psych	-12.9936
▁rising	-12.9939
▁Aceh	-12.994
▁print	-12.9941
▁voice	-12.9942
gainst	-12.9943
▁expedite	-12.9949
Sirene	-12.995
ordination	-12.9952
▁EP	-12.9954
▁restructure	-12.9955
▁AUSTRIA	-12.9956
▁Bulletin	-12.9956
▁Mongolia	-12.9956
▁CONTINUATION	-12.9956
▁heavily	-12.9956
▁phenomena	-12.9956
▁burial	-12.9956
▁Confidentiality	-12.9956
▁GROUP	-12.9956
▁northern	-12.9956
PNR	-12.9956
▁Aven	-12.9956
▁preferable	-12.9956
▁pronounced	-12.9956
▁reloading	-12.9958
▁Fats	-12.9958
▁highlighted	-12.9959
▁antiques	-12.9959
PORTING	-12.996
▁legumes	-12.9961
GDP	-12.9961
▁HOUS	-12.9961
Nordic	-12.9962
▁accomplished	-12.9962
atoxin	-12.9963
▁turkey	-12.9963
▁Inspectors	-12.9964
▁litter	-12.9964
▁shortened	-12.9966
▁slurry	-12.9967
▁Spring	-12.9967
▁cooling	-12.9967
▁ASSESSMENT	-12.9967
▁standstill	-12.9967
▁Liability	-12.9967
▁Exceptionally	-12.9967
▁casings	-12.9968
▁carcass	-12.9971
▁impaired	-12.9975
▁suspensions	-12.9975
▁BODIES	-12.9975
▁dependants	-12.9975
▁Intern	-12.9976
▁Siemens	-12.9978
▁monomer	-12.998
▁abolishing	-12.998
▁peel	-12.9981
▁Tasks	-12.9982
▁polluter	-12.9983
catches	-12.9983
▁strips	-12.9983
▁shortly	-12.9984
iginally	-12.9987
▁conformation	-12.9988
▁variants	-12.9988
▁bureau	-12.9988
▁Ecuador	-12.9989
▁gaps	-12.999
▁countryside	-12.9993
▁merged	-12.9999
▁Business	-13.0001
▁residential	-13.0007
▁BUT	-13.0008
▁ADMINISTRAT	-13.0009
▁deviate	-13.002
▁aflatoxins	-13.0022
▁enact	-13.0024
▁pour	-13.0034
copy	-13.0038
ral	-13.0047
▁elapse	-13.0057
▁pets	-13.006
▁sure	-13.0061
▁legs	-13.0063
▁spheres	-13.0066
▁Main	-13.007
fluorocarbons	-13.008
ber	-13.0091
court	-13.0096
▁Marpol	-13.0112
▁optimise	-13.012
▁veterinarians	-13.012
protected	-13.0124
members	-13.0128
▁aggregates	-13.013
▁EURO	-13.013
held	-13.0136
▁reproductions	-13.0141
saw	-13.0145
mp	-13.0151
establish	-13.0151
▁War	-13.0152
rovided	-13.0152
▁propelled	-13.0157
▁Recommendations	-13.0161
▁GSP	-13.0177
average	-13.0179
gas	-13.0182
▁thermo	-13.0183
tungst	-13.0183
ological	-13.0184
▁brake	-13.0185
▁outlet	-13.019
▁Prohibition	-13.019
▁career	-13.019
apid	-13.0192
▁halogen	-13.0195
ss	-13.0196
▁photocopy	-13.0197
compliant	-13.0202
▁penalize	-13.0202
▁DIRECTOR	-13.0204
▁Honduras	-13.0206
▁Pharmacopoeia	-13.0206
▁SUBPARAGRAPH	-13.0206
▁potency	-13.0206
▁synergy	-13.0206
▁oversight	-13.0206
▁Distribution	-13.0206
▁SUBMITTED	-13.0206
▁biosecurity	-13.0206
▁morality	-13.0206
▁stopping	-13.0206
▁immunological	-13.0206
▁injuries	-13.0206
▁Relationship	-13.0206
▁OBJECTIVES	-13.0206
▁modernising	-13.0206
▁Flag	-13.0206
▁geese	-13.0206
▁Instruct	-13.0206
`),	-13.0206
▁persist	-13.0207
EHOLD	-13.0207
▁revising	-13.0207
▁dismissed	-13.0208
▁conserving	-13.0208
▁depressed	-13.0209
▁DAYS	-13.0209
▁encouragement	-13.021
▁particles	-13.0212
▁printer	-13.0214
uestionnaires	-13.0214
▁justifiable	-13.0214
▁chairmen	-13.0215
▁alternately	-13.0215
▁cages	-13.0216
▁CMdR	-13.0216
▁repetition	-13.0217
▁Eligibility	-13.0217
▁eartags	-13.0217
▁proofs	-13.0218
▁secretary	-13.0218
▁Future	-13.0219
▁inhabitants	-13.0219
▁investigator	-13.022
▁Units	-13.0221
di	-13.0221
▁consul	-13.0222
▁Advocates	-13.0225
▁watch	-13.0225
▁Guadeloupe	-13.0228
▁complemented	-13.0229
exclusive	-13.023
ICES	-13.0231
▁interrupt	-13.0232
▁bait	-13.0233
ature	-13.0234
▁ACTUAL	-13.0236
▁fluids	-13.0236
▁lees	-13.0236
▁fabrics	-13.0237
▁repayments	-13.0238
▁sewage	-13.0239
▁CVED	-13.024
positive	-13.0244
▁Implement	-13.0248
▁lapsed	-13.0251
establishment	-13.0251
EOU	-13.0259
▁notion	-13.026
▁DSB	-13.0262
▁Importation	-13.0262
uthorising	-13.0262
Serbia	-13.0263
▁circulat	-13.0264
founded	-13.0271
▁Professional	-13.0275
FUL	-13.028
▁statistically	-13.0295
▁invit	-13.0296
▁Project	-13.0297
COSS	-13.0297
▁OWN	-13.0299
▁Positions	-13.0304
▁SHARE	-13.0306
tonnes	-13.0307
▁Operations	-13.0315
▁pursu	-13.0319
▁trades	-13.032
safety	-13.0324
onizing	-13.0325
▁mis	-13.0333
▁OPERAT	-13.034
purpose	-13.0341
▁Regular	-13.0347
ATED	-13.036
▁pursues	-13.036
▁widen	-13.0365
▁CON	-13.0373
▁helps	-13.0383
▁AB	-13.0387
rwin	-13.0397
hl	-13.0401
hull	-13.0412
▁older	-13.0423
▁Systems	-13.0424
▁accrue	-13.0429
▁expenditures	-13.043
▁weigh	-13.0433
mite	-13.0433
▁mollusc	-13.0436
derived	-13.0437
▁bath	-13.0439
▁surgeon	-13.044
ACTIVE	-13.044
owards	-13.0451
MWh	-13.0452
▁viewpoint	-13.0452
▁argue	-13.0453
▁escape	-13.0455
▁CEPT	-13.0455
▁driven	-13.0456
angerous	-13.0458
▁flesh	-13.0459
▁CONSUMPTION	-13.0462
▁VETERINAR	-13.0462
▁anthropogenic	-13.0462
▁tetrachloride	-13.0462
▁RESTRAINT	-13.0462
▁bedlinen	-13.0462
▁refineries	-13.0462
▁Haiti	-13.0462
▁Servants	-13.0462
▁COMPOUND	-13.0462
▁RESTRICTIONS	-13.0462
▁negligently	-13.0463
▁Secretaries	-13.0463
▁attendance	-13.0463
▁DELIVER	-13.0463
▁LEGAL	-13.0464
flowered	-13.0464
▁assuming	-13.0464
approvals	-13.0465
▁acceptability	-13.0465
▁Tube	-13.0466
▁elaborate	-13.0466
▁opportune	-13.0467
▁Lao	-13.0467
▁adventitious	-13.0468
▁henceforth	-13.047
▁restructured	-13.047
▁calf	-13.0471
▁seemed	-13.0472
▁RESEARCH	-13.0473
▁arbitrary	-13.0474
ying	-13.0475
▁vast	-13.0475
▁Motor	-13.0476
▁Restrictions	-13.0476
ix	-13.0478
▁Masters	-13.0479
▁averages	-13.0483
▁succeed	-13.0484
▁Samples	-13.0485
▁proficiency	-13.0485
▁trips	-13.0486
▁bonding	-13.0486
▁handicaps	-13.0486
▁reactors	-13.0487
▁coatings	-13.0488
▁intent	-13.0491
week	-13.0492
▁meteorological	-13.0495
▁combin	-13.0495
▁mobilized	-13.0498
nder	-13.0499
▁liberalised	-13.05
llus	-13.0502
▁UNSC	-13.0503
▁dependence	-13.0504
▁KEDO	-13.0508
communications	-13.0509
▁deter	-13.0511
▁witness	-13.0511
▁inactivated	-13.0512
▁transform	-13.0514
olium	-13.0514
▁ruminant	-13.0517
▁OLAF	-13.0518
▁booked	-13.0522
▁resumed	-13.0525
▁swift	-13.0528
▁clarifications	-13.0531
▁CARCASE	-13.0532
NING	-13.0532
▁WEU	-13.0538
▁Met	-13.054
EFSA	-13.0544
nly	-13.0545
▁acknowledges	-13.0548
▁fractions	-13.0548
▁cope	-13.0548
▁Interpretation	-13.0552
▁ca	-13.0554
▁casting	-13.0554
▁substantiat	-13.0557
▁seekers	-13.0559
▁Black	-13.056
efficient	-13.056
der	-13.0561
intended	-13.0561
▁particulates	-13.0561
boned	-13.0562
▁trains	-13.0568
▁perceived	-13.058
low	-13.0581
▁Chic	-13.0582
▁placement	-13.0583
quot	-13.0584
fr	-13.0589
IOUS	-13.059
patriation	-13.0596
▁ou	-13.0597
ETHER	-13.0597
▁Plans	-13.06
CHANGE	-13.06
▁Inspections	-13.0611
▁pressures	-13.0614
▁Net	-13.0625
▁albac	-13.0627
vian	-13.0629
aking	-13.063
▁PROVISIONAL	-13.064
▁sender	-13.0643
▁endeavours	-13.0643
company	-13.0644
▁PREVENT	-13.0646
agglutination	-13.0654
▁float	-13.0661
▁acquires	-13.0663
professional	-13.067
▁sero	-13.0673
▁organiz	-13.069
▁DESTIN	-13.0691
▁outlook	-13.0693
▁REPRESENT	-13.0696
▁envelope	-13.0699
▁entrant	-13.0701
▁Content	-13.0704
sk	-13.0704
▁transfusion	-13.0707
▁Naples	-13.0708
▁Has	-13.071
▁Expert	-13.0711
ERS	-13.0715
▁guideline	-13.0717
▁Reglamento	-13.072
▁deploy	-13.0724
▁Darfur	-13.0725
▁guilty	-13.0725
▁pregnancy	-13.0725
▁vicinity	-13.0725
▁Diversity	-13.0725
▁POLICY	-13.0725
▁landscape	-13.0725
▁FIELD	-13.0725
▁THROUGH	-13.0725
▁desirability	-13.0725
▁RECALLING	-13.0725
▁Basmati	-13.0725
▁biotechnology	-13.0725
▁ACTIVITY	-13.0725
▁manpower	-13.0725
▁dipped	-13.0725
▁faba	-13.0726
▁motivated	-13.0726
ied	-13.0726
▁DIFFERENCE	-13.0726
▁MATERIALS	-13.0726
▁demarcation	-13.0727
▁plums	-13.0728
▁CONTROLS	-13.0728
▁piglets	-13.0728
▁Fast	-13.0728
▁consignees	-13.0728
▁Exporters	-13.0729
Jute	-13.0733
▁CALCULAT	-13.0733
▁occasionally	-13.0733
▁Appointment	-13.0734
▁chapters	-13.0735
▁OLIVE	-13.0735
▁impartial	-13.0735
▁SYSTEMS	-13.0735
work	-13.0736
▁SPAIN	-13.0737
▁exploration	-13.0738
cephal	-13.0741
▁stowed	-13.0742
▁SPD	-13.0743
acism	-13.0745
▁Pseudo	-13.0749
▁Coordinat	-13.0749
▁su	-13.0752
▁Multi	-13.0753
▁rings	-13.0753
▁ginned	-13.0755
▁anaemia	-13.0755
▁ethics	-13.0757
▁logistical	-13.0759
▁faci	-13.076
▁Family	-13.0761
▁Pu	-13.0761
▁want	-13.0761
▁hereunder	-13.0761
▁Clause	-13.0761
▁masses	-13.0761
▁LIMITS	-13.0762
military	-13.0763
▁APPROVAL	-13.0764
▁h	-13.0764
repair	-13.0764
▁substantiate	-13.0769
▁phthalates	-13.077
▁invention	-13.0772
aaa	-13.0772
▁humane	-13.0772
▁CMS	-13.0773
▁opens	-13.0775
ased	-13.0777
▁bovines	-13.0778
▁shut	-13.0779
▁thematic	-13.0781
▁adhesive	-13.0782
States	-13.0783
▁Wild	-13.0792
▁Faeroes	-13.0794
▁utilise	-13.0795
equivalent	-13.0796
▁Ma	-13.0796
▁SALE	-13.0799
pre	-13.0801
▁demonstrations	-13.0806
▁Marketing	-13.0807
▁DNA	-13.0809
▁environments	-13.0815
order	-13.0816
▁outweigh	-13.0818
may	-13.0824
▁CONFORM	-13.0831
▁costly	-13.0831
▁Interests	-13.0835
woven	-13.0835
resistant	-13.084
MOU	-13.0846
▁Record	-13.0848
▁alive	-13.0856
▁Forme	-13.0859
▁Rh	-13.0862
ful	-13.0864
▁Pe	-13.0881
ochr	-13.0883
ag	-13.0888
▁registrations	-13.0891
▁na	-13.0893
▁Fo	-13.0895
▁coloured	-13.0901
▁Replacement	-13.0905
▁favoured	-13.0927
OR	-13.0928
▁failures	-13.0932
CHAPTER	-13.0936
▁Electro	-13.0939
▁earned	-13.094
').	-13.0956
ups	-13.0961
▁erasure	-13.0969
▁handicap	-13.097
▁detergent	-13.097
▁shipowner	-13.097
▁circumstance	-13.0975
▁correspondent	-13.0977
▁admit	-13.0978
▁policyholder	-13.0979
▁tongue	-13.0984
▁roles	-13.0985
▁hive	-13.0987
▁nut	-13.0987
tric	-13.0988
▁Secret	-13.0989
▁bankrupt	-13.0995
Anhalt	-13.0995
▁democratisation	-13.0995
▁vacancy	-13.0995
▁rigorous	-13.0995
▁ASCERTAIN	-13.0995
▁captivity	-13.0995
▁Chief	-13.0995
▁phenomenon	-13.0995
▁plywood	-13.0995
▁HIRING	-13.0996
▁STATUS	-13.0996
▁whisky	-13.0996
▁ACCEPTED	-13.0996
▁repression	-13.0996
▁strontium	-13.0996
▁choosing	-13.0996
▁artichokes	-13.0996
▁Macao	-13.0997
▁soundness	-13.0997
▁exerted	-13.0998
▁reaffirmed	-13.0998
▁governors	-13.0998
▁CHARGES	-13.0999
▁Railway	-13.0999
▁ovens	-13.1
▁folder	-13.1
▁Royal	-13.1001
▁reallocated	-13.1001
▁turbines	-13.1003
▁legibility	-13.1003
▁COMP	-13.1004
▁County	-13.1006
rely	-13.1007
▁Fifth	-13.1007
▁shelter	-13.1007
▁ACCESS	-13.1007
▁Craft	-13.1007
our	-13.1008
▁Full	-13.1008
▁Tests	-13.1009
freedom	-13.101
locked	-13.101
▁factories	-13.101
▁Structures	-13.1011
▁detectable	-13.1011
▁dividends	-13.1011
Pa	-13.1015
▁inhibit	-13.1015
▁kilogrammes	-13.1015
▁Like	-13.1016
▁routing	-13.1017
▁consumables	-13.1017
▁subsidize	-13.1019
keeping	-13.1019
▁attacks	-13.102
▁FISHING	-13.102
▁Headquarters	-13.102
▁reintegration	-13.102
▁metallic	-13.102
▁SEPARATE	-13.1021
characterization	-13.1021
▁collate	-13.1022
▁zoos	-13.1029
▁judges	-13.1029
▁Methods	-13.1031
▁jurisdictions	-13.1033
▁incompatibility	-13.1035
▁probation	-13.1038
▁minimising	-13.1044
▁cell	-13.1046
▁Consumers	-13.1048
▁tolls	-13.1049
▁ICOs	-13.105
PET	-13.1051
▁CTV	-13.1054
▁AMIS	-13.1057
▁ewes	-13.106
▁meals	-13.1062
▁tag	-13.1063
ad	-13.1064
evaluate	-13.1069
▁ISPA	-13.1071
istic	-13.1072
▁manages	-13.1073
▁downwards	-13.1078
▁rounding	-13.1082
▁concentrates	-13.1082
▁Construction	-13.1083
▁prosecutions	-13.1091
▁spin	-13.1092
▁Minist	-13.11
ricultural	-13.11
▁detailing	-13.1104
before	-13.1105
outline	-13.1105
Decree	-13.1107
▁MES	-13.111
ctive	-13.1111
)",	-13.1112
ilitary	-13.1113
ening	-13.1123
ustainable	-13.1129
FRTD	-13.1133
▁RIS	-13.1137
▁mono	-13.114
electronic	-13.1142
rofluorocarbons	-13.1145
▁revers	-13.1147
hold	-13.1148
consumer	-13.1153
▁Heading	-13.1154
zone	-13.116
Case	-13.1165
▁overrid	-13.1166
▁shoulder	-13.1171
▁REFERENCE	-13.1172
▁SCAN	-13.1177
local	-13.1179
light	-13.118
ilic	-13.1186
fuel	-13.1187
butter	-13.1194
▁Top	-13.1203
▁PRINCIPAL	-13.1203
▁restrain	-13.1206
▁reconsider	-13.1209
▁penal	-13.1215
ma	-13.1216
▁Sa	-13.1218
▁Method	-13.122
MITTED	-13.1221
▁homogen	-13.1222
▁consultati	-13.1223
yl	-13.1224
▁nil	-13.1227
▁MARK	-13.1233
▁ethylene	-13.1238
▁Spirit	-13.1244
▁prerequisite	-13.1247
▁Minute	-13.1248
▁attack	-13.1249
▁divergence	-13.125
▁divestment	-13.1257
▁magazine	-13.1259
▁reactor	-13.1259
▁my	-13.1261
▁Border	-13.1265
▁speak	-13.1265
▁belief	-13.1265
▁COMPONENT	-13.1272
▁contradict	-13.1272
income	-13.1272
▁Belize	-13.1273
▁TOBACCO	-13.1273
▁arteritis	-13.1273
▁decorative	-13.1273
▁interoperable	-13.1273
▁Compatibility	-13.1273
▁disparity	-13.1273
▁Turnover	-13.1273
▁hatchery	-13.1273
▁huge	-13.1273
▁alphanumeric	-13.1273
▁SLAUGHTER	-13.1273
Tirrenia	-13.1274
▁Consent	-13.1274
▁overlapping	-13.1274
▁Recalling	-13.1274
▁BPB	-13.1274
▁scientists	-13.1274
▁realization	-13.1274
▁postponement	-13.1274
▁unified	-13.1274
▁stipulating	-13.1274
▁supposed	-13.1275
CEEDING	-13.1275
▁felt	-13.1276
▁ESTABLISHMENTS	-13.1276
▁Coordinator	-13.1277
▁normalisation	-13.1277
▁pigments	-13.1279
▁surfaces	-13.128
▁identifier	-13.1282
▁locality	-13.1284
ces	-13.1285
▁kresoxim	-13.1285
▁bureaux	-13.1285
▁Atlas	-13.1285
▁inheritance	-13.1285
▁Proceedings	-13.1286
▁spillover	-13.1286
▁ticket	-13.1287
▁necessitated	-13.1287
▁bark	-13.129
▁throughput	-13.1292
▁Large	-13.1292
▁observing	-13.1293
▁DRAMs	-13.1295
▁parliaments	-13.1299
SIS	-13.1301
▁surgeons	-13.1301
▁eyes	-13.1302
▁bridge	-13.1303
▁root	-13.1306
▁Lom	-13.1309
▁activated	-13.131
▁Moulinex	-13.1311
▁grassland	-13.1311
▁BA	-13.1311
▁CONDITION	-13.1314
▁manufactures	-13.1317
let	-13.1318
▁DEVELOPMENT	-13.1322
▁biomass	-13.1323
▁pathological	-13.1324
▁trusts	-13.1334
cultural	-13.1335
▁friendly	-13.1336
▁ADMIT	-13.1343
packaged	-13.1348
▁vennootschap	-13.1348
▁transporters	-13.1351
▁gum	-13.1351
Ministry	-13.1357
▁dollar	-13.136
▁Produce	-13.136
▁mature	-13.136
▁Studies	-13.1362
▁HEL	-13.1363
CCT	-13.1369
circumvention	-13.137
▁assignments	-13.1371
ny	-13.1372
▁destabilis	-13.1373
▁Erasmus	-13.1374
▁sport	-13.1376
credit	-13.1383
final	-13.1384
▁ETSC	-13.1386
▁apple	-13.1387
▁specialists	-13.1393
▁Materials	-13.1397
▁Jan	-13.14
▁layers	-13.1403
▁amino	-13.1407
▁overruns	-13.1415
Smith	-13.1422
▁Derogation	-13.1423
sation	-13.1426
▁diminish	-13.1426
▁choices	-13.1427
▁WHOLE	-13.143
▁Card	-13.1432
▁reinvestigation	-13.1436
▁compact	-13.1436
price	-13.1442
eira	-13.1458
▁abuses	-13.146
characterisation	-13.1468
▁Ho	-13.1477
All	-13.1483
Operation	-13.1486
their	-13.1487
onic	-13.149
▁PROPORTION	-13.1491
▁chooses	-13.1496
▁Us	-13.1499
▁signal	-13.1502
▁ANTI	-13.1503
▁connect	-13.1506
▁LIKEL	-13.1507
▁consignors	-13.1511
PORTED	-13.1521
ifying	-13.1521
▁aggravate	-13.1523
curring	-13.1524
▁engagement	-13.1526
▁becom	-13.1527
Annexes	-13.1528
▁petfood	-13.1532
▁mirror	-13.1534
▁firearm	-13.1534
▁Obligation	-13.1534
▁hydroxide	-13.1543
▁abstain	-13.1545
▁ecocard	-13.1545
leaded	-13.155
▁apportionment	-13.1551
▁divorce	-13.1551
▁respondent	-13.1552
▁classify	-13.1552
▁subscribe	-13.1553
▁configuration	-13.1556
▁readi	-13.1557
▁prominent	-13.1559
▁Cooperative	-13.1559
enophobia	-13.1559
▁Altmark	-13.1559
▁Greenpeace	-13.1559
▁Trnava	-13.1559
▁bigeye	-13.1559
▁transhumance	-13.1559
▁BELGIUM	-13.1559
▁materiel	-13.1559
▁unladen	-13.1559
▁Performance	-13.1559
▁unnecessarily	-13.1559
▁convicted	-13.1559
▁ecodesign	-13.1559
▁MIND	-13.1559
▁mandarins	-13.1559
ze	-13.1559
▁sifting	-13.1559
▁southern	-13.1559
▁handwritten	-13.156
▁forfeiture	-13.156
▁DEA	-13.156
▁entrance	-13.1561
▁keeps	-13.1561
▁disinfecting	-13.1562
▁occupants	-13.1562
▁convenient	-13.1563
viet	-13.1563
▁modelling	-13.1564
▁walls	-13.1564
can	-13.1566
▁AGREEMENTS	-13.1567
▁exhaustion	-13.1567
▁AFFECT	-13.1567
▁irrevocable	-13.1568
▁bonus	-13.1569
▁unilateral	-13.157
▁topography	-13.1571
parking	-13.1573
▁cosmetics	-13.1573
▁fairness	-13.1573
▁motorcycles	-13.1574
▁laden	-13.1575
▁spark	-13.1575
▁Cross	-13.1576
▁relatives	-13.1576
▁Employers	-13.1577
▁insolvent	-13.1577
▁develops	-13.1578
▁procured	-13.1578
▁eleven	-13.1583
▁NLF	-13.1584
▁FIU	-13.1584
▁variant	-13.1585
▁leader	-13.1585
▁Representation	-13.1585
▁Allocation	-13.1585
▁FMC	-13.1586
▁emphasise	-13.1589
▁switching	-13.1593
▁circuits	-13.1595
natural	-13.1595
▁Coreper	-13.1597
▁moderate	-13.1602
▁Individuals	-13.1605
▁architects	-13.1606
▁CIM	-13.1609
▁REPRESENTATION	-13.1616
▁ALLOW	-13.1617
▁Allowance	-13.162
▁wished	-13.1621
Agricultural	-13.1623
▁mortgages	-13.1625
▁EGE	-13.1628
▁Through	-13.1634
▁remedying	-13.1637
ica	-13.1639
▁Fixed	-13.1639
▁fins	-13.164
▁cu	-13.1641
▁lend	-13.1642
even	-13.1644
▁Li	-13.1647
▁COMPLIANCE	-13.165
▁safer	-13.1652
beta	-13.1653
▁classed	-13.1654
controlled	-13.1655
Office	-13.1657
ntegrated	-13.1658
▁slow	-13.1661
▁vitamin	-13.1661
▁speciality	-13.1669
clearance	-13.1671
▁Investigation	-13.1672
▁CEASE	-13.1673
self	-13.1678
flow	-13.168
automatic	-13.1685
INT	-13.169
half	-13.169
far	-13.169
FAO	-13.1692
EUSR	-13.1697
domestic	-13.1699
raw	-13.1701
bovine	-13.1701
▁spinning	-13.1702
place	-13.1703
▁depress	-13.1707
▁PLAC	-13.171
▁footnotes	-13.171
▁SIC	-13.1718
NTIL	-13.1723
▁AGR	-13.1725
▁fighting	-13.1727
▁perspectives	-13.1728
volution	-13.1732
▁EOU	-13.1733
fixed	-13.1734
▁bas	-13.1736
▁cataly	-13.1745
junction	-13.1746
▁TRANSFERR	-13.1747
▁macro	-13.175
ification	-13.1752
▁compute	-13.1758
volving	-13.1759
▁OVER	-13.176
expressed	-13.1767
soluble	-13.1769
▁houses	-13.1772
▁soci	-13.1778
▁receiver	-13.1795
ATIONAL	-13.1796
ubsidies	-13.1802
consignment	-13.1803
▁Authoris	-13.1803
administrative	-13.1807
▁pa	-13.1807
▁Telecom	-13.1809
▁Intra	-13.1811
EEG	-13.1813
▁staple	-13.1816
▁cinema	-13.182
system	-13.1821
▁skill	-13.1823
▁bacteria	-13.1825
▁retrocession	-13.1825
▁migrant	-13.1829
▁oilseed	-13.183
▁APPOINT	-13.1831
▁donation	-13.1832
beneficiary	-13.1834
▁shrimp	-13.184
▁deny	-13.185
▁Profit	-13.1851
▁INVESTIGATION	-13.1851
▁MATERIAL	-13.1852
▁expeditious	-13.1852
▁Falk	-13.1852
ches	-13.1853
▁explosion	-13.1853
▁PRIOR	-13.1853
▁Azerbaijan	-13.1853
▁Contributors	-13.1853
▁Guiana	-13.1853
▁chlorpyrifos	-13.1853
▁gunnari	-13.1853
▁hidden	-13.1853
▁impracticable	-13.1853
▁AVAILABLE	-13.1853
▁credibility	-13.1853
▁disabilities	-13.1853
▁credible	-13.1853
▁unsolicited	-13.1853
▁Opposition	-13.1853
▁bacteriological	-13.1853
▁itinerary	-13.1853
▁propagated	-13.1853
▁WATERS	-13.1853
▁hydrolysis	-13.1853
▁captain	-13.1854
▁Belts	-13.1854
▁wildlife	-13.1854
▁groves	-13.1855
▁Crime	-13.1855
▁drilling	-13.1855
▁highlight	-13.1855
▁Slovene	-13.1856
▁Regulators	-13.1856
▁obviously	-13.1857
▁Champ	-13.1857
▁demarcated	-13.1857
▁experiencing	-13.1858
OTH	-13.1858
▁intelligence	-13.1859
▁virological	-13.1859
▁distillery	-13.1859
▁insects	-13.1862
NCB	-13.1862
▁pleasure	-13.1863
▁furans	-13.1864
▁altogether	-13.1865
▁metalaxyl	-13.1866
▁deadweight	-13.1866
▁subsidization	-13.1866
▁decontamination	-13.1866
▁discontinue	-13.1869
▁trainees	-13.187
▁topics	-13.1871
▁cheques	-13.1871
hal	-13.1871
▁convictions	-13.1872
▁NATURAL	-13.1872
▁Disputes	-13.1872
▁depositors	-13.1873
▁shark	-13.1874
▁effluents	-13.1875
▁injected	-13.1876
▁foundations	-13.1876
▁Virgin	-13.1876
▁Initial	-13.1878
▁utilities	-13.1878
▁piracy	-13.1878
▁FPFAF	-13.1879
▁Martinair	-13.1879
▁SEED	-13.1879
▁KG	-13.188
▁LIVE	-13.188
▁blend	-13.1885
only	-13.1886
▁arose	-13.1887
ETC	-13.1888
▁Current	-13.1891
▁genotoxic	-13.1892
▁Interpol	-13.1892
▁participations	-13.19
representativity	-13.1901
▁Panels	-13.1902
▁vi	-13.1905
ssa	-13.1905
▁packings	-13.1906
▁Thessaloniki	-13.1906
▁strengths	-13.1907
▁exploited	-13.1907
▁repacked	-13.1909
▁PAR	-13.1911
orrigend	-13.1913
▁Prun	-13.1915
▁Po	-13.1918
▁despatch	-13.1919
▁Bananas	-13.1919
▁Limitation	-13.1921
les	-13.1922
lt	-13.1922
▁stimulat	-13.1923
operated	-13.1926
▁buses	-13.1927
▁privately	-13.193
▁SAA	-13.1932
▁Enlargement	-13.1933
weight	-13.1934
▁BAS	-13.1938
▁WIPO	-13.1946
▁pressing	-13.195
TITLE	-13.1954
▁chirurgie	-13.1964
ually	-13.1969
▁GIS	-13.197
taking	-13.1981
▁CoC	-13.1984
)`;	-13.1985
▁shore	-13.199
▁Offices	-13.1996
▁IFRS	-13.1997
▁auctions	-13.1997
▁Men	-13.1997
UCITS	-13.1999
▁affords	-13.2
llo	-13.2008
▁organizational	-13.2011
grape	-13.2013
gesellschaft	-13.2018
cream	-13.2019
Miscellaneous	-13.2021
EURATOM	-13.2023
ire	-13.2027
ilateral	-13.203
▁backed	-13.2032
▁today	-13.2033
▁z	-13.2034
fighting	-13.2037
overcompensation	-13.2038
▁Statements	-13.2039
▁k	-13.2045
issile	-13.2048
▁bw	-13.2049
TAIN	-13.2051
but	-13.2052
inter	-13.2057
▁Tritic	-13.2061
▁LA	-13.2062
Remarks	-13.2066
opies	-13.2081
five	-13.2081
▁arrang	-13.2084
▁Effective	-13.2088
▁IVa	-13.2097
IL	-13.2097
▁collections	-13.2101
▁subordinate	-13.2121
resumption	-13.2122
▁owns	-13.2124
box	-13.2127
▁Marseille	-13.2128
central	-13.2129
▁hydraulic	-13.213
▁platform	-13.2131
▁foresee	-13.2132
NS	-13.2138
residence	-13.2138
▁workshop	-13.2144
ectoral	-13.2144
▁antibiotic	-13.2144
pectrum	-13.2147
▁circular	-13.2148
▁Iraqi	-13.2148
▁chocolate	-13.2152
va	-13.2153
▁supersede	-13.2155
▁LOAN	-13.2155
▁SUBMIT	-13.2156
▁Clabecq	-13.2156
▁Maldives	-13.2156
▁NOMENCLATURE	-13.2156
▁SUPERVISION	-13.2156
▁communautaire	-13.2156
▁custodial	-13.2156
▁turgidity	-13.2156
▁arrears	-13.2156
▁Treasury	-13.2156
▁FERTILI	-13.2156
▁rubber	-13.2156
▁pelagic	-13.2156
▁SSW	-13.2156
▁sternum	-13.2156
▁Reasons	-13.2156
▁memory	-13.2156
▁modulation	-13.2156
IUU	-13.2156
PERTS	-13.2156
▁unambiguously	-13.2157
▁tolerated	-13.2157
▁ADVANCE	-13.2157
▁roman	-13.2157
CECAF	-13.2157
INDUSTRIAL	-13.2158
▁transcription	-13.2158
▁repairer	-13.2158
agonists	-13.2158
▁biology	-13.2158
▁ALLOWANCES	-13.2159
▁succession	-13.2159
▁AMOUNTS	-13.216
▁openness	-13.216
▁influx	-13.216
posing	-13.2161
▁worsening	-13.2161
▁liberalized	-13.2162
▁Election	-13.2162
▁lakes	-13.2163
▁Medicines	-13.2163
▁Sioen	-13.2169
▁Panama	-13.2169
▁pornography	-13.2169
▁sponsorship	-13.2169
▁unrestricted	-13.2169
▁noxious	-13.217
▁insulation	-13.217
▁Building	-13.217
▁distinguishable	-13.2171
▁impairment	-13.2176
▁CPTs	-13.2178
▁Grants	-13.2178
▁tallow	-13.2179
▁Holdings	-13.218
▁wool	-13.2181
▁Santa	-13.2181
▁sizing	-13.2182
▁federal	-13.2183
▁rationalise	-13.2183
▁sporting	-13.2184
▁blocked	-13.2184
regulation	-13.2185
▁similarity	-13.2185
competition	-13.2189
▁Preparations	-13.2189
INN	-13.219
pollinat	-13.2191
▁SMALL	-13.2192
▁spending	-13.2193
▁fingerprints	-13.2193
▁filters	-13.2195
▁disks	-13.2195
▁deviations	-13.2197
▁rigid	-13.2199
▁GRP	-13.2201
▁Reductions	-13.2203
part	-13.2205
▁Additionally	-13.2209
▁Exempt	-13.2217
▁peer	-13.222
rice	-13.2224
investigation	-13.2229
▁announc	-13.2229
▁dB	-13.223
trimoni	-13.2231
▁Bonn	-13.2231
▁refrigerators	-13.2239
▁appealed	-13.2241
mending	-13.2242
CO	-13.2242
▁landfills	-13.2249
person	-13.2249
▁MAN	-13.225
▁Sony	-13.2252
▁launching	-13.2253
▁workplaces	-13.2255
▁insider	-13.2257
inevitably	-13.2259
▁nomenclatures	-13.2263
▁incinerated	-13.2266
▁Early	-13.2266
▁Consul	-13.2267
▁Repeal	-13.2272
▁CPV	-13.228
Morocco	-13.2285
carcase	-13.2292
▁seasons	-13.2292
PRESS	-13.2293
▁recognizes	-13.2294
▁CFL	-13.2295
linked	-13.2296
capable	-13.2299
contract	-13.2305
ni	-13.2306
DE	-13.2306
▁depositing	-13.2306
▁crossed	-13.2307
placing	-13.2308
OLOGICAL	-13.2309
▁fuelled	-13.231
▁guid	-13.2329
▁Visa	-13.2335
Animo	-13.234
baby	-13.2342
▁cuttings	-13.2343
American	-13.2343
▁Institution	-13.2347
after	-13.2348
▁Authentic	-13.2349
▁INTER	-13.235
▁PRO	-13.2357
▁IPs	-13.2365
particular	-13.2368
elling	-13.238
ranking	-13.2381
▁additionally	-13.2384
▁gradings	-13.2387
▁AMEND	-13.2393
▁voted	-13.2399
ase	-13.2407
▁logic	-13.2409
▁domestica	-13.2416
ene	-13.2419
▁Argentin	-13.2424
eller	-13.2425
proof	-13.243
lying	-13.2433
▁increment	-13.2436
temporary	-13.2441
▁Safeguard	-13.2446
Land	-13.2447
▁Composition	-13.2452
facing	-13.2456
.,	-13.2458
▁packagings	-13.2463
personal	-13.2463
▁abandon	-13.2464
▁PROGRAMME	-13.2467
▁REVIEW	-13.2467
▁erroneous	-13.2467
UIVALEN	-13.2469
▁BRUSSELS	-13.2469
▁ITALY	-13.2469
▁Marrake	-13.2469
▁erosion	-13.2469
▁inconsistencies	-13.2469
▁literature	-13.2469
▁prosperity	-13.2469
▁breastfeeding	-13.2469
▁diversified	-13.2469
▁progeny	-13.2469
▁Beneficiaries	-13.2469
▁Extradition	-13.2469
fouling	-13.2469
▁Arbitration	-13.2469
▁insularity	-13.2469
▁Drinks	-13.2469
▁Laboratories	-13.2469
▁vulnerability	-13.2469
▁PERFORM	-13.2469
▁Mazars	-13.2469
▁subdivide	-13.2469
▁flash	-13.247
STANDING	-13.247
▁Besides	-13.247
▁Harmonisation	-13.247
▁vapour	-13.247
▁renumbered	-13.247
▁Fax	-13.247
▁graduated	-13.247
▁dependant	-13.2471
▁dominance	-13.2471
▁FOOT	-13.2472
▁INSPECTIONS	-13.2473
▁peppers	-13.2473
▁vats	-13.2474
▁dispensers	-13.2474
▁successively	-13.2477
▁photo	-13.2477
▁precedent	-13.248
▁urgently	-13.248
▁renegotiation	-13.2481
▁chassis	-13.2481
▁equipping	-13.2482
▁typology	-13.2482
▁manganese	-13.2482
▁Supervision	-13.2482
▁incubation	-13.2482
human	-13.2483
▁paging	-13.2483
▁Trading	-13.2485
▁restricts	-13.2488
▁Hu	-13.2492
▁kits	-13.2493
▁diagonal	-13.2494
▁dues	-13.2494
▁hedge	-13.2495
▁tyre	-13.2495
▁migrants	-13.2495
▁Hamburg	-13.2496
▁Commitments	-13.2496
▁deseasonali	-13.2496
contracting	-13.2496
▁ppm	-13.2497
Portugal	-13.2497
▁Many	-13.2497
▁pooling	-13.2499
cut	-13.2501
▁strip	-13.2502
dressed	-13.2504
▁approximated	-13.2509
▁MINI	-13.251
▁refrigerated	-13.2511
▁emerges	-13.2511
▁carcinogen	-13.2512
Sweden	-13.2513
▁PAYMENTS	-13.2514
▁CEN	-13.2523
▁Europass	-13.2525
▁PROGRAMMES	-13.2526
▁wind	-13.2526
OCTO	-13.2528
▁Occupation	-13.253
undertaking	-13.253
▁slaughterings	-13.2534
▁irradiated	-13.2536
▁JAA	-13.2538
▁metre	-13.2539
▁RAPE	-13.2547
▁hundred	-13.2554
▁IMPORTE	-13.2554
insl	-13.2562
▁rents	-13.2564
Whereas	-13.2565
▁PROFIT	-13.2575
LIH	-13.2577
▁tel	-13.2581
urban	-13.2582
importation	-13.2583
▁HIGH	-13.2584
high	-13.2592
bearing	-13.2595
tending	-13.2599
▁disciplines	-13.2599
▁sciences	-13.2603
▁fur	-13.2603
▁MFIs	-13.2604
tier	-13.2606
analysis	-13.2609
distance	-13.2611
▁preferred	-13.2612
▁hl	-13.2613
▁DESIGN	-13.2615
▁nitrates	-13.2616
▁TABLE	-13.2618
underselling	-13.2619
▁NOx	-13.2624
▁Notices	-13.2629
come	-13.263
▁upkeep	-13.2634
▁cement	-13.2635
executive	-13.264
za	-13.2641
index	-13.2645
▁reads	-13.2645
▁Gross	-13.2647
sales	-13.2647
▁Genetic	-13.2649
▁Mo	-13.265
▁underpin	-13.265
▁Revis	-13.2662
DOM	-13.2664
nsular	-13.2669
lower	-13.2679
eadily	-13.2683
▁ESTABLISHE	-13.2684
ide	-13.2688
▁Controls	-13.2696
▁..........	-13.2701
▁agreeing	-13.2702
▁PUT	-13.2706
dequate	-13.2707
rosis	-13.2711
assemblies	-13.2712
weapon	-13.2717
▁simplifications	-13.2717
cups	-13.2719
▁Design	-13.272
HALF	-13.2725
▁rapporteurs	-13.273
▁tip	-13.2737
▁mentions	-13.2738
ADI	-13.274
op	-13.2742
saving	-13.2745
whole	-13.2747
provisional	-13.2749
▁exits	-13.2753
ener	-13.2754
ssp	-13.2758
▁hen	-13.2761
▁booklet	-13.2761
anti	-13.2765
▁impediment	-13.2765
▁parameter	-13.2766
▁onions	-13.2771
▁deferral	-13.2771
▁push	-13.278
EP	-13.2782
▁accompanie	-13.2782
▁descripti	-13.2785
▁procure	-13.2786
▁DEROGATION	-13.279
▁Myanmar	-13.279
▁TEMPORAR	-13.2791
▁BUDGET	-13.2791
▁Barbados	-13.2791
▁COLUMN	-13.2791
▁DANGER	-13.2791
▁Gyproc	-13.2791
▁VETERINARIAN	-13.2791
▁falsified	-13.2791
▁newsprint	-13.2791
▁precarious	-13.2791
▁fluoride	-13.2791
▁Powergen	-13.2791
▁PREFERENCES	-13.2791
▁objectivity	-13.2791
▁overnight	-13.2791
▁Planning	-13.2792
▁illustrative	-13.2792
▁weaknesses	-13.2792
▁Assurance	-13.2792
▁disguised	-13.2792
▁disbursed	-13.2792
▁CHECKS	-13.2792
▁retransmission	-13.2793
▁characterized	-13.2794
soever	-13.2794
▁erased	-13.2794
▁ostreae	-13.2794
▁advising	-13.2797
▁entitl	-13.2799
▁prawns	-13.2799
▁roadside	-13.28
sche	-13.28
▁elaborated	-13.2801
▁PARTICULARS	-13.2801
To	-13.2801
▁Potato	-13.2802
▁jet	-13.2804
▁quel	-13.2804
▁silver	-13.2804
▁appellant	-13.2805
▁evisceration	-13.2805
▁teleshopping	-13.2805
▁indemnit	-13.2806
OMIC	-13.2806
▁compliant	-13.2806
▁Field	-13.2807
▁AREA	-13.2809
▁chance	-13.2809
▁boat	-13.281
medical	-13.2812
▁Soci	-13.2813
▁coverings	-13.2813
▁abridge	-13.2814
▁steers	-13.2815
unity	-13.2815
▁commissioned	-13.2815
▁empty	-13.2815
▁globally	-13.2817
▁transposed	-13.2818
▁toxins	-13.2818
▁ELISA	-13.2819
▁Infrastructure	-13.282
▁DRAM	-13.2822
▁PAH	-13.2825
mile	-13.2826
▁malting	-13.2826
▁relie	-13.2831
▁spill	-13.2833
▁Manises	-13.2834
triangular	-13.2834
▁Television	-13.2835
▁Independent	-13.2835
▁INSURANCE	-13.2835
).`	-13.2839
▁capitals	-13.2839
AM	-13.2843
▁cyclical	-13.2845
▁Geographical	-13.2847
▁Blood	-13.2848
▁Confidential	-13.2849
DONE	-13.2849
▁edges	-13.2849
▁substitutable	-13.2849
▁Par	-13.2851
▁ascertaining	-13.2851
▁trustee	-13.2853
▁attempts	-13.2853
▁bean	-13.2854
▁SUBSE	-13.2854
▁occasioned	-13.2859
ENT	-13.2859
▁evolving	-13.286
▁breached	-13.286
▁tailor	-13.2868
▁organically	-13.2868
▁halons	-13.2868
▁orphans	-13.2869
comes	-13.2873
ONP	-13.2881
▁indexed	-13.2884
imposition	-13.2888
more	-13.2889
▁bi	-13.2891
containing	-13.2896
▁JUN	-13.2897
osis	-13.2898
▁SINGL	-13.2905
transaction	-13.2905
▁neck	-13.2913
▁discounted	-13.2919
▁perfect	-13.2924
Safety	-13.2926
▁crews	-13.2931
▁Directory	-13.2932
agriculture	-13.2932
mg	-13.2941
▁definite	-13.295
utilisation	-13.2951
tical	-13.2951
▁rolls	-13.2961
▁POST	-13.2962
htt	-13.2965
▁GNSS	-13.2967
▁eviscerated	-13.2969
▁medicat	-13.2971
ie	-13.2978
▁HER	-13.2983
▁amicabl	-13.299
working	-13.2994
▁Jos	-13.2994
ors	-13.2996
▁wear	-13.3
SCH	-13.3005
▁sur	-13.3006
▁VIa	-13.3008
)'.	-13.3019
Maintenance	-13.302
trailer	-13.302
▁Ground	-13.3033
▁Deutsche	-13.3037
▁irrigated	-13.3042
▁res	-13.3051
▁Per	-13.3052
▁CPA	-13.3054
▁halt	-13.3059
▁Na	-13.3074
[...]
