▁	616564
▁de	616091
-	478586
s	438147
▁van	249949
▁het	216576
1	206173
0	205275
▁De	189658
2	167665
en	112599
e	104703
▁-	96185
3	88493
▁en	84119
▁Hotel	84014
'	83854
▁"	80354
▁(	79210
▁Het	77950
4	77618
5	76619
9	68305
8	59730
6	56702
’	54320
▁)	52752
7	52367
/	51354
▁in	50276
▁voor	48668
t	47700
er	45505
a	45503
▁een	44717
▁of	41422
▁'	39312
▁The	36221
▁A	36067
o	33080
i	30038
▁“	29450
▁B	29013
n	28365
de	27744
▁S	27636
y	27390
▁:	26409
ing	24456
d	24331
▁‘	22760
S	22252
▁op	21498
▁Van	21098
▁/	21000
▁hotel	20919
▁and	19402
▁La	18596
▁V	18528
▁E	18208
▁the	18085
▁T	17878
▁M	17821
▁In	17029
in	16999
▁C	16932
▁I	16822
▁China	16048
▁D	16020
”	15740
▁Museum	15358
▁met	15316
▁G	15176
▁K	14726
▁–	14544
A	14514
▁Park	14464
▁P	14402
D	14169
▁L	13607
▁F	13406
▁St	13360
es	13329
▁International	13299
▁is	13088
▁Co	12940
on	12692
z	12549
us	12499
▁O	12319
▁Al	12228
▁dollar	12215
▁H	12057
man	12042
se	11943
▁_	11852
▁R	11834
k	11811
▁aan	11599
r	11586
al	11390
▁Center	11389
▁for	11381
an	11294
▁Universiteit	11028
▁J	10938
▁N	10890
ed	10889
:	10793
ia	10733
▁’	10659
m	10631
▁Deze	10542
K	10371
le	10327
▁Club	10318
na	10318
▁Le	10284
u	10280
▁U	10233
▁Amsterdam	10190
▁d	10172
l	10115
te	10104
C	10034
B	10011
▁Europese	9963
▁World	9486
▁Een	9373
el	9220
▁San	9203
x	9195
ers	9157
E	9150
T	9096
▁New	8989
▁W	8973
▁Group	8940
▁bij	8903
▁National	8881
ie	8829
G	8828
▁Pro	8769
▁”	8726
h	8724
co	8719
c	8715
▁X	8578
f	8504
▁Ltd	8492
▁der	8484
▁Zuid	8389
▁Bed	8335
is	8088
▁Beach	8064
▁School	8063
▁City	8052
▁p	7987
▁Bar	7970
V	7966
▁Festival	7924
▁El	7899
▁Home	7854
▁la	7839
b	7810
straat	7602
land	7599
F	7559
▁©	7507
▁House	7505
▁ge	7497
▁Ge	7464
▁Raad	7368
P	7314
je	7310
▁Ver	7297
da	7237
▁Centre	7225
▁naar	7186
▁Centrum	7135
▁Op	7115
▁over	7026
la	7008
▁Internationale	6998
▁Verenigde	6973
▁a	6957
▁Z	6939
▁Villa	6934
)	6860
M	6839
ra	6787
▁sterren	6749
ma	6747
▁uit	6725
▁Amerikaanse	6666
ge	6647
ta	6587
▁Machine	6563
▁West	6556
▁Grand	6541
▁ver	6498
▁Jan	6495
den	6488
▁Resort	6475
▁Award	6467
▁Met	6465
▁deze	6463
▁Management	6455
▁Sint	6379
▁Saint	6377
▁Inn	6365
▁Business	6342
▁Nationale	6317
▁te	6280
ka	6268
▁Nederland	6257
®	6249
▁Stichting	6224
▁University	6222
W	6185
g	6130
▁Association	6117
et	6112
re	6026
ne	6026
N	6009
▁Art	5983
▁al	5950
X	5945
▁Breakfast	5944
ton	5938
R	5875
▁Service	5829
▁Restaurant	5805
▁du	5794
▁Noord	5781
to	5767
▁Water	5765
sterren	5764
▁Europa	5763
ke	5744
▁ligt	5740
▁II	5722
▁Be	5716
p	5701
programma	5696
Z	5683
▁be	5654
▁Grote	5652
▁Man	5648
▁Hostel	5644
▁Spa	5637
▁Institute	5617
th	5616
ar	5599
▁luchthaven	5586
ten	5548
H	5523
▁Foundation	5488
▁door	5488
▁Nederlandse	5484
▁Royal	5451
▁centrum	5420
systeem	5402
▁Air	5399
▁En	5397
ver	5393
(	5370
▁on	5346
▁Mar	5345
um	5315
▁Auto	5278
▁biedt	5254
▁Open	5222
or	5154
v	5147
_	5129
ische	5102
▁No	5071
son	5068
j	5053
L	5043
▁Instituut	5039
▁Bank	4987
st	4978
▁to	4950
▁Super	4941
be	4938
rivacyverklaring	4937
ste	4917
▁Appartement	4902
▁je	4900
▁John	4887
▁Euro	4881
▁Bekijk	4866
os	4863
▁del	4859
▁Nieuwe	4847
▁Huis	4846
▁Staten	4843
▁com	4842
▁Na	4827
▁US	4825
]	4819
huis	4812
▁Re	4811
De	4806
O	4766
ro	4716
▁Sport	4710
centrum	4649
▁Commissie	4647
▁Design	4637
▁Wereld	4594
ly	4592
ja	4561
▁Dit	4543
▁Black	4522
▁[	4520
▁Groep	4496
▁Green	4494
▁Tour	4485
▁Maria	4475
▁Global	4474
▁zijn	4468
▁Alle	4439
▁Pond	4435
▁die	4426
go	4414
no	4399
▁European	4376
▁stad	4368
▁Project	4365
▁®	4355
▁Company	4324
▁Europees	4322
▁Street	4317
▁Airport	4314
▁Luchthaven	4306
ve	4304
▁Golf	4297
▁Team	4278
▁accommodatie	4273
▁Power	4268
ch	4263
▁On	4241
▁kamers	4239
▁Live	4235
▁bar	4214
▁Car	4208
▁Nationaal	4199
▁l	4196
▁Go	4176
▁Research	4173
park	4164
▁wereld	4163
il	4154
▁My	4142
ter	4119
▁Top	4119
▁Nederlands	4119
▁om	4117
▁Society	4107
▁Jean	4098
ig	4097
J	4094
▁Onze	4082
▁v	4072
▁Blue	4071
é	4070
ca	4068
w	4045
▁ministerie	4015
▁Mac	4012
ry	3992
▁Er	3983
ko	3976
serie	3958
▁American	3956
▁Me	3955
▁Best	3941
der	3935
▁Voor	3935
op	3932
li	3910
ni	3907
▁Gasten	3895
weg	3894
▁College	3893
▁Brussel	3892
▁Star	3871
berg	3868
▁An	3867
▁All	3856
ster	3836
ic	3833
▁Rotterdam	3828
ine	3826
▁York	3812
sch	3808
as	3802
ya	3801
ur	3772
▁Vereniging	3763
ina	3762
▁Station	3759
ga	3745
TM	3742
▁internationale	3739
mo	3726
ner	3713
▁Red	3712
▁Den	3707
▁onze	3662
▁Peter	3660
▁Bay	3653
▁di	3649
gen	3647
▁Mini	3636
▁Google	3636
▁België	3634
▁One	3633
ken	3627
▁Kerk	3604
▁Studio	3596
▁Nieuw	3584
ion	3582
▁Casa	3579
▁>	3570
do	3561
▁Barcelona	3559
▁rivier	3555
sa	3549
groep	3540
▁Cup	3540
▁Film	3536
▁Media	3532
▁Les	3526
▁And	3523
ri	3516
▁Zee	3512
▁Office	3483
▁Koninkrijk	3470
▁tot	3468
▁Smart	3467
▁We	3443
ov	3441
▁Academy	3437
▁Paul	3432
▁+	3421
machine	3418
...	3413
▁Plaza	3412
em	3411
▁Y	3404
▁Q	3402
▁System	3399
▁i	3393
▁Oost	3371
▁Services	3369
▁Santa	3366
▁Health	3348
▁Kunst	3335
▁Londen	3328
▁Over	3328
▁Music	3327
▁Love	3318
▁Master	3313
ende	3310
▁Road	3304
▁DE	3299
ul	3297
▁Suites	3288
at	3274
▁als	3274
me	3257
▁Ben	3246
ce	3246
▁Chinese	3238
per	3233
▁Mo	3219
ley	3217
▁Life	3214
▁Windows	3201
▁Land	3192
▁David	3190
▁metrostation	3184
up	3178
▁Ministerie	3168
▁Post	3164
▁Theater	3159
▁Unie	3126
▁To	3117
mar	3108
van	3107
ak	3100
▁Sea	3094
▁Republiek	3093
▁km	3079
▁Comité	3079
▁Food	3070
▁Mi	3066
▁Suite	3057
▁Garden	3055
▁nieuwe	3054
▁heeft	3053
▁Science	3049
▁Licht	3036
di	3034
▁You	3028
▁Awards	3022
▁Dag	3021
▁TM	3020
I	3019
lo	3016
▁Technology	3016
▁Camping	3011
▁»	3006
ian	3005
▁niet	3003
▁Data	2998
▁Bureau	2982
▁dit	2978
lin	2963
▁Du	2954
▁App	2937
▁Online	2935
▁Mijn	2934
▁TV	2921
▁Franse	2918
ler	2918
▁jaar	2915
▁Holiday	2911
Q	2895
ti	2892
bar	2876
tel	2872
▁Day	2867
am	2866
ling	2859
▁Video	2858
▁Big	2854
▁Academie	2850
▁Bij	2850
▁Parijs	2848
plein	2846
▁Heilige	2845
ha	2844
▁Her	2843
▁God	2842
▁bedrijf	2840
▁Sun	2836
ard	2835
▁Network	2823
+	2819
ze	2817
isch	2811
hotel	2804
▁Duitse	2795
jes	2790
it	2787
▁Inter	2785
▁Express	2778
wa	2775
▁huis	2774
▁Is	2765
▁North	2764
▁Port	2763
▁b	2763
ven	2758
ik	2757
▁Casino	2755
io	2752
prijs	2751
eren	2750
za	2744
ger	2744
▁White	2740
▁Kamer	2737
▁Radio	2731
▁universiteit	2731
▁Development	2728
app	2721
ist	2717
▁uw	2716
▁regio	2716
va	2714
team	2713
▁gelegen	2709
line	2706
▁nationale	2696
▁Meer	2692
▁kerk	2692
atie	2686
▁Centraal	2681
▁Antwerpen	2672
▁Koninklijke	2671
men	2671
museum	2667
laan	2666
▁Te	2664
▁Ga	2653
▁Max	2652
jo	2643
▁Bio	2641
ba	2638
▁ons	2638
▁Europe	2636
▁King	2636
ki	2628
▁Algemene	2627
▁Val	2627
▁Martin	2625
▁Sol	2623
▁Je	2622
ir	2619
▁Don	2614
▁Nieuws	2614
▁Show	2614
▁State	2613
▁k	2611
ana	2602
dag	2599
chi	2599
▁Dr	2598
ol	2593
pa	2586
▁Motor	2582
▁Real	2580
▁HD	2575
▁Software	2575
▁Robert	2574
project	2574
▁Verenigd	2569
ville	2568
au	2567
bo	2564
▁Di	2562
▁Slag	2560
▁boek	2550
▁Can	2550
tje	2548
▁Witte	2545
▁Gold	2535
ny	2534
▁onder	2528
▁Li	2528
▁Zaken	2526
que	2522
▁den	2514
▁provincie	2512
▁War	2512
▁Rock	2511
ige	2510
▁Hall	2509
▁u	2508
▁Brussels	2505
▁EU	2504
▁nl	2503
▁So	2501
▁Forum	2495
▁strand	2495
▁Nu	2492
mi	2491
▁Plus	2491
▁Internationaal	2486
▁Boek	2486
U	2483
con	2482
▁Place	2476
▁Copyright	2474
▁High	2473
ty	2473
hof	2469
id	2468
pen	2464
▁Beste	2460
mann	2460
▁Con	2458
▁dat	2457
▁Foto	2457
▁Oude	2456
▁Game	2455
end	2449
▁Cloud	2449
▁For	2447
▁Hof	2447
▁meer	2446
▁Costa	2439
ji	2434
▁Michael	2433
he	2429
▁„	2429
▁Central	2427
ad	2427
zen	2424
▁kroon	2424
▁sterling	2422
▁Arts	2422
ant	2416
▁Belgische	2415
▁Stad	2413
ck	2412
▁Board	2396
▁BV	2393
ier	2392
▁Groot	2391
▁George	2386
▁Aan	2385
un	2385
▁James	2384
▁Gent	2377
▁III	2376
▁GBP	2375
▁Thomas	2373
eerde	2372
▁Los	2371
▁South	2358
▁Web	2358
age	2351
ings	2348
▁park	2347
▁Russische	2344
▁Time	2344
ci	2342
▁Holland	2340
▁afdeling	2337
▁AUD	2335
ek	2335
ment	2328
▁Britse	2321
▁staat	2319
ham	2311
▁koning	2310
▁River	2308
▁Ma	2307
▁eiland	2302
▁Utrecht	2300
▁Mont	2299
▁Village	2290
▁Jo	2289
▁Apartments	2286
▁Eerste	2285
pe	2285
▁Golden	2283
▁NL	2282
▁Partij	2280
▁Hans	2277
▁League	2277
ah	2267
▁minuten	2265
▁Frankrijk	2264
▁Prijs	2263
▁Gouden	2263
▁Free	2261
▁Da	2261
▁Ka	2259
aan	2254
werk	2253
▁Palace	2251
▁Midden	2250
▁By	2249
▁et	2248
▁Ze	2248
▁Men	2248
by	2247
▁Dutch	2246
po	2242
▁Ha	2241
▁Pre	2233
▁Island	2233
▁Ar	2232
ber	2231
▁Pan	2227
▁Light	2226
▁Inc	2226
▁Marine	2226
▁restaurant	2223
▁auto	2219
▁x	2216
ung	2215
▁Control	2212
▁Metro	2211
▁Frans	2210
af	2208
si	2208
che	2205
▁appartement	2203
▁Rode	2198
▁water	2196
heid	2195
▁Ko	2195
▁eerste	2191
net	2188
▁Die	2184
▁gratis	2184
▁foto	2182
▁kasteel	2180
Y	2179
sel	2178
▁Guest	2176
▁af	2175
▁Per	2167
▁Der	2164
▁Marie	2164
mer	2161
▁Paris	2159
ho	2159
▁beste	2158
ac	2156
▁Boutique	2155
▁Collection	2154
▁Lake	2154
▁It	2150
▁Tom	2149
▁Chi	2146
▁Anti	2139
▁Willem	2135
im	2135
▁Hi	2135
ski	2134
▁Berg	2133
▁Ho	2131
▁Multi	2126
ou	2125
les	2122
▁Canadese	2121
▁Herberg	2121
▁Model	2120
▁Australische	2119
▁VS	2118
▁Website	2116
len	2116
▁re	2115
air	2110
▁CAD	2109
▁London	2106
school	2106
▁Micro	2102
▁Jaar	2096
▁Ad	2095
▁museum	2093
▁Mark	2091
▁Hij	2089
▁Space	2085
▁Oorlog	2084
▁wijk	2084
▁Marketing	2075
tor	2074
▁regering	2073
stad	2071
▁Eco	2067
▁Facebook	2062
▁Square	2061
lijn	2061
▁Mer	2060
▁Koning	2060
▁machine	2059
▁Of	2058
▁Tweede	2058
bedrijf	2054
▁Card	2052
cha	2052
▁Via	2051
▁da	2046
▁Po	2043
kaart	2038
▁Security	2035
▁Band	2035
▁Tri	2034
▁Energy	2032
ang	2031
▁Sky	2030
▁Bel	2029
▁Aruba	2028
▁Zwarte	2028
ren	2027
▁Systeem	2023
▁werd	2023
▁dag	2022
▁Haag	2020
▁Anne	2019
ale	2018
▁Platform	2016
▁Las	2011
▁Duitsland	2009
▁Product	2007
▁Council	1998
▁Classic	1997
kerk	1993
▁Opera	1993
▁Energie	1990
val	1984
▁hoofd	1983
In	1983
▁Baby	1982
▁wordt	1981
▁Christus	1980
▁Apartment	1979
▁Ca	1974
cho	1972
▁Sa	1971
▁Door	1969
▁Ten	1966
▁Digital	1965
▁website	1964
▁United	1963
isme	1961
▁Women	1961
▁Zo	1961
▁Muziek	1959
ica	1959
í	1958
▁Rose	1956
gebied	1956
▁Gratis	1954
▁Union	1954
▁Microsoft	1953
▁Store	1953
▁Am	1952
ker	1952
mon	1951
▁afstand	1950
bank	1949
▁film	1949
­	1943
▁KRW	1942
▁won	1942
▁Ter	1939
▁Wit	1938
ation	1938
gel	1936
▁Ja	1935
markt	1929
▁programma	1929
▁binnen	1924
▁Contact	1923
service	1922
▁Spaanse	1921
▁East	1918
▁Sam	1918
▁Dan	1917
▁Winter	1915
ron	1914
▁zee	1912
technologie	1911
▁Monte	1909
ino	1909
▁Organisatie	1908
▁Zwitserse	1906
▁na	1904
▁Hill	1904
▁Aqua	1903
▁Bad	1902
▁Android	1901
tra	1899
han	1899
▁Room	1898
▁Or	1896
▁Jezus	1891
▁berg	1889
▁WiFi	1888
▁Conferentie	1886
▁At	1886
▁Charles	1883
ano	1882
q	1882
▁Apple	1882
▁Fort	1882
▁g	1878
festival	1878
dy	1876
sche	1872
▁Night	1870
▁Box	1870
tal	1870
▁Conference	1866
▁Hot	1866
▁CO	1863
▁leven	1863
▁Aparthotel	1861
ó	1860
ius	1860
▁Cap	1859
▁EUR	1859
▁mijn	1858
▁oorlog	1858
▁Long	1857
▁Gallery	1857
▁Hilton	1854
ix	1852
raad	1851
▁As	1850
▁co	1849
▁Marina	1848
ert	1847
the	1844
▁Manager	1840
▁Human	1839
▁do	1838
meer	1836
club	1835
▁by	1835
▁Frank	1834
ara	1833
▁Program	1833
▁Zijn	1832
▁Spanje	1831
of	1831
let	1828
▁Wat	1827
▁Su	1825
▁grote	1825
▁Theatre	1824
▁Expo	1819
▁school	1816
▁Onderwijs	1815
com	1815
▁Sch	1814
▁Bridge	1810
zo	1810
▁Line	1810
dienst	1810
▁Bal	1809
▁frank	1808
aat	1808
station	1805
ië	1805
ij	1804
▁Federatie	1803
▁Wij	1802
nen	1801
▁Games	1800
uit	1800
car	1799
▁Jazz	1796
▁Anna	1795
▁Informatie	1794
▁Playa	1794
▁Ook	1793
ach	1792
zi	1788
producten	1787
▁Bus	1786
eerd	1784
>	1783
▁Trade	1782
hal	1782
▁Luxe	1780
▁station	1780
▁Louis	1779
▁Western	1778
vo	1775
▁Do	1773
▁Washington	1769
▁Fair	1768
▁Dienst	1767
systemen	1767
▁Mobile	1766
▁Arabische	1766
dam	1765
▁Om	1764
▁Ni	1762
▁Babe	1761
▁USB	1761
▁m	1758
▁Lu	1757
▁Net	1757
▁Albert	1755
▁Challenge	1754
▁Fonds	1752
ring	1750
bel	1749
▁werk	1749
▁Programma	1747
▁Lees	1746
bus	1743
min	1742
▁Ocean	1741
▁Sant	1740
▁Turkse	1739
water	1738
elijk	1737
▁Hart	1736
▁weg	1735
▁was	1734
▁Uit	1733
▁groep	1732
▁sport	1731
▁·	1730
▁Tower	1728
▁Zwart	1726
▁LED	1725
▁Brand	1725
▁PCB	1723
▁haar	1723
bare	1723
▁Kasteel	1721
▁Del	1721
▁Mor	1718
▁Elektrische	1714
sk	1712
▁Lo	1712
▁Bos	1712
EN	1712
▁Baan	1709
▁Strand	1708
▁Alexander	1707
ini	1705
▁Cafe	1705
▁Shanghai	1699
Re	1698
▁Journal	1698
▁VN	1697
▁Transport	1696
▁Café	1696
▁District	1695
aire	1694
▁Ons	1692
ep	1689
▁gebied	1689
▁Italiaanse	1687
▁Naties	1686
gi	1686
▁leger	1682
▁festival	1681
▁www	1681
▁Corporation	1681
▁Young	1680
ette	1679
▁Bo	1678
La	1678
commissie	1677
stra	1677
so	1675
Koreaanse	1675
▁Hoge	1674
mans	1673
▁Training	1673
band	1670
▁AC	1669
nes	1666
veld	1664
▁Play	1664
▁hotels	1662
▁Japan	1661
▁Force	1661
▁«	1661
▁Cultuur	1660
set	1660
▁Centrale	1659
▁Wild	1659
▁Onderzoek	1658
▁Old	1652
▁—	1650
▁Engineering	1648
▁Fund	1645
▁le	1645
▁Deluxe	1645
▁Camp	1644
test	1642
▁net	1641
bre	1641
ita	1638
▁Tor	1636
▁Netwerk	1630
▁Groene	1630
▁Key	1630
▁Amerika	1629
▁Cam	1628
▁Johannes	1628
▁Trans	1628
▁William	1628
▁staal	1628
▁Ba	1627
▁Ik	1626
▁Kar	1625
▁Special	1625
▁Avenue	1624
▁Han	1623
bu	1622
▁conferentie	1622
▁Up	1621
▁Innovation	1619
▁zich	1618
uk	1618
▁FC	1617
isten	1616
out	1615
▁Sha	1615
lan	1615
▁muziek	1615
Al	1615
kin	1613
▁France	1613
▁Gran	1612
▁informatie	1611
▁Shenzhen	1610
ity	1610
fer	1610
▁Un	1608
▁Diensten	1605
bouw	1604
▁Shop	1603
▁Cat	1603
▁€	1601
▁video	1600
▁DC	1598
▁PC	1598
▁Danish	1597
▁alle	1597
▁Richard	1594
ran	1593
fa	1592
▁bewerken	1592
▁Geest	1591
du	1590
zer	1590
▁Ring	1589
▁America	1589
▁krone	1588
▁Studies	1588
▁Travel	1587
▁GmbH	1586
▁Drive	1586
▁Plan	1584
▁Kunsten	1584
om	1584
ella	1583
ingen	1579
▁project	1579
▁nummer	1578
▁Internet	1577
kan	1576
▁overleden	1576
▁Mary	1575
▁Site	1575
▁ik	1574
▁Ibis	1571
ting	1570
ies	1569
▁Lab	1568
▁Producten	1568
▁Book	1568
burg	1567
▁prijs	1567
▁Lucht	1567
platform	1566
▁Af	1562
▁fabrikanten	1562
▁man	1562
ex	1561
▁IT	1560
▁team	1559
don	1558
▁Markt	1558
▁Canada	1556
▁Great	1556
▁Dar	1556
▁Bor	1554
▁Dubai	1554
ans	1554
▁NV	1553
▁Tu	1553
▁kunst	1553
▁Cha	1552
one	1550
▁HKD	1549
▁Residence	1548
▁Rio	1548
fabriek	1548
▁Wall	1548
▁Milieu	1547
▁Victoria	1545
▁Pierre	1545
▁Pen	1545
▁tijd	1544
▁Social	1543
▁partij	1543
field	1542
▁Medical	1541
▁anti	1540
▁pro	1539
gan	1538
▁Il	1537
▁Jack	1536
hu	1536
▁Market	1535
▁Department	1535
▁Series	1534
fi	1533
bra	1532
boek	1532
▁Standaard	1532
▁Berlin	1531
▁c	1531
▁India	1531
▁Kom	1531
▁Moeder	1530
▁Pop	1530
▁nu	1529
ef	1528
▁Technologie	1528
ele	1528
ai	1524
▁Wi	1522
▁Church	1522
▁kan	1522
▁Bloemen	1522
▁Berlijn	1522
▁CHF	1521
sky	1519
mp	1518
▁gemeente	1518
▁Mai	1518
▁Economische	1517
gebouw	1517
▁Rooms	1517
brug	1516
wood	1516
box	1515
▁Rome	1514
dal	1513
▁Arena	1513
▁Pass	1513
▁VAN	1512
conferentie	1511
▁Tuin	1511
▁Prins	1510
▁Hospital	1509
▁Win	1509
ong	1508
tech	1506
ola	1506
over	1503
ray	1502
cy	1501
▁Grill	1499
▁Prix	1499
▁Familie	1499
▁Test	1497
▁von	1495
▁Mas	1494
▁Ski	1494
▁Hongkongse	1492
▁Sports	1492
▁Har	1492
art	1492
ator	1491
▁Systems	1490
▁Joseph	1489
▁Support	1489
▁Solutions	1488
▁Oud	1488
aar	1488
way	1488
lu	1487
▁Week	1487
ram	1486
▁chat	1485
aal	1485
▁Appartementen	1485
elijke	1484
▁Olympische	1484
ijn	1483
res	1482
vi	1481
▁Gas	1479
▁Leger	1477
▁Plastic	1477
▁Se	1477
▁Mal	1476
diensten	1475
▁Hoe	1475
▁Afrika	1475
▁Kabel	1472
kamer	1472
▁Hendrik	1472
▁rechten	1472
ford	1471
▁Party	1470
vin	1470
kabel	1469
▁gasten	1469
bi	1469
▁HOTEL	1468
▁club	1466
rs	1466
ada	1466
▁View	1464
▁ben	1464
▁NOK	1463
▁Lounge	1462
if	1461
▁treinstation	1461
▁fabriek	1458
▁•	1458
▁Ce	1457
▁Family	1456
▁USD	1455
▁oude	1453
▁Bert	1453
▁Dream	1452
less	1451
spel	1451
bureau	1450
ud	1448
▁tegen	1448
ding	1448
▁Fashion	1447
tijd	1446
plan	1446
▁Enterprise	1445
▁Public	1445
▁Koninklijk	1445
▁Onder	1442
▁Yu	1442
▁Werk	1442
▁Australië	1442
▁Jong	1441
▁at	1440
▁Ontwikkeling	1439
▁haven	1439
ut	1438
ien	1438
▁Hoofd	1438
▁Haven	1436
rol	1436
▁yen	1435
bal	1434
▁Zoon	1434
▁Alliance	1432
▁Lee	1431
▁Event	1429
beheer	1428
▁Nord	1427
▁Congres	1427
▁Good	1427
lon	1427
ika	1426
enberg	1426
▁News	1426
▁Paleis	1426
–	1425
yn	1424
▁Eindhoven	1424
motor	1424
▁Committee	1422
▁Mr	1422
▁Download	1421
▁Liefde	1421
▁Fire	1421
▁Executive	1420
▁Your	1420
Pro	1420
▁Little	1420
▁Unit	1418
▁Simon	1416
á	1415
dijk	1415
est	1415
▁DKK	1414
house	1414
▁with	1414
▁Wind	1414
▁JPY	1412
▁Marc	1408
▁Lodge	1407
▁Spelen	1404
▁Edition	1402
▁ter	1402
▁Queen	1398
▁Rue	1397
▁Maastricht	1397
▁info	1397
▁Par	1396
ft	1395
▁camping	1395
▁Dom	1394
▁Aluminium	1393
▁Brugge	1390
▁Dam	1390
▁Hong	1390
tre	1389
▁CNC	1389
▁familie	1389
ary	1389
istische	1388
▁Valley	1388
het	1384
ari	1384
▁Ber	1384
▁Hôtel	1384
▁Hand	1382
▁Back	1379
▁Mat	1378
ova	1374
ros	1374
▁Kinder	1374
▁Ya	1373
▁Pa	1373
ey	1373
een	1372
har	1372
▁systeem	1370
▁Premium	1370
▁Vlaamse	1369
tie	1369
hi	1368
▁Hier	1368
▁Sociale	1368
▁Cross	1368
▁Daniel	1368
▁con	1366
eer	1366
▁Ro	1363
link	1361
▁Court	1360
Ver	1359
shi	1359
tas	1359
▁Fu	1358
▁Law	1355
▁Valk	1355
▁Tech	1354
▁lucht	1353
▁Ali	1353
▁Als	1353
▁Route	1352
ium	1351
▁Palm	1350
port	1350
kamp	1348
eert	1348
▁Uw	1346
▁Yoga	1345
▁Kruis	1345
and	1343
▁Azië	1343
▁her	1342
▁IV	1342
▁Delta	1342
ive	1341
▁land	1340
ish	1339
CO	1338
software	1337
ula	1336
film	1336
▁Silver	1335
top	1334
▁Ex	1334
ologie	1334
▁Ger	1333
tische	1332
▁Times	1332
▁Blu	1332
▁Memorial	1331
▁Solar	1330
▁Technische	1328
▁Vlaanderen	1328
▁service	1326
▁Kan	1326
Be	1326
pi	1325
▁Belgium	1325
▁Communicatie	1325
▁People	1324
▁Natuur	1322
▁Vrouwen	1322
▁bestuur	1322
▁Kleine	1320
▁Summer	1320
lijst	1319
▁Bur	1319
▁Agency	1318
▁Johan	1318
▁CD	1318
▁Bon	1318
▁f	1318
▁Out	1316
▁deel	1315
▁opende	1315
▁Education	1315
▁Staal	1314
▁CNY	1314
▁iPhone	1313
▁gebruik	1313
▁Bosch	1313
▁SS	1313
▁UK	1312
▁Wereldoorlog	1312
▁Experience	1310
▁Community	1310
yl	1310
▁Mode	1309
"	1309
▁Ban	1309
TV	1309
san	1308
▁Run	1308
▁Mountain	1307
▁Bouw	1307
▁Factory	1307
vis	1307
▁ontwikkeling	1306
ez	1306
▁]	1305
stein	1305
▁Leven	1304
▁Moskou	1304
▁Laser	1303
kel	1303
▁Castle	1302
▁vrouwen	1301
▁EN	1301
▁Exchange	1301
ure	1301
▁Limited	1301
▁Aarde	1300
▁Christian	1300
IT	1300
▁Hal	1298
▁ex	1297
▁Maison	1297
netwerk	1295
▁Mc	1295
▁With	1295
▁Championship	1294
▁online	1292
▁Chicago	1291
▁Commission	1290
▁Haar	1290
▁top	1287
▁Orde	1287
▁Press	1286
▁Junior	1285
▁Shi	1283
ska	1283
▁Care	1282
ney	1282
ura	1281
▁Children	1279
▁gebouw	1279
▁Bell	1279
▁Heart	1276
▁Urban	1275
del	1275
▁Tempel	1273
▁Ur	1272
kampioenschap	1271
▁Motel	1270
era	1269
▁Japanese	1268
jan	1266
▁Mu	1266
▁Steel	1266
▁Groen	1266
▁Hogeschool	1265
▁Rusland	1265
punt	1263
lie	1263
▁me	1263
▁Jeugd	1260
▁Information	1260
recht	1260
▁Pi	1260
▁Tijd	1258
▁yuan	1256
▁British	1254
▁kabel	1254
Le	1254
▁Ju	1254
▁Sar	1254
toren	1253
ku	1252
▁Race	1251
▁Cala	1251
▁Digitale	1251
▁Industrie	1250
▁Set	1250
pro	1247
▁ook	1247
▁Sub	1247
▁Let	1247
▁Netherlands	1246
▁Parlement	1245
“	1244
Or	1244
à	1244
▁Leuven	1244
ev	1243
▁Mad	1243
▁Mars	1242
▁Si	1242
▁County	1242
▁producten	1241
iaanse	1241
▁Magazine	1241
▁heilige	1240
mel	1240
ani	1240
▁Florence	1238
gar	1238
Amerika	1236
▁Galaxy	1236
▁Gelegen	1236
wijk	1236
▁Building	1235
▁ont	1235
materiaal	1235
ot	1235
▁Zweedse	1234
baar	1233
▁Olie	1233
▁raad	1231
▁villa	1231
beleid	1229
dor	1228
▁Heren	1228
▁Far	1227
▁versie	1226
▁Kit	1226
▁Pension	1226
▁Country	1226
ll	1226
▁Leiden	1225
ria	1225
▁Main	1225
able	1224
▁Ford	1222
▁Trail	1222
▁Diamond	1222
fe	1220
▁leveranciers	1220
▁Bi	1220
▁Disney	1219
Co	1219
Fi	1218
▁Rijk	1217
▁we	1217
ju	1216
well	1215
▁Privacy	1215
▁Area	1214
▁Sound	1213
▁Guide	1213
heden	1213
▁buurt	1212
rin	1211
▁Samsung	1210
▁Sal	1210
elle	1209
side	1209
▁Apart	1209
hout	1208
▁Klik	1207
▁Gemeenschap	1207
schap	1207
tjes	1207
▁Bol	1206
▁Side	1206
zu	1205
ida	1204
▁licht	1203
▁Tai	1203
▁Tokyo	1203
▁per	1202
ë	1202
▁Vakantiehuis	1201
▁Hamburg	1201
▁NZD	1200
▁Comfort	1199
sur	1198
pagina	1198
▁Delft	1198
▁Vrije	1197
▁via	1197
▁Zon	1196
aanse	1196
▁Klein	1196
qui	1196
▁Kong	1196
▁Bob	1196
▁Type	1195
▁Magic	1195
▁contact	1195
ID	1195
▁Dance	1195
▁Beschrijving	1194
▁Abu	1193
▁Lange	1193
▁kathedraal	1193
▁district	1193
IP	1192
▁no	1192
▁energie	1192
▁Reis	1192
▁Sciences	1192
bos	1191
ning	1191
▁Engels	1191
▁Studios	1191
▁Au	1190
▁Gar	1190
The	1189
▁Pieter	1188
▁Professional	1188
▁am	1188
ag	1188
▁Ball	1187
▁Marco	1187
▁Camera	1186
▁Trust	1185
baan	1185
▁Parc	1185
▁IP	1184
▁Ana	1184
▁Safety	1183
▁Ultra	1182
ich	1181
▁Town	1181
▁Tim	1181
▁Front	1180
▁Kim	1180
Jan	1179
▁Veiligheid	1178
▁elektrische	1178
▁Bag	1178
ï	1176
▁straat	1176
▁Noorse	1176
▁vereniging	1175
mont	1174
▁Orchestra	1174
▁kamer	1173
▁Way	1173
nik	1173
▁Sales	1171
▁Computer	1171
▁tijdens	1171
winkel	1170
show	1170
▁Kat	1169
▁Ku	1168
▁Geo	1168
▁gerechten	1167
▁Italië	1167
▁Lyon	1166
▁Bedrijf	1166
ING	1166
▁hier	1165
▁Start	1164
▁Landbouw	1164
▁organisatie	1164
▁lira	1164
ay	1164
enburg	1163
Me	1163
▁Campus	1163
▁Porto	1163
star	1162
▁Mega	1161
án	1160
▁Bu	1160
sie	1160
▁Buitenlandse	1159
▁Benelux	1158
tec	1158
▁Bestuur	1158
▁Vergadering	1157
▁pre	1157
we	1155
▁zaken	1155
▁Francisco	1155
sport	1153
tan	1153
▁Forest	1152
▁General	1151
poort	1150
▁Drie	1149
▁nr	1148
fonds	1148
organisatie	1148
▁Xiaomi	1148
tz	1148
▁Cu	1147
bach	1144
ami	1144
▁Profiel	1143
▁Lang	1143
▁She	1142
rie	1141
ip	1140
▁liggen	1140
▁spel	1140
▁Kaart	1139
▁Rob	1139
▁Records	1138
▁Romeinse	1137
▁Mon	1137
▁naam	1136
▁Beer	1136
pas	1136
yo	1134
▁Karel	1134
▁Blond	1133
▁Electric	1133
▁Vrede	1133
chen	1131
tisch	1131
▁Pacific	1130
▁Reserve	1130
mail	1130
mat	1129
▁Wetenschappen	1129
▁History	1129
▁Chat	1128
▁Henry	1128
▁Regio	1128
▁app	1128
▁Maan	1128
vers	1127
tic	1127
▁Automatische	1127
▁geboren	1127
▁hij	1127
Mo	1125
IN	1125
▁gegevens	1125
▁Ru	1124
▁Pra	1124
▁Madrid	1123
▁Dark	1123
▁Engeland	1123
licht	1122
website	1122
▁AG	1122
▁Natural	1121
▁Review	1121
▁Es	1121
▁Capital	1121
dorp	1120
▁Heer	1120
▁Color	1120
▁site	1118
vereniging	1117
▁Sex	1116
▁Moon	1115
▁Israël	1113
▁Oranje	1113
▁He	1113
▁Photo	1112
▁markt	1112
model	1110
▁Samen	1109
dan	1109
sh	1108
▁Temple	1108
▁Pers	1107
▁tv	1106
Ar	1105
▁Hard	1105
▁twee	1105
▁Gay	1104
▁bevindt	1103
▁BE	1103
▁onderzoek	1102
▁Ken	1102
▁Future	1102
▁Server	1101
▁zo	1101
ero	1100
Hotel	1100
▁Vis	1100
▁Para	1100
▁tuin	1100
▁mei	1100
▁Dans	1099
▁First	1098
▁netwerk	1098
ea	1097
ER	1096
▁Formule	1095
▁dorp	1094
▁tempel	1094
▁diensten	1094
Ge	1093
▁Son	1092
ban	1091
▁Mag	1088
▁Groningen	1088
▁Alpen	1088
▁Guangzhou	1088
▁juli	1087
▁Metal	1087
▁Zone	1086
haus	1085
▁See	1085
eur	1085
ab	1085
ris	1084
▁Year	1084
ite	1084
management	1083
▁Hub	1082
▁Pont	1082
▁Neem	1082
▁dan	1081
▁Novotel	1081
▁Juan	1081
▁Château	1080
▁Ziekenhuis	1080
▁Vind	1080
▁Luc	1080
▁Point	1080
bad	1079
▁Guesthouse	1079
tu	1079
▁Bra	1078
met	1078
▁PRO	1077
▁Hotelkamers	1076
▁Yo	1076
off	1076
▁Convention	1076
▁Quality	1075
Tech	1074
▁Cal	1074
▁Partners	1074
plaats	1073
▁Piano	1073
▁Financial	1072
▁motor	1071
Ha	1071
wan	1071
Afrika	1071
▁Ronde	1071
weepersoonskamer	1069
▁IN	1068
▁Ram	1068
▁Zoo	1068
▁hertog	1067
▁Kon	1067
ent	1066
▁Michel	1066
▁Pad	1066
yan	1065
▁Beauty	1065
▁kunnen	1065
▁Johnson	1064
▁Cor	1063
▁Bill	1063
▁Philips	1062
▁Roll	1062
▁Maas	1061
▁Mercedes	1061
▁Museo	1061
▁Brown	1061
▁Bas	1060
▁Agentschap	1060
▁Tel	1060
hotels	1060
▁Straat	1060
▁plaats	1060
▁Pas	1060
Amerikaanse	1060
Man	1059
▁Ra	1059
▁Partner	1058
versie	1057
shop	1057
▁Eric	1057
▁Bart	1056
▁Brunette	1055
pan	1054
▁Wil	1054
▁Duits	1053
ona	1053
zone	1052
▁kust	1052
▁Democratische	1051
▁Nh	1051
▁Sand	1051
▁Library	1050
▁Fa	1050
olo	1050
sol	1050
▁Economie	1050
▁Body	1049
pers	1049
▁Valencia	1049
onderzoek	1048
▁Pet	1048
lab	1048
▁Dragon	1047
▁Collectie	1047
▁Fan	1047
▁Nova	1047
site	1047
▁digitale	1046
log	1046
comité	1044
▁Ray	1044
▁Farm	1044
▁Japanse	1044
▁Venetië	1044
▁slag	1043
eg	1043
▁bank	1043
▁Weg	1043
▁Beijing	1043
sha	1043
▁Division	1042
▁Gor	1042
To	1042
▁stalen	1041
nie	1040
▁dienst	1040
▁Herman	1040
▁Mall	1039
▁Col	1039
▁Singapore	1038
▁Eva	1038
▁vallei	1038
tin	1037
▁Geschiedenis	1037
▁Circuit	1037
▁Touch	1037
DS	1037
▁Fun	1036
▁Wood	1036
ru	1036
nummer	1036
bert	1036
▁Binnen	1036
dar	1035
▁Poly	1035
account	1034
▁Innovatie	1033
▁september	1033
▁commissie	1033
ä	1033
ub	1033
▁Head	1032
mm	1032
▁Ta	1032
▁Milaan	1031
▁Premier	1031
▁und	1030
▁USA	1030
▁Pu	1029
▁prijzen	1028
▁Leo	1027
®-	1026
▁Boulevard	1026
▁post	1026
▁End	1025
▁Erasmus	1025
▁el	1025
low	1024
▁Vol	1024
▁hart	1023
▁Jacob	1023
▁Speel	1022
[	1022
▁ten	1021
▁Adam	1021
▁Ke	1021
▁Gen	1021
wi	1020
▁XL	1019
▁Russisch	1019
▁Earth	1018
▁Youth	1018
zaal	1018
▁SC	1017
cal	1017
stel	1017
▁Bestel	1016
▁Sim	1016
▁Rijn	1016
▁Arc	1016
▁Fabrikant	1016
bescherming	1016
▁zomer	1015
mes	1015
cher	1015
afdeling	1014
▁Zomer	1013
beek	1013
▁Wenen	1013
▁Zie	1013
▁Oscar	1013
boom	1013
stone	1012
▁Griekse	1011
▁Tar	1011
▁Tube	1010
iet	1010
▁Industry	1010
cent	1009
▁Medische	1009
illa	1009
jaar	1008
▁Speed	1008
▁Amstel	1008
▁Steen	1008
▁Nacht	1008
nis	1006
▁Bond	1006
cia	1005
iz	1005
▁Pack	1004
weer	1004
▁laatste	1003
▁Galerie	1003
▁Blauwe	1003
▁Patrick	1003
lis	1002
▁Tan	1002
▁Finance	1002
▁Hout	1001
ese	1000
kanaal	1000
▁Jonge	1000
▁samen	998
▁Materiaal	998
▁Uni	998
▁waar	998
iek	997
▁Marathon	997
▁Report	996
ence	996
▁Toren	996
▁Alanya	996
▁Linux	996
▁Wolf	995
bak	995
zak	994
▁Smith	994
▁Bedrijfs	993
informatie	992
▁Joe	992
▁juni	992
win	991
▁Marcel	991
▁toe	991
▁Watch	991
▁Nan	990
haven	990
▁Quick	989
ense	989
▁Code	988
▁as	988
▁Mens	988
▁Bergen	988
ö	987
AC	987
▁witte	986
è	986
▁groene	986
blad	985
▁Four	985
houder	985
▁Zen	984
▁kinderen	983
▁More	983
▁live	983
▁product	982
▁goed	981
Ro	981
ira	981
▁Plant	981
▁Link	981
▁Joodse	980
▁München	980
▁Administration	980
▁Stads	979
▁Ice	979
▁zwarte	979
▁eilanden	978
bro	978
▁h	978
▁Salon	976
ela	976
▁Ye	975
▁tussen	975
shan	974
▁Replica	974
dra	973
▁Var	973
▁Lady	973
▁Vincent	972
▁Niet	972
▁Zoom	972
gegevens	971
▁Action	971
▁Stone	971
▁worden	971
pakket	971
▁Terminal	970
▁Ros	968
wetenschappen	968
▁BMW	968
ness	968
iteit	968
head	967
▁Private	967
▁Song	967
▁Jet	966
erd	966
ille	966
▁Angeles	966
lid	966
▁Koningin	966
boot	965
▁Lul	965
▁Work	965
▁Nature	965
ijs	964
▁Achter	964
route	964
▁Vader	963
▁Boy	963
pu	963
din	962
instituut	962
code	961
▁Pin	961
▁Amateur	961
▁koop	960
▁geschiedenis	960
▁nieuws	959
▁Ab	959
bol	959
pad	957
▁Ren	957
ata	957
fin	957
anne	957
rad	956
▁Defensie	956
▁Tank	955
apparaat	954
ado	954
▁reis	954
▁Andere	953
apparatuur	953
SC	953
steen	953
ance	953
▁Story	953
▁Med	952
▁WK	952
▁Belgisch	951
machines	951
▁Singaporese	951
▁May	951
▁GT	950
▁Turkije	950
ama	950
can	949
▁management	949
▁Alex	948
ves	948
ico	948
ori	948
ema	947
▁SEK	946
▁hand	946
stijl	945
rik	945
▁serie	945
▁Ki	944
▁Koop	944
Con	944
meter	943
▁stichting	943
▁SGD	943
gon	943
industrie	942
▁Speciale	942
▁Za	942
▁Living	941
▁Karl	940
▁Ann	940
Het	939
ons	939
▁Mount	939
▁Faculteit	939
auto	938
onderdelen	938
▁andere	938
▁Kids	934
ú	933
ins	932
hang	932
▁Chris	931
▁Bike	930
zee	930
aya	930
my	930
plaat	930
▁Ierland	929
kant	929
▁Boston	929
tus	929
▁MS	928
▁politie	928
ets	928
AM	928
iya	928
▁Ontdek	928
▁vrouw	928
▁Vandaag	927
bed	927
▁Edinburgh	926
loop	926
▁Elke	926
▁Eu	926
post	926
▁Wa	925
board	925
hoek	924
vel	924
▁YouTube	924
▁Intelligence	923
▁Flex	923
▁Che	923
▁Architectuur	923
▁hun	923
eng	923
▁Bat	922
▁Wetenschap	922
▁Mexico	922
▁zelf	922
tour	922
▁Downtown	922
var	922
▁Walk	922
▁Sierra	921
▁Aziatische	920
SE	920
▁Dublin	920
▁Bangkok	920
▁Blauw	920
▁Rosa	919
▁Houston	919
tte	919
▁Audio	919
▁TRY	919
▁Prince	918
PC	918
▁Modern	918
▁Kamers	917
▁Spring	917
▁Houten	917
▁Wellness	916
▁Gogh	916
▁Oceaan	915
▁achter	915
▁Hy	915
tro	915
▁Hor	915
▁Suriname	915
eilanden	915
leden	914
▁Bang	914
collectie	914
▁Athene	914
ena	914
▁maken	912
▁Min	912
▁GPS	912
▁Verkoop	911
oni	911
▁Mel	911
▁LTD	911
ello	911
▁Summit	911
camera	910
ering	909
▁bedrijfs	909
los	909
▁onderwijs	908
ap	908
kast	908
▁Marriott	908
gang	906
ën	906
Go	905
▁Justitie	905
▁geserveerd	905
wagen	904
controle	904
ora	904
▁Down	903
▁Char	903
▁ziekenhuis	903
▁Staat	903
MS	903
▁Grande	903
▁Puerto	902
▁GE	902
▁Federation	902
▁Luxury	901
▁drie	901
▁Mohammed	901
▁kleur	901
druk	901
izer	901
▁Ay	900
▁Hack	900
▁Tokio	900
▁tweede	900
▁Frankfurt	900
dia	900
▁Medicine	899
▁liefde	899
▁Belle	898
▁DJ	898
olie	898
elen	897
▁VI	897
▁Nice	896
▁Amsterdamse	895
lia	895
▁Easy	895
▁Carl	895
▁Dirk	894
dagen	894
voor	894
ink	894
ique	894
sma	893
An	893
▁woning	893
rij	893
anda	893
▁Hem	892
mit	892
▁Vi	892
▁Army	892
ante	892
▁Bou	891
▁Ton	890
▁Pink	890
▁bouw	890
▁Racing	890
▁Antonio	890
▁Canal	890
▁Stadium	889
▁Dames	889
▁Pool	889
▁collectie	889
▁Dog	889
▁Pal	888
▁Led	888
see	888
▁Atlas	888
▁Ash	888
▁Mercure	887
lam	887
▁Monument	887
▁Nor	887
▁voorbehouden	887
▁Druk	886
▁Wijn	885
▁Days	885
for	885
▁lijn	885
▁Initiative	885
▁Appart	885
ima	884
bet	884
▁California	883
▁Boedapest	883
▁Schiphol	883
rio	883
▁kwaliteit	882
▁Gezondheid	882
stof	882
▁Industrial	881
▁Poolse	881
▁Harry	881
▁beschikt	881
West	881
▁Was	881
▁Wim	880
▁paleis	880
ST	880
▁ISO	879
▁Tree	879
vallei	879
▁Ci	879
▁Bron	879
▁Ron	878
heim	878
▁Sweet	878
TA	878
gy	877
rit	877
▁Sara	877
▁sociale	877
▁luxe	877
▁Blog	876
ben	876
▁productie	875
▁olie	875
▁inzake	875
▁Twee	875
▁Autoriteit	875
▁Soul	874
▁zwart	874
▁Mill	874
▁keuken	874
▁Toerisme	874
▁Antwerp	874
▁graaf	874
▁comfortabele	873
▁Luxemburg	873
▁Klant	873
▁Dor	873
▁ST	873
▁Vakantie	872
her	872
una	872
▁Kiev	872
▁centrale	871
▁Cyber	871
▁Orkest	871
▁Ol	871
▁Rod	870
Oosten	870
▁aluminium	870
▁Pol	869
gas	869
ping	869
ide	869
▁Zoek	868
dom	868
▁Maarten	868
▁Tele	868
▁Tag	868
maatschappij	867
▁Afrikaanse	867
▁Shell	867
kov	867
TC	867
ff	867
▁Mail	867
▁media	866
uur	866
▁Estate	866
ā	865
oorlog	864
▁Indiase	864
Wetenschappelijk	864
▁kleine	864
â	864
▁Porn	863
▁Bibliotheek	863
▁Tur	863
etti	863
▁Gate	863
red	863
▁zoon	862
Car	862
▁Not	862
▁Fast	861
▁baai	861
▁Guy	861
▁Fox	861
zon	861
▁Sydney	860
▁Standard	860
ruimte	860
▁Ed	859
DC	859
▁Talent	859
tuin	859
rat	858
lot	858
▁Heritage	858
stand	857
▁Gemeente	857
▁Mid	857
▁Field	857
▁Patch	857
regio	856
video	856
▁Polen	856
EL	856
▁Mare	856
▁Hotelres	856
erveringsnetwerk	856
▁design	856
▁Concert	856
▁Operatie	856
▁Ster	856
bit	855
▁Girl	855
NL	854
▁Gardens	854
▁Wal	854
ón	854
▁MA	854
▁Conservatorium	854
Li	854
▁Leeuw	853
lic	852
▁Militaire	852
▁Vlaams	852
king	850
all	850
▁Ak	850
reeks	850
▁Provincie	850
Bar	850
▁Bull	850
die	849
▁Kal	849
▁Hoog	849
ane	849
▁Cool	848
rapport	847
▁Bit	847
view	847
▁Kamp	847
familie	847
zel	847
▁Zonne	846
▁Derde	846
▁SA	846
▁Laatste	845
hua	845
town	845
▁Dame	845
▁Bluetooth	845
DE	845
wo	844
kar	844
▁Battle	844
▁milieu	844
tentoonstelling	844
cam	844
▁Frederik	843
ei	843
▁geen	843
▁Dal	842
▁Kop	842
▁Praag	842
▁les	841
▁Studenten	841
ate	841
nd	841
tis	841
▁Pot	841
▁Planet	841
Mar	840
▁mar	840
▁kaart	840
▁Angel	839
▁Sen	839
ple	839
▁Vrouw	838
▁Ny	838
▁Texas	838
▁Miami	838
▁Peace	838
maker	837
ré	837
▁Victor	837
▁Ass	837
sten	836
ow	835
▁Get	835
wedstrijd	835
▁weer	835
iers	835
▁Glas	835
eo	834
▁album	834
back	834
▁natuur	834
▁Will	834
▁Kin	834
▁tentoonstelling	833
▁Mike	833
naam	833
▁seizoen	832
▁Spel	832
▁PE	832
ieten	831
▁Medisch	831
time	831
▁Cer	830
▁Federale	830
rivier	829
eva	829
Stad	829
IM	829
▁theater	829
▁FM	828
stoel	828
lijk	828
▁technologie	828
▁HR	828
▁Afdeling	828
eel	827
▁zon	827
▁mini	827
▁Congress	827
pp	827
▁Veiligheids	826
▁Industriële	826
aria	826
ok	826
▁Trio	825
▁Bach	825
▁Audi	825
mark	825
▁moeder	825
▁Sel	824
rich	824
▁Happy	824
▁TU	824
▁Prize	824
▁Info	824
borg	823
inger	823
▁Eye	823
▁Daily	823
▁veiligheids	822
▁Kind	822
more	822
gebergte	822
▁Cre	821
▁Stadion	821
▁Crystal	821
▁Ker	820
▁bureau	820
▁Amazon	820
▁Kleur	820
▁PDF	820
uff	819
lamp	819
rum	819
eiland	819
▁Ch	819
▁Vier	819
▁Chiang	819
ES	818
wereld	818
ous	818
▁Xi	818
sson	817
RS	816
▁kinder	816
▁elke	816
▁Com	815
yu	815
▁%	815
▁Piet	814
SA	813
ire	813
▁Ras	813
theater	813
▁Revolutie	813
▁Neo	812
vat	812
▁toren	812
▁à	812
▁Face	811
▁Universal	811
▁Eden	811
▁Call	810
ander	810
chat	810
els	809
▁Griekenland	809
IC	809
broek	809
su	809
ology	809
▁Advanced	809
▁maakt	809
▁band	808
▁Boom	808
▁Elite	808
▁mo	808
ps	807
▁Ham	807
▁Performance	807
▁ca	807
kampioenschappen	807
ky	806
▁Fe	806
gate	806
▁LA	806
▁Railway	806
▁Slot	805
old	805
▁Cho	805
▁Tal	805
▁Word	805
uri	804
▁Atelier	803
▁Gal	803
▁Tre	803
▁algemene	803
▁parlement	803
▁Case	802
bahn	802
TE	801
tion	801
▁Villas	801
▁Masters	801
MA	800
▁Tool	800
feest	800
▁Tra	800
▁Manchester	799
CA	799
cu	799
▁Hu	799
▁Aero	799
▁Hay	798
lip	798
OS	798
long	797
▁hebben	797
merk	797
▁Jos	797
▁Robot	797
tom	797
▁Neu	797
IL	796
beurs	796
▁Wei	796
bat	796
mos	796
zicht	796
klasse	796
▁Vo	796
ball	796
▁Kor	796
ice	795
▁Gene	795
▁Deep	795
▁Henri	795
▁Full	795
▁Connect	795
▁Bali	794
▁Pri	794
mond	794
▁Allactionhost	794
▁Kara	793
▁Erik	793
▁Kai	793
▁Pe	792
▁Sc	792
▁Islamitische	792
rem	792
—	792
▁André	792
▁Bruno	792
elli	792
▁Two	792
bin	792
▁w	792
▁kantoor	791
▁Spirit	791
▁verkoop	791
▁Ruimte	790
▁CH	790
huizen	790
eau	790
▁Sarah	789
▁Terra	789
US	789
▁Controle	789
▁Buiten	788
▁Loop	788
▁Sur	787
AL	787
sta	787
▁Lift	786
aki	786
brand	786
dale	786
▁Palma	785
▁Os	785
▁Volvo	785
▁Düsseldorf	784
▁Edward	784
▁klooster	784
FC	784
eenheid	784
▁Fitness	784
▁Student	784
MP	783
▁Bre	783
▁software	783
▁appartementen	783
▁Sainte	783
▁Authority	783
▁Shopping	782
▁ICT	782
▁Poort	781
▁Handel	781
▁Californië	781
▁PR	781
▁Secret	781
▁locatie	781
▁Limburg	781
▁Stockholm	780
scherm	780
▁Kinderen	780
▁Lijn	780
tempel	780
light	780
▁Spaans	779
ng	779
▁Vision	779
▁voetbal	779
▁Pure	778
DA	778
▁Toronto	778
▁Mobiele	778
▁Machines	777
▁Flash	777
az	776
▁ma	776
▁Pearl	776
▁Coast	775
▁or	775
tica	775
sis	775
tur	775
▁Kerst	775
▁Charlotte	774
BA	774
▁Oosten	774
▁Deel	773
erij	773
▁Orlando	773
▁Base	773
š	772
▁departement	772
via	772
▁Beethoven	771
▁buiten	771
▁Jim	771
▁Schone	771
▁Radisson	771
▁Shin	771
▁Scott	771
isatie	770
▁Alfa	770
▁Winkel	770
▁Jam	770
▁Off	769
bord	769
▁model	769
▁Are	769
▁Instagram	769
▁Philippe	767
▁Wet	767
▁veiligheid	767
▁Bella	767
▁Account	767
▁huren	767
▁Dick	766
▁Voedsel	766
▁Snow	765
hr	765
ios	765
▁mee	765
▁Lou	765
▁Kathedraal	765
lar	765
▁zal	765
▁Amerikaans	765
etta	765
▁Gun	765
▁Bijbel	764
▁gezondheid	764
▁ING	764
▁Analytics	764
▁Outdoor	764
▁Track	764
▁Core	764
onne	764
▁Maak	763
▁Taxi	763
ric	763
▁Merk	763
ell	763
▁Centro	763
▁How	762
▁Double	762
▁Sofia	762
▁Jin	762
▁Arthur	762
▁stof	762
▁Imperial	762
▁Corporate	762
▁Federal	761
▁Mind	761
▁Entertainment	760
▁Asia	759
▁Hydro	759
▁Direct	759
▁Tea	759
▁List	759
▁Just	758
▁Uitzicht	758
▁Chang	758
▁Palazzo	758
▁Algemeen	758
aux	758
▁Paradise	758
▁APK	757
uck	757
▁Im	757
▁brug	756
Van	756
▁AL	756
▁Mis	756
▁from	756
▁Rem	756
zorg	755
▁ze	755
▁wijn	755
bergen	755
▁direct	755
ax	755
▁Access	754
ato	754
Up	754
▁gemaakt	754
▁snelweg	753
eck	753
▁Dur	753
▁Like	753
Afrikaanse	753
▁maart	752
ux	752
▁Thuis	752
▁schiereiland	752
▁Pier	751
▁Ste	751
▁Rally	751
▁Reg	751
▁What	751
▁Programme	751
ontwikkeling	750
▁Operations	750
▁Zelf	750
day	750
▁winkelcentrum	750
Art	750
▁rijden	750
▁Binnenlandse	750
▁Mannen	750
▁Twin	750
▁Steve	749
▁Alice	749
▁hoge	749
▁Adventure	749
gat	749
lock	748
lijke	748
lus	748
▁Mod	748
PO	747
▁Ve	747
▁Gegevens	747
▁Zorg	747
▁Stock	747
▁onderzoeks	746
▁Aquarium	746
▁Productie	746
▁wallpaper	746
ec	746
complex	746
▁speciale	745
▁Princess	745
wel	745
reis	745
▁beurs	744
▁Von	744
▁Mil	744
kantoor	743
▁Renault	743
▁Hua	743
ue	743
CI	743
▁Airlines	743
▁Customer	743
▁MC	743
▁merk	743
▁sa	742
▁Non	742
▁aarde	742
▁Trading	742
▁Corps	742
▁winkel	742
CC	742
▁ontwerp	742
▁Football	742
▁Eiland	741
▁Lam	741
▁Environmental	741
lei	741
▁Poker	741
▁Volks	741
bri	740
partij	740
▁Saoedi	740
put	740
▁OP	740
▁Solo	740
▁Gel	740
beweging	739
▁Bier	738
▁Goji	738
▁Fi	737
▁Lin	737
▁Panel	737
▁Ne	737
lé	737
▁Ser	737
▁zuiden	736
las	736
dig	736
▁Sociaal	736
▁Ensemble	736
▁inter	736
▁gaat	736
sp	735
▁Culture	734
OR	734
▁fabrikant	734
▁Protection	734
LE	733
▁DVD	733
mis	733
▁Beweging	732
mu	732
gu	732
ug	732
▁Next	732
▁Gebruik	731
Sch	731
kop	731
▁baby	731
▁Roman	731
▁Rights	731
▁Stand	730
▁vanaf	730
▁Renaissance	730
▁Pat	730
▁Logistics	730
▁richting	730
%	730
▁States	729
▁Workshop	729
▁́	729
oma	729
▁Walter	729
▁Hai	728
▁Policy	728
▁rode	728
IA	728
uch	728
▁moderne	728
card	727
▁Sp	727
▁Vintage	727
▁Goud	727
RE	727
▁Volg	726
▁Brigade	726
▁Melbourne	726
▁Lion	726
▁Boekarest	726
uren	726
▁Nations	726
▁Jeroen	726
▁Channel	725
▁Loo	725
lor	725
▁onderdelen	725
▁basis	725
pel	724
▁Koh	724
▁nationaal	724
▁Goede	724
▁stijl	724
ble	724
▁Dia	723
▁Guard	723
cc	723
Holland	723
▁Sovjet	723
▁Rail	722
dis	722
▁zei	722
▁Spin	722
▁Brug	722
▁Luik	722
bon	721
▁los	721
erde	721
EF	721
▁OS	721
BE	721
GB	720
issa	720
▁Kampioenschap	720
fen	720
med	720
molen	719
▁car	719
▁Gu	719
ath	718
▁Oostenrijk	718
▁Arabisch	718
ido	718
▁CA	718
pack	717
▁Departement	717
▁SP	717
▁Exhibition	717
master	717
▁Organization	717
▁Fiets	717
RO	717
▁fiets	717
▁Our	716
▁Forex	716
▁Riad	716
▁Officiële	716
▁Leer	715
▁kampioenschap	715
▁koffie	715
▁Lodewijk	715
▁Boot	715
▁AB	714
ere	714
▁Omega	714
Na	714
strand	714
▁Active	714
fu	714
▁Small	713
unie	713
▁Flat	713
▁buis	713
▁Elizabeth	713
▁Wo	713
▁Apollo	713
race	713
▁my	713
mus	713
▁Brabant	713
▁EP	713
▁Class	712
▁communicatie	712
▁Budget	712
▁bal	712
▁Lac	711
▁maan	711
SS	711
▁Nest	711
▁Zuidoost	710
pin	710
▁Torre	710
▁kunt	710
▁Bern	710
▁samenwerking	709
▁Gift	709
▁Change	709
▁Map	709
▁Ludwig	709
techniek	709
▁Freedom	708
▁CC	708
▁wel	708
gie	708
▁mannen	707
▁open	707
▁Atlantic	707
▁org	707
▁Henk	706
▁voedsel	706
▁Katholieke	706
▁Honda	706
▁VER	706
▁pagina	706
vol	705
stuk	705
▁Bachelor	705
gra	705
▁marketing	705
cel	705
▁bus	705
sey	705
и	705
▁Sin	705
▁Charlie	705
ware	704
▁Elisabeth	704
Ma	704
▁genieten	704
▁Nike	704
▁Emma	704
oo	704
type	703
▁Sta	703
▁Toe	703
▁Mol	703
hara	703
▁Leon	703
iki	703
▁Welkom	702
tex	702
▁Ballet	702
▁rond	702
▁Ferry	702
ks	702
vor	702
kade	702
EP	702
▁Cro	702
▁vakantie	702
▁cultuur	702
▁Overzicht	701
▁Kijk	701
▁vliegveld	701
manager	700
ME	699
wei	699
▁groot	699
▁Orange	699
On	699
▁terug	699
EU	698
▁Wilde	698
Star	698
bot	698
▁Ibiza	698
▁standaard	697
Zeelandse	697
▁radio	697
hand	696
▁Taal	696
filter	696
▁revolutie	696
▁Belgian	696
▁Portal	696
▁Musée	695
centra	695
▁super	695
Ho	695
ise	695
list	695
▁Universele	695
HD	695
▁Keulen	695
▁Mah	695
▁Jon	695
▁Jacques	694
▁Ontwerp	694
▁Beau	694
pot	694
▁route	693
oli	693
▁Ivan	693
▁RE	693
rick	693
▁eten	693
▁MP	693
▁Dat	692
▁Ti	692
▁Index	692
▁Survey	692
▁noorden	692
▁Cruise	692
▁Monitor	691
▁babe	691
▁Bitcoin	691
▁Fo	691
▁Outlook	690
▁Rubber	690
▁Vista	690
▁prins	690
▁ka	690
▁cam	690
▁Alpha	690
▁Rivier	690
▁PVC	689
▁Politie	689
▁Hollywood	689
▁Engelse	689
handel	689
week	688
▁São	688
Ko	688
▁Em	688
▁verhaal	688
SP	688
▁Kas	688
▁Oil	688
▁Java	688
▁Concept	688
uka	688
UL	687
▁Zand	687
▁Bernard	687
kers	687
▁Warschau	687
▁Help	687
▁Retail	686
▁Cinema	686
▁Relais	686
▁Make	685
▁Chinees	685
▁Engel	685
▁Dun	685
▁las	685
ism	685
▁hryvnia	685
▁→	684
▁Oxford	684
▁Kap	684
zin	684
Zuid	684
erende	683
cer	683
gids	683
▁Vrienden	683
▁Bird	683
▁Kam	683
tar	683
▁web	683
▁Surf	682
▁Istanboel	682
▁ja	682
▁Staats	682
▁Meester	682
▁Ave	682
▁Comp	682
▁Volksgezondheid	682
▁RO	682
▁Jane	682
ür	682
▁Fred	682
▁UAH	682
▁Anton	682
ici	681
▁stads	681
ila	681
▁Products	681
▁Virtual	681
▁Geen	681
▁Palestijnse	681
▁Wester	681
▁dr	681
eb	680
ect	680
och	680
Air	680
IJ	680
▁Mir	680
▁Boer	680
hard	680
ras	680
generaal	679
tha	679
▁omgeving	679
▁Maatschappij	679
▁PP	679
▁Otel	679
▁Hat	678
Lo	678
AD	678
▁Werken	678
▁Boat	678
lift	678
▁Twitter	678
ging	678
▁Petra	678
▁Study	677
▁Kol	677
vit	677
▁brand	677
mas	677
TO	677
▁Visa	677
▁Dallas	677
▁Florida	676
schip	676
▁eigen	676
▁Munt	675
▁ID	675
ava	675
▁Grey	675
wal	675
▁nieuw	675
hai	675
▁Antalya	674
▁Kos	674
par	674
SI	674
▁april	674
zz	673
▁Molen	673
nia	673
▁AR	673
▁Miss	673
▁Coffee	673
▁Nick	673
▁GR	673
lyn	672
PA	672
▁Edge	672
▁Lloret	672
zy	672
kom	672
leg	672
▁Horizon	671
▁Breda	671
stro	671
▁File	671
▁Yi	671
▁Paper	671
▁Rood	671
ali	671
▁Last	670
▁Ark	670
Lab	670
▁Contacteer	670
▁Vogel	670
▁Superior	670
▁Mei	670
▁Climate	669
▁ad	669
▁abdij	669
▁SD	669
▁Mono	669
▁Maya	669
AR	669
▁Gro	668
lader	668
▁Single	668
▁Kwaliteit	668
EM	668
eta	668
ée	668
▁naast	668
▁Africa	667
▁beheer	667
studio	667
leven	667
▁Bet	667
ash	666
▁Koffie	666
▁Moto	666
Ra	666
iana	666
▁Flower	666
▁Stage	666
▁HP	666
sto	666
max	665
▁Ierse	665
▁Gods	665
▁komt	665
▁Learning	665
pak	665
▁Metropolitan	665
OP	664
bur	664
tafel	664
IS	664
ske	664
▁tour	664
▁Jar	664
▁Fer	664
▁thee	664
▁Beheer	664
loze	664
▁AS	664
▁centraal	663
▁Hen	663
ito	663
tri	663
▁José	663
lay	663
▁Bak	662
▁Horse	662
▁Lisa	661
wald	661
▁API	660
▁regionale	660
▁meter	660
▁augustus	659
▁Fabriek	659
▁Roze	659
▁Creative	659
▁Gebouwd	658
iv	658
eh	658
▁Naam	658
▁Hydraulische	658
▁Ober	658
▁Sony	658
point	657
▁Panorama	657
▁Has	657
▁AD	657
▁Safari	656
▁editie	656
anse	656
▁Cy	656
▁vier	656
avi	656
▁Anaal	656
▁faculteit	656
▁Barbara	656
proces	655
▁Stop	655
▁Kanaal	655
vorm	655
delen	655
sia	655
▁roestvrij	655
▁Excellence	655
▁Alliantie	655
▁VIP	654
wind	654
▁heren	654
Ex	654
▁Wu	654
oven	654
▁Techniek	654
▁...	654
▁für	654
▁Complex	653
▁apparatuur	653
▁spelen	653
▁financiële	653
▁Mari	653
▁Slechts	653
▁nog	652
▁Grijs	652
▁WordPress	652
▁wit	652
▁Hills	652
war	652
▁Iron	652
▁Roestvrij	652
▁Nam	652
Europa	651
▁sur	651
kens	651
▁Rec	651
▁Fit	651
▁Tours	650
adi	650
▁heer	650
▁Chain	650
▁Converter	650
ieve	650
▁ruimte	650
Box	649
▁Brazilië	649
onder	649
ders	649
▁oktober	649
▁jo	649
▁Lock	649
▁Storm	649
▁Theo	649
▁Oekraïense	649
▁telefoon	649
room	648
▁zwembad	648
IO	648
▁Explorer	648
▁Domaine	648
▁Child	648
▁koningin	648
FI	648
▁divisie	647
mmer	647
▁één	647
▁Tentoonstelling	647
▁marine	647
tek	646
▁Tro	646
horn	646
▁Rolex	646
▁bergen	646
▁Oekraïne	646
▁Ever	646
▁Erfgoed	646
pomp	646
▁Ville	646
▁volgende	645
doos	645
ala	645
▁Austin	645
RC	645
Arabische	644
▁Gil	644
▁Laboratorium	644
▁Polo	644
▁UN	644
▁genoemd	644
TS	643
▁single	643
▁iOS	643
tocht	643
▁This	643
▁Tony	642
▁industrie	642
▁Stra	642
yi	642
▁instituut	642
▁Financiën	642
vaart	641
▁Roos	641
▁winter	641
▁Laat	641
rom	641
▁Wine	641
▁Burg	640
PR	640
▁Rad	640
▁Duo	639
mb	639
ati	639
▁plein	639
▁Course	639
▁Soft	639
book	639
▁dood	639
gespecialiseerde	639
lier	639
restaurant	639
▁Genève	638
▁ski	638
▁Piazza	638
vy	638
▁Buenos	637
▁Ag	637
▁kennis	637
▁OEM	636
▁Grieks	636
ship	636
▁Carbon	636
▁slechts	636
▁Laura	636
▁dans	636
▁uur	636
▁Generator	636
▁Deutsche	635
▁Telefoon	635
▁kerst	635
▁congres	635
▁CS	635
El	635
▁Leopold	635
▁Sophie	635
pol	635
▁Woord	635
▁Chateau	634
▁Metaal	634
▁Por	634
▁Jay	634
hon	634
▁Keuken	634
▁Voetbal	634
▁Automotive	634
▁Zij	634
▁data	634
▁titel	633
mal	633
▁Divisie	633
hl	633
St	633
▁wat	633
▁Vin	633
kit	633
▁Meeting	633
▁zij	632
DR	632
uma	632
▁Maagd	632
▁della	632
PE	632
▁Phoenix	632
▁artikel	632
▁Aziatisch	632
▁sub	632
▁Zero	632
▁Taylor	631
illo	631
En	631
▁Est	631
▁Zwitserland	630
▁Stars	630
therapie	630
▁Southern	630
ED	630
▁Ont	630
anna	630
▁Girls	630
▁FR	629
bor	629
▁Recovery	629
▁Ry	629
▁Kies	628
▁nacht	628
▁Lan	628
▁Serie	628
▁Blonde	628
▁Self	628
yama	628
▁Tam	628
▁Toon	628
▁Punta	628
ont	627
hart	627
hy	626
▁bos	626
▁Graaf	626
▁Now	626
▁Vegas	626
▁Elektro	626
▁Rat	626
▁Arnhem	625
FA	625
Th	625
▁Fly	625
▁Outlet	625
▁Tin	625
▁Lamp	625
lle	624
gin	624
▁Petit	624
▁DS	624
▁lidstaten	624
▁Short	624
▁Prof	624
▁Cannes	624
‘	624
▁Tulip	623
▁Peking	623
functie	623
str	623
▁Scan	623
gue	623
▁Av	622
hoff	622
fit	622
rijk	622
▁Rol	622
▁Cock	622
▁militaire	621
nan	621
▁Jackson	621
▁Gare	621
SM	621
▁Boeken	621
ret	621
bes	621
▁Flight	621
▁Palais	621
▁Matt	620
▁Gebruikers	620
▁Truck	620
▁Sri	620
▁Lente	620
▁GP	619
▁Parque	619
fo	619
▁Ir	619
▁Sevilla	619
▁Strip	619
kleding	619
▁go	618
▁Blues	618
▁Kantoor	618
▁Fruit	618
▁Bonaire	617
▁Well	617
▁Tiener	617
▁Canon	617
slag	617
modus	617
▁wil	617
paleis	617
xx	617
▁Carlos	617
▁Blanc	616
tina	616
▁Prinses	616
▁Alta	616
▁Wars	616
▁Klantenservice	616
stal	616
bond	616
Benz	616
▁BookingSuite	616
▁Mala	615
BS	615
jar	615
schakelaar	615
▁Venus	615
▁Tab	614
▁Bezoek	614
▁trein	614
▁Hemel	614
▁Tru	614
hoeve	614
MO	614
▁leverancier	614
▁Sleutelhangers	614
▁micro	614
vest	614
▁RS	613
▁Bin	613
▁Columbia	613
▁Age	613
▁Alt	613
oi	613
▁Extra	613
▁Investment	613
▁Moderne	612
▁Hoek	612
▁bedrijven	612
▁AM	612
▁RUB	612
▁PA	612
▁Chr	611
▁Bru	611
▁Safe	611
▁Hugo	611
▁Middellandse	611
▁Who	611
beeld	611
▁Nijmegen	611
▁mobiele	611
▁Ven	610
und	610
mine	610
ii	610
▁jaarlijkse	610
▁Eilanden	610
Net	610
tine	609
Bo	609
▁Financiële	609
▁Regiment	609
▁Ly	609
ges	609
▁Roland	608
taal	608
▁Select	608
commerce	608
▁Cel	608
▁account	608
č	608
Park	607
ı	607
▁Original	607
▁Us	607
uf	607
ful	607
lands	607
▁Kont	607
▁Tiger	607
kes	606
▁Ticket	606
▁NH	606
▁rand	606
door	606
▁Cape	606
▁toekomst	606
▁Beurs	605
▁Sho	605
gre	605
▁Sud	605
▁test	605
▁Transfer	605
▁Porno	605
▁Advocaten	604
▁Mass	604
▁Doctor	604
▁Voice	604
▁Liverpool	604
ili	604
▁Hannover	604
rac	604
▁Dis	604
aro	604
installatie	604
▁Pijp	603
▁Brouwerij	603
▁Boven	603
▁Gerard	603
▁Phil	603
▁Competition	603
laag	603
Azië	602
uw	602
▁Technologies	602
▁Wol	602
▁Kok	602
▁Testament	601
▁Pay	601
▁Shan	601
▁Lane	601
ister	601
▁Roma	601
▁Screen	601
sberg	600
wall	600
sion	600
▁Filter	600
▁Zeven	599
▁Mur	599
▁Rij	599
product	599
ō	599
productie	599
▁Roger	599
▁Congo	599
▁Jones	599
▁Highway	599
▁Cruz	598
▁Register	598
AI	598
▁Merken	598
jin	598
▁Lijst	598
▁internet	598
▁Wie	598
▁Napels	598
II	598
hem	598
▁Blanca	598
▁René	597
▁medische	597
▁derde	597
▁Movement	597
▁laat	597
isse	597
▁Style	597
▁Optische	596
▁master	596
▁Otto	596
▁Block	596
▁Cathedral	596
▁Burger	596
ín	595
▁Robin	595
App	595
anti	595
▁Economic	595
GO	595
▁Six	595
omi	595
▁Sou	594
▁Wan	594
▁Bistro	594
▁Sto	594
▁Logistiek	594
▁SL	594
lux	594
tru	594
▁Diamant	594
module	594
▁Equipment	594
zet	593
▁leer	593
▁Pandora	593
▁Pedro	593
▁BBQ	593
▁Wonder	593
▁draad	593
kaarten	593
▁Carmen	592
▁privé	592
▁Search	592
▁Lissabon	592
Marie	592
▁Fine	592
gor	592
form	592
gemeenschap	592
▁Chalet	591
▁Lloyd	591
▁Yamaha	591
TEN	591
rd	591
▁Hein	591
▁That	591
ries	590
▁druk	590
▁Pod	590
▁Snelle	590
▁Ph	590
▁luchtmacht	590
▁Santiago	590
▁had	590
▁ZAR	589
lee	589
▁Bush	589
rand	589
▁klimaat	589
tron	589
▁Sh	589
▁verder	589
▁Wel	589
▁Nintendo	589
macht	589
oc	589
feld	589
tang	589
▁federale	588
▁RC	588
▁Glass	588
▁Evenementen	588
▁Brasserie	588
▁Fletcher	588
▁Nano	588
▁Gala	588
▁Populaire	587
bb	587
▁Morgan	587
▁hoog	587
▁gaas	587
▁Polyester	587
▁minister	587
▁Rou	587
▁Nat	587
iërs	587
▁uitzicht	587
▁Gem	587
▁Add	587
▁jeugd	587
▁Kur	586
lang	586
stan	586
Mi	586
▁innovatie	586
▁dames	586
▁Doe	586
▁Export	586
▁HET	586
fort	585
▁Republic	585
▁Lite	585
▁Boeddha	585
▁Document	585
▁Vladimir	585
▁Bordeaux	585
▁Creek	584
▁SAR	584
draad	584
▁Luna	584
PI	584
▁Joden	584
mé	584
▁Hoteladres	584
tes	584
▁Dead	583
▁Curaçao	583
EX	583
▁Selectie	583
▁Jozef	583
▁Teatro	583
▁Messe	583
▁UNESCO	583
▁Supply	583
▁Vallei	583
label	583
▁Cover	582
rating	582
▁Atlanta	582
▁PS	582
▁Pak	582
laat	582
Contact	582
▁Circle	582
klep	582
▁Part	582
▁Pride	581
hoven	581
▁Ross	581
AG	581
▁Gre	581
▁maaltijden	581
▁vol	581
kon	581
FM	581
▁Archief	581
▁koninkrijk	581
rail	580
▁Stephen	580
▁Diego	580
▁Papa	580
PP	580
▁Label	580
▁Restaurants	580
▁Bruxelles	580
▁Animal	580
ult	580
▁Roy	580
kunde	580
▁jas	580
▁Paradijs	579
▁Image	579
▁Job	579
▁Koophandel	579
▁Log	578
▁Engine	578
▁Tennis	578
▁zone	578
▁Cell	578
camp	577
▁Joy	577
▁Pattaya	577
▁Dong	577
TER	577
▁Bloem	577
▁Vanaf	577
jet	577
BB	577
▁Skin	576
ore	576
▁boeken	576
▁evenement	576
far	576
▁Mission	576
lag	576
strasse	576
▁Bruin	576
▁Rover	575
rang	575
▁Stefan	575
ON	575
▁Nacional	575
ward	575
▁Senior	575
▁kanaal	575
▁Cru	575
straße	574
▁BBC	574
WA	574
▁Gy	574
▁Rembrandt	574
▁zonder	574
▁Chu	574
are	574
▁Andrew	574
▁Ob	573
ø	573
▁SAP	573
▁Snapshot	573
▁Regionale	573
quin	573
▁François	573
▁Fur	573
▁Rain	573
▁tri	573
▁Sustainable	573
qu	573
▁Draadloze	573
▁cookies	572
▁Korea	572
▁Pizza	572
AP	572
▁Christmas	572
▁Poeder	572
▁Vondelpark	572
TR	572
▁camera	571
▁landbouw	571
key	571
BO	571
▁Douglas	571
▁Actie	571
▁EA	571
▁Lot	571
iden	571
▁gebruikers	571
▁Kre	571
lite	571
goed	571
▁Medal	570
▁Brothers	570
als	570
▁Leverancier	570
tv	570
▁deuren	570
▁Muur	569
▁ME	569
▁Groothandel	569
▁From	569
cultuur	569
▁Bee	569
▁UV	569
world	569
ith	568
▁Kingsize	568
▁thuis	568
ière	568
▁English	568
▁Kings	568
SL	568
▁Bureaus	568
▁werken	568
▁Pic	567
▁Volkswagen	567
▁IS	567
▁Côte	567
▁Kennis	567
kal	567
▁Kun	567
▁Soort	567
▁Hel	567
Op	567
▁Marbella	567
▁Dijk	567
▁Take	567
Intercontinental	567
nk	566
▁blauwe	566
▁Quartet	566
ye	566
▁comité	566
▁technische	566
lig	566
▁Indian	566
▁Kroatië	566
▁Rein	566
Com	565
▁Schepper	565
▁bed	565
▁metalen	565
zan	565
▁Notre	565
mir	565
punten	565
▁Carlo	565
media	565
▁Nico	564
▁Half	564
ender	564
▁Sinds	564
▁Santo	564
rov	564
▁Fish	564
dos	564
ringen	563
▁VR	563
▁Hell	563
tree	563
itz	563
VE	563
ther	563
▁GO	563
▁Symphony	562
▁klassieke	562
▁Aires	562
ston	562
▁gouden	562
▁Turbo	562
rak	562
yang	562
▁Spr	561
oplossingen	561
wen	561
CH	561
cor	561
▁Naar	561
▁Suzuki	561
hat	560
▁Meet	560
▁Et	560
▁Nou	560
▁Seven	560
▁Jun	560
▁Allah	560
▁vzw	560
AF	560
▁Jacket	560
tum	559
▁Hol	559
ile	559
▁Taiwan	559
▁Under	559
CM	559
▁Benjamin	559
▁officiële	559
▁spa	558
AO	558
▁Riviera	558
▁Reparatie	558
periode	558
▁downloaden	558
iro	558
▁kleuren	558
▁EX	557
▁Slaapkamer	557
▁Tang	557
▁African	557
▁Vuur	557
chan	557
▁Monster	557
▁Ky	556
▁Hyper	556
uitrusting	556
▁Waarheid	556
▁Abraham	556
▁mens	556
NE	556
▁Hunter	556
oog	556
▁Deense	555
▁Zweden	555
▁Legal	555
▁Nicolas	555
gene	555
▁mensen	555
▁Textiel	555
▁Album	555
▁Train	554
▁Duurzame	554
▁Dé	554
CE	554
He	554
▁metro	554
▁Mario	554
▁toegang	553
▁Clean	553
▁Baron	553
▁bibliotheek	553
▁Coca	553
▁Handels	553
▁Australian	553
ua	553
▁vader	553
▁Spider	553
cus	552
erie	552
Shop	552
▁mat	552
leider	552
▁Hun	552
lingen	552
▁Ost	551
▁Geneeskunde	551
▁Plaats	551
bridge	551
▁Tol	551
▁Fre	551
ieke	551
▁Concertgebouw	551
ches	551
▁Klimaat	550
rek	550
▁event	550
▁Ant	550
▁Loft	550
stat	550
nu	550
ement	550
▁studio	550
ía	550
stadion	550
▁Three	550
ett	550
hoofd	549
▁Act	549
▁Architecture	549
▁Geert	549
▁gas	549
▁Vries	549
▁rol	549
▁Geel	549
▁Daarnaast	549
▁voorwaarden	549
horst	549
▁jouw	548
▁Form	548
▁bio	548
▁taal	548
▁Arm	548
▁Haus	548
Nederland	548
Her	548
▁Kitchen	548
▁Vietnam	548
▁Trump	548
Ka	547
▁vindt	547
▁nv	547
wet	547
▁Bro	547
▁Player	547
▁Perfect	547
ick	546
▁Vita	546
▁Professionele	546
▁Locatie	546
▁Update	546
▁rapport	546
▁Kid	546
bedrijven	546
▁Total	546
wang	545
shirt	545
▁studie	545
▁Omni	545
pur	545
iva	545
▁Slim	545
▁gevestigd	544
▁Consulting	544
▁Sor	544
hill	544
▁Lost	544
▁Logo	544
▁Twente	544
▁Alma	544
▁Lord	544
▁start	544
▁stars	544
pon	544
row	544
▁CE	544
▁AI	544
▁Made	544
▁vergadering	543
▁Kelly	543
▁Rand	543
hor	543
▁Culturele	542
tiek	542
▁Beeld	542
▁Hop	542
▁Lucas	542
▁Vander	542
▁AT	542
▁Yan	542
▁thema	542
▁glas	542
ture	541
▁Harbour	541
▁gebruiken	541
▁Paulo	541
ör	541
werken	541
TI	541
▁Institut	541
▁Cultural	541
▁Valle	540
kie	540
▁it	540
ontwerp	540
▁j	540
ties	540
▁UNI	540
▁Hulp	540
INE	540
sprogramma	540
aw	540
▁Tilburg	539
RI	539
▁Qu	539
▁goede	539
GE	539
▁Dansen	539
▁Tien	539
▁Vrij	539
▁st	539
rou	539
▁batterij	539
wing	539
▁Organisation	539
od	539
glas	538
▁macht	538
▁riyal	538
▁Valkenburg	538
▁Tags	538
▁zonne	538
vert	538
▁meest	538
▁Ghost	537
oord	537
▁Cash	537
▁iPad	537
▁Gin	537
slav	537
▁oud	537
▁Order	537
▁recht	537
▁Fall	537
▁Christ	536
▁Fat	536
loos	536
▁Quinta	536
▁trans	536
bron	536
▁Printer	536
"-	536
▁Joint	536
▁steen	535
AT	535
bio	535
▁café	535
middel	535
jarige	535
▁Wilhelm	535
poeder	535
ente	535
▁Verder	534
▁Woman	534
▁LinkedIn	534
sz	534
▁Mus	534
modellen	534
▁werkt	534
▁Leadership	534
▁Movie	534
▁Command	534
▁handel	534
▁Shu	534
▁Salt	533
▁Fen	533
No	533
▁grens	533
▁Death	533
▁Compact	533
▁Maar	533
cle	533
▁Mira	533
▁Gear	533
▁actie	533
NA	533
oku	533
▁Dynamics	533
▁Wave	533
▁Ale	533
gram	533
kunst	533
▁Dome	533
wetenschappelijk	532
▁Meta	532
▁week	532
stelling	532
▁Links	532
▁set	532
▁Cave	532
▁Veld	532
▁industriële	532
mie	532
▁Kopenhagen	532
▁Ji	532
actie	532
▁Julia	532
IR	531
▁Voorwaarden	531
▁Mensenrechten	531
▁Samenwerking	531
▁Champagne	531
use	531
▁Atlantis	531
▁bi	531
kai	531
▁Nylon	531
universiteit	530
Di	530
▁Philip	530
▁Cultureel	530
▁hout	530
▁Teen	530
▁Diesel	530
▁Wireless	530
▁Ty	530
▁Driver	530
`	530
lou	530
SO	530
essen	529
▁Bear	529
▁pers	529
meester	529
▁prachtige	529
tag	528
▁Alto	528
▁november	528
foto	528
cat	528
▁platform	528
kou	528
▁zoals	527
▁Trophy	527
toernooi	527
▁Basis	527
▁Atlantische	527
iële	527
▁Petersburg	527
▁kar	527
▁Portugal	527
▁Weekend	527
Plus	527
igheid	527
▁Vest	527
▁Basic	527
▁Cast	527
heids	527
Brabant	526
▁budget	526
▁hulp	526
▁Bot	526
OL	526
▁Choice	526
▁Zu	526
▁Kracht	526
EST	525
▁Cana	525
▁Dol	525
▁piano	525
ô	525
▁Graf	525
▁multi	525
Paul	525
▁Low	525
gg	525
▁Apk	524
▁Weer	524
▁bloemen	524
ART	524
▁Vila	524
tter	524
▁can	524
ü	524
▁Cambridge	524
▁Els	524
▁wedstrijd	524
▁Mun	524
▁Champions	524
tier	524
▁Wing	523
web	523
▁Hongkong	523
pression	523
▁Vijf	523
Link	523
▁Ultrasone	523
flex	523
▁LLC	523
heer	523
▁lid	523
▁Canadian	523
▁Empire	522
▁Das	522
chem	522
bil	522
▁Gang	522
▁Sleep	522
▁nabij	522
▁Westen	522
▁Vos	521
▁MBA	521
▁Cher	521
tank	521
▁Syrische	521
iseerde	521
▁Heilig	521
▁Studie	521
▁Bedrijven	521
enne	521
hin	521
▁Cas	520
zender	520
▁Circus	520
jas	520
▁Fil	520
▁Gaming	520
▁Turn	520
▁Artist	520
▁Johann	520
tube	519
▁Discovery	519
▁Francis	519
▁Trek	519
▁Friends	519
▁Talk	519
wijn	519
▁Sla	519
▁Mara	519
ped	519
▁Ontwikkelings	518
▁Chili	518
▁Olympisch	518
ington	518
eira	518
▁economische	518
Jo	518
▁Oak	518
▁Gebruiker	518
▁Events	517
▁Corner	517
▁Ara	517
▁Eenheid	517
▁NS	517
dt	517
▁Motion	517
▁Steven	517
▁Sai	516
▁Williams	516
▁User	516
AS	516
▁Wilson	516
▁Mallorca	516
ezen	516
nica	516
ère	516
▁Parade	516
▁USS	516
▁Jersey	516
▁Container	516
▁Viking	515
▁Selecteer	515
lov	515
▁Alles	515
▁LC	515
▁Khan	515
missie	515
▁Language	515
thi	515
▁Bowl	515
fan	515
▁Volgende	515
lau	515
wick	515
pha	515
▁Bruges	514
▁Vers	514
burger	514
▁Miller	514
gro	514
▁Thi	514
▁Glen	514
▁Communistische	514
▁Sterren	514
isa	514
▁Boe	514
Sa	514
gh	514
▁Custom	514
▁Module	514
▁Va	513
▁WhatsApp	513
▁Kust	513
IE	513
▁Broek	513
▁Scientology	513
RY	513
▁Ang	513
▁Oostende	513
▁Catalunya	513
ib	513
▁Industries	513
▁Ferrari	512
▁Andreas	512
▁Jeruzalem	512
▁bad	512
▁Snel	512
▁Ri	512
▁IJ	512
▁LG	512
▁Totaal	512
▁Escape	511
ph	511
▁EL	511
wer	511
▁Navy	511
▁Chef	511
▁casino	511
Lu	511
▁Waar	510
oe	510
▁Tsjechische	510
▁Expert	510
▁Zürich	510
▁Koper	510
VA	510
abi	510
▁Openbaring	510
lucht	510
cap	510
▁Boys	510
NC	510
▁Israëlische	510
▁Franz	509
lac	509
▁Brain	509
▁Jose	509
mmen	509
bell	509
▁Flying	509
last	508
▁historische	508
sko	508
▁TR	508
▁Electronic	508
▁Strategie	508
▁Civil	508
▁Rest	508
UT	508
LA	508
▁Virginia	507
▁É	507
▁Manufacturing	507
eve	507
▁Riu	507
zijde	507
mers	507
▁Saba	507
middelen	507
llo	507
▁Process	507
▁red	506
▁zegt	506
▁Compagnie	506
▁Got	506
mor	506
▁Porsche	506
▁Th	505
▁Hero	505
▁studenten	505
▁Avenida	505
nar	505
▁Campo	505
▁Kleding	505
dé	505
▁Leonardo	505
▁Shadow	505
ief	505
▁Prime	505
▁Paulus	505
▁zet	505
▁Chair	505
leer	505
verantwoordelijk	504
▁overheid	504
Hot	504
▁Display	504
▁Dak	504
▁kopen	504
komen	504
tik	504
▁Desktop	504
aert	503
wiel	503
▁boerderij	503
▁Tot	503
zaken	503
▁Lotus	503
pie	503
▁Fri	502
▁Tap	502
▁Iran	502
sco	502
▁Thailand	502
issen	502
▁Flow	502
▁natuurpark	502
▁kat	502
▁hoofdstad	502
buis	502
▁Riga	501
▁Marseille	501
care	501
▁loopafstand	501
▁Johanna	501
▁Mul	501
▁race	501
▁bescherming	501
▁Lid	501
▁Gri	501
zhou	501
▁Bass	501
▁Ai	500
▁SM	500
▁Print	500
▁Liga	500
▁Dave	500
▁Hostal	500
▁fa	500
rk	500
▁Clinic	500
▁Folk	499
hall	499
bike	499
▁grootste	499
▁architectuur	499
▁Pel	499
▁Aangepaste	499
▁eigendom	499
▁geopend	499
oso	499
▁Thai	499
ute	499
rah	499
▁PLC	499
▁Pools	498
life	498
▁kruis	498
▁Crypto	498
paneel	498
▁Kees	498
▁poeder	498
Web	498
▁Denemarken	498
lem	498
▁vlakbij	498
▁Historisch	498
▁Allen	498
▁Bovendien	498
vio	498
▁Fin	498
▁Hope	497
xi	497
▁After	497
ock	497
▁Mix	497
▁Striptease	497
▁serveert	497
▁Sem	497
▁Kant	497
▁Vrijheid	497
▁True	497
▁hoe	497
tunnel	497
▁Associatie	497
▁Cord	496
▁EC	496
rus	496
ès	496
▁reactie	496
▁vis	496
verlichting	496
▁Agri	496
▁LE	496
vent	496
ffe	496
▁Cra	496
▁show	495
▁Poli	495
Oost	495
Ta	495
▁Zilver	495
▁Wire	495
assi	495
▁Digi	495
isering	495
▁gids	495
▁Male	495
▁Content	494
▁Regional	494
▁Ple	494
▁Bloed	494
▁type	494
moto	494
Card	494
▁Berry	494
verbinding	494
▁Mile	494
▁Gabriel	493
▁controle	493
▁Had	493
but	493
onia	493
tos	493
▁Naast	493
muziek	493
▁Koel	493
ast	493
▁sp	493
▁directeur	492
BC	492
▁Floor	492
▁Thee	492
vet	492
▁Petrus	492
▁Rent	492
▁Falls	492
▁BA	492
▁Gele	492
▁gemeenschap	492
▁Page	492
▁Lux	492
▁Grond	492
▁boven	492
▁Joan	492
▁onderhoud	492
▁Xin	491
▁Thaise	491
ces	491
ić	491
Du	491
▁Yang	491
▁ha	491
▁stadion	491
▁rue	491
▁Grant	491
▁Zaal	491
а	491
uro	491
kra	491
▁Personal	490
▁Step	490
▁horloge	490
bay	490
▁Cargo	490
▁Sab	490
▁golf	490
Pierre	490
slot	490
▁beweging	490
▁Phone	490
▁internationaal	490
▁Hou	490
▁Planning	490
▁Autoverhuur	490
▁Calle	490
eller	490
▁Five	490
▁Technical	490
▁jonge	489
▁ambassade	489
▁Pharma	489
▁IC	489
Vi	489
▁Israel	489
nova	489
▁Courtyard	489
tt	489
▁Qui	489
campagne	489
▁Sheraton	489
glo	489
▁Diner	489
Europese	489
▁staats	488
▁Cottage	488
▁Mos	488
IER	488
▁kant	488
▁Ultimate	488
bis	488
ery	488
▁januari	488
▁Sensor	487
▁Stein	487
▁pan	487
▁Apartamentos	487
▁Openbare	487
▁Lieve	487
▁Louise	487
▁partner	487
▁Architecten	487
suite	487
LC	487
gal	487
▁Swiss	486
▁wereldwijde	486
kracht	486
▁Maritime	486
dek	486
▁Gr	486
▁Vanden	486
▁Stille	485
nacht	485
bestand	485
og	485
▁Sil	485
▁Haute	485
▁Zak	485
IB	485
▁meisje	485
▁Bois	485
▁Switch	485
▁Agenda	485
▁Hasselt	485
▁computer	485
▁Canyon	485
RA	485
elaar	485
▁Badkamer	485
▁dagen	484
▁Globe	484
MB	484
▁Egg	484
▁Tong	484
▁Dildo	484
▁Nieuwjaar	484
▁Sultan	484
Cam	484
GA	484
▁sch	484
▁Northern	484
ijnen	484
maal	484
▁Prijzen	484
batterij	484
▁gezicht	484
▁vijf	484
front	483
▁Kra	483
▁mi	483
▁Hei	483
▁Goddelijke	483
▁Dubbele	483
▁Vervoer	483
une	483
▁Note	483
store	483
ML	483
▁Heat	483
press	483
▁Tara	483
hoes	483
▁Afro	483
EE	483
arium	483
▁Porta	483
bia	483
▁zuidelijke	483
▁Braziliaanse	482
tai	482
deel	482
▁Chin	482
arm	482
eus	482
▁business	482
▁stand	482
aga	482
▁bo	482
▁Manuel	482
▁tijdschrift	482
▁grond	482
▁Stay	482
▁Technologieco	482
▁Ling	482
lit	482
▁landen	481
kwartier	481
▁kwam	481
▁Zeeland	481
gun	481
landen	481
aï	481
▁lounge	481
▁Final	481
rent	481
▁CR	481
▁Verdrag	481
▁Lille	481
▁Sale	481
▁Table	480
▁Gids	480
▁Bla	480
▁Stan	480
▁airconditioning	480
▁Condo	480
vid	480
blok	480
▁zien	480
▁Rijks	480
▁gezondheids	480
acht	480
▁vervoer	480
▁im	480
chel	479
HA	479
▁Ellen	479
▁Toy	479
▁Agro	479
makers	479
▁Fra	479
eil	479
ijk	479
▁Linda	479
AB	479
▁midden	479
▁Anthony	479
▁Beeldende	479
▁wet	479
▁ster	478
▁Syn	478
▁lente	478
▁Bow	478
ave	478
▁award	478
▁Systemen	478
boy	478
▁Titanium	478
Bank	478
▁scherm	478
▁vlucht	478
▁Ou	477
▁Insurance	477
achtige	477
wezen	477
cut	477
court	477
▁Gezondheids	477
▁Mechelen	477
▁Philadelphia	477
▁March	477
▁Jules	476
okken	476
▁Credit	476
É	476
▁Hampshire	476
▁Cur	476
chu	476
▁Trip	476
oy	476
▁Laboratory	476
▁Gym	476
▁Films	475
▁leden	475
▁Ship	475
▁transport	475
▁Plein	475
▁Horn	475
umi	475
▁Sir	475
▁Ridder	475
▁Samuel	475
▁Hyatt	475
hn	474
▁afslag	474
▁snelle	474
ista	474
MM	474
▁Engineer	474
▁Dual	474
▁Reizen	474
BR	474
ual	474
▁Panama	474
▁Vera	474
▁Justice	474
▁Accessoires	474
▁Profeet	474
▁Ran	474
strategie	474
▁Kapel	474
▁SE	474
ui	473
▁Come	473
▁Fal	473
ANG	473
server	473
Over	473
orkest	473
▁Cook	473
▁Italiaans	473
Line	473
▁Machinery	473
polis	473
▁Honor	473
PL	473
▁́s	472
forum	472
matic	472
▁Cancer	472
▁Arab	472
oplossing	472
▁Volledige	471
ted	471
av	471
▁Lincoln	471
▁Zilveren	471
▁lijst	471
vier	471
speler	471
▁Cuba	471
kh	471
Ja	470
tool	470
knop	470
▁Kate	470
▁opgericht	470
stadt	470
▁Mak	470
▁Kent	470
▁Check	470
yuan	470
lim	470
One	470
Brittannië	470
ters	470
▁delen	470
▁BR	470
iq	470
fabrikant	470
duc	470
▁Ernst	470
▁Seattle	470
▁Manhattan	469
▁Batterij	469
toon	469
▁sex	469
skaya	469
▁Nar	469
▁islamitische	469
▁levens	469
▁Porte	469
▁Tiffany	469
▁Drug	469
▁Contemporary	469
én	468
▁Epi	468
▁Flora	468
pop	468
▁Liberty	468
aba	468
▁Ronald	468
▁Chen	468
▁Ferries	468
ern	468
▁christelijke	467
spot	467
bestanden	467
▁televisie	467
ž	467
▁Joost	467
▁Quest	467
▁Stedelijk	467
our	467
▁ga	467
avond	467
▁Luis	467
▁Ondersteuning	467
istisch	467
▁Helsinki	467
sun	466
▁Pla	466
esh	466
toe	466
TU	466
▁Graduate	466
▁Draad	466
▁Wang	466
▁pop	466
▁Vastgoed	466
▁Dieren	466
▁Mozart	466
▁Kevin	466
://	466
▁Irish	466
▁Hon	466
vil	466
▁Fame	466
▁Terug	466
▁Latijns	466
iger	466
ario	465
▁Fabric	465
tten	465
▁Pala	465
▁Split	465
aars	465
▁Massage	465
tics	465
▁Haarlem	465
▁Lip	465
▁Local	465
ssysteem	465
illon	464
bier	464
▁Belt	464
▁Johnny	464
isha	464
▁RT	464
▁Elektronische	464
folie	464
qua	464
▁Korte	464
▁kleding	464
▁Pub	464
stukken	464
▁Hangzhou	464
▁Goed	464
▁Midi	464
▁Pagina	464
▁veld	464
shu	464
▁Rick	464
▁RVS	464
▁voet	463
▁Nobelprijs	463
▁Defense	463
congres	463
▁Sunny	463
nal	463
▁Electronics	463
▁Rey	463
CP	463
▁dell	462
▁Abdij	462
zia	462
▁Abd	462
▁kracht	462
PS	462
IG	462
▁Pil	462
▁Amber	462
etto	462
▁Gert	462
gli	462
▁Aviation	462
▁Parts	461
▁automatische	461
▁lange	461
▁Want	461
Life	461
▁handels	461
▁Thor	461
▁Gray	461
▁Millennium	461
▁Sat	461
▁Tijdens	461
▁Close	461
▁Maker	461
City	461
▁Verona	461
▁beeld	460
▁AF	460
▁Kaiser	460
▁Hin	460
▁Agent	460
▁Onderzoeks	460
city	460
standaard	460
▁Cornelis	459
HS	459
▁Wald	459
▁Thermo	459
▁Ul	459
▁Mate	459
▁Lit	459
▁Bab	459
▁zak	459
▁oosten	459
▁Mee	459
▁Elk	459
▁Rotterdamse	459
XL	459
evenement	458
▁Peugeot	458
MER	458
▁Dai	458
▁Coin	458
▁Kay	458
▁ES	458
VR	458
▁Klanten	458
EO	458
▁Hair	458
cheng	458
▁rijk	458
BL	457
▁Wildlife	457
hen	457
▁Comfi	457
▁evenementen	457
World	457
rian	457
nick	457
▁Beat	457
▁Dou	457
▁Helm	457
osa	456
▁Rechten	456
▁feest	456
▁Gast	456
View	456
▁Gerenoveerd	456
▁Complete	456
▁mode	456
Ã	456
▁gebouwd	456
ovitsj	456
services	456
▁Hil	456
berger	456
fil	456
▁Menu	456
▁Chan	456
▁eeuw	455
▁Pur	455
▁Glasgow	455
HR	455
print	455
▁Georgia	455
▁wij	455
▁Norman	455
ERS	455
monitor	455
eda	455
home	454
▁Terras	454
trop	454
inck	454
▁katholieke	454
▁Say	454
▁Maris	454
▁Vancouver	454
district	454
SR	454
▁art	453
kraan	453
▁Brusselse	453
▁Kortrijk	453
▁Risk	453
▁Task	453
sensor	453
▁Blok	453
▁Koen	453
▁Dongguan	453
geschiedenis	452
iti	452
▁groen	452
▁vrij	452
ī	452
▁Noordelijke	452
ao	452
▁Wageningen	452
▁you	452
▁Toyota	452
▁Advies	452
DM	452
▁Gewest	452
▁Sul	452
▁Spy	451
▁Bedroom	451
iano	451
▁Mama	451
▁Rom	451
LO	451
NO	451
▁Money	451
▁Turks	451
▁MO	451
stroom	450
▁Vezel	450
▁AV	450
▁Gateway	450
vic	450
▁Nicole	450
dans	450
▁THE	450
▁Mensen	450
ija	450
▁Range	450
▁Brits	450
pre	450
▁geeft	450
▁onderneming	450
▁Feest	450
▁Resources	450
motoren	449
▁snel	449
▁Jacobs	449
▁Kaap	449
▁Stof	449
▁zit	449
▁GB	449
Ad	449
▁FIFA	449
▁Willy	449
▁Consortium	449
▁Andre	449
▁Controller	449
edel	449
▁Never	449
▁langs	448
▁Vel	448
verband	448
ensis	448
▁maakte	448
nt	448
▁Montreal	448
▁Siemens	448
▁Pipe	448
ming	448
▁Metalen	448
▁kapel	448
▁vrede	448
▁toernooi	447
▁Dell	447
ific	447
▁Baden	447
shire	447
rel	447
Check	447
▁Ei	447
nor	447
▁Emiraten	447
=	447
▁SK	447
tak	447
▁Wiel	447
ET	447
▁Budapest	447
▁Onderdelen	446
DP	446
▁Coco	446
ön	446
jun	446
▁Grijze	446
▁Kiezelstrand	446
▁BVBA	446
▁Packaging	446
▁Georges	446
▁Gui	446
its	446
▁Sala	446
▁Duin	446
▁Ac	446
▁Yacht	446
▁lokale	446
▁Communications	445
CD	445
mijn	445
▁Solid	445
HO	445
pos	445
ald	445
tia	445
DB	445
hausen	445
▁Tourism	445
▁speel	445
MC	445
▁Jr	445
▁Kerstmis	445
sens	444
▁Webshop	444
sum	444
▁Marrakesh	444
tig	444
ule	444
▁Zal	444
▁Kali	444
▁neo	444
Do	444
TEC	444
▁Rot	444
▁Kei	444
▁eind	444
▁Ooster	444
dre	444
rine	444
▁Rescue	443
▁ijs	443
yne	443
▁Chrome	443
nell	443
logie	443
bag	443
▁neemt	443
teken	443
kundig	442
▁Levens	442
rod	442
▁Malta	442
concert	442
▁TOP	442
register	442
MI	442
▁Spiegel	442
▁Verde	442
▁ligging	442
chip	442
hou	442
▁Floris	442
▁Onafhankelijk	442
sburg	442
▁Generation	442
▁korte	442
zuur	442
▁Cable	442
ush	441
▁Focus	441
Po	441
data	441
▁Working	441
▁Koe	441
▁Consumer	441
soft	441
▁Vas	441
▁Interieur	441
▁Environment	441
vie	441
▁Prat	441
▁geest	441
▁Coral	441
OM	441
Persoonsgegevens	441
ér	441
▁manager	441
°	440
▁Jordan	440
center	440
illy	440
▁zullen	440
▁Tools	440
▁DB	440
▁Bil	440
▁Brian	439
▁Regering	439
▁bekend	439
anta	439
xin	439
ants	439
under	439
▁vormen	439
▁Hey	439
▁kwaliteits	439
▁Demo	439
▁Kel	439
▁Deur	439
és	439
inus	439
▁plaat	439
▁Tafel	439
▁Swing	439
▁goud	439
ijt	439
▁Miguel	439
▁Castell	438
▁Olympic	438
▁Alicante	438
▁Malaga	438
▁Istanbul	438
▁Universitair	438
▁Value	438
▁professionele	438
nest	438
▁Seks	438
▁Kampioen	438
▁Socialistische	438
▁Triple	438
ox	438
▁mede	438
▁Ferdinand	438
ade	438
▁har	438
▁Howard	437
▁islam	437
▁Conservation	437
▁blad	437
▁President	437
▁kampioen	437
▁Sei	437
▁NK	437
▁Fresh	437
ated	437
▁Hooggerechtshof	437
▁Granada	437
shin	437
▁machines	437
är	437
▁februari	437
▁Crowne	437
▁Hang	437
uwen	437
▁Arbeid	437
▁cursus	437
▁Tsjechië	436
▁Carolina	436
▁Serra	436
▁klant	436
iko	436
▁Kempen	436
izz	436
▁AP	436
▁Source	436
▁Sak	436
▁Turijn	436
▁Gi	436
leiding	436
▁Works	435
doc	435
▁Yellow	435
▁Parel	435
vision	435
▁Indonesië	435
▁Dy	435
▁Levi	435
studie	435
▁Portugese	435
▁Nelson	435
Sport	435
vlucht	435
▁DR	435
▁dochter	434
▁gebruikt	434
methode	434
roy	434
▁Borg	434
▁up	434
▁Legend	434
▁Milan	434
▁Drum	434
▁Major	434
▁hele	434
▁badkamers	434
▁Stalen	434
▁Alfred	434
▁Pick	434
▁Mond	434
Vlaanderen	433
schoenen	433
▁Oasis	433
sar	433
span	433
▁EK	433
tail	433
▁Biënnale	433
▁Deal	433
▁Diana	433
▁Garde	433
▁Kwaliteits	433
▁Mobility	433
▁werden	433
▁Rich	432
ambo	432
ê	432
ão	432
int	432
MF	432
▁Coach	432
▁Rhein	432
▁Squadron	432
▁Partnership	432
Mer	432
▁Jing	432
▁Kort	432
▁categorie	432
Restaurant	432
▁CL	432
▁Terre	432
Master	432
ral	432
▁Gordon	432
instellingen	432
▁vertegenwoordig	432
staat	432
▁Chamber	432
basis	432
▁Assembly	431
▁Pokémon	431
▁Dagen	431
▁Crown	431
▁Res	431
gl	431
portaal	431
▁Nee	431
▁kind	431
▁Seat	431
▁hostel	431
▁bisschop	431
▁Import	431
▁Eagle	431
▁klasse	431
▁Horloge	431
ductomschrijving	430
▁Salzburg	430
alis	430
▁Hongaarse	430
▁Reef	430
▁Blood	430
▁Beleid	430
Cat	430
iza	430
▁Cream	430
▁Vehicle	430
cell	430
poli	430
▁houten	429
▁duurzame	429
▁voeding	429
▁Sitemap	429
scheid	429
▁groei	429
▁Mora	429
LAND	429
▁Mau	429
voeding	429
▁Automatic	429
▁Dankzij	429
▁Wales	429
▁po	429
adapter	429
▁Activiteiten	429
▁Rib	429
▁Hosting	429
▁Rai	429
▁Kreta	429
▁Lucky	428
▁Bri	428
▁Communication	428
gracht	428
gem	428
▁Fantasy	428
▁McC	428
▁Fest	428
tent	428
ichi	428
▁Andrea	428
▁Echo	428
TP	428
TL	428
cast	428
▁Russell	428
▁Anale	428
▁Sagrada	428
▁NO	428
▁Klooster	427
terrein	427
DO	427
▁rechts	427
▁staan	427
keten	427
Ch	427
Mon	427
▁Hoop	427
▁Sexy	427
▁Sebastian	427
▁Booking	427
▁MB	427
RT	427
aq	427
▁Excel	427
▁materiaal	426
cursus	426
▁Schu	426
▁Kast	426
▁Economics	426
▁Mountains	426
▁Kern	426
▁Caroline	426
Noord	426
ics	426
ize	426
▁Donald	426
▁Macht	426
▁Giant	426
▁Bright	426
▁Tas	426
▁Lewis	426
▁Bescherming	425
▁mag	425
▁Finland	425
▁Kle	425
Groep	425
anga	425
▁°	425
▁Ö	425
▁Beek	425
▁Pilot	425
▁missie	424
lager	424
▁Haagse	424
ook	424
▁Gerrit	424
▁Vet	424
itu	424
▁Save	424
ace	424
▁Sign	424
platz	424
gers	424
▁FA	424
tuig	424
▁Christelijke	424
unt	423
▁douane	423
▁PlayStation	423
▁TA	423
▁Jungle	423
▁Doc	423
▁FX	423
uga	423
▁Only	423
▁Gra	423
rock	423
▁Az	423
▁Mitsubishi	423
scher	423
▁Stap	423
▁lichaam	423
cio	422
▁Vienna	422
was	422
▁Almere	422
▁Rainbow	422
▁zuid	422
▁Zuidelijke	422
▁Wien	422
staal	422
▁Friedrich	422
▁Huizen	422
▁Dennis	422
▁Montblanc	422
▁Monitoring	422
FX	422
▁Bok	422
EG	422
tino	422
▁Natuurlijke	422
Port	422
▁Mexicaanse	422
▁Keizer	421
scentrum	421
▁Fiat	421
▁Cube	421
▁meester	421
▁Remote	421
stick	421
cke	421
lina	421
▁Mes	421
▁label	421
▁Alan	421
▁Ground	421
▁Michiel	421
rig	421
»	421
▁PM	421
▁Desert	421
▁blauw	421
▁Stayokay	421
▁KU	421
anza	420
▁all	420
▁Groeps	420
ego	420
▁Bastion	420
▁Int	420
▁Rapid	420
▁Oslo	420
bury	420
▁Lago	420
kt	419
▁Egypte	419
dou	419
▁Hampton	419
▁Most	419
▁kom	419
▁Koruna	419
▁Nina	419
▁ongeveer	419
klooster	419
▁Cali	419
We	419
▁Oliver	418
▁Opslag	418
▁Disease	418
uz	418
▁ABS	418
▁Thema	418
▁Ferro	418
▁Dorp	418
down	418
Live	418
▁Benidorm	418
space	418
▁Ala	418
▁men	417
scommissie	417
ivo	417
▁tijdschriften	417
▁Huur	417
▁DG	417
▁pand	417
waard	417
▁Neuro	417
CK	417
So	417
cker	417
▁Duke	417
mun	417
wacht	416
▁Konings	416
▁Isabel	416
pit	416
▁Career	416
Voor	416
▁Matthew	416
Book	416
haar	416
▁jaren	416
ison	416
▁Historic	416
▁dak	416
▁Meisje	416
▁Flo	415
▁Kennedy	415
hoorn	415
▁Tram	415
▁zowel	415
▁Rap	415
▁december	415
ffer	414
▁Vit	414
play	414
▁Jardin	414
Care	414
uwe	414
▁Offshore	414
▁persoonlijke	414
uze	414
▁XXX	414
▁Birmingham	414
▁Harley	414
tain	414
▁Aa	414
vakantie	413
icus	413
eri	413
▁MAR	413
▁Developer	413
▁Mou	413
▁toevoegen	413
mina	413
hir	413
▁Koude	413
ever	413
▁Disc	413
▁Veel	413
▁not	413
PM	413
▁CV	413
▁LEIDENE	413
\\'	413
ça	413
▁Nissan	413
▁Historische	412
▁MX	412
▁Bologna	412
▁Medi	412
▁Sao	412
▁Penthouse	412
▁Raymond	412
▁Dot	412
▁resolutie	412
▁Theme	412
▁slot	412
▁Sneeuw	412
▁Sav	412
▁mensenrechten	412
▁pri	411
iff	411
interface	411
▁Czech	411
▁Provence	411
▁Continental	411
DEN	411
▁Schoenen	411
xia	411
▁Dresden	411
ç	411
▁Kiss	411
▁Blind	411
▁aardbeving	411
oloog	411
▁TC	411
▁Rus	411
trek	410
assen	410
▁Vic	410
veer	410
uil	410
▁Tee	410
▁economie	410
energie	410
▁Deco	410
▁Here	410
aris	410
lat	410
vrij	410
▁min	410
▁zorg	410
▁Guardian	410
▁Tax	410
▁Iris	410
reg	410
▁republiek	409
▁Royale	409
hab	409
▁Moore	409
▁Mirror	409
ssen	409
▁Ambassade	409
▁Grace	409
▁profeet	409
LP	409
▁Impact	409
▁Industrieel	409
▁MSc	409
▁mu	409
▁Born	409
▁wetenschap	409
academie	409
▁Leeuwarden	409
▁Round	409
▁Opel	409
▁Ace	409
▁Pac	409
▁Roe	409
▁Hamilton	408
ianen	408
▁Osaka	408
▁Recht	408
▁mij	408
▁Volgens	408
act	408
▁Lamb	408
▁Mine	408
▁OM	408
bul	408
PRO	408
▁draadloze	408
▁Musical	408
▁Storage	408
▁Desk	408
▁Break	408
▁Wen	408
▁HK	408
▁SPA	407
▁Hongarije	407
elt	407
bek	407
▁Shield	407
▁maat	407
Ru	407
▁Device	407
lander	407
lik	407
▁Dos	407
ş	407
▁Tuinen	406
▁fort	406
tsu	406
mini	406
▁love	406
My	406
gebruikers	406
▁genaamd	406
▁Escort	406
ité	406
▁Kh	406
▁ko	406
Cola	406
ob	406
▁Joods	406
▁Basel	406
▁Onroerend	405
char	405
EI	405
▁Bedden	405
▁rookvrije	405
fest	405
▁Ami	405
▁Salou	405
▁Arch	405
▁Pocket	405
▁Spot	405
grad	405
▁Kingdom	405
bij	405
LM	405
had	405
▁Castel	405
balk	405
uta	405
▁Helen	405
schakelaars	405
▁Egyptische	405
▁Giovanni	404
▁Corn	404
▁bekijken	404
bir	404
PT	404
▁Drag	404
▁Relations	404
voering	404
▁MET	404
agentschap	404
▁Maha	404
▁Olympia	404
▁Visual	404
dong	404
ech	404
▁BO	404
mund	404
lib	404
▁hemel	404
▁xHamster	404
▁Sad	403
Am	403
▁Veer	403
zaak	403
▁doel	403
▁Felix	403
rap	403
▁Hond	403
▁Billy	403
▁Devil	403
Home	403
▁Carnaval	403
▁Watt	403
kust	403
▁Name	403
VI	403
sector	403
▁verslag	402
▁geld	402
sraad	402
▁Assemblage	402
IV	402
lies	402
ENT	402
▁Forces	402
▁Liner	402
▁LI	402
som	402
CR	402
▁Heide	402
▁VPN	402
rische	402
▁Woon	402
steun	402
oon	402
▁Tallinn	402
▁Fleur	402
▁ru	402
hong	402
▁Burn	402
west	402
ION	401
Max	401
ym	401
▁Hardware	401
▁Things	401
▁Bisdom	401
quet	401
meubilair	401
▁Boris	401
▁CON	401
▁Vinci	401
▁Hammer	401
▁paus	401
INA	401
▁dichtbij	401
hel	401
▁WE	401
▁Facility	401
ussen	401
▁Isle	401
Med	401
▁Rust	401
COM	400
dro	400
▁tas	400
▁Caribbean	400
▁Romeo	400
cas	400
ible	400
▁BB	400
ving	400
▁Daniël	400
▁Bau	400
nov	400
ack	400
wissel	400
▁voorzien	400
law	400
fabrikanten	400
▁stelt	399
▁Hoger	399
▁GS	399
leen	399
▁Dhabi	399
▁zondag	399
▁services	399
▁Ramada	399
ial	399
▁onderdeel	399
▁Indoor	399
▁Trend	398
▁Palermo	398
mil	398
▁Voeding	398
▁About	398
ction	398
▁Cookie	398
▁Hubert	398
▁Blad	398
▁Match	398
▁Vall	398
▁Peak	398
ís	398
tuur	398
▁Champs	398
kawa	398
▁Instellingen	398
▁Spe	398
▁Alpine	398
▁Hertog	398
jen	398
▁Lar	398
▁Tak	398
UM	398
gt	398
▁Douche	397
▁Chocolate	397
▁Mooi	397
▁koel	397
▁Harbor	397
tique	397
cht	397
▁eenheid	397
leef	397
regeling	397
▁Revolution	397
▁Campanile	397
▁Lig	397
▁Bai	397
▁Baai	397
▁ab	397
▁Rum	397
All	397
leger	397
▁volledige	397
▁hal	396
▁AN	396
▁Noorden	396
enko	396
CS	396
girl	396
logo	396
å	396
non	396
mand	396
lak	396
EC	396
▁traditionele	396
radio	396
▁restaurants	396
▁Melk	396
▁Openbaar	396
▁Mesh	396
▁Harvard	396
▁Record	396
▁Tenerife	396
▁klein	396
▁Plat	396
▁Bram	396
▁Tattoo	396
▁Asian	395
ANT	395
editie	395
ă	395
▁Rimini	395
faciliteiten	395
ografie	395
woud	395
▁bin	395
▁Stella	395
▁Islam	395
▁vs	395
eria	395
OG	395
▁Raw	395
▁Que	395
ors	395
UP	394
▁Bog	394
▁Property	394
▁elektronische	394
ENS	394
FS	394
▁Pit	394
▁Musea	394
▁dieren	394
ár	394
▁Bod	394
UN	394
AST	394
▁tafel	394
▁Dress	393
▁WA	393
▁keuze	393
▁suite	393
▁Zonder	393
vas	393
▁Esther	393
temperatuur	393
assemblage	393
dd	393
Day	393
itische	393
▁Joris	393
golf	393
▁Ebony	393
illi	393
▁kamp	393
pier	393
ill	393
▁fi	392
▁Arnold	392
▁Sander	392
▁Fab	392
▁Foot	392
▁Nation	392
▁westen	392
▁Medici	392
eth	392
▁keizer	392
▁Paard	392
UK	392
groepen	392
▁rechtbank	392
burn	392
mod	391
▁accessoires	391
▁Webcam	391
▁Knight	391
fish	391
▁Walker	391
▁domein	391
▁Pomp	391
SU	391
▁Bir	391
▁Geld	391
▁ring	391
▁Xbox	391
activiteiten	391
▁MD	390
▁Dubrovnik	390
craft	390
stok	390
▁Persoonlijke	390
▁Appel	390
▁Vor	390
▁Amar	390
enstein	390
shima	390
▁opleiding	390
▁Pres	390
▁skigebied	390
Er	390
▁Pis	390
▁Tunnel	390
▁Certs	390
▁Designer	390
▁Affairs	390
▁Slimme	390
cin	390
HE	390
▁Tussen	389
worth	389
▁Dreams	389
▁Moncler	389
▁Flanders	389
▁Louvre	389
▁Japans	389
▁Kroon	389
▁Galactische	389
stellen	389
bas	389
▁Margaret	389
icht	389
nier	389
concept	389
San	389
hul	389
zien	389
▁Ride	389
©	389
▁ging	389
vu	388
▁Ritz	388
tun	388
▁pvc	388
▁home	388
GS	388
▁cat	388
dog	388
Ni	388
▁Sugar	388
▁CAR	388
▁Toulouse	388
▁Ryan	388
vast	388
▁Wy	388
▁printplaat	388
▁systemen	388
jer	388
▁Database	387
▁Wilhelmina	387
▁Ré	387
▁muur	387
▁Solution	387
▁England	387
▁Geluid	387
LY	387
zie	387
▁Bath	387
rant	387
uda	387
▁Arizona	387
pl	387
▁Sophia	387
▁Cyprus	387
analyse	387
UB	387
▁Instant	387
▁Commerce	386
▁Lucy	386
▁waarheid	386
▁boot	386
sme	386
auw	386
▁installatie	386
▁Bristol	386
sem	386
▁Ramblas	386
meenschappelijke	386
▁Tape	386
▁so	386
ALL	386
oz	385
▁verjaardag	385
plaatsen	385
▁Rozen	385
▁CRM	385
Europe	385
▁Delen	385
▁Border	385
▁Napoleon	385
OU	385
▁Viva	385
▁Eeuw	385
hm	385
RL	385
▁Kir	385
▁Middel	385
lust	385
▁Alba	385
▁finale	385
directeur	385
fal	385
▁musea	385
▁Cad	384
▁vragen	384
▁Paus	384
▁Stanley	384
▁Datum	384
▁Specialist	384
AA	384
IX	384
▁Mali	384
▁Rugby	384
Pass	384
training	384
▁zou	384
▁dierentuin	384
▁Ontbijt	384
Korea	384
Zeeland	384
▁Familia	384
sim	384
▁Jansen	384
▁Indische	384
kas	384
▁TS	384
▁ho	383
ò	383
▁verschillende	383
▁Sk	383
▁Nutrition	383
▁echte	383
▁Maurice	383
▁Resource	383
▁Mae	383
▁Egmond	383
▁merken	383
kruis	383
▁eu	383
CV	383
▁Bran	383
wy	382
processor	382
nus	382
▁Davis	382
▁luchtvaart	382
▁burger	382
▁Blockchain	382
anen	382
iri	382
may	382
IK	382
▁Sus	382
▁Connector	382
pass	382
ration	382
▁Asset	382
▁klantenservice	382
▁Commercial	382
ois	382
▁Astro	382
partners	382
VO	382
▁Eduard	382
Treinen	382
▁Later	382
aka	382
arch	381
EA	381
atur	381
lli	381
laser	381
▁Schotse	381
▁ontbijt	381
opslag	381
▁Eigen	381
asa	381
dorf	381
partner	381
▁Len	381
▁Independent	381
bessen	381
▁Filip	381
ities	381
▁Tand	380
initiatief	380
▁Pays	380
BT	380
▁Ridge	380
▁Spoor	380
▁wind	380
▁Astrid	380
▁Nij	380
▁Australia	380
vermogen	380
▁Marcus	380
▁Bun	380
▁bezoek	380
▁ondersteuning	380
FE	380
vogel	380
▁MK	380
chin	380
▁Invest	380
▁Mia	380
she	380
▁klanten	380
▁Lokale	379
▁Bis	379
▁Qi	379
▁Police	379
▁ronde	379
▁HE	379
▁Anderson	379
kundige	379
▁bier	379
uel	379
▁VW	379
▁Stem	379
▁Vorm	379
▁Mansion	378
▁Berk	378
▁Concours	378
▁Tell	378
▁Machts	378
▁lederen	378
▁ju	378
▁Vlam	378
▁val	378
films	378
nemer	378
▁Noordzee	378
▁Rijst	378
▁daar	378
wand	378
▁Wijk	378
ized	378
run	378
▁Brooklyn	378
py	378
hui	378
▁Woud	378
▁echter	378
▁Assessment	377
▁Nut	377
▁Journey	377
HC	377
▁Olivier	377
▁Cutter	377
▁vond	377
▁openbare	377
Time	377
▁maand	377
werf	377
zw	377
▁Secure	377
opleiding	377
▁Production	377
projecten	377
▁Genootschap	377
▁Precisie	377
zakken	377
▁Irak	377
verzekering	377
▁Clip	376
esse	376
deur	376
loo	376
▁euro	376
▁Titan	376
Cams	376
▁Zin	376
▁VII	376
▁Level	376
▁Cabo	376
▁HO	376
schen	376
▁Clear	376
bout	376
▁Rik	376
▁Towers	376
▁Crazy	376
guer	376
titel	376
▁Cars	376
kok	376
▁Branch	376
▁Tent	376
phone	376
▁Ped	376
▁Charleroi	376
stre	375
▁pad	375
▁Nicolaas	375
▁Phantom	375
ologische	375
▁Hus	375
▁Rim	375
stop	375
▁Gau	375
stichting	375
▁UL	375
▁Michigan	375
spelen	375
▁Verre	375
▁maar	375
▁Roemenië	375
born	375
▁Imp	374
cross	374
base	374
▁Leeuwen	374
▁GL	374
▁Know	374
▁Jessica	374
▁Saga	374
▁lied	374
dicht	374
▁Kha	374
▁prinses	374
boeken	374
▁Lucia	374
neu	374
▁Buis	374
▁Roche	374
▁VOOR	374
game	374
FR	374
scanner	374
▁OR	374
▁Fran	374
▁Lynn	373
▁Accommodatie	373
Land	373
▁MI	373
▁gr	373
▁Beck	373
▁heuvel	373
▁pc	373
▁bezienswaardig	373
▁komen	373
▁q	373
oh	373
▁Koreaanse	373
FT	373
▁Elf	373
▁Chal	373
▁college	373
▁lang	373
▁Springs	373
▁Vil	372
inga	372
▁jr	372
▁Amy	372
▁nam	372
volle	372
▁Swan	372
▁Saab	372
▁Luchtmacht	372
▁Opgericht	372
otto	372
▁moslims	372
▁Oracle	372
▁Chemical	372
geving	372
▁Icon	372
▁Loire	372
▁plan	372
eke	371
chon	371
▁Fuji	371
▁Retro	371
▁Televisie	371
▁Falcon	371
▁Kraft	371
▁Monica	371
eman	371
▁German	371
▁Alleen	371
▁Installatie	371
waar	371
RIS	371
▁Pisa	371
▁Any	371
Is	371
▁BC	370
▁Oostenrijkse	370
trein	370
▁Marrakech	370
▁Beta	370
beke	370
▁Symposium	370
Val	370
▁logo	370
▁Kro	370
▁Schoen	370
▁Donau	370
klem	370
ines	370
Pay	370
▁Natuurpark	370
mate	370
▁Stel	370
▁Mrs	370
▁Pine	370
▁Cartier	370
hulp	369
▁Mans	369
Hertogenbosch	369
mix	369
▁Bungalow	369
Arc	369
▁Ah	369
▁Healthcare	369
▁Baker	369
▁Cooper	369
ziekenhuis	369
▁Mons	369
▁Eind	369
▁Texel	369
Pe	369
▁Price	369
chang	369
▁moet	369
CT	369
▁Denis	369
Ne	369
▁Julie	369
kapel	369
▁Heroes	369
▁Parker	369
▁Scherm	369
▁Velo	369
cur	369
Club	369
▁strategie	368
▁vandaag	368
cup	368
schrift	368
▁terras	368
▁pas	368
stream	368
rekening	368
▁EVA	368
▁Extract	368
▁Mata	368
▁Kil	368
▁Cassi	368
▁Boon	368
China	368
hut	368
▁Need	368
▁bieden	368
asse	368
erend	368
▁Julian	368
svoorwaarden	367
▁Douane	367
▁metaal	367
voorzitter	367
ueel	367
zh	367
▁Igor	367
uc	367
ridge	367
▁Bug	367
▁noord	367
▁Punt	367
▁Christopher	367
ovo	367
▁Colorado	367
▁Government	367
▁plastic	367
Een	367
▁niveau	367
▁Voet	367
▁Row	367
BI	366
▁Dry	366
OW	366
villa	366
▁kreeg	366
▁LP	366
▁rem	366
essa	366
▁kern	366
tegenwoordiger	366
▁porno	366
▁Essen	366
▁Nr	366
▁laser	366
▁Minister	366
▁Restaurante	366
▁Prima	366
▁Put	366
▁Candy	366
eli	365
boer	365
▁dos	365
▁ontwikkelings	365
ijnse	365
▁Vriend	365
OB	365
▁Observatory	365
▁Opening	365
▁Ley	365
▁Mediterrane	365
▁reeks	365
▁huizen	365
▁Université	365
▁Ok	365
MAN	365
otti	365
streek	365
▁advies	365
verslag	365
▁Right	365
▁Lichte	365
nam	365
▁Parking	365
Arabië	365
▁Sunset	365
part	365
▁Gets	365
▁Rapport	365
graaf	365
nos	365
▁orkest	364
▁Mede	364
▁Cities	364
sign	364
▁Chemische	364
▁Second	364
GH	364
▁Dj	364
▁vlag	364
▁Elektrisch	364
jev	364
▁Prestige	364
rell	364
▁Veen	364
▁Wallpaper	364
cen	364
▁Tao	364
▁Oog	364
AND	364
album	364
▁activiteiten	364
▁Volk	364
GP	364
▁Rider	364
▁Ziel	364
usa	364
▁CN	364
▁Penn	364
cla	364
▁Poll	364
norm	364
▁Ferr	364
▁schoenen	364
Men	363
ical	363
▁Liv	363
ý	363
▁led	363
▁Namen	363
ight	363
▁Nummer	363
▁Sing	363
MG	363
▁Ari	363
eenheden	363
▁alles	363
▁verblijf	363
rog	363
yr	363
▁Intel	363
even	363
▁Rit	363
pool	363
▁Dana	363
job	363
▁melk	362
seizoen	362
▁Portaventura	362
▁concert	362
bestrijding	362
eye	362
iba	362
AU	362
▁Sig	362
▁But	362
▁Lingerie	362
▁Lok	362
RM	362
▁Seal	362
▁Stud	362
▁Buy	362
▁Roller	362
▁Graham	362
▁seks	362
▁FL	362
GM	362
voer	361
▁Milano	361
▁Petro	361
ife	361
lings	361
iel	361
▁Maximum	361
document	361
▁Madeira	361
vriendin	361
gaard	361
▁Dénia	361
▁bericht	361
▁Hoorn	361
lick	361
helm	361
▁Fabrikanten	361
▁gaan	361
▁Jimmy	361
▁Adres	361
voet	361
▁selectie	361
▁roebel	361
asi	361
map	361
▁Tie	360
▁Effect	360
Michel	360
▁XP	360
rica	360
tip	360
uurs	360
▁Catherine	360
▁Pho	360
▁August	360
name	360
ition	360
zijn	360
TRA	360
And	360
Chi	360
▁Jason	360
▁verlichting	360
▁Lanta	360
▁Cour	360
▁Engineers	360
▁Dood	360
ization	360
▁verwelkomt	360
iseren	359
▁Brun	359
ń	359
oro	359
▁antwoord	359
▁Yama	359
▁Neuken	359
▁Ajax	359
sleutel	359
dur	359
reken	359
▁Economy	359
▁erfgoed	359
works	359
stoffen	359
centrale	359
▁Cri	359
▁Clark	359
▁Colombia	359
▁Maxi	359
LS	359
▁SunPorno	358
▁SV	358
naar	358
▁Salvador	358
▁Corp	358
▁Astra	358
▁Eli	358
ienne	358
▁PADI	358
▁Ardennen	358
▁IJs	358
▁au	358
öl	358
bee	358
▁Fotografie	358
▁Ess	358
vik	358
zing	358
esi	358
▁MAN	358
sex	358
Bi	358
▁Lind	358
▁Potter	358
saus	358
▁Frei	358
▁Electro	357
▁Silk	357
▁Amazone	357
▁Moscow	357
▁reizen	357
▁Blank	357
toestel	357
▁Dressing	357
▁Dash	357
▁noordelijke	357
Mail	357
Louis	357
▁Senaat	357
▁Vul	357
▁Pap	357
▁Laurent	357
▁Homo	357
▁apk	357
fra	357
▁Lie	356
▁Lisboa	356
▁hen	356
vir	356
▁Cab	356
▁Landgoed	356
▁Jacht	356
▁Host	356
▁Testen	356
▁Military	356
▁Shark	356
eff	356
▁Finse	356
▁Jaguar	356
▁Jordaan	356
OV	355
▁Lichaam	355
komst	355
▁Siliconen	355
▁Advisory	355
▁Adel	355
dynastie	355
▁geboorte	355
EER	355
▁NC	355
▁rustige	355
kwaliteit	355
▁Franklin	355
▁Frame	355
▁Digitaal	355
▁Vinyl	355
▁Kart	355
▁NI	355
TT	355
▁Alexandra	355
aid	355
▁Fusion	355
▁bas	355
Duitsland	355
yon	354
▁Krakau	354
▁Friesland	354
▁Stuttgart	354
▁Ap	354
▁Federaal	354
▁ABC	354
Gu	354
▁Vlees	354
▁Ladies	354
▁Give	354
▁Oz	354
bei	354
cq	354
▁TT	354
TON	354
▁onderscheidt	354
▁Concorde	354
▁Mozes	354
▁Disco	354
▁Daar	354
▁Luchtvaart	354
maat	354
unit	353
▁vanuit	353
▁Naval	353
▁geneeskunde	353
▁Arte	353
watch	353
▁Kip	353
▁Schotland	353
plug	353
▁Halle	353
▁Making	353
▁Aleksandr	353
▁Kwa	353
zar	353
uba	353
▁Jorge	353
hond	353
▁para	352
TB	352
▁ON	352
▁actrice	352
▁Wheel	352
▁Heineken	352
▁Analyse	352
ř	352
▁Andy	352
▁Eén	352
▁Morris	352
▁firma	352
▁Wandel	352
▁Italia	352
▁Contract	352
▁cloud	352
▁CP	352
▁Annie	352
▁Geniet	352
menu	352
oor	352
▁bestaat	352
▁Tourist	352
bibliotheek	352
▁Steun	352
▁Carol	352
▁EF	352
▁Klassieke	352
▁SW	352
ITE	352
▁Director	352
cie	352
▁zeven	352
▁Katoen	352
▁Infrastructuur	352
ovic	351
verkoop	351
stock	351
▁Kron	351
▁COM	351
▁Jennifer	351
▁Cine	351
▁Kraan	351
▁Ava	351
joe	351
▁operatie	351
ault	351
té	351
▁Vloer	351
uter	351
▁Onderneming	351
▁Mooie	351
▁Iso	351
▁IM	351
▁Vie	351
▁Share	351
▁Transit	351
▁Wand	351
▁Inspectie	351
tta	351
▁Toekomst	351
▁Picture	351
vrije	351
plant	351
sessie	351
raat	351
Da	351
ruim	350
lap	350
▁Century	350
itter	350
▁Aurora	350
▁Lawrence	350
serv	350
igo	350
ghi	350
▁Indigo	350
food	350
daagse	350
▁best	350
▁Clara	350
robot	350
force	350
▁Zowel	350
▁Pakket	350
boe	350
therm	350
pal	350
▁Jakob	350
bie	350
▁vorm	350
▁Ein	350
▁Foam	350
▁Caravan	350
▁Adobe	349
Unie	349
▁AA	349
▁Orleans	349
▁Eurovisie	349
oise	349
▁Eyes	349
fiets	349
▁Clo	349
▁Pha	349
Per	349
pt	349
desk	349
▁Bonus	349
anten	349
nieuws	349
stelsel	349
core	349
▁Audit	349
GI	349
▁huur	349
▁Janssen	348
slaan	348
▁Matrix	348
holm	348
Ri	348
til	348
▁Psycho	348
▁Automatisch	348
▁woon	348
CU	348
▁Mogelijk	348
▁Tango	348
Bal	348
▁Banking	348
▁Verhuur	348
▁Foreign	348
RU	348
▁Amersfoort	348
▁BI	348
▁heb	347
▁Tub	347
▁waren	347
▁Herfst	347
▁Crew	347
Fin	347
inn	347
▁iPod	347
▁Click	347
е	347
▁Welcome	347
▁Laguna	347
gna	347
▁ibn	347
rea	347
nee	347
▁Liber	347
▁Scientific	347
▁Tha	347
▁Bahá	347
▁Balance	346
▁game	346
▁Heuvel	346
▁doen	346
▁lopen	346
oux	346
baarheid	346
▁Py	346
▁Gras	346
▁papier	346
▁Sap	346
▁filter	346
kathedraal	346
▁Isla	346
▁Pir	346
locatie	346
▁Dubbel	346
▁stem	346
vul	346
▁Rolls	346
▁SCH	346
▁Holding	345
▁DHL	345
▁verstrekt	345
try	345
▁VDL	345
▁Candle	345
▁Krasnapolsky	345
▁kabinet	345
compressor	345
▁SI	345
gebruik	345
▁universiteiten	345
▁MJ	345
î	345
ree	345
formatie	345
▁hydraulische	345
▁training	345
▁Tau	345
SH	345
café	345
▁status	345
aten	345
▁vloer	344
pri	344
▁Bakker	344
certificering	344
bau	344
IST	344
▁Constant	344
▁Cycle	344
iën	344
▁Jasper	344
trekken	344
rix	344
niveau	344
▁Lub	344
▁Latin	344
▁Oss	344
NES	344
alm	344
dus	344
EMA	344
cart	344
pc	343
▁Cove	343
▁Bac	343
▁Hold	343
▁Claude	343
kat	343
urs	343
▁Goedkope	343
kum	343
kogel	343
▁Coalition	343
▁voorbeeld	343
▁Administratie	343
aard	343
col	343
▁pakket	343
▁jan	343
college	343
▁Scha	343
▁Lis	343
▁Flag	343
free	343
▁rit	343
▁veel	343
▁Meld	343
▁reserve	343
▁Feng	343
HP	343
sdag	343
▁Moor	342
▁Gross	342
▁vinden	342
▁EM	342
agh	342
mei	342
Luc	342
▁Mé	342
▁doos	342
▁Politieke	342
cl	342
imi	342
▁Karin	342
▁Cotton	342
▁generaal	342
▁kunststof	342
▁Sy	342
▁campagne	342
stoelen	342
▁Commando	342
▁Hockey	342
▁Tablet	342
▁Eten	342
▁KL	342
wol	342
ain	341
▁Gira	341
▁Isabelle	341
fel	341
▁films	341
▁Dial	341
▁Automation	341
▁marathon	341
▁Paviljoen	341
▁Szálloda	341
▁Klasse	341
▁Cisco	341
▁Dolphin	341
eling	341
tong	341
ester	341
▁Buck	341
SD	341
▁Kleuren	341
▁Standards	341
▁Dock	341
▁Honden	341
▁Drama	341
▁bloed	341
bbel	340
▁Rijksmuseum	340
▁Garage	340
Amsterdam	340
▁Sandra	340
ucht	340
Bas	340
▁Missie	340
▁Middle	340
Cap	340
pic	340
▁Technisch	340
▁Lib	340
ew	340
▁Mercury	340
▁Path	340
▁Uitgeverij	340
▁hof	340
wit	340
▁Fortune	340
hub	340
GR	340
▁Nieuwsbrief	340
▁Luxembourg	340
▁Jonathan	339
rina	339
grond	339
▁Rabobank	339
▁LO	339
▁vast	339
▁Platinum	339
▁Augustus	339
▁Marche	339
porn	339
▁Bul	339
▁Jassen	339
walk	339
vos	339
▁Cold	339
Ba	339
▁Arbeids	339
idae	339
▁Isabella	339
▁Dollar	339
▁Ing	339
▁Kyoto	339
wapen	339
qi	339
exacte	339
▁September	339
▁LCD	339
▁Miles	339
▁verwarming	338
▁pi	338
UC	338
graf	338
pakketten	338
▁wandeling	338
▁Paarden	338
isco	338
▁Fuck	338
take	338
▁Directory	338
orde	338
▁Garni	338
▁oog	338
▁stadhuis	338
▁Pennsylvania	338
azi	338
▁Surface	338
▁Sven	338
made	338
▁Object	338
о	338
SON	338
▁kit	338
▁fer	338
akker	337
▁Grove	337
▁Trein	337
▁Ibn	337
▁natuurlijke	337
▁Piramide	337
▁Islands	337
▁Picasso	337
▁Portret	337
▁Cycling	337
▁Stick	337
▁graf	337
KA	337
vrouw	337
▁Leren	337
ARD	337
▁Basiliek	337
▁Roth	337
▁Fleet	337
▁gast	337
▁tijdperk	336
▁Intelligent	336
▁Doos	336
NI	336
▁par	336
emi	336
▁Better	336
style	336
cola	336
▁su	336
▁huid	336
▁Esp	336
TOR	336
▁Od	336
emans	336
▁Geslacht	336
▁Verpakking	336
▁Noorwegen	336
▁His	336
▁Danny	336
▁Lunch	336
▁Polar	336
▁Neder	336
▁VK	336
▁Š	336
▁douche	336
▁Friese	336
▁Claus	336
▁code	336
hoe	336
kende	335
▁mooie	335
▁Roses	335
ago	335
▁gemeenteraad	335
▁Pos	335
▁Bloom	335
▁Hudson	335
abel	335
▁blog	335
▁Early	335
RES	335
Key	335
▁Trefoil	335
banen	335
▁Gustav	335
▁Holocaust	335
▁Zandstrand	335
rode	335
▁Hes	335
Dame	335
▁sneeuw	335
HL	335
▁drankjes	335
▁Peru	335
▁Reader	335
rim	335
▁Claire	334
Hu	334
▁Yobt	334
▁streek	334
▁Doll	334
scan	334
▁Havana	334
▁Warm	334
▁Novo	334
stam	334
▁Blondine	334
▁hem	334
vergadering	334
▁Josef	334
▁begraafplaats	334
▁Eastern	334
echt	334
▁Pico	334
wear	334
ISS	334
ICE	334
▁If	334
▁Linde	334
▁Tickets	334
▁Paas	334
▁roman	334
▁Construction	334
▁Morgen	334
▁Vingeren	333
▁LEGO	333
▁Cir	333
imo	333
▁tiener	333
▁Zit	333
farm	333
elo	333
▁Valve	333
▁Mach	333
▁Indo	333
▁Cleaner	333
▁Heaven	333
fles	333
▁Zoeken	333
accessoires	333
▁pomp	333
Royce	333
oire	333
terra	333
index	333
▁begin	333
▁non	333
▁Boo	333
▁PU	332
work	332
SB	332
rá	332
▁Volksrepubliek	332
▁Sher	332
▁Seizoen	332
Totaal	332
▁Jumbo	332
▁Privé	332
BM	332
▁hard	332
▁Craft	332
▁Rond	332
▁Linden	332
RP	332
▁Teken	332
▁Plaça	332
ilia	332
▁Cut	332
▁Walt	332
▁Ballen	332
▁Maps	332
inski	332
▁Wapen	332
▁Domein	332
kap	332
ations	332
▁Drop	331
KEN	331
▁Nancy	331
▁bord	331
bé	331
▁Baba	331
pr	331
▁Ristorante	331
nic	331
HV	331
▁Heu	331
▁Dive	331
▁Droom	331
hit	331
▁Lean	331
▁Oriental	331
BU	331
▁Angela	331
▁Overheid	331
OT	331
lied	331
ld	331
tatie	331
▁Bes	330
▁west	330
▁back	330
lah	330
▁Vibrator	330
▁avond	330
igen	330
brook	330
lek	330
▁Reclame	330
▁Leveranciers	330
▁Ningbo	330
anya	330
▁Spark	330
riet	330
CL	330
▁Kaarten	330
▁Gebied	330
▁TE	330
TH	330
▁Nokia	330
▁Champion	330
▁unit	330
▁Robinson	330
▁opslag	330
ANA	329
aj	329
bla	329
▁Extreme	329
▁Donker	329
▁Trainer	329
▁Auteur	329
▁Jerry	329
hoor	329
▁Swa	329
▁moskee	329
▁Jager	329
beck	329
▁wo	329
▁Geplaatst	329
iaans	329
▁Gulden	329
rä	329
▁Hospitality	329
▁Alm	329
FL	329
▁Location	329
▁Gracia	329
▁Fighter	329
▁Combi	329
▁Christina	328
jia	328
DI	328
▁Mother	328
▁Schoonheid	328
▁Steam	328
▁Vid	328
▁Mit	328
▁sociaal	328
▁zuster	328
▁NP	328
▁poort	328
▁Columbus	328
▁onge	328
▁Br	328
▁Clos	328
face	328
achtig	328
▁einde	328
▁Stoel	328
kha	328
▁nieuwsbrief	328
▁Tekst	328
▁Franco	328
oka	328
▁Bros	327
▁Winnaar	327
▁breakfast	327
▁Gua	327
GC	327
lok	327
▁Colour	327
▁steden	327
KK	327
▁Epic	327
▁partners	327
▁Ming	327
▁Ward	327
veiligheid	327
▁Lau	327
▁Lido	327
▁Penta	327
▁verpakking	327
▁tram	327
▁Kool	327
▁Terrace	327
▁Lei	327
verandering	327
shot	327
▁Math	327
▁stroom	327
▁Bé	327
▁Cams	327
br	327
▁Emergency	326
▁Ek	326
gui	326
fy	326
▁Provider	326
muur	326
▁Engelen	326
bird	326
koor	326
producent	326
scha	326
aliteit	326
▁Moskee	326
federatie	326
VS	326
gio	326
enhof	326
▁IBM	326
▁dé	326
▁stoffen	326
koning	326
etten	326
mode	326
ERA	326
igny	326
oul	326
▁Carlton	326
▁Lage	326
▁afrit	325
▁golfbaan	325
▁Maand	325
▁Diver	325
Lieve	325
huys	325
▁Labs	325
▁blue	325
▁Levering	325
▁Enschede	325
▁Tegenwoordig	325
▁Kris	325
▁Duc	325
SK	325
WE	325
oxy	325
cken	325
plus	325
FO	325
▁McDonald	325
isi	325
▁eco	325
▁Sum	325
▁Queens	325
OO	325
ū	325
▁Genesis	325
▁Lara	325
▁Champ	324
▁Today	324
▁staten	324
▁Quint	324
▁Regionaal	324
EREN	324
▁Naakt	324
▁PI	324
▁Shah	324
▁Jung	324
Sterne	324
▁koninklijke	324
ZA	324
▁Tian	324
▁Hoch	324
▁competitie	324
▁Speciaal	324
▁Lily	324
▁Georg	324
▁Ref	324
▁Werkgroep	324
▁air	324
▁Opblaasbare	324
dekking	324
▁col	324
ein	324
him	324
▁heet	323
▁Moulin	323
lijnen	323
▁Nine	323
▁Highland	323
▁Silicone	323
▁ECO	323
▁Visserij	323
ð	323
UR	323
▁complex	323
▁proces	323
ondersteuning	323
▁stond	323
▁Phi	323
▁Semi	323
▁buitenlandse	323
▁NU	323
▁Techno	323
vak	323
▁un	323
▁satelliet	323
▁Plug	323
assa	323
▁Retreat	323
▁Morning	323
▁culturele	323
▁Société	323
▁IX	323
▁Begin	323
▁Mk	323
▁Azure	323
▁Verpakkings	323
cock	322
rooster	322
flu	322
lof	322
▁Think	322
▁MT	322
polder	322
▁deur	322
berry	322
zio	322
▁Bruce	322
moer	322
▁beschikbaar	322
▁Beautiful	322
▁klik	322
eu	322
▁Flamingo	322
Au	322
ppen	322
▁Adams	322
▁Bravo	322
▁Scooter	322
gs	322
sat	322
▁Bernhard	322
graph	322
Su	322
▁Scheveningen	322
▁EV	322
Ga	322
ervaring	322
▁print	322
Har	322
▁duik	322
▁bvba	321
▁Chor	321
▁meisjes	321
staan	321
▁Filmfestival	321
▁NT	321
▁Qingdao	321
ALE	321
lich	321
▁=	321
▁Basil	321
beheerder	321
▁free	321
▁Oh	321
▁Fisher	321
▁Brink	321
▁Agios	321
▁Mint	321
▁Professionals	321
▁Schakelaar	321
▁DA	321
▁Benz	321
▁soorten	321
euze	321
dad	320
▁Shandong	320
eurs	320
▁Capri	320
Ku	320
▁Startpagina	320
▁dubbele	320
tief	320
▁wetenschappen	320
▁Guitar	320
▁Camper	320
Mont	320
▁grot	320
PER	320
kleur	320
▁Vlucht	320
profiel	320
▁Buch	320
von	320
▁Guangdong	320
▁Marvel	320
▁Archives	320
▁Mam	320
Power	320
▁Vierde	320
▁Anita	320
spect	319
utter	319
mara	319
Russische	319
▁gebruiker	319
▁CT	319
▁Architect	319
▁Zhong	319
▁Angels	319
▁Waarom	319
▁Pau	319
▁Halloween	319
▁roze	319
trap	319
dige	319
▁vers	319
▁NY	319
▁don	319
▁Jer	319
▁Balkon	319
▁grijs	319
▁Recreatie	319
▁za	319
▁Chania	319
▁Passeig	319
trans	319
escu	319
opkomst	319
▁Snack	319
▁Kill	319
▁Manual	319
▁Regency	319
▁Susan	319
▁Hood	319
▁Emb	319
spellen	319
AV	319
▁Deck	318
▁Historical	318
▁Antiek	318
▁Spray	318
▁Wizard	318
stud	318
Saint	318
▁Janeiro	318
vita	318
ijen	318
▁Gelukkig	318
▁Cursus	318
▁Wyndham	318
▁lift	318
amba	318
sho	318
hur	318
ł	318
▁Stroom	318
▁Jinan	318
ares	318
guard	318
▁Stream	318
▁dal	318
giet	318
▁WP	318
▁Grow	318
▁Hui	318
▁Regent	317
▁Madison	317
Vrouw	317
Soft	317
▁Fol	317
▁Pijpbeurt	317
▁Sofitel	317
▁Marokko	317
▁Hermitage	317
▁Kirk	317
visie	317
▁Herb	317
▁Relax	317
nin	317
Bus	317
▁Faro	317
▁Knowledge	317
▁Chelsea	317
rt	317
LU	317
▁Signal	317
LES	317
varen	317
▁Trader	317
raden	317
▁Giro	316
▁Jump	316
rot	316
ELE	316
▁Koran	316
Auto	316
Porno	316
▁zoek	316
▁Alaska	316
▁Dim	316
▁cap	316
▁OF	316
apparaten	316
▁molen	316
▁UPS	316
▁Other	316
▁brengt	316
▁Tik	316
▁Horeca	316
▁IABR	316
▁toerisme	316
mur	316
bang	316
▁dingen	316
odo	316
SEN	316
JA	316
▁Irene	315
loper	315
lood	315
rug	315
▁Look	315
▁Bundes	315
▁Crime	315
▁Curacao	315
▁lu	315
▁Gap	315
▁Certificate	315
▁Rocket	315
▁Rachel	315
mede	315
▁years	315
▁rij	315
AGE	315
▁Draai	315
▁menu	315
▁Palacio	315
overzicht	315
blo	315
▁Afval	315
▁verzekering	315
▁Barry	315
▁Kla	315
▁Kabinet	315
▁Boss	315
▁Gorges	315
▁rechter	315
▁Cent	315
▁Natura	315
lake	315
▁Phuket	315
live	315
▁Virgin	315
▁Agia	315
won	314
asso	314
▁Favorieten	314
▁Til	314
▁moment	314
▁Architects	314
▁beoordeling	314
▁speelgoed	314
▁zaterdag	314
▁hoofdkantoor	314
▁Tit	314
▁Markets	314
▁Hanoi	314
▁Sci	314
nemen	314
▁Lead	314
▁Versie	314
▁Hut	314
dak	314
▁Ping	314
▁Palestina	314
arts	314
staande	314
▁bevat	313
▁zie	313
▁Hebei	313
▁instellingen	313
FP	313
▁MILF	313
▁belangrijkste	313
▁honden	313
schot	313
▁Categorieën	313
fon	313
▁Eyck	313
▁engel	313
▁Telecom	313
▁Sands	313
▁wijzerplaat	313
adviseur	313
▁Citroen	313
ular	313
▁room	313
UG	313
▁Whisky	313
owski	313
▁Katoenen	313
▁Willems	313
▁Dru	313
lacht	313
▁Hum	313
▁Cole	313
dina	313
▁Vredes	313
Met	313
▁Martijn	313
▁new	313
▁Volle	313
▁Antoine	313
nl	313
ques	312
▁JR	312
▁Hawk	312
WI	312
▁Margarita	312
got	312
niet	312
▁SEO	312
volg	312
ün	312
gard	312
▁volksver	312
volk	312
Ti	312
▁Leisure	312
▁kop	312
▁Huntington	312
mia	312
▁Rug	312
▁Edel	312
DF	312
meisje	312
rollen	312
▁UC	312
▁IK	311
▁Reserveer	311
▁Jaap	311
▁Monaco	311
oud	311
▁Rin	311
▁Lex	311
oun	311
▁voorzitter	311
▁slaapkamer	311
mut	311
▁Haak	311
▁Pascal	311
▁strijd	311
▁Toezicht	311
▁Legends	311
▁Spi	311
▁Olympus	311
▁KN	311
▁Backpackers	311
inter	311
▁Ach	311
▁Sharm	311
▁Kick	311
▁leren	311
▁Panasonic	311
▁Alarm	311
Bel	311
▁tuinen	310
color	310
egem	310
›	310
▁Moment	310
agne	310
▁Metrostation	310
▁Sector	310
▁Museu	310
▁Sunshine	310
ete	310
▁Consultancy	310
▁schilder	310
▁Inca	310
Nieuws	310
▁Butt	310
iseerd	310
▁mis	310
▁cor	310
liga	310
▁Jeff	310
nel	310
▁NA	310
▁Labour	310
▁Editor	310
▁Cort	310
RF	310
▁Som	310
▁hond	310
ucci	310
▁Kerken	310
vang	310
▁Crack	310
▁Labor	309
▁herfst	309
~	309
MT	309
power	309
Telecommunicatie	309
▁Winkelcentrum	309
▁Zhejiang	309
▁Interactive	309
▁Tibet	309
▁katoen	309
▁Avond	309
dok	309
▁Cemetery	309
lane	309
▁nodig	309
dine	309
▁Théâtre	309
lant	309
phe	309
▁VVV	309
lop	309
▁Brava	309
ør	309
▁Boerderij	309
gis	309
▁SB	309
▁sector	309
▁Heavy	309
▁Bree	309
banden	309
▁Have	309
ct	309
▁Masterbatch	309
▁resort	309
ory	309
▁Large	309
▁Zwolle	309
▁Aba	309
jiang	308
▁Evangelie	308
▁he	308
platen	308
thy	308
▁Noir	308
▁consumenten	308
▁Ted	308
snijder	308
▁elegante	308
vloer	308
▁organisaties	308
▁Elvis	308
▁Crisis	308
Coin	308
▁Sé	308
▁Horloges	308
▁strip	308
stenen	308
▁Municipal	308
wijze	308
▁high	308
▁Bour	308
phi	308
loon	308
coin	308
▁Gezicht	308
▁Belek	308
▁Eigendom	308
▁Certified	308
▁Canaria	308
sea	308
▁Wouter	308
▁mor	307
seweg	307
NG	307
chet	307
▁Adapter	307
▁ontspannen	307
Online	307
▁Sunday	307
lio	307
▁Roc	307
▁Bord	307
design	307
▁mer	307
IF	307
tti	307
Data	307
▁kader	307
▁Antwerpse	307
▁Holt	307
ONE	307
▁Yuan	307
architectuur	307
▁Duck	307
▁Indonesische	307
▁Jeans	307
▁geluidsdichte	307
▁kaarten	307
▁CB	307
▁Neg	307
reizen	307
▁Windsor	307
▁Onafhankelijke	306
▁Adolf	306
mid	306
▁Brass	306
▁Ponte	306
▁Strategy	306
cum	306
▁Nordic	306
garten	306
▁papieren	306
skin	306
NK	306
▁Niels	306
Azur	306
▁Mina	306
▁Aston	306
now	306
▁Watson	306
LB	306
▁amp	306
monument	306
rico	306
▁chi	306
▁ann	306
Duitse	306
▁Amp	306
▁real	306
ARA	306
▁Grid	306
vriendelijke	306
▁Bulk	306
▁Hip	306
▁Ars	306
VP	306
▁rock	306
▁Directie	305
ezel	305
kara	305
▁Petr	305
mbo	305
▁JA	305
▁LIMITED	305
▁Rotary	305
▁Richmond	305
endorf	305
KW	305
applicatie	305
ologisch	305
▁Sahara	305
▁Ans	305
▁Ned	305
Qu	305
▁verhuur	305
▁links	305
▁Doel	305
▁Iz	305
▁Grot	305
mou	304
▁Upper	304
▁Laarzen	304
▁Universidad	304
▁Canarische	304
▁Din	304
▁Ranch	304
▁Vene	304
▁Leipzig	304
▁alleen	304
▁Mouse	304
▁Hour	304
donk	304
Ju	304
▁rood	304
nit	304
▁Wer	304
▁Filips	304
mag	304
▁Chip	304
cept	304
▁chalet	304
▁Automobiel	304
▁Pioneer	304
kussen	304
▁Cebu	304
oda	304
än	304
main	304
▁Toegang	303
▁Rouge	303
▁Cham	303
▁Near	303
▁Vecht	303
tch	303
LR	303
▁Auckland	303
▁Nederlanden	303
▁Praia	303
▁Ble	303
▁mond	303
▁Sheet	303
▁Processing	303
▁Acryl	303
datum	303
▁Ama	303
▁Excelsior	303
▁Nobel	303
▁Yong	303
▁Pepper	303
▁vrije	303
▁Hunt	303
▁vriend	303
▁zilver	303
▁oorlogs	303
yer	303
▁Chau	303
lom	303
phil	303
▁Loon	303
▁Str	303
▁Nie	303
▁Beyond	303
▁Snap	303
PF	303
cri	302
▁oplossingen	302
▁Kang	302
▁Font	302
▁Interface	302
▁AZ	302
▁Bonn	302
▁PH	302
▁Tat	302
▁Manor	302
gaan	302
▁Elena	302
Fa	302
tien	302
KO	302
▁Broadway	302
zig	302
Pal	302
▁Hybrid	302
▁Lighting	302
▁sal	302
otel	302
etz	302
ONG	302
▁CM	302
▁Ain	302
▁Gans	301
vertoning	301
▁moslim	301
LT	301
heuvel	301
ador	301
▁Denver	301
▁Hee	301
teren	301
▁laag	301
▁Pablo	301
▁Rental	301
▁Loc	301
▁burgeroorlog	301
▁Westelijke	301
▁MasterCard	301
wijzer	301
▁Balkan	301
▁Caesar	301
▁Dominicaanse	301
Connect	301
▁Tournament	301
▁Photography	301
▁stam	301
▁Canvas	300
▁Sonic	300
▁SH	300
▁Integratie	300
▁Zip	300
Cor	300
▁Milk	300
▁Principe	300
▁Brit	300
▁doet	300
blog	300
path	300
ttle	300
▁beleid	300
Service	300
▁Welzijn	300
straal	300
▁Halve	300
aff	300
▁Return	300
▁Anglo	300
▁Rice	300
▁Citroën	300
▁ziel	300
▁san	300
▁PET	300
KER	300
extract	299
▁wand	299
score	299
▁BL	299
▁vak	299
▁koper	299
rechten	299
TECH	299
▁Hole	299
▁sleutel	299
▁Albufeira	299
Drive	299
Brussel	299
▁Chopin	299
▁Jas	299
AK	299
▁Stijl	299
▁licentie	299
▁Massa	299
▁Stro	299
▁Too	299
▁scholen	299
lines	299
▁Chersonissos	299
▁PayPal	299
▁tieten	299
DER	299
▁houdt	299
▁Vacuüm	299
▁Projects	299
tico	298
cis	298
▁Schloss	298
▁apparaat	298
▁Ranger	298
lever	298
plannen	298
Gen	298
oet	298
mogelijkheden	298
tiv	298
NET	298
fstandsbediening	298
▁Koor	298
▁yoga	298
▁originele	298
gent	298
▁Shipping	298
▁badkamer	298
YS	298
▁Brad	298
▁Michelin	298
▁Expeditie	298
▁Prachtige	298
▁Sv	298
gia	298
▁Toro	298
▁Galerij	297
kor	297
▁Karen	297
PH	297
CON	297
▁Ontario	297
▁Thunder	297
▁Maj	297
tto	297
▁Herbert	297
▁Geef	297
▁Guild	297
borstel	297
▁Number	297
▁Bud	297
▁//	297
▁Captain	297
▁betaal	297
▁Brood	297
▁Cannabis	297
▁Pia	297
▁Flor	297
zame	297
Est	297
▁Crane	297
gens	297
▁Veiligheidsraad	297
▁Smit	296
▁Dale	296
▁Than	296
Aan	296
▁Cin	296
houders	296
printer	296
▁tramhalte	296
▁RF	296
▁Doubletree	296
▁ART	296
▁architect	296
▁Visser	296
Sea	296
▁groeps	296
▁nemen	296
▁Vissen	296
istiek	296
▁Elia	296
▁Bout	296
hid	296
▁schoonheid	296
▁regen	296
▁center	296
▁Quarter	296
▁Rudolf	296
▁Carter	296
▁Wai	296
▁parel	296
hold	296
▁Passion	295
▁ABN	295
page	295
▁OK	295
▁Purple	295
▁belangrijke	295
mac	295
▁April	295
▁Rechts	295
Gar	295
▁politieke	295
Pa	295
▁magazine	295
▁audio	295
▁Application	295
▁Proef	295
▁Symfonie	295
dr	295
riem	295
▁Stu	295
▁RAM	295
▁zes	295
say	295
ord	295
▁Evo	295
▁Lé	295
▁Mystery	295
▁Zi	295
eerden	295
▁Málaga	295
▁Memory	295
agent	295
rö	295
pet	295
▁Economisch	294
▁Toernooi	294
▁volgens	294
lampen	294
▁Messenger	294
▁Emp	294
veen	294
▁Archive	294
montage	294
▁Rama	294
ateur	294
▁jong	294
▁Bloemist	294
dio	294
▁Mirage	294
you	294
▁Laan	294
hole	294
rank	294
▁Klim	294
▁Anders	294
▁Marshall	294
host	294
▁Pom	294
▁KLM	294
▁Pale	294
cade	294
ïn	294
▁Santos	294
▁Roemeense	294
▁Sib	293
bril	293
▁Isaac	293
erhof	293
▁opera	293
Point	293
▁Veluwe	293
▁Blvd	293
▁Moer	293
▁Interne	293
ological	293
ellen	293
▁geniet	293
▁videos	293
▁Temp	293
bloem	293
igue	293
▁Duplex	293
▁IJssel	293
place	293
▁Taka	293
▁Patricia	293
▁Wedding	293
pijp	293
▁Michelle	293
▁Musik	293
▁Bulgarije	293
▁Promenade	293
▁opge	293
▁Hilversum	293
▁Statistiek	293
kring	293
innen	293
·	293
tsch	293
▁vrijheid	293
▁MAX	293
aerts	293
▁Abbey	293
▁katoenen	293
▁Bruid	293
KS	293
▁Rollenspel	293
▁Hardcore	293
▁Yves	293
SF	293
▁Siam	293
▁Meest	293
▁Liu	293
Media	292
▁Forever	292
▁VAT	292
VER	292
aku	292
▁Auberge	292
▁Commodore	292
▁KO	292
▁Seoel	292
▁leg	292
▁deluxe	292
vaar	292
uld	292
▁Portugees	292
Group	292
andra	292
▁Evolution	292
▁Harmonie	292
chy	292
▁Pyreneeën	292
▁krijgt	292
lum	292
▁Institution	292
▁Haut	292
▁huidige	291
▁vogel	291
PEN	291
▁Capsule	291
Ste	291
KI	291
▁BK	291
▁Rab	291
▁Copa	291
bewerking	291
ijl	291
▁Tropical	291
▁Stadt	291
▁Anal	291
▁pen	291
▁Xiamen	291
winkels	291
▁robot	291
idi	291
▁Drone	291
erman	291
▁forum	291
baai	291
kamers	291
Grote	291
▁Contest	291
▁Bib	291
▁Creator	291
▁Inge	291
▁Kunststof	290
▁Meyer	290
▁Pasen	290
▁tien	290
▁Mona	290
▁Dier	290
▁Monique	290
▁Bao	290
▁Flip	290
NV	290
▁voertuig	290
vig	290
Water	290
▁Roosevelt	290
▁Bahia	290
Cloud	290
▁siliconen	290
ative	290
▁Aid	290
read	290
▁afge	290
▁Hook	290
▁Montréal	290
▁Exp	290
reed	290
▁interieur	290
▁Cnc	290
▁speelde	289
▁DI	289
▁blond	289
▁BT	289
▁Sino	289
start	289
uli	289
▁Kits	289
▁voordelen	289
▁Tips	289
▁Wide	289
▁gele	289
▁betreffende	289
▁CSI	289
▁Roel	289
arn	289
▁apos	289
▁Scanner	289
adres	289
▁Yoshi	289
▁Juli	289
▁RV	289
▁Operation	289
mura	289
▁Kristal	289
▁Wisconsin	289
▁Opleiding	289
richt	289
▁Shuttle	288
Sha	288
amine	288
▁Sukhumvit	288
▁Ashley	288
▁Bey	288
▁beveiligings	288
ej	288
zur	288
kliniek	288
▁Zuiden	288
Scan	288
▁Kurt	288
Road	288
Argent	288
▁Deutsch	288
▁Ruby	288
▁meeste	288
▁LAN	288
rey	288
▁Interview	288
Bu	288
pont	288
inspectie	288
▁Schelde	288
▁Flu	288
▁enige	288
EUR	288
Hol	288
▁Aparte	288
▁Eddie	288
▁out	288
▁Campaign	288
certificaat	288
rif	288
û	288
▁Panda	288
▁Bratislava	288
▁Sleutel	288
lla	288
▁Venlo	287
▁weekend	287
kwa	287
▁Dusseldorf	287
zal	287
▁Madonna	287
Ë	287
rup	287
alla	287
VEN	287
ouder	287
num	287
bl	287
▁Pussy	287
▁Hogere	287
divisie	287
▁Lights	287
▁Reichs	287
▁Kum	287
▁Alexis	287
ull	287
▁Ax	287
Mobile	287
voort	287
ees	287
▁PLA	287
▁gebergte	287
MAX	287
▁Marmaris	287
OX	287
▁Loch	287
▁Lifestyle	287
▁halte	287
▁Supreme	287
▁Gan	287
▁Lanzarote	287
vormige	287
▁generatie	287
pul	287
▁Aard	287
▁Omroep	287
▁Passage	287
▁schip	286
cult	286
▁Maritiem	286
ICA	286
bid	286
▁Weather	286
▁Tr	286
▁Rica	286
▁Silicon	286
▁book	286
lers	286
▁Karton	286
▁Kru	286
rib	286
cover	286
▁Wiki	286
▁Hello	286
▁WO	286
▁bruid	286
▁Ey	286
inho	286
▁Zell	286
▁Waterpark	286
lea	286
▁Hydra	286
▁Maleisië	286
▁Qua	286
wave	286
▁Plas	286
huisje	286
▁École	286
▁Finca	286
▁rits	286
eerder	286
▁Read	285
verpakking	285
gur	285
▁Vital	285
▁Maxim	285
▁Himalaya	285
▁Jade	285
▁vierde	285
▁Poe	285
LED	285
▁Sushi	285
▁Korps	285
▁Drink	285
▁plus	285
tern	285
▁Ria	285
▁Pé	285
Sal	285
▁Lens	285
tone	285
▁Argentinië	285
▁Schw	285
▁Grass	285
▁Sankt	285
zelf	285
obo	285
▁armband	285
▁Roulette	285
▁Volume	285
▁shop	285
▁Beker	285
▁MINI	285
▁Seminar	285
▁Guido	284
sang	284
VC	284
gues	284
lage	284
competitie	284
▁Civic	284
Out	284
▁GA	284
▁María	284
▁Belgique	284
tol	284
rijke	284
▁Dordrecht	284
cial	284
▁Oro	284
▁basiliek	284
halen	284
eld	284
▁liet	284
Trans	284
appel	284
houd	284
anus	284
▁Heel	284
▁Analysis	284
Rusland	284
order	284
▁Promotie	284
▁Rd	284
▁Repair	284
nom	284
waren	284
▁Tip	284
▁Stal	284
▁werkgroep	284
▁Directeur	283
ß	283
▁Backup	283
▁Schneider	283
▁Ninja	283
▁Opéra	283
▁Meter	283
▁Corte	283
▁privacy	283
ël	283
zoon	283
▁Prado	283
▁Novi	283
▁Musk	283
▁woestijn	283
expositiecentrum	283
ncy	283
dol	283
elles	283
▁solo	283
noot	283
bakken	283
ibo	283
▁hoogte	283
jack	283
▁teken	283
▁Lines	283
▁Governance	283
info	283
▁Nassau	283
Te	283
tou	283
▁Securities	283
▁president	283
▁TX	283
▁Comm	283
sher	283
amp	283
▁Jia	283
▁tank	283
▁Organic	283
▁cd	283
▁Thijs	283
Č	283
▁SR	282
▁Email	282
beveiliging	282
CAM	282
▁Dino	282
vari	282
▁Wash	282
▁Sigma	282
▁Silva	282
▁Client	282
▁Glo	282
▁Musee	282
▁Television	282
teller	282
▁punt	282
Martin	282
patroon	282
▁Booster	282
▁Gren	282
enza	282
▁EOS	282
▁hit	282
sdienst	282
▁Motors	282
ović	282
aud	282
▁Nederlandsche	282
▁Ian	282
bou	282
▁Openlucht	282
ote	282
▁Broederschap	282
Store	282
kend	282
lect	282
▁Brief	282
▁Pitt	282
▁KA	281
▁draai	281
▁Dating	281
salon	281
gol	281
Ass	281
▁Financieel	281
▁Letter	281
OUR	281
▁Lier	281
doek	281
▁Bleu	281
OC	281
loe	281
▁Songfestival	281
▁Meisjes	281
▁Strategic	281
▁Jeanne	281
▁CAT	281
behandeling	281
ril	281
▁Rek	281
umba	281
▁Sm	281
▁Dagblad	281
▁ICC	281
Video	281
▁WC	281
Guard	281
▁Region	281
▁Stuur	281
▁Kitty	281
▁orde	281
▁Beatrix	281
▁Shakespeare	281
\	281
▁Conventie	281
▁CF	281
galerij	281
▁SG	280
▁Rural	280
jon	280
▁Ole	280
▁Laag	280
▁Rush	280
▁eerst	280
▁Kot	280
▁Olive	280
▁MOD	280
eiro	280
camping	280
▁Julius	280
▁Tegen	280
gul	280
▁Universe	280
▁chef	280
▁Opti	280
▁wandel	280
itt	280
gri	280
▁elk	280
▁Feed	280
▁Revolutionaire	280
display	280
boten	280
▁bol	280
▁Helena	280
▁gezondheidszorg	280
▁Coll	280
äl	280
▁partijen	280
▁Yin	280
▁Huid	280
▁Zeil	280
▁Haan	280
ost	280
▁Francesco	280
▁Starter	280
▁crisis	280
▁Rag	280
▁Ohio	280
▁Spec	280
wie	279
▁Clan	279
▁vul	279
▁Cherry	279
kruid	279
Team	279
ller	279
market	279
▁Sep	279
schijf	279
▁strijdkrachten	279
▁Ieper	279
▁Vir	279
ntrolemechanisme	279
▁periode	279
gemaakt	279
▁analyse	279
▁Accu	279
ventilator	279
Kit	279
▁Assen	279
vloeren	279
▁Hitler	279
▁Pixel	279
▁Radi	279
▁Ada	279
▁Gill	279
▁Evans	279
hay	279
▁gevangenis	279
▁Mask	279
▁Stephan	279
▁Worldwide	279
▁Gallo	279
▁Divi	279
▁Yun	279
amo	279
▁Tsu	279
▁nabijheid	279
▁Lut	279
▁Rolling	279
▁Spelletjes	279
rath	279
▁Isa	279
▁Emily	279
range	279
▁Tijdschrift	279
▁baron	279
ğ	279
▁Maritieme	279
▁bracht	279
broodje	279
ashi	279
▁AIR	279
▁Fos	279
▁Delhi	279
▁Raven	279
▁Rak	279
▁academie	279
fran	279
▁oost	278
▁brouwerij	278
▁Abdul	278
▁Peri	278
▁Lager	278
regering	278
▁Styles	278
▁Finn	278
▁Turk	278
▁Exclusieve	278
▁Treasure	278
▁Lions	278
▁Powder	278
▁Klassiek	278
▁Galleria	278
▁Cirkel	278
▁zogenaamde	278
schema	278
▁Thu	278
▁Ion	278
cro	278
▁Xiao	278
MX	278
▁Rebel	278
▁jazz	278
▁levert	278
▁Infra	278
not	278
▁Desi	277
▁Paint	277
tit	277
apa	277
TIE	277
sluiting	277
ggen	277
▁Leonard	277
▁Disclaimer	277
▁Concerto	277
▁Mason	277
▁DAF	277
▁zilveren	277
▁Touring	277
▁Jura	277
▁Massachusetts	277
▁PTFE	277
▁city	277
▁Marianne	277
▁Tante	277
verhaal	277
uni	277
▁Gia	277
▁spoorweg	277
NS	277
duin	277
▁Rep	277
▁hoek	277
▁Pullman	277
▁MV	277
▁snack	277
UST	277
▁Darwin	277
▁aantal	277
▁Hak	277
▁String	277
▁Quad	277
▁massage	277
▁Ningxia	277
▁Castello	277
ORD	276
▁Migratie	276
bbe	276
▁Creatieve	276
▁directie	276
▁INC	276
▁your	276
▁Response	276
▁unieke	276
▁Boudewijn	276
▁Nicholas	276
sley	276
▁Draagbare	276
▁Inno	276
cord	276
▁Bourbon	276
aco	276
▁Sham	276
▁Illinois	276
hol	276
▁Rietveld	276
igne	276
▁Bocholt	276
look	276
vlakte	276
ions	276
▁Onge	276
▁Kaas	276
▁Lambert	276
▁mail	276
æ	276
mex	276
▁Hit	276
lach	275
Black	275
dex	275
uv	275
▁world	275
raw	275
▁Affiliate	275
▁Amb	275
▁stoel	275
▁SO	275
fix	275
hak	275
▁Skype	275
zetten	275
▁Ralph	275
▁Syrië	275
▁horloges	275
chemie	275
▁Riem	275
▁McG	275
FU	275
▁pa	275
mani	275
Blue	275
▁bevinden	275
▁bijeenkomst	275
autoriteit	275
▁opdracht	275
▁Herstel	275
▁Capitol	275
▁oostelijke	275
▁Norton	275
hp	275
moskee	275
▁Campagne	275
▁Aus	275
machi	275
organisaties	275
▁Applied	275
ppe	275
▁zoeken	274
▁Archi	274
▁Categorie	274
rok	274
▁Asus	274
▁OnePlus	274
▁VIII	274
▁AK	274
ZEN	274
▁Siena	274
dha	274
▁brunette	274
▁Vierkante	274
▁Alkmaar	274
▁Tomb	274
▁Kub	274
▁chemische	274
thema	274
▁Railroad	274
▁Herm	274
▁Element	274
▁Orion	274
▁Versailles	274
verzorging	274
▁Klok	274
arena	274
yk	274
URE	274
▁Müller	274
vloed	274
▁MAC	274
▁`	274
▁Truth	274
▁Moo	274
с	274
disch	274
▁Verticale	274
▁Eve	274
▁Iraanse	274
trip	274
▁Raf	274
▁Genk	274
▁Grammy	274
▁ervandaan	273
gni	273
vey	273
▁paarden	273
▁Caribische	273
▁iTunes	273
▁Trouw	273
ome	273
lain	273
▁Sustainability	273
papier	273
▁KG	273
▁Sole	273
▁Dordogne	273
▁Gur	273
jager	273
▁Navi	273
▁case	273
▁Nis	273
▁Coupe	273
▁Kliniek	273
FB	273
▁Kou	273
Mu	273
▁Knokke	273
Museum	273
▁Coaching	273
▁Nero	273
▁Ful	273
▁Christine	273
▁Liquid	273
EEL	272
VV	272
▁brief	272
}	272
▁Apeldoorn	272
TY	272
woning	272
▁Move	272
table	272
▁Cornelia	272
fre	272
▁Privacybeleid	272
▁Autonome	272
▁Papier	272
lica	272
▁Mist	272
Ben	272
voorzieningen	272
klas	272
▁Comedy	272
boerderij	272
dot	272
ungs	272
ân	272
▁Waterloo	272
▁Gio	272
ISO	272
▁Pim	272
▁zaak	272
▁Rex	272
▁Beelden	272
naut	272
▁Hyundai	272
▁Antoni	272
GG	272
awa	272
▁Verbond	271
▁wellness	271
studies	271
emeenschappelijk	271
▁bachelor	271
▁Elektronisch	271
iser	271
verdrag	271
▁Zeer	271
sit	271
▁Aquapark	271
▁vuur	271
pend	271
Anne	271
rill	271
▁Kuala	271
▁Cobra	271
fl	271
▁taxi	271
▁Brew	271
track	271
mile	271
▁Inside	271
▁administratie	271
▁DO	271
▁zaal	271
▁Apo	271
ways	271
▁Beth	271
JE	271
▁stranden	271
▁Pon	271
Post	271
▁Harris	271
spir	271
aandrijving	271
▁Werelderfgoed	271
▁Mastercard	271
jah	271
▁Slaapkamers	271
▁Projecten	271
stap	271
▁Books	271
▁Teresa	271
▁receptie	271
▁Fried	271
▁Scar	271
▁Zurich	271
medic	270
▁Torremolinos	270
▁Catalogus	270
bah	270
▁Infinity	270
eux	270
▁Ear	270
pompen	270
▁spellen	270
Jet	270
▁RAI	270
▁Monkey	270
▁MU	270
▁Simple	270
ime	270
▁Emmanuel	270
▁Alain	270
eten	270
▁Vervolgens	270
eco	270
▁rots	270
▁Chronograaf	270
▁Mori	270
▁Meubilair	270
itie	270
buurt	270
nevel	270
▁Slaap	270
ASH	270
tsj	270
▁Westin	270
▁Drugs	270
joy	270
▁Elephant	270
▁Maat	270
▁Rosen	270
vezel	270
▁Classics	270
agenda	269
jing	269
▁Distributie	269
▁artikelen	269
▁tekst	269
▁Tran	269
▁Suzhou	269
ADA	269
▁Traffic	269
cre	269
ride	269
overeenkomst	269
pole	269
▁Originele	269
▁Lim	269
▁Trends	269
velden	269
▁Judith	269
▁Kaapstad	269
trade	269
▁Broker	269
ilo	269
▁Rac	269
▁Heli	269
hum	269
led	269
▁Directoraat	269
▁agentschap	269
▁Lotto	269
▁Dio	269
▁Dawn	269
▁bloem	269
▁Lund	269
▁Tracker	269
▁Pig	269
▁Messing	269
dron	269
▁Kul	269
heen	268
faciliteit	268
▁Fucking	268
▁Fix	268
AZ	268
▁registratie	268
hef	268
▁Apps	268
nou	268
▁loop	268
▁geheime	268
▁Past	268
▁Magnus	268
Tec	268
▁Soccer	268
Shirt	268
ania	268
tian	268
▁Mayo	268
▁BU	268
▁Blanche	268
▁prof	268
▁Caribisch	268
▁Shang	268
▁Dra	268
▁Majestic	268
▁Afrikaans	268
▁Ec	268
▁Tipard	268
▁Sofa	268
kun	268
▁heuvels	268
kind	268
▁Rechtbank	268
normen	268
hus	267
New	267
rond	267
▁Rubens	267
▁interne	267
away	267
▁Promo	267
genootschap	267
▁Ris	267
▁Bazel	267
ronde	267
▁Stre	267
WS	267
gereedschap	267
liner	267
▁Ere	267
sesteenweg	267
hil	267
ffel	267
rei	267
▁Editie	267
▁Wool	267
suit	267
▁Tec	267
▁Juda	267
▁Ruth	267
▁Mut	267
▁Seoul	267
▁Conf	267
▁Libre	267
▁Fietsen	267
▁Kemp	267
antie	267
▁Grad	266
▁Ketting	266
▁Seed	266
▁Milo	266
DT	266
▁Valentijnsdag	266
▁tra	266
pid	266
▁Lief	266
trouw	266
▁Jul	266
IES	266
Don	266
▁Eer	266
steel	266
▁Gul	266
sale	266
▁Formula	266
NF	266
▁Tibetaanse	266
▁NGO	266
ega	266
▁TI	266
▁Vrachtwagen	266
OOR	266
▁Sec	266
jong	266
▁Sid	266
vervoer	266
▁speelt	266
cott	266
iënt	266
▁Jac	266
▁Regina	266
dict	266
hana	266
▁Akademie	266
panelen	266
▁Valentine	266
HI	266
gever	266
▁PT	266
▁Nes	266
▁Guan	266
▁Taj	266
ole	266
▁Sveti	266
▁IF	265
▁Bie	265
▁Belvedere	265
ieren	265
▁gaf	265
▁Draak	265
▁bond	265
▁Dik	265
▁Wedstrijd	265
▁bent	265
▁Stadhuis	265
zj	265
roos	265
ontwikkelaar	265
▁pin	265
▁Zweeds	265
▁Cum	265
zzo	265
н	265
▁Javea	265
▁Philharmonic	265
▁Vent	265
▁Avi	265
▁Sims	265
MAT	265
▁natuurreservaat	265
▁HU	265
▁Ut	265
▁verzekerings	265
▁Justin	265
▁Og	265
STER	265
▁Jongeren	265
roll	265
▁Codex	265
▁Kussen	265
▁Leden	265
▁Haas	265
▁Huang	265
▁wereldwijd	265
▁Fiber	264
▁Kijken	264
▁When	264
Bahn	264
▁Catharina	264
▁laboratorium	264
ml	264
garantie	264
iche	264
▁reg	264
▁Woods	264
lens	264
Chat	264
nale	264
licentie	264
▁Rhodos	264
▁Rig	264
dance	264
▁vrienden	264
▁Reserveren	264
▁Malt	264
▁Triumph	264
▁Kost	264
waarde	264
▁AAA	264
▁Cradle	264
▁Slots	264
▁Vak	264
ITA	264
▁Psychologie	264
▁Charm	264
▁Cran	264
▁sluit	264
▁Basilica	264
▁Botel	264
▁DM	264
▁Cry	264
dem	264
▁Visie	264
▁Bei	263
onderneming	263
ESS	263
▁Schoon	263
▁Waste	263
block	263
▁Sergej	263
hia	263
▁Aga	263
gil	263
▁Melissa	263
▁hol	263
INO	263
▁Zandvoort	263
▁Sit	263
▁SN	263
▁wild	263
▁Strong	263
▁Kensington	263
gau	263
mission	263
iga	263
▁wandelen	263
riek	263
▁French	263
fjord	263
▁Strike	263
onische	263
▁Citadel	263
▁ketting	263
▁Shirt	263
effect	263
▁Muze	263
utz	263
▁Tek	263
▁bel	263
▁paard	263
▁nbsp	263
▁Inner	263
▁Lys	263
▁Battery	263
▁populaire	263
bladen	263
bli	263
▁Aviv	263
▁Chem	263
▁hel	263
▁Adrian	263
▁Eustatius	262
BSCI	262
▁Oorlogs	262
▁Herald	262
▁Stat	262
▁fr	262
nard	262
cra	262
▁wilde	262
▁Verjaardag	262
▁Aff	262
▁Trace	262
▁Ondernemingen	262
▁Hoeve	262
Inter	262
▁Sang	262
Mil	262
generator	262
cams	262
▁Residentie	262
▁Sense	262
LF	262
▁Poel	262
knoop	262
▁Klaas	261
▁Pere	261
teur	261
▁Afstand	261
▁Hals	261
▁Kring	261
▁Volt	261
▁games	261
▁Americas	261
▁Mysterie	261
▁initiatief	261
loy	261
▁ED	261
▁Hoofdstedelijk	261
▁Kad	261
▁Mess	261
▁España	261
TX	261
▁Geboorte	261
▁Pulse	261
▁Daisy	261
iste	261
▁vlieg	261
▁boom	261
zeil	261
beschrijving	261
▁Barbour	261
▁Manu	261
any	261
▁rooms	261
gezet	261
▁Koreaans	261
xo	261
▁Algarve	261
▁Steden	261
TG	261
Design	261
▁weten	261
▁kunsten	261
▁Tapijt	261
▁Orthodoxe	261
▁Turtle	261
▁Bomb	261
▁woord	261
▁Sed	261
▁Vlag	261
▁wint	260
▁Vee	260
DU	260
▁Championships	260
▁Beg	260
▁Dean	260
▁Noorder	260
gno	260
rex	260
Marc	260
▁incl	260
▁Andro	260
▁Dode	260
▁Dealer	260
▁Fro	260
▁Mobiliteit	260
▁Roo	260
▁Voort	260
▁Slow	260
▁Fle	260
steden	260
grafie	260
ILL	260
▁profiel	260
mill	260
▁Diploma	260
▁fase	260
▁Commonwealth	260
▁dubbel	260
sty	260
voorwaarden	260
▁Tegel	260
mic	260
▁Pie	260
▁Baptist	260
▁Stevens	260
▁Pallet	260
▁BIO	260
Kampioenschappen	260
portal	259
▁Pes	259
iër	259
WF	259
▁Zwembad	259
qa	259
▁Precision	259
▁Timo	259
▁DU	259
rui	259
▁Parkeren	259
▁Vande	259
▁Haze	259
flow	259
▁day	259
▁Botanical	259
handleiding	259
▁Ciudad	259
▁Archeologisch	259
▁Vrouwe	259
UV	259
▁beker	259
▁Chemie	259
▁kaars	259
ër	259
▁Rack	259
feng	259
▁verpakkings	259
▁Veiling	259
▁KW	259
GEN	259
▁Defence	259
▁Speelgoed	259
lung	259
▁Cost	259
▁medaille	259
▁Burgeroorlog	259
Mas	259
pati	259
Pacific	259
▁Talen	259
VPN	259
▁Democratie	259
▁rijst	259
▁Kri	259
phon	259
▁UT	259
▁Vacation	259
Guinea	259
▁Pump	259
▁Classe	259
▁Agua	259
▁steun	258
beschermer	258
▁Marx	258
▁Dochter	258
toets	258
▁Observatorium	258
rijden	258
▁Biennale	258
▁Clock	258
For	258
▁acteur	258
▁Seasons	258
▁Gö	258
fact	258
genomen	258
bestuur	258
▁Kale	258
hd	258
▁Quantum	258
dik	258
uber	258
▁Shore	258
▁Tieten	258
▁Jiangsu	258
cip	258
▁Eddy	258
▁graafschap	258
▁Parti	258
erlijk	258
▁box	258
inder	258
▁Peel	258
▁half	258
pod	258
▁Butterfly	258
Log	258
▁Pizzeria	258
▁Hollandse	258
ebel	258
▁kussen	257
▁Radboud	257
GEL	257
▁power	257
▁Lod	257
games	257
▁plaatsen	257
▁CAM	257
▁Lorenzo	257
{	257
▁Chapel	257
andro	257
▁EZ	257
▁Tall	257
talen	257
▁Birds	257
dent	257
abonnement	257
▁Duik	257
▁Eb	257
▁Gaz	257
ometer	257
beker	257
specialist	257
ose	257
▁Jur	257
▁Jupiter	257
▁Vela	257
▁Luca	257
▁Scholen	257
▁Verborgen	257
▁Brazil	257
agi	257
▁bv	257
▁Boh	257
▁voedings	257
Kar	257
fant	257
▁Radar	257
▁onafhankelijke	257
weekend	257
▁Ware	257
▁Colin	257
▁Ireland	257
ades	257
tric	257
pat	257
ogen	257
▁Cabin	257
▁Fou	257
▁Bangalore	257
▁amateur	256
sys	256
▁support	256
▁Healing	256
kart	256
▁Beiroet	256
▁IR	256
▁Leidse	256
▁TNT	256
▁Schwarz	256
▁Spellen	256
▁Riet	256
verse	256
Pack	256
▁knop	256
▁individuele	256
AAT	256
▁Fellowship	256
▁mm	256
▁Connection	256
▁Goethe	256
venster	256
▁winkels	256
▁Moslim	256
▁waarin	256
▁kont	256
▁Vu	256
▁hoofdstuk	256
ments	256
sap	256
▁Aircraft	256
speel	256
Red	256
schild	256
erings	256
comp	256
bosch	256
telefoon	256
▁Glazen	256
▁Scottish	256
▁Generaal	256
yard	256
uchi	256
▁algemeen	256
▁Roof	256
▁Cla	256
▁Rotsachtige	256
▁weergeven	256
▁toezicht	256
▁Era	256
eto	255
▁Diep	255
▁Emirates	255
▁Abel	255
▁MG	255
▁volk	255
▁diner	255
▁Russ	255
▁Huawei	255
RAN	255
▁Nikola	255
▁Dre	255
Love	255
▁Dynamic	255
www	255
▁Operator	255
▁Artikel	255
ě	255
You	255
▁Ernest	255
kam	255
▁Turner	255
▁Publishing	255
prijzen	255
Min	255
▁Plaat	255
URA	255
geld	255
▁Vertrouw	255
▁zakken	255
▁Dinner	255
▁Rots	254
LAN	254
CB	254
▁Xàbia	254
▁Clinical	254
▁Naka	254
▁Krim	254
▁Hö	254
▁kraan	254
▁Gli	254
mare	254
▁Unix	254
▁leeuw	254
▁Amanda	254
▁Chanel	254
▁Ede	254
▁Walking	254
▁Pai	254
▁Unizo	254
▁Rico	254
WT	254
▁Seg	254
cant	254
overdracht	254
Ü	254
▁CBD	254
▁aanwezig	254
▁Schuim	254
gala	254
lessen	254
alo	254
▁Citea	254
▁Gat	254
ame	254
▁Tomas	254
Pad	254
▁Pvc	254
▁Agricultural	254
Huis	254
▁Opdrachtgever	254
▁Bucharest	254
kalender	254
▁Fr	254
▁Veronica	254
▁spiegel	254
rc	254
▁keer	254
trekker	254
▁Axel	254
▁functie	253
astro	253
KE	253
Ray	253
▁gelijkstroom	253
▁Recycling	253
istan	253
▁Castillo	253
coach	253
▁Reed	253
▁Zoals	253
▁Firmware	253
▁behandeling	253
GN	253
dier	253
Fer	253
▁Airborne	253
▁extra	253
nay	253
smachine	253
▁Lyc	253
wig	253
controller	253
▁Vast	253
inrichting	253
▁Connected	253
sets	253
▁Nim	253
sters	253
pra	253
▁Shen	253
▁Fries	253
▁Degree	253
▁Michail	253
▁Verklaring	253
▁Cricket	253
ike	253
▁Goedkoop	253
▁Kanker	253
▁Astoria	253
▁vormt	253
kampioen	252
▁Lars	252
▁Stoom	252
Press	252
rist	252
Ca	252
▁Hul	252
oir	252
▁Rip	252
Vo	252
▁IJsland	252
▁Counter	252
▁Rei	252
▁Magdalena	252
▁Soleil	252
▁defensie	252
News	252
gras	252
▁manier	252
▁Buffalo	252
wagens	252
TAL	252
kanalen	252
▁meren	252
kleed	252
database	252
▁Embassy	252
▁auteur	252
▁pijp	252
▁Myth	252
Wijzig	252
▁big	252
▁Boog	252
▁Monti	252
▁Craig	252
woord	252
▁Finale	252
▁Geil	252
bast	252
voeg	252
ák	252
▁Agadir	252
▁Fitz	252
€	252
▁Status	252
▁Eur	252
▁Verlichting	252
▁Juridische	252
Af	252
▁Hue	252
▁Nevada	252
transport	252
▁enkele	251
▁Glu	251
▁black	251
iu	251
▁Satan	251
▁vertelt	251
▁Sandy	251
▁Blom	251
▁Amor	251
Studio	251
vine	251
▁CAN	251
Eye	251
▁Quartz	251
▁Still	251
▁Beide	251
tani	251
▁Ding	251
▁Bruine	251
ARI	251
▁Tiny	251
Can	251
ADE	251
▁Edwin	251
▁Corona	251
get	251
trainer	251
в	251
▁Wuhan	251
▁GM	251
quir	251
▁Trap	251
▁play	251
▁Aar	251
▁monument	251
▁Moss	251
▁Silent	251
Machine	251
▁Permanent	251
▁jullie	250
auf	250
▁HMS	250
▁vennootschap	250
ume	250
ned	250
sai	250
▁Germain	250
▁jongeren	250
▁HI	250
▁Holy	250
▁ras	250
▁Domus	250
uto	250
laboratorium	250
AE	250
HAN	250
▁Lanka	250
spiegel	250
▁Nexus	250
▁Electrical	250
▁ET	250
▁Riverside	250
lund	250
Aziatische	250
guin	250
▁Emile	250
▁Officer	250
▁Christiaan	250
TEK	250
nikov	250
▁orkaan	250
▁Deventer	250
▁Sterk	250
pert	250
▁zakelijke	250
▁Printing	250
gres	250
▁Magna	250
▁Maintenance	250
▁bekende	250
gebracht	250
▁Athens	250
▁Hama	250
archi	250
▁Alexandr	250
▁Koppel	250
▁Practice	249
gebieden	249
▁Reality	249
▁Cliff	249
tam	249
▁Nikki	249
thal	249
▁Viktor	249
▁Campbell	249
HU	249
▁snijmachine	249
▁grijze	249
▁Flexibele	249
▁Melia	249
▁inhoud	249
▁Berlijnse	249
▁Proces	249
tr	249
ZZ	249
▁Tale	249
▁Bretagne	249
▁Hur	249
▁Academic	249
▁Meijer	249
▁Antonius	249
▁wallpapers	249
▁Trinity	249
▁planeet	249
▁schreef	249
▁hy	249
▁Lima	249
▁Friday	249
making	249
▁Houd	249
winnaar	249
▁Betty	249
dle	249
▁Carrier	248
lette	248
▁Aken	248
nak	248
▁Gender	248
▁Simone	248
▁Winner	248
▁Infantry	248
gr	248
scape	248
spa	248
gericht	248
▁Babylon	248
OK	248
▁Wereldwijde	248
▁ouder	248
eze	248
▁Caterpillar	248
▁Lourdes	248
▁Instrument	248
▁Holm	248
event	248
▁aflevering	248
▁Bols	248
Free	248
▁Alu	248
linie	248
▁Bailey	248
▁Breitling	248
▁FOD	248
▁leiding	248
▁Growth	248
▁Again	248
▁Pun	248
▁geloof	248
▁Chart	248
▁gehouden	248
▁Londense	248
Jean	248
▁Mino	248
▁PAR	248
▁Ijs	248
▁Stuart	248
▁Prevention	248
evenementen	248
▁Gol	248
▁Grens	248
▁circuit	248
▁XS	248
▁Gebouw	247
▁Jackpot	247
▁Artes	247
▁Beast	247
▁binnenstad	247
▁Hom	247
▁Peters	247
▁WPC	247
▁Lightning	247
racht	247
bouwer	247
▁Samui	247
▁kalender	247
▁Adventures	247
dalen	247
▁Concilie	247
emer	247
logic	247
▁Republikeinse	247
tius	247
▁Barbie	247
▁Integrated	247
▁Wein	247
▁zand	247
▁aangename	247
▁Rud	247
ramp	247
rest	247
▁Apt	247
▁register	247
▁Landelijke	247
elia	247
▁Echte	247
▁Franciscus	247
▁Plo	247
▁Corendon	247
▁Fernando	247
koffer	247
▁Networks	247
Bor	247
▁Zonen	247
▁Ida	247
▁Thompson	247
MU	247
▁Cle	247
▁Medaille	247
theorie	247
▁Noordwest	247
LI	247
▁Voer	247
▁á	247
▁sieraden	247
▁Trailer	247
daal	246
itis	246
wijd	246
▁Cohen	246
aja	246
cool	246
▁sinds	246
▁Italian	246
ides	246
▁VA	246
▁Years	246
▁Arn	246
▁Plateau	246
▁time	246
▁Heb	246
▁Vale	246
BN	246
▁Río	246
▁Amstelveen	246
▁Arma	246
▁Vy	246
▁Vieux	246
tran	246
▁ultra	246
evo	246
▁Ox	246
▁Shaw	246
lava	246
▁Regen	246
▁Ig	246
▁Plate	246
registratie	246
▁Zag	246
▁Erwin	246
▁Edgar	246
vre	246
lion	245
▁MRT	245
▁anaal	245
▁beach	245
▁workshop	245
engel	245
▁Gaulle	245
▁Elastische	245
computer	245
Training	245
üs	245
▁Wijsheid	245
▁Tirol	245
▁Toegepaste	245
Off	245
▁Chevrolet	245
nice	245
▁Kawasaki	245
▁Hab	245
sloot	245
▁Voertuig	245
▁Mumbai	245
▁Lama	245
▁Abe	245
▁schrijver	245
▁projecten	245
▁CEO	245
dien	245
ough	245
▁Chrono	245
▁Montage	245
▁Hermes	245
bashi	245
▁Monroe	245
arra	245
▁Zig	245
Flex	245
shof	245
tura	245
▁Sanctuary	245
skaja	245
spar	245
real	245
▁international	245
▁Rita	245
▁Toepassing	245
▁Flats	245
▁SMS	245
▁Bilderberg	245
▁diploma	245
▁Helder	245
▁personen	245
▁Ecole	245
Indische	245
▁Million	245
▁paraplu	244
aties	244
▁Unter	244
▁Lands	244
IGE	244
▁Wax	244
▁keur	244
verdiepingen	244
▁Frits	244
▁Consumenten	244
▁VU	244
alle	244
▁Werner	244
osi	244
▁Shangri	244
▁Harp	244
▁Patio	244
Control	244
▁Rambla	244
▁Ket	244
▁Runner	244
▁Gabriels	244
▁pal	244
▁Ent	244
▁Hassan	244
isation	244
▁grill	244
▁long	244
▁Minh	244
gren	244
Nederlandse	244
▁Tassen	244
▁download	244
▁Omar	244
▁Vraag	244
▁middel	244
moon	244
tress	244
▁Peer	244
▁Frederick	244
oto	244
▁Mij	244
regel	244
▁Blade	244
▁Why	244
paal	244
▁Reserveringen	244
dhi	244
lez	244
▁Supermarkt	243
mens	243
archief	243
▁Shopify	243
istic	243
roei	243
▁Strap	243
Fit	243
Cre	243
▁Root	243
eken	243
▁Julien	243
▁Commune	243
LUX	243
▁Brighton	243
▁Warehouse	243
▁RA	243
▁Estland	243
▁kardinaal	243
▁WD	243
▁Rocky	243
▁succes	243
rag	243
▁Harmony	243
▁Lud	243
zenders	243
rain	243
Wit	243
will	243
▁Wharf	243
▁Vega	243
cul	243
culture	243
▁Jewish	243
roep	243
▁nieuwste	243
sam	243
dat	243
▁Onderhoud	243
▁uitstekende	243
meld	243
Sp	243
▁Bast	243
rose	242
VB	242
▁kijken	242
iale	242
night	242
mok	242
ifi	242
▁series	242
docent	242
▁Agile	242
meren	242
▁Roterende	242
EB	242
▁textiel	242
gus	242
▁Ska	242
▁Confederatie	242
▁Pakistan	242
▁Koko	242
▁Stam	242
▁Eat	242
▁vastgoed	242
▁Paseo	242
emmer	242
Tour	242
▁Balie	242
▁Copenhagen	242
д	242
▁Bean	242
▁publicatie	242
▁Lime	242
▁Thermische	242
▁Nathan	242
▁Resolutie	242
▁plek	242
▁Tou	242
heren	242
ZE	242
▁Informatica	242
ROS	242
▁Boeren	242
▁universele	242
▁Lava	242
lene	242
▁Grave	242
▁Zuider	242
▁Landen	242
pay	242
▁Visit	242
▁Transportation	242
▁james	242
←	242
ianus	241
▁modellen	241
▁Aj	241
Tube	241
▁Colle	241
▁HS	241
eeuw	241
▁Droog	241
▁Wright	241
Frankrijk	241
▁garantie	241
▁Dmitri	241
▁Gloria	241
▁Daan	241
▁MON	241
dai	241
▁hek	241
▁Jeep	241
ket	241
concours	241
▁Amerikanen	241
▁Indiana	241
dress	241
Play	241
▁Ramp	241
▁Collector	241
Lin	241
▁Odessa	241
▁Productions	241
SMA	241
schaft	241
kabinet	241
▁Charter	241
▁Tivoli	241
▁Fontein	241
foon	241
NN	241
▁Franc	241
▁Zes	241
lijsten	241
WC	241
▁Adeje	240
▁loopt	240
Nederlands	240
▁bevestigt	240
Bedroom	240
▁Murray	240
virus	240
uele	240
▁TH	240
▁directoraat	240
▁openbaar	240
file	240
▁Lea	240
▁lage	240
koop	240
▁Saar	240
▁Fay	240
▁Lemon	240
▁Waal	240
▁Brut	240
wu	240
▁Wings	240
Dom	240
borden	240
▁slaap	240
▁Frost	240
▁Spoorweg	240
▁Strat	240
▁Masterclass	240
▁Bodrum	240
▁Interrail	240
▁Terry	240
▁Weber	240
kasten	240
▁Jesus	240
▁Mud	240
▁Noordwijk	240
▁vlees	240
▁westelijke	240
▁Rothschild	240
illion	239
▁Fed	239
▁Fact	239
▁Shape	239
▁Riva	239
▁Fry	239
▁Anker	239
▁Keep	239
▁Tommy	239
▁SSL	239
▁Interior	239
▁Schmidt	239
▁Waterfront	239
▁Cou	239
▁Visitor	239
▁Lon	239
marketing	239
lav	239
iteiten	239
▁ep	239
orthodoxe	239
▁Release	239
▁Sas	239
lezer	239
fall	239
▁Dora	239
kol	239
Mac	239
cz	239
haal	239
▁Rise	239
WO	239
▁bijlage	239
▁national	239
▁Tavern	239
▁Warner	239
ACT	239
▁Lied	239
▁document	239
▁HC	239
▁Hoofdstad	239
▁Wish	239
▁WH	239
verhuur	239
▁Palau	239
▁Krijg	239
jarig	239
▁Afgevaardigden	239
para	239
▁Singer	238
cijfer	238
▁adres	238
▁Garantie	238
▁Horst	238
lade	238
yar	238
▁spoor	238
steek	238
▁Mondriaan	238
▁Nepal	238
▁Hed	238
▁Raja	238
▁Matsu	238
Å	238
RON	238
▁Zur	238
▁port	238
▁meet	238
▁Even	238
▁Fischer	238
eme	238
▁Zakelijke	238
▁AAN	238
▁Lem	238
korps	238
▁SF	238
▁Perry	238
ckel	238
▁Gru	238
▁reserveren	238
Je	238
igi	238
▁regel	238
uku	238
▁Leg	238
▁Mitchell	238
osh	238
▁Palmer	238
Pers	238
XP	238
▁Bestand	238
▁reclame	238
▁Hermann	238
▁Sau	238
duct	238
ved	238
verwarmer	238
▁Eeuwige	237
geven	237
stil	237
▁Isis	237
droger	237
	237
▁Details	237
▁gay	237
▁Sis	237
▁Medina	237
▁Tho	237
▁BS	237
▁Chocolade	237
▁gereedschap	237
▁parken	237
ishi	237
▁Lauren	237
zegel	237
tov	237
▁Compliance	237
▁Vitamine	237
▁BEL	237
Camp	237
▁toen	237
ambi	237
uge	237
▁EURO	237
▁joodse	237
mee	237
ht	237
VM	237
Hand	237
▁jacht	237
▁Bam	237
▁Yas	237
pact	237
▁commerciële	237
dell	237
gua	237
▁Armband	237
▁Kes	237
yd	237
Hub	237
▁Harm	237
▁Heinrich	237
Plan	237
▁Northwest	237
▁Laptop	237
▁tapijt	236
▁XI	236
▁Velde	236
▁schoonheids	236
▁Cheese	236
▁kort	236
SV	236
▁Kook	236
etische	236
▁Claudia	236
▁MY	236
▁vulkaan	236
▁Feel	236
▁beoordelingen	236
yx	236
▁Lekker	236
▁Mickey	236
letter	236
iging	236
blauw	236
omgeving	236
schroef	236
stay	236
lt	236
▁Kors	236
▁Plage	236
kader	236
▁Applicatie	236
gran	236
▁Juni	236
grote	236
cyclus	236
▁Duurzaam	236
jie	236
▁overzicht	236
▁Tesla	236
▁Orphek	236
▁Sommige	236
▁Hongaars	236
▁SU	236
▁Pav	236
▁Webmasters	236
tori	236
slang	236
▁Voyage	236
wat	236
▁Opper	236
▁afdrukken	236
▁UP	236
ál	236
pes	236
▁Gian	236
▁zwe	236
ERN	236
tive	236
François	235
▁Loterij	235
▁Lombard	235
▁Gezondheidszorg	235
workshop	235
vader	235
zza	235
download	235
▁Stol	235
▁Fase	235
hoed	235
▁Tun	235
chain	235
lichten	235
▁Slu	235
▁Beoordeling	235
▁Saksen	235
bun	235
lagen	235
▁studies	235
▁Workers	235
▁LU	235
▁Sw	235
orgel	235
▁Swim	235
▁Zhu	235
own	235
▁IKEA	235
▁Agriculture	235
▁Gibraltar	235
▁stuk	235
kasteel	235
▁Bentley	235
chie	235
SIS	235
▁Puy	235
▁Brahms	235
jak	235
▁Stones	235
▁Vac	235
▁Lyn	235
▁Catalonië	234
mona	234
▁Jury	234
▁echt	234
▁Dolce	234
▁Satelliet	234
zoo	234
specialisten	234
ELL	234
▁Gelderland	234
leu	234
BOX	234
▁map	234
Japan	234
▁Rafael	234
▁Hallo	234
▁Bungalows	234
zil	234
▁organ	234
▁Parijse	234
cole	234
spraak	234
▁Savoy	234
▁Accounting	234
▁Wallonië	234
▁verzameling	234
▁Kab	234
betaling	234
▁fan	234
▁Adult	234
▁Gilbert	234
▁verwijderd	234
ear	234
▁Dura	234
▁Straatsburg	234
nut	234
▁HY	234
▁Belangrijke	234
zand	234
▁Hague	234
▁Sons	234
agua	234
ENG	234
▁Militair	234
▁mes	234
communicatie	234
▁Smile	234
ketting	234
▁Christophe	234
IMA	234
▁Coalitie	234
▁Motorsport	234
▁group	234
▁link	233
▁Netflix	233
▁stelde	233
▁Hercules	233
stu	233
▁Zebra	233
▁Clay	233
▁trainings	233
▁vrijdag	233
gha	233
▁Bosnië	233
▁Sylvia	233
▁Eck	233
▁display	233
▁Indien	233
▁Utrechtse	233
▁vliegtuig	233
▁Kalender	233
▁Materials	233
▁Mineral	233
clan	233
▁Mohamed	233
▁Rene	233
MV	233
Flow	233
▁Barber	233
▁Hé	233
creatie	233
group	233
INT	233
▁Jobs	233
▁volks	233
▁Bulletin	233
online	233
▁Sandwich	233
▁Doorn	233
ovsk	233
▁Banken	233
▁perfecte	233
▁Brick	233
IDA	233
RIT	233
▁Neue	233
▁relatie	232
▁imp	232
▁Wear	232
ovich	232
advies	232
ushi	232
▁Dc	232
▁Sants	232
CHA	232
DD	232
kova	232
▁Eraser	232
mming	232
▁slang	232
coat	232
nce	232
saki	232
▁Bent	232
▁Nagel	232
▁Memphis	232
science	232
▁Antenne	232
▁Arbeiders	232
▁Common	232
▁Wereldbank	232
EZ	232
▁Dimitri	232
▁Strategische	232
maken	232
▁Jumeirah	232
▁Tig	232
elijkheid	232
truck	232
ffen	232
▁Adagio	232
▁EB	232
bai	232
▁Motoren	232
▁Arrow	232
elementen	232
▁Waterdichte	232
▁bron	232
▁verkopen	232
▁Wis	232
▁Bala	232
Claude	232
▁Ahmed	232
▁Agnes	232
pher	232
▁Paula	232
trix	232
▁Cello	232
▁delle	232
▁Uitrusting	232
dir	232
▁belasting	232
▁Phu	232
scholen	232
▁LS	232
fire	232
▁Clash	232
▁ware	232
▁Stern	231
▁Venture	231
laken	231
▁Sme	231
ITS	231
bekken	231
▁geo	231
▁Bagage	231
öll	231
lani	231
▁Vorst	231
zhi	231
▁Inleiding	231
GER	231
▁Vanuit	231
▁Derby	231
▁Aman	231
▁Hash	231
▁Shot	231
▁Zhang	231
▁Carrière	231
ogne	231
▁waarde	231
▁Constantijn	231
▁Ast	231
AAN	231
metaal	231
vissen	231
▁Missouri	231
Mor	231
▁Pavilion	231
▁Oyster	231
▁IA	231
▁Dakar	231
some	231
▁Jal	231
▁huwelijk	231
▁Zw	231
bru	231
▁BTW	231
▁Detroit	231
▁Tweepersoons	231
▁Ramon	231
▁concept	231
ACH	231
fase	231
▁Noble	231
▁Greg	231
veren	231
formulier	231
▁Hobby	231
▁Mey	231
▁Bulgaarse	230
kro	230
▁Shinjuku	230
▁Hedendaagse	230
Bre	230
tab	230
▁Tribune	230
round	230
hamer	230
▁Tier	230
Rock	230
▁Mold	230
▁XXL	230
▁Translation	230
ability	230
▁Voeg	230
▁Permanente	230
▁Sie	230
▁Gary	230
oya	230
▁Vr	230
wetenschap	230
Top	230
▁Kansas	230
tara	230
anker	230
GT	230
▁Brook	230
▁QC	230
LIA	230
▁Ode	230
iere	230
▁HTC	230
▁Redmi	230
▁Pieters	230
▁Pole	230
ATIE	230
▁Jenny	230
▁Nicola	230
▁Window	230
▁datum	230
▁Find	230
▁uitge	230
▁trouw	230
▁Natuurlijk	230
▁Progress	230
▁oceaan	230
oxide	230
jacht	230
gevallen	230
▁Marion	230
BK	230
▁OOO	230
UE	229
▁Gong	229
▁Rong	229
IEN	229
▁Lancaster	229
▁Jamie	229
ota	229
▁Bona	229
▁Mills	229
▁Oor	229
▁Moe	229
state	229
syndroom	229
yna	229
▁vac	229
feesten	229
▁winnaar	229
▁Schilder	229
bronnen	229
▁Asakusa	229
YA	229
▁halve	229
XX	229
▁Wereldwijd	229
lui	229
▁Coating	229
▁Lay	229
▁Span	229
▁Toen	229
▁TP	229
Kat	229
▁geplaatst	229
phy	229
▁Push	229
▁Nog	229
▁Gale	229
▁Denia	229
▁Literatuur	229
▁Gibson	229
▁Bü	229
▁federatie	229
▁Mango	229
▁Canta	229
▁Jehovah	229
▁wegen	229
gong	229
RB	229
▁Profile	229
▁Landes	229
leiders	229
▁wifi	229
tap	229
▁Schip	229
drager	229
▁ER	229
District	229
▁Meat	229
bied	229
fus	228
▁Ingrid	228
▁Robo	228
▁Sauna	228
▁Aalst	228
eder	228
▁Lap	228
▁music	228
▁Dus	228
▁Schrift	228
▁Wifi	228
▁Lelie	228
▁Sja	228
match	228
▁Petite	228
▁Iv	228
▁prefectuur	228
▁Sterling	228
▁Certification	228
▁Carrer	228
bewerkings	228
▁Zuidwest	228
ond	228
▁Lat	228
volt	228
▁Planten	228
tini	228
▁Alien	228
▁UEFA	228
zij	228
oko	228
▁hedendaagse	228
ovski	228
aca	228
Mag	228
▁beroemde	228
▁SAS	228
▁pour	228
tassen	228
lex	228
▁Mt	228
▁Leather	228
▁Cookies	228
Bra	228
▁Terme	228
LN	228
lly	228
▁acht	228
▁Nel	228
▁Oregon	228
draai	228
mak	228
▁groothandel	228
▁Jewel	228
ORA	228
▁Lor	228
▁hoogste	228
▁Arco	227
▁Registratie	227
▁Indonesia	227
KG	227
▁Petroleum	227
Petersburg	227
▁Whit	227
oem	227
▁Gerald	227
apo	227
▁ATP	227
▁Stok	227
rust	227
▁Planeet	227
▁Date	227
▁Victory	227
▁Mater	227
▁NASA	227
▁Mitte	227
▁VO	227
Lock	227
ardo	227
▁agenda	227
plank	227
▁Text	227
Baptiste	227
▁Slav	227
▁Mariene	227
▁bijvoorbeeld	227
▁hu	227
▁Colon	227
▁Neil	227
▁Sno	227
▁Virtuele	227
nberg	227
▁Coat	227
▁Exclusive	227
xxx	227
▁gitaar	227
ange	227
▁cm	227
Ab	227
▁Recorder	227
▁Filippijnen	227
chia	227
▁Sprint	227
plex	227
▁fitness	227
waarden	227
sund	227
xa	227
kle	227
traject	227
▁Mic	227
IMO	227
▁Bobby	227
onic	227
Technologie	227
Porn	227
zang	227
▁applicatie	227
▁Wonderland	227
▁Uniform	227
CY	227
ugg	227
[:	227
atta	227
▁Hoed	227
issi	227
ulu	227
▁krijgen	227
▁Trucks	226
▁Fritz	226
Mus	226
grip	226
▁Songs	226
china	226
tionele	226
▁mal	226
▁virtuele	226
▁Forward	226
dome	226
Motor	226
▁http	226
▁Corfu	226
▁Ano	226
▁Lust	226
nea	226
▁Jurk	226
▁Toys	226
▁Reeks	226
▁Nuclear	226
hoo	226
sio	226
ghe	226
▁spoorlijn	226
▁Elise	226
ignon	226
▁Gentse	226
tentie	226
▁Bible	226
▁Zout	226
▁Kung	226
▁Colombo	226
▁Blake	226
▁Martha	226
▁Tres	226
crisis	226
offer	226
▁Disk	226
▁levering	226
▁Boor	226
masker	226
▁Taste	226
▁Pul	226
Ger	226
▁Kosmische	226
GL	226
oth	226
▁Conrad	226
Limburg	226
▁Depot	226
bella	226
bh	226
asia	226
▁Berkeley	226
ography	226
tty	226
▁Wonen	226
▁Spar	226
▁Material	226
▁Chinatown	226
flor	226
▁Verkoper	226
▁Um	225
▁Monumenten	225
▁Managed	225
▁FE	225
▁track	225
feed	225
▁RTL	225
▁Kho	225
OFF	225
▁Evi	225
▁Scher	225
iber	225
▁Universum	225
▁Dekker	225
bian	225
▁Klep	225
▁Vilnius	225
▁Combat	225
▁Gam	225
schepen	225
▁Sabine	225
Om	225
▁ander	225
▁Ahmad	225
singel	225
▁Paphos	225
▁Mok	225
▁besluit	225
wegen	225
▁enkel	225
▁Advertising	225
▁opnieuw	225
▁Decor	225
▁vind	225
FF	225
▁Miracle	225
cilinder	225
▁fietsen	225
kist	225
Light	225
update	225
▁Merit	225
▁oorlogen	225
CHI	225
▁kolonel	225
▁Burton	225
▁Earl	225
▁Emmy	225
▁Cyclo	225
▁ISS	225
▁Quebec	225
oren	225
Safe	225
▁Wake	225
▁Raj	225
▁Annual	225
▁Tijdperk	225
▁kra	225
pf	225
▁Author	225
terminal	225
▁Aka	225
▁Monde	224
tickets	224
▁DX	224
▁Ambassador	224
plo	224
Lite	224
revolutie	224
▁Barra	224
▁Olga	224
▁Dok	224
kosten	224
▁Dominique	224
▁Nathalie	224
nim	224
AAL	224
lut	224
AIR	224
▁Ballon	224
▁faciliteiten	224
▁Hide	224
▁Reus	224
▁Luz	224
▁Consultant	224
▁banken	224
ijksuniversiteit	224
icia	224
▁Bing	224
▁Manga	224
wil	224
▁ob	224
songfestival	224
▁Zillertal	224
▁onroerend	224
▁Groote	224
verwerking	224
Bot	224
▁Gulf	224
▁Fairy	224
▁Holly	224
▁Leave	224
▁Bold	224
▁Marian	224
ș	224
lian	224
▁Cart	224
▁richt	224
▁Atlantik	224
zending	224
▁Managers	224
▁wachtwoord	224
ifa	224
immer	224
TIC	224
▁voormalige	224
▁Externe	223
root	223
▁Edison	223
▁name	223
▁volgen	223
medaille	223
ool	223
▁Yes	223
▁Parkhotel	223
▁Taipei	223
White	223
▁westerse	223
▁Milf	223
iving	223
▁Reservation	223
▁Zara	223
III	223
▁kunstenaar	223
▁Tyre	223
▁NET	223
bow	223
▁Ruiter	223
▁Introductie	223
ontwerper	223
▁Newton	223
▁Wagner	223
▁Moh	223
rid	223
▁Gon	223
▁Scene	223
▁Rolf	223
▁Charme	223
▁Minnesota	223
voertuigen	223
▁tro	223
▁Parfum	223
▁chocolade	223
vorming	223
▁Bourg	223
▁Première	223
▁Arctic	223
Green	223
proef	222
▁Shelter	222
▁juridische	222
▁Geavanceerde	222
▁Takes	222
▁Beveiliging	222
▁JD	222
bod	222
▁Ile	222
▁Commerciële	222
status	222
▁Adriaan	222
jam	222
▁Wayne	222
▁Landelijk	222
hiro	222
meng	222
▁AUTO	222
▁nood	222
esti	222
▁Kroatische	222
▁í	222
▁HA	222
▁Hau	222
sdorf	222
heng	222
▁SkyTeam	222
▁Oven	222
▁stoom	222
unch	222
▁jou	222
▁Reina	222
▁Ontvang	222
kill	222
▁Pain	222
▁Deutschland	222
▁Winkelwagen	222
gasse	222
▁Wacht	222
▁Animatie	222
▁Fountain	222
slagen	222
risch	222
▁Violet	222
▁Hav	222
TW	222
▁Universiteiten	222
rate	222
pper	222
▁draagt	222
▁mooi	222
▁Coo	222
marine	222
▁Grenzen	222
▁beveiliging	222
▁Scotland	222
▁Faciliteiten	222
▁eigenaar	222
▁Fles	222
▁Eigenschappen	222
▁Frédéric	222
▁PV	222
▁Remo	222
▁Lobby	222
ERT	221
song	221
▁Worm	221
kabels	221
oil	221
▁Perzische	221
▁Indië	221
▁Luther	221
ASA	221
duid	221
▁DW	221
ssin	221
▁Ef	221
formaat	221
DL	221
▁Phra	221
▁Into	221
▁Oma	221
▁christenen	221
▁Wendy	221
▁Tomorrow	221
▁Boots	221
materialen	221
▁Braun	221
▁Jacobus	221
▁Damme	221
▁literatuur	221
▁Luke	221
scop	221
lev	221
▁Splash	221
▁Pip	221
CN	221
eker	221
▁Arcade	221
▁Mosque	221
▁roestvrijstalen	221
thee	221
▁Mining	221
▁Montana	221
▁Fins	221
bergh	221
iye	221
▁SAM	221
▁PO	221
▁There	221
▁Kane	221
schik	221
auer	221
▁front	221
safe	221
▁Finger	220
Sol	220
▁Verhaal	220
▁Newcastle	220
▁Edwards	220
verklaring	220
▁DEN	220
▁Pijpen	220
cm	220
pto	220
▁lee	220
▁schroef	220
▁Wells	220
source	220
Tor	220
▁Juliana	220
▁Citizen	220
▁Verdi	220
lä	220
ubi	220
▁Carr	220
▁Servië	220
▁Cava	220
aldo	220
▁Grim	220
Vision	220
DJ	220
▁Silicium	220
▁Zagreb	220
▁Stories	220
▁Roken	220
Arm	220
mechanisme	220
▁Kie	220
sure	220
▁SPC	220
▁Adelaide	220
▁Nem	220
▁Buddy	220
▁Exo	220
▁Automobile	220
Amerikaans	220
‐	220
stations	220
▁Acht	220
▁Nitro	220
▁Oosterse	220
▁Seafood	220
▁Sparta	220
ingham	220
▁Cancun	220
tner	220
▁fu	220
▁planten	220
geen	220
storm	220
▁PL	220
▁Wolfgang	220
▁maak	220
▁AE	220
SCH	220
▁Schrijf	220
vliet	219
▁Acapulco	219
▁Mug	219
werd	219
▁Knights	219
▁JO	219
▁slimme	219
▁Rang	219
▁techniek	219
bing	219
▁Cleveland	219
encia	219
▁Chess	219
▁Honey	219
vl	219
▁Zan	219
imp	219
▁Legacy	219
▁Tren	219
▁Bene	219
▁Beatles	219
blij	219
Mate	219
mall	219
lengte	219
▁RU	219
TRO	219
▁Broadcasting	219
▁wereldoorlog	219
▁CI	219
Sam	219
▁Must	219
▁song	219
▁Léon	219
▁Ginger	219
▁Christen	219
▁Kingston	219
▁lees	219
▁Werkgelegenheid	219
raz	219
▁Provinciale	219
▁Feature	219
▁Protector	219
▁Vino	219
zag	219
ables	219
▁kristal	219
▁Mobiel	219
expert	219
▁Late	219
▁NIEUW	219
▁Nijl	219
▁Sunrise	219
▁Meesters	219
▁Knop	219
por	219
▁Assist	219
duinen	219
▁Infrastructure	219
▁tele	219
▁MacBook	219
▁paviljoen	219
thos	219
hove	218
▁BEN	218
Show	218
▁Vice	218
▁bak	218
Che	218
▁Gilde	218
▁Official	218
updates	218
koeler	218
studenten	218
▁Punten	218
▁Leuk	218
▁Tuber	218
nap	218
▁Fence	218
▁Scala	218
▁life	218
▁Sele	218
ode	218
▁SMT	218
rijn	218
▁lezen	218
▁Kis	218
Sun	218
▁Centra	218
éri	218
▁house	218
melk	218
▁Dodge	218
▁leuk	218
functies	218
▁inspectie	218
▁Pete	218
▁Blau	218
▁Lagoon	218
▁Baltimore	218
▁Kia	218
▁November	218
toepassingen	218
mah	218
▁Grip	218
▁Zwem	218
▁Aria	218
client	218
▁Framework	218
▁PostNL	218
▁Leen	218
▁PornHub	218
▁Fairmont	218
atsu	218
▁Jamaica	218
love	218
▁Away	218
note	218
▁smart	218
▁Investigation	218
▁Feli	218
procedure	218
▁Argentijnse	218
sort	218
▁Vig	218
▁secretariaat	217
▁Airways	217
▁Zeg	217
▁tunnel	217
▁Kö	217
ando	217
▁Paolo	217
▁Integration	217
führer	217
▁Startup	217
▁APP	217
▁Aaron	217
vleugel	217
oj	217
OI	217
▁Stanford	217
▁Nomad	217
▁archief	217
▁stijlvolle	217
▁Dub	217
▁Bess	217
ONDER	217
▁Banden	217
▁Wiener	217
▁Schoonheids	217
▁Rau	217
fund	217
▁IJzer	217
▁Glad	217
▁kun	217
▁Maru	217
SG	217
blu	217
schrijver	217
ña	217
▁BIM	217
kate	217
▁Stoffen	217
ession	217
▁pool	217
▁Glow	217
▁Recruitment	217
▁Koelkast	217
▁Wiskunde	217
▁Helden	217
▁beslaat	217
▁Infanterie	217
▁Torres	217
▁alsook	217
▁Bellevue	217
▁Alexa	217
▁wie	217
Share	217
▁Hamburger	217
▁Ep	217
▁Running	217
▁Fei	217
▁GC	217
▁broer	216
zor	216
▁webshop	216
▁spelletjes	216
▁Duomo	216
▁Samantha	216
mind	216
streep	216
iviteit	216
▁Seine	216
▁wacht	216
▁arbeids	216
▁Alert	216
▁Kazan	216
bok	216
▁Sofie	216
▁Handleiding	216
▁Brabantse	216
▁update	216
USB	216
ohn	216
ako	216
▁Nigeria	216
▁Berliner	216
wich	216
▁Wii	216
▁Textile	216
looi	216
▁afval	216
leigh	216
▁Castro	216
ïne	216
ratie	216
drive	216
grafische	216
ICO	216
bijeenkomst	216
▁Woning	216
▁Tay	216
▁Dylan	216
riva	216
rien	216
▁distributie	216
Cast	216
▁Wilder	215
▁JP	215
ups	215
zit	215
▁Alabama	215
opties	215
Big	215
▁Drenthe	215
▁Send	215
▁Metz	215
▁Assassin	215
▁Broodje	215
FrieslandCampina	215
Commerce	215
▁Alte	215
▁Scale	215
▁Emilia	215
▁Mobil	215
▁Evenement	215
▁Beroep	215
▁Wachtwoord	215
illes	215
beer	215
▁verzending	215
▁Harold	215
▁Creation	215
▁RFID	215
Si	215
▁Toer	215
▁Schroef	215
Din	215
▁Dali	215
▁fonds	215
▁Address	215
▁Croix	215
▁Webdesign	215
▁bruin	215
grootte	215
▁Mom	215
▁Liberation	215
▁vacuüm	215
▁Chick	215
▁Slowakije	215
▁later	215
tle	215
scomité	215
planner	215
ssamenwerking	215
▁Nautilus	215
STA	215
▁Cheng	215
▁EEN	215
luk	215
▁IL	215
mest	215
▁vierkante	215
teams	215
legering	215
gaat	215
Smart	215
▁Tina	215
Oostenrijk	215
▁EG	215
cr	215
▁Clement	215
haak	214
▁mit	214
▁AX	214
erden	214
▁Raspberry	214
▁mededeling	214
▁punten	214
|	214
jana	214
▁TRI	214
▁Arno	214
▁Seeds	214
▁zeil	214
▁Telegraaf	214
▁Cocktail	214
▁Nishi	214
▁Sieraden	214
▁Parco	214
ticket	214
▁Gum	214
▁fotografie	214
hek	214
▁schijf	214
▁kost	214
▁rose	214
univers	214
▁Hung	214
▁Tex	214
▁advocaten	214
▁Geloof	214
rm	214
▁Duinen	214
Dan	214
▁Orgel	214
▁Lies	214
strip	214
ISCHE	214
VT	214
▁Stru	214
icon	214
akov	214
▁Marieke	214
▁Apache	214
Joseph	214
▁rest	214
▁Cake	214
itta	214
ify	214
▁Paradiso	214
eaux	214
▁Westland	214
OMA	214
▁Dancing	214
▁Speler	214
▁mediterrane	214
▁eigenschappen	214
▁Mast	214
raket	214
▁Shaggy	214
pakken	214
▁Instituto	214
▁altijd	213
▁make	213
▁sexy	213
▁Vlieg	213
beelden	213
LAB	213
snijmachine	213
▁Magento	213
▁Chao	213
▁Hieronder	213
bundel	213
tijden	213
▁Herr	213
▁Quilt	213
▁droom	213
Zone	213
Brien	213
▁Lak	213
inner	213
invest	213
▁Schouwburg	213
lichaam	213
▁Botanische	213
sfonds	213
▁Straal	213
sluis	213
▁spin	213
▁Quin	213
▁Zeus	213
▁Gouda	213
punk	213
▁kon	213
It	213
Atlantische	213
factor	213
ANS	213
▁Competitie	213
▁MM	213
▁Builder	213
▁Brooks	213
▁heel	213
▁Latina	213
▁Fields	213
▁Denk	213
clean	213
▁Meubel	213
ERE	213
ovsky	213
Ke	213
▁hoofdkwartier	213
▁Unified	213
▁Chic	213
▁Plastics	213
ann	213
▁Stephanie	212
▁KBC	212
▁zeer	212
▁Gard	212
pannen	212
groen	212
cil	212
▁Diabetes	212
Win	212
▁Conflict	212
meyer	212
uring	212
▁Koch	212
▁Rui	212
▁Cameron	212
▁Genua	212
▁Signature	212
▁mont	212
fondsen	212
▁landgoed	212
speed	212
▁Tijger	212
▁Maine	212
▁logistiek	212
inda	212
▁Dorm	212
▁Heng	212
▁Healthy	212
▁Fortuna	212
schuim	212
▁BTS	212
▁Warren	212
▁Albrecht	212
matig	212
▁TO	212
rique	212
▁IND	212
american	212
▁Roca	212
▁Ibrahim	212
▁Murphy	212
▁VISA	212
▁Fiesta	212
beau	212
borough	212
Spa	212
▁WTC	212
bewaking	212
catalogus	212
▁verhalen	212
▁Cow	212
▁Worth	212
▁Immigratie	212
JS	212
▁Zet	211
Anders	211
Alle	211
▁Betaal	211
▁Vat	211
▁Platz	211
▁montage	211
▁Maurits	211
▁Timberland	211
▁SIM	211
BER	211
WD	211
check	211
▁Bubble	211
LOG	211
▁Shoe	211
▁Sharjah	211
tochten	211
▁STE	211
▁Brei	211
▁sectie	211
▁Alpes	211
ege	211
▁Ivo	211
▁Assistance	211
▁Intra	211
▁Noordoost	211
▁carnaval	211
▁ere	211
▁Ner	211
gger	211
▁Kwartet	211
▁talen	211
áz	211
▁Vergelijk	211
▁pra	211
▁aangepaste	211
Ville	211
▁Scuba	211
uy	211
uitwisseling	211
nfiguratiescherm	211
▁Laden	211
▁Koer	211
▁Niagara	211
wij	211
▁Mann	211
AW	211
frame	211
▁Own	211
shaw	210
▁Amazing	210
egg	210
beat	210
schade	210
zaag	210
lint	210
▁brigade	210
dler	210
▁Mazda	210
polo	210
bao	210
▁Arjan	210
▁Cluster	210
shell	210
▁verwijderen	210
drop	210
mori	210
▁Lev	210
lieve	210
▁Twist	210
Werk	210
▁glazen	210
▁Portland	210
▁Fel	210
WL	210
▁garen	210
MR	210
▁Dir	210
ulatie	210
▁BD	210
▁ago	210
comma	210
LINE	210
▁Vaticaan	210
▁stadscentrum	210
▁Verne	210
tant	210
fly	210
cnc	210
▁Slang	210
▁Bone	210
▁Recording	210
▁behang	210
contact	210
▁Tv	210
▁Protocol	210
REN	210
isto	210
▁Moezel	210
▁gastenkamers	210
foot	210
▁Este	210
▁promotie	210
▁Sz	210
tana	209
Bet	209
▁Dokter	209
▁Innsbruck	209
▁Nikon	209
weken	209
rede	209
▁toont	209
▁Beoordelingen	209
▁Arabieren	209
▁Collective	209
mul	209
▁Left	209
▁Vliet	209
▁externe	209
magazine	209
▁Spo	209
▁Statistics	209
▁Wellington	209
▁Meditatie	209
▁Medium	209
edo	209
Centrum	209
▁Bingo	209
▁Pictures	209
▁Harvey	209
kranen	209
▁orthodoxe	209
API	209
▁ondernemingen	209
▁Groenland	209
▁Ani	209
▁gewonnen	209
ceremonie	209
alt	209
▁Sail	209
▁Sne	209
▁draagbare	209
kredieten	209
▁telt	209
Generaal	209
▁Constantin	209
tools	209
regelaar	209
▁Colosseum	209
▁Augusta	209
▁Bianca	209
male	209
▁Camino	209
kut	209
yana	209
▁Rookvrij	209
▁architecten	209
dieren	209
IAS	209
▁Vakantiepark	209
NER	209
▁Zion	209
▁Intelligente	209
▁Sonata	209
▁Cai	209
▁MTV	209
BP	209
▁Bere	209
tronic	209
Peter	209
▁CZK	209
▁Rogers	209
▁Prinsen	209
jal	209
▁wonder	209
mol	209
▁Vluchtelingen	209
IVA	209
▁wapen	209
nette	209
snelheid	209
garen	209
Ik	209
nieuw	208
▁Singel	208
▁Till	208
▁Kappers	208
▁Beter	208
\\	208
wak	208
▁Chase	208
grill	208
andi	208
▁oom	208
▁Bald	208
▁Glory	208
▁Verzamel	208
▁NEO	208
ecker	208
▁Bottle	208
lopen	208
▁Futures	208
▁Nail	208
NT	208
tler	208
▁Ankara	208
▁Cecilia	208
AX	208
hop	208
smith	208
▁Kenia	208
▁mas	208
▁Hazel	208
Vis	208
Pan	208
▁lobby	208
▁Certificaat	208
▁bisdom	208
Gr	208
▁Hannah	208
▁Helle	208
▁Flam	208
hair	208
▁filosofie	208
▁Chiller	208
Niklaas	208
▁Pyr	208
Food	208
vr	208
▁Kata	208
▁Arms	208
▁Carnegie	208
▁NIE	208
▁Carpet	208
▁cover	208
Form	208
fur	208
▁Dro	208
▁Nights	208
▁volledig	208
▁neuken	208
▁Broad	208
‚	208
▁Dikke	207
▁volgt	207
▁Eet	207
▁Baltische	207
▁kerken	207
▁Saturnus	207
▁vervolg	207
▁Dental	207
wart	207
▁Leeds	207
▁Swift	207
case	207
OUT	207
cture	207
dh	207
▁Brochure	207
▁Asa	207
▁Clinton	207
▁Cruises	207
Smith	207
▁Adidas	207
▁speler	207
▁das	207
▁Jesse	207
IU	207
▁Companies	207
euse	207
▁Peninsula	207
kali	207
▁release	207
passen	207
▁Domino	207
▁Languedoc	207
cursussen	207
▁Alp	207
▁Investor	207
doorn	207
▁engineering	207
heidsoorlog	207
lena	207
rp	207
gier	207
▁Kunsthal	207
▁apparaten	207
▁Arie	207
duur	207
▁Waalse	207
positie	207
▁Eng	207
▁Ubuntu	207
ICS	207
▁herstel	207
toestellen	207
▁Kawa	207
nat	207
▁integratie	207
▁Ard	207
▁Stijn	207
▁Professor	207
▁Disneyland	207
NR	207
▁Ort	207
▁Holl	207
ager	207
▁Chant	207
Cur	207
▁Latijnse	207
ists	207
▁Emmen	207
▁Reich	207
▁Bend	207
ffin	207
▁CLUB	206
▁Beperkt	206
hagen	206
▁Acer	206
▁Godin	206
▁Minerva	206
▁Landschap	206
▁exclusieve	206
unda	206
▁Verzet	206
▁wal	206
action	206
resort	206
▁lint	206
▁Lumpur	206
▁Leidseplein	206
▁Heinz	206
▁Kus	206
▁Rhône	206
▁Bever	206
▁one	206
▁Nikolaj	206
▁Emerald	206
▁Coördinatie	206
▁BH	206
▁Zam	206
STE	206
lk	206
honden	206
▁uitgereikt	206
▁Mot	206
ères	206
baum	206
▁Dagelijks	206
seks	206
▁geschenk	206
▁NAVO	206
▁Betaling	206
mast	206
▁opblaasbare	206
▁Traveller	206
uan	206
▁Trolley	206
▁Lint	206
ühl	206
ono	206
rapporten	206
▁Domingo	206
▁Nutri	206
Step	206
Nieuw	206
icum	206
▁Kissimmee	206
▁UIT	206
▁Legioen	206
Watch	206
maa	206
turn	206
▁Noah	206
wolf	206
т	206
▁Esc	206
ardi	206
▁Dank	206
bedien	206
▁Bauer	206
▁Harig	206
▁Germany	206
ikkel	206
▁Nottingham	205
▁more	205
▁Suzanne	205
▁Vensters	205
▁mark	205
▁Rebecca	205
▁Beton	205
▁koningen	205
▁Harvest	205
kko	205
▁Vallée	205
▁Attack	205
▁Qing	205
▁Lotte	205
OF	205
▁donker	205
▁Georgi	205
bevestiging	205
klanten	205
▁street	205
▁Diving	205
xing	205
▁Tir	205
lith	205
▁Scania	205
igan	205
▁Michaël	205
▁off	205
▁Dust	205
▁Lighthouse	205
▁Hü	205
▁Ruud	205
leving	205
▁Klaus	205
▁mogelijk	205
▁diep	205
▁Laar	205
ground	205
uh	205
▁gebieden	205
Pi	205
▁Lenin	205
▁Method	205
▁Stretch	205
▁Overijssel	205
▁Buffet	205
▁Verkeer	205
▁Karma	205
STR	205
ème	205
detector	205
uca	205
eum	205
▁Navigatie	205
▁Havenbedrijf	205
▁Deens	205
▁Strijd	205
American	205
Mal	205
▁Russian	205
▁review	205
▁Yale	205
▁Gemeenschappen	205
▁Athletic	205
▁Chill	205
▁Maes	205
▁Meren	205
alys	205
▁Vasili	205
▁FS	205
▁Arlanda	205
IUM	205
▁Plain	205
▁Target	204
▁Smet	204
blokken	204
eti	204
▁Spice	204
prestatie	204
▁Peper	204
▁Snijmachine	204
▁Breeze	204
▁gold	204
▁kiezen	204
▁Ruben	204
Talk	204
tse	204
▁georganiseerd	204
▁Meng	204
▁bereiken	204
vullen	204
▁hot	204
▁Punch	204
▁Use	204
▁Friend	204
▁Paypal	204
NIC	204
▁Snake	204
▁Katten	204
bund	204
sec	204
▁Siem	204
▁terminal	204
▁Cactus	204
▁Spectrum	204
cé	204
Toegevoegd	204
diep	204
gelijk	204
EY	204
moed	204
▁Daarna	204
▁Fuel	204
▁Fisherman	204
▁bru	204
fun	204
▁welke	204
▁plaatse	204
▁Bazaar	204
▁Airconditioning	204
sloten	204
Un	204
▁oplader	204
boekje	204
zaki	204
▁Hawaii	204
р	204
▁cocktails	204
▁Woo	204
▁voorjaar	204
vice	204
▁platen	204
▁Fetish	204
▁Elle	204
▁praktijk	204
ów	204
▁shi	203
▁Dev	203
▁Toebehoren	203
▁Artists	203
▁Konstantin	203
▁Gewicht	203
▁Regis	203
▁Pré	203
▁RI	203
gata	203
▁Assurance	203
▁Ath	203
elde	203
▁Brands	203
▁Aram	203
▁Daarom	203
▁storm	203
▁pornoclips	203
bey	203
right	203
▁Neus	203
MENT	203
▁Romeins	203
▁Français	203
▁modern	203
▁Vijfde	203
▁Metropole	203
▁Bangladesh	203
▁Kiel	203
▁Eifel	203
▁Greater	203
▁EMS	203
▁nazi	203
▁FI	203
▁Phillips	203
campus	203
iš	203
▁Faust	203
ières	203
▁RAF	203
▁Anja	203
aster	203
▁Fris	203
▁IQ	203
▁Suiker	203
▁Fontaine	203
arte	203
concerten	203
▁Eigenaar	203
▁char	203
▁assemblage	203
▁Phys	203
ő	203
▁kanton	203
▁Demon	203
▁Discover	203
katholieke	203
▁XV	203
▁Fier	203
▁Experiment	203
▁Rub	203
▁webcam	203
▁belang	203
▁Bont	203
▁plafond	203
▁Vele	203
▁snij	203
▁Navigator	203
▁Venezia	203
ase	203
▁Magnet	203
▁Dow	203
België	203
tijdperk	203
rator	203
▁Beeg	203
▁Franck	203
▁Süd	203
▁Bataljon	203
cona	203
BUS	203
▁Welt	203
▁Jak	203
▁Skills	203
▁Brisbane	202
▁Jonas	202
▁Nef	202
MD	202
noy	202
sheng	202
boat	202
▁Reacties	202
▁stap	202
▁Cameltoe	202
Work	202
▁Brons	202
leggen	202
▁Boel	202
kids	202
litz	202
▁terrein	202
▁Geneesmiddelen	202
staart	202
▁Fl	202
▁Ingenieurs	202
▁autoriteit	202
esta	202
▁Konijn	202
▁Maro	202
gut	202
award	202
▁speciaal	202
▁aard	202
▁goederen	202
igh	202
▁Verhalen	202
kina	202
eeën	202
▁Brom	202
grave	202
▁Indianapolis	202
▁Sakura	202
quez	202
▁Minor	202
▁Sonate	202
▁bushalte	202
▁Cummins	202
▁Witch	202
▁ridder	202
▁soort	202
▁Tales	202
Arts	202
orn	202
▁Lans	202
▁Raden	202
sala	202
Jack	202
▁HDBuzz	202
Connor	202
▁Chief	202
▁busstation	202
▁Donna	202
ept	202
▁Gemaakt	202
▁Qatar	202
▁white	202
mensen	202
▁Compressor	202
▁Novum	202
▁Eerst	202
▁Performing	202
▁Omgeving	201
▁Lower	201
▁Makelaars	201
▁Sharon	201
krant	201
▁toepassing	201
▁menselijke	201
▁Enkel	201
makelaars	201
luidspreker	201
▁Buddha	201
▁Lace	201
▁Ronda	201
▁Bott	201
▁Einstein	201
▁baan	201
itch	201
tat	201
▁Factor	201
▁saint	201
▁Natur	201
▁Barbecue	201
▁Angelo	201
DAM	201
Pol	201
organ	201
person	201
vaardig	201
▁Brother	201
▁Titanic	201
spin	201
▁stenen	201
itas	201
▁Brake	201
▁mr	201
▁sto	201
▁Ardèche	201
osaurus	201
record	201
TION	201
▁Roberto	201
Center	201
pret	201
▁Vierkant	201
▁Kami	201
▁Cola	201
▁JCB	201
▁Gates	201
▁Koningen	201
▁Won	201
mixer	201
maand	201
▁poly	201
toria	201
▁Kr	201
Foto	201
▁Galli	201
▁Mayor	201
certificaten	201
▁TomTom	201
stim	201
▁Spoorwegen	201
beoordeling	201
▁Puig	201
vliegtuig	201
▁Gangbang	201
▁Distributeur	201
▁Andes	201
▁Luigi	201
▁Theodor	201
▁ramp	201
▁Dashboard	201
▁Diva	201
▁zout	200
org	200
Stra	200
▁Duty	200
Pre	200
▁achtergrond	200
▁Weiss	200
▁rust	200
IRE	200
zend	200
Bur	200
▁LV	200
▁Oom	200
YN	200
word	200
▁Mille	200
itsa	200
▁trio	200
▁Frontier	200
▁BP	200
▁Ske	200
fred	200
rini	200
artikelen	200
Wa	200
noten	200
Ö	200
▁dvd	200
▁Cay	200
▁Platja	200
▁Steakhouse	200
▁oplossing	200
▁Rae	200
▁Jakarta	200
▁NORD	200
▁even	200
▁Volkspartij	200
maak	200
▁dagelijkse	200
vé	200
EK	200
▁Eames	200
▁Psychology	200
▁Vragen	200
▁Zondag	200
▁CX	200
▁Popular	200
▁Schot	200
▁cadeau	200
▁Moving	200
▁Berger	200
ucker	200
▁Liège	200
riya	200
▁Paw	200
▁kasjmier	200
oxi	200
▁Gilles	200
▁Moro	199
▁Thur	199
▁Afbeelding	199
nah	199
▁AMRO	199
▁homo	199
▁Mercurius	199
▁Fokker	199
Marketingbureaus	199
▁Midnight	199
▁Sey	199
▁Planetaire	199
BIS	199
▁netwerken	199
▁Sync	199
quad	199
rechter	199
▁grand	199
▁Ecuador	199
NY	199
▁Gelder	199
▁Package	199
▁HBO	199
aanbieder	199
snoer	199
▁star	199
nio	199
▁Present	199
▁grotten	199
▁Harde	199
▁haak	199
roller	199
▁Macedonië	199
▁arm	199
▁Methode	199
▁ingang	199
Bike	199
▁STA	199
koel	199
▁Gooi	199
▁gedeelte	199
▁FIA	199
gave	199
▁Spyder	199
▁Rah	199
▁Eg	199
▁jury	199
omo	199
▁Bewustzijn	199
sheim	199
mad	199
▁Calcium	199
▁KC	199
▁WW	199
▁Wereldbeker	199
▁Saskia	199
▁Bourgogne	199
▁Winkels	199
nais	199
õ	199
▁Promotion	199
quette	199
rh	199
Chinese	199
nz	199
HEID	199
▁Goose	199
Force	199
▁Gourmet	199
▁Thy	199
Mill	199
▁Beren	199
stig	199
▁Auditorium	199
▁Vennootschap	199
gesteld	199
▁Plata	199
werkers	199
▁bestand	199
▁paneel	199
▁Riz	198
▁Allerhoogste	198
▁INS	198
Gold	198
lc	198
▁Aerospace	198
vind	198
▁Planner	198
▁Diet	198
Ki	198
SW	198
stol	198
load	198
▁god	198
▁Sera	198
▁Bericht	198
▁Keeper	198
▁Geheime	198
doen	198
▁Elsa	198
troepen	198
kari	198
▁Heet	198
▁Boeing	198
▁medewerkers	198
ás	198
▁Greet	198
AVE	198
vraag	198
▁neer	198
rite	198
▁RTV	198
abba	198
▁Toll	198
▁Aroma	198
mot	198
▁Didier	198
▁Internacional	198
▁Kanton	198
▁fun	198
▁Breu	198
▁Casting	198
Tri	198
▁VILLA	198
▁Vondel	198
▁Yorkshire	198
▁Ela	198
▁Negen	198
protocol	198
UI	198
▁Zijde	198
▁TF	198
▁Amigo	198
▁Contra	198
▁Pittsburgh	198
ruit	198
▁aller	198
avel	198
▁aange	198
lish	198
▁Cau	198
▁Jor	197
▁Oplossingen	197
▁ogen	197
hom	197
Sexy	197
▁Organisaties	197
Christ	197
pia	197
▁Nazi	197
▁COP	197
▁Sli	197
×	197
▁rozen	197
▁doden	197
▁Maestro	197
persoons	197
▁Catalaanse	197
ATA	197
schil	197
▁Tsjechisch	197
oscoop	197
▁Serge	197
▁Aza	197
▁Barn	197
inka	197
ais	197
maatschappijen	197
▁Dortmund	197
▁Recensie	197
▁Incident	197
kantoren	197
▁Frozen	197
▁Opstand	197
▁Sever	197
variant	197
▁Schattig	197
chai	197
▁Synagoge	197
sorganisatie	197
kka	197
lijm	197
systems	197
▁geweven	197
uyt	197
▁Kaz	197
▁Flexi	197
▁Leaf	197
▁Uitvoer	197
▁Harz	197
▁PK	197
▁Lesbian	197
▁Daytona	197
▁Wens	197
Bay	197
▁Alf	197
held	197
ène	197
▁Athena	197
straten	197
fanteriedivisie	197
▁Schumann	197
inha	197
agon	197
flo	197
▁cel	197
▁PhD	197
▁Opties	197
signaal	197
▁Muhammad	197
▁Nood	197
▁Quay	197
wire	197
▁vluchtelingen	196
▁Mull	196
provincie	196
▁Pana	196
▁Maritim	196
▁Alexandre	196
▁Aletta	196
▁Voedings	196
thon	196
▁Geul	196
▁Sharp	196
▁HDMI	196
harmon	196
▁Gegalvaniseerde	196
ih	196
▁Lisbon	196
uut	196
▁Acc	196
▁Shepherd	196
insky	196
▁pet	196
▁Ruin	196
NU	196
zoom	196
▁proef	196
schilder	196
▁Thal	196
ATION	196
Indië	196
zetting	196
kkel	196
▁Ottomaanse	196
▁strategische	196
lange	196
Brand	196
▁Verwijder	196
▁dorpje	196
▁Indianen	196
India	196
▁Points	196
lad	196
▁evangelie	196
belle	196
▁Sheng	196
▁Klu	196
▁aldus	196
beschermings	196
▁Reu	196
▁BW	196
▁Spuit	196
▁past	196
▁optische	196
ggi	196
▁accu	196
onderwijs	196
▁Ariel	196
hydr	196
hari	196
▁Kyriad	196
vouw	195
▁Borgo	195
▁getiteld	195
▁belle	195
▁Kemer	195
▁xxx	195
▁MIT	195
werking	195
▁Vespa	195
▁Ivy	195
Cart	195
thea	195
circuit	195
pil	195
▁Brasil	195
kur	195
▁Apparatuur	195
▁Abdel	195
▁distributeur	195
▁Giuseppe	195
▁Markten	195
▁Poseidon	195
stijn	195
▁Organ	195
▁Jordanië	195
rama	195
▁Goes	195
hae	195
▁Automatisering	195
▁Burgers	195
▁Congregatie	195
▁stuur	195
IFF	195
Wereld	195
▁Sjo	195
massage	195
best	195
▁Cosmo	195
▁Nin	195
▁ALS	195
corp	195
▁Gaia	195
lp	195
▁community	195
▁Toneel	195
itor	195
▁Wir	195
▁geheim	195
▁gewoon	195
ïsme	195
▁dank	195
▁Found	195
ISA	195
▁inge	195
tape	195
KY	195
oever	195
toepassing	195
▁verf	195
▁Matthias	195
bereik	195
geest	195
▁Yvonne	195
▁Movies	195
▁Thierry	195
▁Maspalomas	195
▁Alberto	195
merken	195
▁Fucks	195
▁Bamboe	195
grot	195
▁FAQ	195
▁Margaretha	195
▁Betrekkingen	195
▁Bom	195
▁Waals	194
▁Distribution	194
▁Bamboo	194
▁Omdat	194
hanger	194
▁nieuwjaar	194
▁natie	194
▁beschrijving	194
▁Vault	194
▁opstand	194
▁Bek	194
▁Haz	194
▁Solidariteit	194
▁ministers	194
▁Fear	194
▁Flowers	194
▁Mixer	194
▁blok	194
▁BlackBerry	194
▁Wed	194
▁Stier	194
▁Stade	194
▁Paz	194
rome	194
▁Lil	194
ROM	194
▁Mila	194
▁NE	194
▁Moraira	194
▁LastPass	194
▁Ouder	194
▁Secrets	194
▁salon	194
schaats	194
ified	194
▁Latijn	194
oïde	194
sink	194
▁Académie	194
▁UFO	194
▁Biologische	194
spoor	194
▁Bikini	194
▁Pitch	194
▁Hyde	194
▁Score	194
console	194
▁Lana	194
▁accenten	194
finale	194
doel	194
▁communistische	194
▁Perth	194
CAD	194
▁Thing	194
ballen	194
▁bezoeken	194
hallen	194
eveld	194
▁Marin	194
▁zijde	194
▁lam	194
Uit	194
schijn	194
Project	194
▁Afbeeldingen	194
▁Muis	194
▁Olivia	194
▁Donkere	194
▁Eiffeltoren	193
▁Youtube	193
tegels	193
▁SJ	193
▁elektro	193
▁Patent	193
▁valt	193
▁snacks	193
brander	193
IOS	193
▁beelden	193
▁Yahoo	193
cine	193
uth	193
▁rights	193
▁Stoke	193
buffet	193
allah	193
▁Sluit	193
▁Lian	193
Express	193
kool	193
▁Dyna	193
▁KV	193
iaan	193
koppeling	193
<	193
▁Larry	193
instrument	193
atelier	193
▁Miranda	193
▁Combo	193
cour	193
▁mega	193
▁Housing	193
hot	193
dana	193
▁Masker	193
▁Kry	193
▁Keizerlijke	193
▁Alb	193
▁Chaos	193
▁Yak	193
▁Zum	193
▁WEB	193
▁samenleving	193
▁Yard	193
▁tante	193
▁Como	193
▁Tetra	193
▁Harper	193
▁Deutz	193
▁Passie	193
▁Guinness	193
rn	193
igg	193
▁Motorfiets	192
content	192
script	192
▁Joel	192
AN	192
▁Brod	192
▁opties	192
raf	192
▁Marokkaanse	192
Heal	192
▁geven	192
▁Sponsor	192
▁Farmaceutische	192
middag	192
schuld	192
▁Cr	192
▁Silence	192
▁Klem	192
▁Monastery	192
▁duurzaamheid	192
hra	192
▁Delivery	192
▁CMS	192
▁Jou	192
zaad	192
▁Catal	192
CAR	192
kern	192
▁Unlimited	192
▁Relief	192
▁Coil	192
voy	192
tale	192
witz	192
scène	192
▁nylon	192
▁Münster	192
▁Zel	192
▁bruiloft	192
▁filmfestival	192
▁assortiment	192
▁Econo	192
Manager	192
hoef	192
wyn	192
▁woorden	192
▁Sup	192
▁Vrouwelijke	192
panel	192
▁Beam	192
▁Micha	192
▁Flame	192
OLO	192
▁Requiem	192
▁Slam	192
srecht	192
▁Prague	192
▁Mein	191
▁Bourgondië	191
▁Roque	191
▁laten	191
▁Amphi	191
burgh	191
▁Bari	191
domein	191
▁Aug	191
OOD	191
▁Vloot	191
brecht	191
kus	191
▁Pr	191
▁TB	191
jima	191
▁cal	191
▁Penny	191
▁Bergh	191
structuur	191
ating	191
ctor	191
▁Rhodes	191
▁groepen	191
▁Philipp	191
▁county	191
ZO	191
▁kluis	191
▁Bastille	191
▁LT	191
oba	191
Ierland	191
▁Wetenschaps	191
▁Hag	191
▁Marti	191
▁minder	191
▁politiek	191
vulling	191
▁Everest	191
▁ziekte	191
▁Mart	191
▁Florian	191
financiering	191
Amour	191
makelaar	191
lett	191
Tropez	191
bull	191
▁Boodschapper	191
trekking	191
▁Gall	191
▁vest	191
▁light	191
dheid	191
▁Garcia	191
▁Maryland	191
▁Britt	191
▁Ancient	191
rosa	191
verwarming	191
Î	191
▁Creed	191
Track	191
scheiding	190
bomen	190
▁angel	190
branche	190
Angel	190
REM	190
▁Professioneel	190
AAR	190
▁Belfort	190
▁Werf	190
▁Vivi	190
▁Schie	190
▁Riv	190
community	190
▁Mand	190
grafisch	190
▁Menselijke	190
pand	190
ró	190
▁Apparaat	190
sfeer	190
▁Where	190
lagers	190
▁Shampoo	190
▁Reporting	190
fast	190
▁Pestana	190
▁boord	190
▁Joop	190
▁Vlas	190
▁Heeft	190
heidsorganisatie	190
▁Haf	190
▁fruit	190
Cha	190
▁Hidden	190
▁Tet	190
bogen	190
nij	190
▁Oostenrijks	190
rium	190
Ham	190
▁iCloud	190
▁Guru	190
▁Geluk	190
▁Keer	190
bic	190
▁Girona	190
▁Elektronica	190
IRA	190
▁Jake	190
jac	190
gordel	190
▁Catalina	190
▁begint	190
▁milf	190
▁Uur	190
▁Fé	190
▁permanente	190
melding	190
▁Gijs	190
uve	190
▁Naald	190
▁medisch	190
▁begon	190
▁Reactie	190
▁Montmartre	190
▁BAR	190
▁hd	190
▁Crow	190
abella	190
▁surf	190
▁Westminster	190
fr	190
sub	190
fili	190
▁Wholesale	190
▁Trent	190
▁Beroeps	190
▁Reading	190
▁Zar	190
▁krant	190
▁Lunar	190
▁conservatorium	190
▁Reyn	189
▁Schijf	189
▁Cub	189
vro	189
▁Geschikt	189
hee	189
▁Hagen	189
▁Honing	189
▁Giorgio	189
▁Oy	189
etic	189
▁Bund	189
▁bouwen	189
▁Stamp	189
gum	189
▁deelstaat	189
▁module	189
▁Rugzak	189
dic	189
▁verborgen	189
▁Litouwen	189
▁Inhoud	189
deren	189
levering	189
aaa	189
quan	189
akkoord	189
kaai	189
LET	189
▁goddelijke	189
▁Kut	189
vana	189
▁Fern	189
MAR	189
▁broek	189
▁Martini	189
schuur	189
▁Karol	189
▁ZO	189
▁Myrtle	189
▁Sculpture	189
Pieters	189
▁Bez	189
▁Tianjin	189
▁Hilde	189
▁Andalou	189
▁maatschappij	189
▁Oostelijke	189
ates	189
▁Guillaume	189
▁buitenland	189
▁Cleef	189
▁Cote	189
▁kam	189
veilig	189
▁Smoke	189
kla	189
▁Boa	189
▁Jouw	189
▁Exporteur	189
▁Buzz	189
▁Landscape	189
▁sun	189
▁zorgt	189
▁Teddy	189
▁SGS	188
né	188
▁Fior	188
garden	188
legging	188
▁Geographic	188
▁Cartoon	188
▁hoogleraar	188
▁Atrium	188
▁Id	188
Open	188
▁pot	188
Indicaties	188
▁ticket	188
▁Console	188
handdoek	188
▁Script	188
anto	188
▁Technic	188
▁Deli	188
▁Sieg	188
OLA	188
▁Jacqueline	188
▁Dagelijkse	188
▁pass	188
▁Kalk	188
▁stop	188
xiang	188
EV	188
moor	188
pjes	188
▁Jef	188
verblijf	188
▁Herder	188
lord	188
DIS	188
share	188
ulator	188
speld	188
Anna	188
reiniger	188
▁Lamborghini	188
▁Stripe	188
connect	188
ström	188
lumin	188
▁Chengdu	188
hood	188
voetbal	188
▁Messias	188
▁Choir	188
▁Inloggen	188
▁Cadeau	188
▁Glorie	188
CHE	188
▁Legion	188
▁kies	188
doll	188
hostel	188
▁Afghanistan	188
▁Musica	188
▁Boost	188
▁Shijiazhuang	188
theek	188
▁BAS	188
▁Auschwitz	188
▁Lola	188
▁Wijze	188
YU	188
▁Naomi	188
Za	188
▁vrijwilligers	188
TEX	188
ICT	188
▁Theory	188
▁ontwikkeld	188
▁Ready	188
▁houden	188
▁social	187
▁winnen	187
CF	187
▁NB	187
INGEN	187
hey	187
eerbare	187
▁Queensize	187
▁Consultants	187
▁Hoogste	187
▁Einde	187
KING	187
duik	187
Par	187
▁Lug	187
▁Leone	187
▁Gaza	187
brugge	187
▁Xavier	187
onda	187
▁KI	187
▁Ahoy	187
vri	187
Office	187
kk	187
й	187
▁Thom	187
▁Congrescentrum	187
▁Login	187
kema	187
Hi	187
▁Armstrong	187
mma	187
roe	187
▁Pater	187
▁Niko	187
▁pat	187
format	187
Health	187
▁Plu	187
Pod	187
▁rijdt	187
▁laptop	187
weerstand	187
ación	187
▁Sheikh	187
▁Rev	187
▁Ventilator	187
▁Servi	187
▁Ella	187
Laatst	187
▁Macro	187
GIS	187
▁Orient	187
radi	187
▁INTER	187
▁Madeleine	187
▁Auction	187
▁reed	187
▁FD	187
▁Landing	187
▁Mausoleum	187
▁Absolute	187
▁Á	187
▁koor	187
▁historisch	187
▁Ov	187
▁Salomon	186
▁Goss	186
wend	186
▁Parkway	186
DG	186
DH	186
vergunning	186
khan	186
▁risico	186
eeuwse	186
Ont	186
street	186
ader	186
▁Chez	186
▁Kau	186
Berg	186
▁Angkor	186
veiligheids	186
▁dienstverlening	186
▁Holdings	186
▁Sr	186
▁Shift	186
▁snelheid	186
▁Estates	186
chal	186
▁monumenten	186
▁Leef	186
Trade	186
▁Buttplug	186
sticker	186
▁autonome	186
▁Schubert	186
arrangement	186
▁Schat	186
drum	186
aïs	186
▁Klei	186
ELLE	186
▁Aix	186
Optic	186
▁Theorie	186
▁arrondissement	186
detectie	186
▁Santorini	186
incident	186
▁Huys	186
▁actieve	186
▁Carla	186
▁Sn	186
▁Samenleving	186
TEL	186
elder	186
▁centra	186
▁Biz	186
ontvanger	186
▁Nic	186
genoot	186
к	186
▁Downloaden	186
kata	186
▁ERP	186
▁Octa	186
AMA	186
▁Bjorn	186
▁Markus	186
nitz	186
sell	186
▁Rising	186
rr	186
▁partnerschap	186
▁Zhi	186
▁Ot	186
thus	186
▁Bh	186
administratie	186
▁Bomber	186
HUIS	186
Bos	186
▁Brock	186
▁Falk	186
▁Tac	186
▁Oliva	185
▁meerdere	185
John	185
rub	185
tegen	185
▁joden	185
Bri	185
atha	185
▁Crash	185
▁Guil	185
Carlton	185
ience	185
▁Bid	185
besturings	185
▁Veli	185
turm	185
▁Arenal	185
▁Arenberg	185
▁Graz	185
▁Batt	185
▁Kenniscentrum	185
sheet	185
rijp	185
▁Verdon	185
▁parkeren	185
▁Vanessa	185
▁IB	185
▁verzorgt	185
ande	185
▁KPN	185
▁Ghent	185
breker	185
rende	185
lassen	185
▁EXPO	185
▁biologische	185
MBA	185
▁Bong	185
▁Cass	185
▁Stefano	185
▁Praktijk	185
▁onafhankelijk	185
holt	185
▁boulevard	185
▁Stewart	185
▁XX	185
▁Velvet	185
loog	185
▁Forte	185
▁Season	185
▁Groei	185
▁Hauptbahnhof	185
▁Geno	185
illard	185
▁Vogue	185
▁Idea	185
▁MH	185
claim	185
▁tit	185
groot	185
gale	185
▁Some	185
▁gal	185
▁Cowboy	185
▁Badge	185
▁screen	185
zawa	185
▁Bara	185
wee	185
vijver	185
educatie	185
▁Ape	185
did	185
▁Gha	185
▁Vertrek	185
licit	185
anni	185
bility	185
hei	185
uki	185
linda	185
▁Mauri	184
▁Rodos	184
▁Against	184
▁Nikky	184
▁DP	184
kri	184
▁Mika	184
cellen	184
baas	184
▁Charger	184
▁Educatie	184
rec	184
▁documentaire	184
END	184
RR	184
GZ	184
▁Maze	184
▁Marketplace	184
▁Every	184
▁Gou	184
▁Zwaan	184
▁Soe	184
▁landschap	184
▁Enter	184
wijzing	184
▁Catch	184
▁tennis	184
▁Python	184
▁Therapy	184
▁Echt	184
holland	184
▁Heidelberg	184
▁Rabbit	184
▁Devon	184
▁gezamenlijke	184
schaal	184
ector	184
▁modus	184
▁jongen	184
▁Vliegveld	184
▁CHA	184
▁Alfons	184
drome	184
▁Maart	184
▁zeildoek	184
▁Rever	184
▁sta	184
▁Britten	184
Bit	184
▁kliniek	184
▁ziet	184
▁Hands	184
▁Basin	184
▁Ranking	184
▁Aantal	184
▁Universitaire	184
▁RX	184
▁vet	184
▁Mental	184
▁Nieuwste	184
▁Identity	184
logy	184
▁Zombie	184
LIS	184
▁Rhythm	184
▁Artis	184
KR	184
▁interview	184
culo	184
▁Quir	184
lance	184
▁Magische	184
▁Charge	183
▁Arbitrage	183
Em	183
takel	183
▁Glenn	183
▁Merchant	183
▁KvK	183
▁Barbar	183
▁gebouwen	183
laten	183
woestijn	183
▁Juice	183
Euro	183
▁hield	183
olf	183
ign	183
motion	183
King	183
Ø	183
▁mijl	183
LIN	183
▁Holle	183
christelijke	183
▁JJ	183
▁Gereedschap	183
▁Scout	183
▁Presentatie	183
▁Breath	183
tman	183
pine	183
enquête	183
dingen	183
Im	183
ETS	183
illian	183
▁Wereldgezond	183
crat	183
ã	183
▁Whiskey	183
▁Collins	183
▁diamant	183
▁Carnival	183
moeder	183
▁voorraad	183
LER	183
▁Comics	183
talk	183
ZH	183
naya	183
▁Patek	183
▁Cun	183
ïsche	183
▁Kazachstan	183
regels	183
▁Quan	183
▁NEW	183
eid	183
▁Kentucky	183
▁Animals	183
▁Chantal	183
▁Straight	183
▁Computing	183
▁Xing	183
▁farmaceutische	183
temp	183
▁Alternative	183
Bee	183
▁Grab	183
▁rubber	183
▁Dob	183
▁kap	183
▁Kerstman	183
APP	183
▁gere	183
▁Matte	183
avo	183
Mart	183
、	183
▁diesel	183
▁componist	183
▁Overeenkomst	183
jean	183
▁Rangers	183
▁naakt	183
Jacques	183
▁Herz	183
▁orgel	183
bourg	183
▁Furniture	183
HT	183
▁replica	183
▁Boca	183
▁Dagboek	183
▁Köln	182
ort	182
kent	182
▁Krist	182
▁Tapas	182
dov	182
▁Gera	182
▁Wanneer	182
▁Gek	182
▁Saxo	182
▁verbinding	182
▁CAS	182
zzy	182
▁Enige	182
▁Wyn	182
oria	182
▁Keith	182
▁Olaf	182
▁Frederic	182
▁Palo	182
▁Vietnamese	182
▁UCI	182
▁Kenmerken	182
▁Ret	182
ooij	182
▁waterdichte	182
yun	182
mae	182
▁drinken	182
kyo	182
▁Groupe	182
▁Dining	182
lash	182
▁Familiekamer	182
lief	182
▁excl	182
▁ESA	182
▁Napoli	182
▁Opus	182
▁Blossom	182
▁technisch	182
rassen	182
onnen	182
▁Holstein	182
solid	182
▁Bijzondere	182
м	182
leraar	182
▁Heil	182
▁Grotere	182
▁Fila	182
▁Kers	182
ugh	182
▁Soho	182
wash	182
▁Warwick	182
▁Zwitsers	182
▁Homestay	182
verhalen	182
▁Peeters	182
▁Gràcia	182
ché	182
▁Brandweer	182
bericht	182
▁Scho	182
▁Wier	182
gamma	181
Space	181
▁Panther	181
▁Stedelijke	181
mount	181
▁Plum	181
▁Abba	181
▁Schön	181
▁Dairy	181
▁Chuck	181
▁Louboutin	181
hulpmiddelen	181
gekomen	181
▁Batman	181
▁Koppeling	181
▁RG	181
▁JU	181
▁steriel	181
▁Joker	181
▁Gris	181
▁Scholarship	181
▁ventiel	181
▁Payment	181
jov	181
▁Alicia	181
LG	181
heart	181
roman	181
rev	181
capaciteit	181
▁Mp	181
augh	181
▁handschoenen	181
instelling	181
▁Canton	181
staten	181
Universiteit	181
FW	181
acher	181
ional	181
trum	181
lokaal	181
▁Triathlon	181
▁Expedition	181
▁zandstrand	181
▁Tala	181
▁Sent	181
Nu	181
▁lamp	181
▁CRE	181
enaar	181
▁Gram	181
Ur	181
▁Tennessee	181
TN	181
▁Mole	181
▁Extended	181
▁Shoes	181
▁party	181
▁Terror	181
▁pijn	181
Meer	181
▁Injectie	181
▁Zuidas	181
TZ	181
pac	181
opstand	181
▁Copy	181
▁Sue	181
▁Adriatische	181
sei	181
ulf	181
logische	181
▁bodem	181
riepersoonskamer	181
▁Regel	181
▁Gevangenis	181
impel	181
▁Hull	181
▁KB	181
houden	181
▁Isolatie	181
▁miljoen	181
▁Nantes	181
router	181
▁bon	181
▁OC	181
▁Marble	181
▁Referentie	181
▁Wagen	181
▁Huwelijk	181
▁Third	181
▁Magnetische	181
▁Lesbisch	181
▁tijden	181
▁Together	181
Hel	181
problemen	181
▁Troy	180
classic	180
▁dranken	180
▁Spencer	180
▁Hamer	180
gebaseerde	180
▁Hoef	180
bourne	180
▁jachthaven	180
▁Muller	180
▁Spier	180
▁Fili	180
cement	180
▁Geur	180
rab	180
▁Patrol	180
RAS	180
▁LIVE	180
▁Dakota	180
have	180
▁Ib	180
▁Straße	180
▁wiel	180
▁Geleide	180
▁Hove	180
▁Cork	180
▁Agora	180
jour	180
▁ACC	180
hawk	180
▁ML	180
▁Arbeiderspartij	180
stin	180
▁GSM	180
▁kent	180
▁Geboren	180
▁Hele	180
▁etappe	180
▁MAG	180
▁Jel	180
▁Gasthof	180
dozen	180
▁Exposition	180
▁Mani	180
bone	180
▁cre	180
▁kaas	180
▁Halo	180
vista	180
▁Vrijdag	180
▁opleidings	180
liver	180
▁Underground	180
modules	180
▁vorst	180
schel	180
▁Coördinator	180
▁Ideaal	180
obi	180
weefsel	180
poly	180
ching	180
▁Lena	180
road	180
cot	180
▁Transition	180
haya	180
▁Shrine	180
▁instantie	180
▁Iglesia	180
shuttle	180
▁Aanbiedingen	180
▁Ore	180
dian	180
▁Academisch	180
▁CHI	180
▁Pony	180
▁Soro	180
▁Hari	180
▁Sym	180
▁Machinesco	180
Italia	180
▁Brooke	180
bara	180
automaat	180
▁Moet	180
planning	180
▁kruiden	180
▁manieren	180
▁Ducati	180
ijf	180
▁Blow	180
▁Letland	180
Product	180
▁GROUP	180
▁Vend	180
▁volgde	179
ient	179
▁negen	179
cies	179
▁migratie	179
▁Fight	179
▁Documentatie	179
▁Rö	179
▁Besturings	179
▁charmante	179
▁Commentaar	179
▁Cornell	179
▁alex	179
▁Civiele	179
▁BPComfi	179
▁ProductenP	179
aranet	179
▁Wallonie	179
handelaar	179
▁Chicken	179
aansluiting	179
▁Schiedam	179
▁Bris	179
▁FOR	179
▁Uitvoerend	179
▁Jeffrey	179
▁Heather	179
viering	179
▁opname	179
▁RED	179
▁Alhambra	179
▁Recoleta	179
▁Hamm	179
▁Greek	179
uitgever	179
▁food	179
▁Suit	179
▁human	179
ção	179
▁Martens	179
▁rollen	179
channel	179
▁Load	179
▁Avontuur	179
▁conflict	179
maan	179
▁monster	179
Horny	179
▁Noach	179
▁Cleopatra	179
▁Drift	179
pé	179
▁Raz	179
▁presenteert	179
mala	179
OON	179
▁Pyrolyse	179
▁Kruiden	179
▁Cambodja	179
▁oppervlakte	179
jou	179
▁Pneumatische	179
Gi	179
HF	179
▁Vermeer	179
Mark	179
Provincie	179
kow	179
▁Freight	179
zol	179
president	179
▁behandelt	179
▁afbeeldingen	179
nci	179
▁Defender	179
iyah	179
▁Stack	179
▁Italy	179
raven	179
eko	179
Band	179
▁Mana	179
▁want	179
▁Masa	179
yat	179
▁Org	179
Ç	179
▁Hoogstraat	179
▁Leopard	178
▁roterende	178
▁Achievement	178
omheining	178
oco	178
teerd	178
weide	178
Shi	178
▁Emer	178
▁Plantage	178
fried	178
▁Heerlijk	178
▁Zink	178
▁NPO	178
poorten	178
LAS	178
▁Porter	178
tau	178
HM	178
▁SUN	178
later	178
▁Malmö	178
▁Lili	178
▁Jaarbeurs	178
▁Vaste	178
▁mensheid	178
Zo	178
▁Partijen	178
▁Admiral	178
▁namelijk	178
LV	178
▁ocean	178
IDE	178
▁Toscane	178
▁Shared	178
▁directe	178
▁Trial	178
technieken	178
Maria	178
▁Begraafplaats	178
▁Brede	178
▁Aster	178
▁AH	178
▁Nai	178
galerie	178
▁Ripper	178
grat	178
beurzen	178
▁mac	178
▁bediening	178
▁Fuerteventura	178
comb	178
▁Alpe	178
▁Handboek	178
▁Mour	178
▁audit	178
▁Cesar	178
ANCE	178
▁Atom	178
▁dj	178
▁record	178
▁Lung	178
▁Joeri	178
▁Broer	178
▁Plato	178
Wall	178
expo	178
▁actief	178
leverancier	178
▁Rossi	178
▁voorziet	178
▁vintage	178
▁Myers	178
▁Toolbox	178
▁Orchid	178
▁contra	178
zeg	178
pala	178
bha	178
▁Kala	178
active	178
▁intelligentie	178
NZ	178
AH	178
▁besturings	178
inx	178
▁oranje	178
▁Leider	178
LEN	177
sessies	177
▁Périgord	177
▁Hob	177
▁Abdullah	177
▁sha	177
Ed	177
▁Simulator	177
▁Corridor	177
verf	177
▁Naga	177
officier	177
▁BPInvestor	177
wikkel	177
▁dicht	177
▁Heijn	177
ASP	177
▁SOS	177
container	177
screen	177
ificatie	177
▁Niv	177
mij	177
▁Persoon	177
dit	177
lein	177
fine	177
matten	177
▁Ortho	177
▁Horti	177
▁Sicilië	177
▁special	177
▁automatisch	177
ggio	177
turbine	177
recorder	177
flat	177
ulo	177
ape	177
▁Leader	177
▁Reform	177
Blond	177
▁Islamic	177
▁Equi	177
rung	177
▁Dogs	177
lö	177
clips	177
experiment	177
chus	177
oid	177
▁Mississippi	177
brunn	177
asca	177
gerecht	177
▁Enrique	177
▁Liz	177
▁bagage	177
▁Publieke	177
▁mono	177
hani	177
laad	177
▁GNU	177
sworth	177
▁Dani	177
▁Slip	177
Site	177
▁Cecil	177
▁Nd	177
▁Aran	177
Rail	177
▁December	177
▁Politiek	177
rius	177
OOL	177
planet	177
lais	177
▁jurk	177
BEL	177
▁Ministry	177
Mat	177
▁Beest	177
▁Witt	177
DW	177
▁king	177
integratie	177
▁Staff	177
▁feedback	177
▁HAN	177
▁gezonde	177
▁Pep	177
▁Groninger	177
▁Gezichts	177
▁Biografie	177
▁Zuiver	177
▁Licentie	177
vrouwen	177
▁hebt	177
OH	177
▁Macau	177
▁Ip	176
▁hoger	176
▁Tractor	176
▁vroege	176
▁PER	176
Francorchamps	176
ANO	176
▁Jah	176
erson	176
▁aqua	176
▁Pietro	176
▁Rockefeller	176
▁Corb	176
▁Austria	176
▁lade	176
▁precisie	176
▁Carbide	176
▁beide	176
▁Giet	176
cure	176
▁Tracking	176
▁Arend	176
▁benoemd	176
nac	176
▁Hydraulisch	176
▁verklaring	176
▁Actieve	176
▁veranderen	176
fold	176
sole	176
LL	176
▁geluid	176
▁Pellet	176
▁Milton	176
ior	176
▁RD	176
preventie	176
▁Copacabana	176
fet	176
▁Brewery	176
▁Gut	176
▁IPL	176
▁Acu	176
▁Glasvezel	176
▁Desire	176
▁Uniek	176
▁middelbare	176
ious	176
▁Wrestling	176
▁Fax	176
▁Manifest	176
▁Katie	176
▁Alban	176
Wal	176
▁green	176
▁Sisters	176
▁PGA	176
▁investerings	176
Die	176
amide	176
▁Wallet	176
▁Corre	176
tl	176
Host	176
▁Niki	176
▁Raam	176
ivi	176
▁Calpe	176
▁Sco	176
▁Gott	176
mere	176
▁Ander	176
▁Chun	176
▁organiseert	176
▁wasserij	176
erland	176
▁goedkope	176
RAM	176
▁rub	176
▁Elliott	176
▁Negro	176
▁referentie	176
▁Messi	176
▁Schaduw	176
plast	176
▁Cox	176
bug	176
gam	176
awi	176
▁waarop	176
▁Terrier	176
▁Jud	176
affi	176
▁Panzer	176
gestelde	176
İ	176
▁Beuningen	176
▁Serviced	176
body	175
pyr	175
▁Wasserij	175
▁Vida	175
▁kook	175
She	175
▁werkenCarrière	175
▁Keuze	175
▁Meg	175
▁Khao	175
▁Portable	175
▁Brandenburg	175
▁Trop	175
•	175
▁ploeg	175
▁dieet	175
▁Plasma	175
▁Mechanische	175
▁Citizens	175
▁Graan	175
▁Pax	175
reservaat	175
▁Filosofie	175
▁Andalusië	175
fans	175
▁Lauri	175
▁Physics	175
▁zang	175
beugel	175
▁Birk	175
▁Avant	175
Bro	175
▁beroemd	175
▁Chalets	175
▁talent	175
▁Zaad	175
paviljoen	175
▁Tamara	175
azar	175
▁Bild	175
elingen	175
▁Medic	175
▁Sava	175
alia	175
▁avontuur	175
▁Thread	175
▁bereikt	175
▁Melkweg	175
▁Carrera	175
brief	175
▁Wikipedia	175
▁Emanuel	175
▁office	175
▁paar	175
SIE	175
▁Prison	175
Tags	175
paper	175
▁Apartament	175
▁Churchill	175
▁Premiere	175
▁Lick	175
▁dier	175
▁Jelle	175
▁Cristina	175
UIT	175
eisen	175
nda	175
▁Cashmere	175
lope	175
▁Garmin	175
Server	175
▁Valentijn	175
▁Pest	175
▁Stofzuiger	175
dri	175
▁Louvain	175
mbi	174
▁Chance	174
Phone	174
▁wijnen	174
▁Alive	174
iël	174
▁Helmond	174
▁gezien	174
▁Ergo	174
Suite	174
mmie	174
▁produceren	174
bureaus	174
medewerker	174
▁Norfolk	174
▁Ev	174
winter	174
wasmachine	174
PEC	174
▁behaalde	174
▁Korn	174
bras	174
ecca	174
▁Georgië	174
rino	174
RIE	174
▁wist	174
▁Proximus	174
▁vestiging	174
▁Jab	174
utsch	174
wedstrijden	174
▁Directe	174
▁universum	174
▁Socialist	174
ingenieur	174
▁Laurens	174
▁Denim	174
VERS	174
gawa	174
zine	174
lente	174
▁Belastingdienst	174
esa	174
entie	174
trische	174
▁Warrior	174
yra	174
▁Launch	174
▁Evert	174
wed	174
prak	174
▁wereldkampioen	174
▁plat	174
▁MKB	174
▁Mano	174
▁Ellis	174
Cup	174
▁prachtig	174
▁wens	174
▁warmte	174
▁Cairo	174
▁ei	174
▁Preventie	174
Italië	174
▁buizen	174
KM	174
cale	174
▁teen	174
▁Jiang	174
AVI	174
pest	174
▁jij	174
matsu	174
▁Baum	174
handschoenen	174
lezing	174
▁Sept	174
▁natuurgebied	174
▁Blackjack	174
▁Killer	174
▁Sier	174
▁Knock	174
▁IoT	174
▁Venetiaanse	174
▁Mandarin	174
▁Wick	173
▁reparatie	173
▁Blend	173
beg	173
IJN	173
▁Ambacht	173
laars	173
▁Sharing	173
▁Cie	173
▁Artemis	173
▁ontworpen	173
▁Belasting	173
arrow	173
▁Ext	173
▁premier	173
▁Finder	173
PU	173
▁Koerdische	173
dossier	173
lá	173
▁Azul	173
▁Generale	173
▁Portrait	173
▁Groß	173
▁Vakantiehuizen	173
itaire	173
▁Hind	173
▁Clemens	173
INGS	173
loch	173
▁Galapagos	173
strom	173
▁Bevrijdings	173
▁Philippine	173
▁Borst	173
▁Tyler	173
liv	173
parti	173
▁Aristo	173
▁personeel	173
pla	173
operatie	173
▁IWC	173
zhen	173
▁Abbas	173
▁Ferme	173
▁ARC	173
rink	173
▁methode	173
fijn	173
▁indianen	173
▁Atomium	173
consultant	173
operator	173
▁koppel	173
▁Fringe	173
▁cruise	173
▁Lithium	173
bezoek	173
▁tablet	173
▁oor	173
▁Silken	173
▁Been	173
▁LIFE	173
▁Gerechtshof	173
▁Roestvrijstalen	173
▁LZ	173
oga	173
▁Draken	173
▁Matthijs	173
uffel	173
▁Werkende	173
atus	173
tim	173
horloge	173
▁zwem	173
▁POS	173
ARC	173
▁middeleeuwse	173
▁Aart	173
▁Keto	173
▁klep	173
▁board	173
▁Another	173
decoratie	173
▁Aqualand	173
itia	173
▁Galileo	173
▁geïntegreerde	173
Bekijk	173
▁Minute	173
▁oprichting	173
▁Cheats	173
▁lichte	172
▁Shake	172
fels	172
▁Hortus	172
▁Build	172
▁Amadeus	172
contract	172
▁Unieke	172
Therm	172
▁Cerro	172
mouth	172
▁Divers	172
▁opnemen	172
▁ontving	172
Verscheidenheid	172
▁BAM	172
▁Denise	172
professional	172
▁Registry	172
tage	172
▁Fira	172
iso	172
▁Pasta	172
meister	172
four	172
▁Spotify	172
chino	172
▁Insider	172
▁br	172
▁blijven	172
ALI	172
itatie	172
▁Charity	172
dj	172
MK	172
LX	172
rice	172
pellet	172
▁Cruiser	172
eergelegenheid	172
hoogte	172
▁SOL	172
▁LM	172
▁gebed	172
▁Materialen	172
▁Zuidelijk	172
▁Gé	172
▁wielen	172
douche	172
▁vrouwelijke	172
▁polyester	172
orama	172
▁Challenger	172
▁Lukas	172
rl	172
▁tonen	172
▁Gregory	172
lug	172
oedselveiligheid	172
rg	172
▁Scheme	172
gewicht	172
▁Schakel	172
NB	172
▁Butler	172
ouche	172
ETA	172
antenne	172
▁ROM	172
▁Kee	172
▁Phen	172
Davidson	172
▁Stil	172
▁Kü	172
cini	172
saka	172
▁Obama	172
▁Gemini	172
neming	172
haan	172
blue	172
▁Madame	172
▁Garten	172
ISE	172
▁vloot	172
▁Tail	172
▁Hours	172
meijer	172
▁Univers	172
ibi	172
France	172
▁onderwerp	171
offiezetapparaat	171
▁Gite	171
▁Eaton	171
banken	171
▁VV	171
▁schaduw	171
▁Eiken	171
helden	171
▁Motorcycle	171
IAN	171
▁Cindy	171
▁Shiva	171
▁Wadi	171
mailadres	171
erf	171
bac	171
▁Ginza	171
feestje	171
vloeistof	171
eter	171
▁Ondernemers	171
▁Conditioner	171
▁helpen	171
brouwerij	171
verbindingen	171
▁Fool	171
▁Troll	171
▁war	171
▁Holi	171
▁Offer	171
▁symfonie	171
▁Vegan	171
▁cultureel	171
▁aantrekkelijke	171
▁Sixt	171
▁Roh	171
▁Kirch	171
War	171
▁Marino	171
▁trad	171
▁Around	171
▁Fontys	171
▁Mean	171
▁ingericht	171
▁Apr	171
principe	171
hoog	171
▁Ontmoet	171
▁VC	171
▁expo	171
SN	171
ijven	171
atio	171
item	171
GRA	171
Col	171
kolonie	171
▁Cats	171
kwartet	171
elf	171
ór	171
lichtingendienst	171
cina	171
verpakkingen	171
ijzer	171
▁Noordelijk	171
▁alliantie	171
peak	171
MH	171
▁GI	171
▁Watersport	171
▁Maggiore	171
▁drama	171
▁Normandië	171
▁Kl	171
vrachtwagen	171
clus	171
▁Matter	171
▁Beit	171
gebouwen	171
▁frame	171
pasta	171
▁Generatie	171
Sign	171
▁Wuxi	171
lounge	171
Bad	171
▁Lego	170
fysica	170
richtlijnen	170
▁Snelheid	170
pijpen	170
▁Renn	170
▁Solitaire	170
▁geavanceerde	170
▁Blowjob	170
ARE	170
spanning	170
▁word	170
▁Spit	170
ffy	170
▁wol	170
ally	170
raff	170
▁Teacher	170
abdij	170
fang	170
ELD	170
Pet	170
bben	170
▁optreden	170
▁omroep	170
▁Piper	170
▁Kiosk	170
▁lunch	170
Fo	170
▁OV	170
▁lassen	170
Villa	170
medewerkers	170
Br	170
▁Tauern	170
▁Chester	170
greep	170
coating	170
ELEN	170
▁CBS	170
▁Queensland	170
▁Poster	170
▁marie	170
▁Nav	170
▁Orchestre	170
▁Comic	170
strijd	170
▁verkeers	170
plak	170
hane	170
▁Sluis	170
ullen	170
▁Steak	170
▁Dialogue	170
LEX	170
▁Expositie	170
▁ultrasone	170
▁plateau	170
zette	170
Lang	170
kelder	170
▁Singh	170
▁Omegle	170
▁Collect	170
YC	170
KL	170
nelle	170
wara	170
switch	170
▁Utah	170
Hy	170
▁geweld	170
trac	170
▁pub	170
meetapparaat	170
▁flexibele	170
▁Tate	170
▁Nara	170
Touch	170
▁Zoe	170
akis	170
▁Sitecore	170
▁autoriteiten	169
▁Hosta	169
▁sla	169
politie	169
▁ICO	169
▁Brouwers	169
talige	169
ehr	169
▁waarbij	169
▁Archeologie	169
▁FP	169
▁Faber	169
▁Fill	169
aturesBeloningen	169
▁FT	169
▁Multimedia	169
APC	169
artsen	169
▁Inclusive	169
REA	169
▁Cale	169
▁Chloe	169
▁Toch	169
▁PB	169
▁Fender	169
FN	169
vell	169
APA	169
▁Member	169
▁Utility	169
▁scheeps	169
▁Portfolio	169
▁openlucht	169
▁dezelfde	169
▁orgasme	169
JI	169
Les	169
▁campus	169
▁WHO	169
▁Weense	169
May	169
▁Ministers	169
▁drugs	169
lone	169
blaas	169
▁Armeense	169
maaltijd	169
Zoon	169
▁Bruyn	169
position	169
ingsmachine	169
▁Cilinder	169
▁pp	169
bruggen	169
▁DVR	169
▁gemakkelijk	169
Sky	169
▁bedden	169
Gillis	169
▁dia	169
tea	169
▁Zwaard	169
imba	169
▁Montparnasse	169
▁junior	169
lv	169
▁spuit	169
▁Thermal	169
connector	169
hé	169
▁Omslagen	169
▁Dupont	169
waak	169
▁NN	169
hao	169
Sta	169
▁Nik	169
▁Luxor	169
▁Investments	169
aap	169
alli	169
Clean	169
struct	169
schoen	169
▁BM	169
▁Aleksej	169
tekening	169
gewerkt	169
bonen	169
matras	169
▁Router	169
▁HQ	169
PG	169
merrie	169
▁uitvoering	169
▁Tarn	169
tsje	169
▁gras	169
▁Hugh	169
▁rivieren	169
▁Experts	169
▁AND	168
▁Vito	168
▁Billie	168
▁Shar	168
▁Pretty	168
▁Bakery	168
pio	168
▁Grün	168
Hall	168
▁VOL	168
▁Alpin	168
▁Jenna	168
▁PARK	168
▁Sirius	168
▁bruine	168
▁Residences	168
▁Norte	168
▁Heiligen	168
▁Baja	168
▁Rok	168
▁Stress	168
▁brengen	168
▁Bruiloft	168
▁bestemming	168
▁Rijksakademie	168
mart	168
▁viool	168
chard	168
▁Keyser	168
▁legt	168
verdedig	168
torium	168
▁Banana	168
▁Kota	168
▁Ene	168
ummer	168
▁Maz	168
▁enquête	168
osse	168
ahl	168
▁Krishna	168
▁Functie	168
spor	168
ć	168
▁JC	168
▁uni	168
▁Aflevering	168
rai	168
agog	168
▁klok	168
▁Wegen	168
▁Volledig	168
▁Blijf	168
▁Veterans	168
haai	168
plas	168
▁Rentals	168
uce	168
BERG	168
▁XT	168
▁Oc	168
▁Todd	168
▁Varen	168
▁Decoratie	168
▁Bremen	168
▁Wordt	168
bedden	168
▁Puerta	168
ppo	168
▁Hoodie	168
quart	168
▁Ryu	168
aine	168
oppen	168
▁Eugene	168
Raad	168
▁Camel	168
▁Educational	168
▁Apotheek	168
▁body	168
▁Burj	168
Back	168
tsja	168
▁Jongens	168
▁UMC	168
▁ontvangen	168
▁Rott	168
▁Anastasia	168
▁galerie	168
▁Trin	168
▁Sheffield	168
fia	168
▁Vari	168
▁Koz	168
plat	168
▁Veg	168
voudige	168
▁Wessel	168
▁Initiatief	168
Social	168
▁Jour	168
▁Unesco	168
mai	168
▁Shun	168
▁FK	168
▁RGB	167
▁McLaren	167
kaartje	167
sonate	167
Roll	167
Vol	167
beth	167
▁bevolking	167
▁bezoekers	167
▁contract	167
▁vijfde	167
GY	167
▁Nab	167
▁IDFA	167
▁Romano	167
voeder	167
▁Eiffel	167
Fly	167
▁Arti	167
▁Elias	167
▁TNO	167
bekleding	167
leng	167
▁markten	167
▁Religie	167
mania	167
▁Funchal	167
▁night	167
▁Gand	167
diner	167
▁Marsh	167
▁Verd	167
▁INT	167
▁uitgeverij	167
Ware	167
▁Armen	167
beur	167
landschap	167
NEX	167
▁Alcatraz	167
▁Sega	167
▁KR	167
bussen	167
▁Galway	167
ù	167
▁arts	167
nett	167
▁Verslag	167
▁ontdekken	167
▁semi	167
▁Stereo	167
loft	167
▁Did	167
▁Chambre	167
cards	167
▁Marnix	167
klok	167
▁galerij	167
▁Frey	167
▁Veilig	167
JP	167
NOVA	167
▁Luister	167
ekker	167
▁Quiz	167
▁voer	167
▁Mijas	167
▁acryl	167
▁effect	167
▁Pru	167
vend	167
▁Somer	167
▁Fondation	167
▁Papers	167
▁Eis	167
▁Dirty	167
ettes	167
▁wonen	167
▁Sean	167
▁Spelers	167
Business	167
toebehoren	167
kinderen	167
provider	167
eros	167
▁Bevrijding	167
▁balkon	167
Lees	167
geneeskunde	167
quo	167
pcb	167
▁Cedar	167
▁Abs	167
gast	167
▁CCTV	167
▁justitie	167
▁Munich	167
▁Writers	167
heide	167
▁oorsprong	167
▁Neon	167
▁Lob	167
▁vinger	167
▁Rhe	166
▁Pouch	166
scherp	166
▁vaste	166
▁venster	166
▁Odyssey	166
▁Pijn	166
▁helpt	166
▁transfer	166
▁Hanna	166
▁Pull	166
meel	166
▁meubels	166
▁Imam	166
▁Verwarming	166
▁Machinaal	166
▁Hitachi	166
▁Toeristische	166
▁senator	166
▁Treatment	166
▁Ved	166
▁Term	166
loc	166
ELS	166
▁Fraser	166
Eng	166
▁DL	166
▁Mijnbouw	166
▁Racer	166
▁brandstof	166
▁Tampa	166
▁riem	166
wetgeving	166
dochter	166
▁tape	166
▁Knoll	166
aarde	166
ugu	166
▁Ses	166
count	166
▁christen	166
▁Leiderschap	166
▁visie	166
drom	166
▁Voyager	166
▁Gis	166
▁kunstenaars	166
▁steeds	166
▁Oka	166
rood	166
ISCH	166
atine	166
▁binnenlandse	166
constructie	166
Romeinse	166
afdruk	166
▁Byzantijnse	166
▁Welsh	166
▁wiskunde	166
▁vitamine	166
▁Alison	166
sites	166
▁ervaring	166
▁waaronder	166
iglia	166
▁Oppervlakte	166
▁Diagonal	166
▁Mick	166
iac	166
▁Cumshot	166
EDI	166
▁Higher	166
▁Ontwerper	166
▁Twaalf	166
NEN	166
opname	166
▁Sok	166
▁Sono	166
▁Pegasus	166
▁BNP	166
▁TD	166
Israël	166
▁Alumni	166
▁Mexican	165
safari	165
▁Mundo	165
uwer	165
▁Poul	165
▁Simons	165
mum	165
▁therapie	165
jurk	165
▁Philharmonisch	165
▁Sinterklaas	165
ikon	165
▁Fla	165
▁sales	165
▁Cosm	165
▁Vertegenwoordig	165
thing	165
▁Flori	165
▁Koek	165
engine	165
sautoriteit	165
▁Emo	165
▁Shine	165
▁Students	165
▁verdieping	165
▁Sjaal	165
▁Volkskrant	165
▁Westerse	165
▁Pijl	165
▁Mobi	165
▁LF	165
▁Kopen	165
▁vredes	165
▁hor	165
▁Archieven	165
▁Crest	165
▁gelijk	165
«	165
▁Grieken	165
regen	165
minister	165
▁maritieme	165
Anti	165
▁server	165
▁vervolgens	165
▁AU	165
rí	165
▁Historie	165
▁Moll	165
▁Romeinen	165
gne	165
▁Rook	165
▁Estepona	165
▁messing	165
▁Staf	165
▁Kenmerkende	165
Oro	165
▁Brexit	165
▁visserij	165
▁Verloren	165
▁Kunstenaars	165
▁Keukenhof	165
rooms	165
iani	165
hurst	165
▁Waterman	165
▁Arrangement	165
▁Rudi	165
assortiment	165
▁Kem	165
▁Wrap	165
▁Antillen	165
▁Divine	165
▁Baha	165
▁Albatros	165
bush	165
▁verzet	165
square	165
ALA	165
zaam	165
▁Tart	165
kort	165
▁Grootste	165
dynamisch	165
sawa	165
zem	165
instrumenten	165
▁Dil	165
omie	165
▁Pillow	165
▁container	165
pun	165
▁heiligdom	165
▁Jachthaven	165
meet	165
▁Browser	165
level	164
▁schoen	164
▁content	164
idor	164
▁Claes	164
RUS	164
▁Kowloon	164
OTO	164
▁Charming	164
▁Compass	164
▁DT	164
▁Abi	164
▁win	164
▁schakel	164
sComfi	164
RAL	164
velo	164
terre	164
chter	164
biz	164
geleider	164
▁trap	164
EEN	164
urg	164
▁klaar	164
▁Reel	164
▁EMEA	164
▁Geopend	164
▁GRATIS	164
alisme	164
▁Lore	164
RW	164
▁Salad	164
▁Stor	164
▁kosten	164
▁geschenkdoos	164
eigenschappen	164
▁rec	164
asha	164
▁spring	164
Elysées	164
▁Lader	164
Your	164
▁Wijzerplaat	164
Door	164
rekken	164
Fu	164
▁vraag	164
ope	164
enbach	164
▁Archaeological	164
▁peter	164
wond	164
gé	164
Nord	164
▁Reno	164
▁Serv	164
▁Knip	164
tif	164
▁Gezin	164
▁temperatuur	164
▁sin	164
nig	164
▁Caïro	164
▁Accelerator	164
▁Billboard	164
▁trainer	164
▁christ	164
▁expositie	164
prop	164
▁Stout	164
▁publiek	164
ñ	164
▁Whi	164
▁Tessa	164
▁REHAB	164
▁Pointe	164
▁Servo	164
▁Darts	164
▁Venezuela	164
▁bang	164
aker	164
rud	164
▁Dante	164
▁ochtend	164
volume	164
werp	164
▁waarvan	164
bud	164
orgaan	164
▁beroep	164
▁Vertaling	164
▁carte	164
atori	164
ancy	164
▁Subway	164
▁geschreven	164
▁commun	163
▁Tobacco	163
Kee	163
▁jay	163
Boy	163
▁Said	163
kaars	163
▁legering	163
▁Malin	163
▁leiderschap	163
▁bestaan	163
▁Werd	163
skiy	163
▁SEA	163
▁Lyceum	163
Festival	163
Super	163
▁Klas	163
▁Parkeer	163
▁Squad	163
▁Verlosser	163
▁Noor	163
▁Primo	163
▁Satellite	163
WERK	163
▁Schok	163
elis	163
▁laad	163
likken	163
aille	163
Mind	163
▁Profit	163
▁Coupé	163
Spot	163
▁Curtis	163
▁Pensioen	163
▁hoop	163
▁Alter	163
▁Kite	163
▁Sj	163
▁Satijn	163
Base	163
▁Volcano	163
▁Palmas	163
▁Beaux	163
yuki	163
▁Evil	163
▁Adi	163
▁ASF	163
▁Marker	163
majoor	163
▁intelligente	163
▁dialoog	163
▁Schaak	163
koord	163
IVE	163
▁Romance	163
uskerk	163
ark	163
formule	163
▁Muk	163
tax	163
nc	163
iller	163
arna	163
▁Eau	163
▁Zaventem	163
▁Lexi	163
▁Nashville	163
therapeut	163
▁Opvallend	163
steeg	163
boor	163
▁CAC	163
▁Levende	163
INS	163
▁vrachtwagen	163
▁Torrent	163
tach	163
tera	163
▁Sanne	163
▁ICE	163
gou	163
gold	163
▁key	163
▁IG	163
▁SAN	163
eger	163
vriendelijk	163
Bru	163
▁ijzer	163
▁Kaukasus	163
▁Accountants	163
▁Religieuze	163
▁fo	163
▁sultan	163
▁Baseball	163
▁vlak	163
çon	163
▁Romana	163
▁Korean	163
▁Rash	163
oki	163
▁straf	162
aci	162
plateau	162
▁Albanië	162
guide	162
ologen	162
▁motoren	162
▁Jordi	162
▁geluids	162
trust	162
▁Elektronika	162
borne	162
▁lanceert	162
▁Duurzaamheid	162
▁Aron	162
▁gemaakte	162
▁Guer	162
▁Cardiff	162
▁Wissel	162
▁aanval	162
▁plant	162
▁Nanjing	162
▁Slide	162
cd	162
Test	162
▁Martine	162
▁nat	162
draadloze	162
weergave	162
▁munt	162
▁cyber	162
▁keizerlijke	162
Ó	162
▁Wilt	162
SERV	162
▁Nana	162
▁Cité	162
▁stream	162
▁NBA	162
▁Conde	162
kaas	162
oesj	162
▁Pinksteren	162
▁Nieder	162
▁verloren	162
▁Cult	162
▁instrument	162
km	162
dock	162
▁muis	162
Rose	162
▁Hank	162
▁Kardinaal	162
▁Sentinel	162
▁DNA	162
pension	162
▁Boelgakov	162
ranger	162
phen	162
netwerken	162
MAP	162
ILLE	162
weeg	162
ood	162
▁Montenegro	162
▁Megan	162
▁Kras	162
▁Schild	162
▁schuim	162
▁Theresia	162
▁Personen	162
▁Rhino	162
▁Neptunus	162
▁Montpellier	162
▁Buurt	162
matische	162
▁Muz	162
▁verkoper	162
▁Magnolia	162
▁Therapie	162
geheugen	162
▁tassen	162
▁Euregio	162
▁DF	162
▁Schar	162
trol	162
▁gelaste	162
▁FF	162
express	161
▁Brus	161
▁Lep	161
▁richtte	161
▁Tama	161
▁dokter	161
▁Independence	161
schotel	161
▁Stranger	161
▁kanker	161
▁Raid	161
eki	161
frequentie	161
▁GU	161
▁Burgemeester	161
verkiezing	161
zoeker	161
roux	161
gedeelte	161
▁Dicht	161
▁Kenneth	161
▁MR	161
▁Hubertus	161
keuken	161
micro	161
▁Aki	161
▁Gron	161
▁vice	161
▁adapter	161
▁bekijk	161
▁Quo	161
▁Nga	161
▁WiFI	161
▁Argo	161
alu	161
▁Ilse	161
▁Bestuurder	161
▁Keramiek	161
▁Machi	161
▁TGV	161
ppel	161
▁Cirque	161
▁Chronicle	161
ketel	161
▁natuurlijk	161
▁navigatie	161
liet	161
chef	161
ssing	161
▁Cubaanse	161
▁AW	161
▁Aspen	161
cycle	161
chov	161
▁Adriana	161
gelegd	161
▁Linnen	161
▁Flens	161
MY	161
▁Hoogte	161
▁suites	161
idad	161
▁Jihad	161
▁Dialoog	161
▁PLUS	161
▁toegangs	161
▁Opleidings	161
▁Pina	161
▁Ness	161
▁EE	161
technologieën	161
GES	161
ieri	161
▁Vriendschap	161
▁Solvay	161
▁Bry	161
pres	161
RG	161
▁Notes	161
▁ontdekt	161
versterker	161
▁Faith	161
▁Tata	160
ament	160
▁cosmetica	160
▁Benedict	160
fractie	160
▁Crea	160
▁Lelystad	160
wijzen	160
▁complete	160
▁Statement	160
katholiek	160
▁Bronze	160
▁expeditie	160
addy	160
TAN	160
▁Harmon	160
profielen	160
PW	160
quest	160
▁assistent	160
uvre	160
eigenaar	160
▁Sana	160
▁flens	160
▁Sko	160
▁Neer	160
inc	160
kijk	160
ential	160
▁Oordeel	160
kerke	160
▁XIII	160
elin	160
▁Coupon	160
▁Jerusalem	160
▁Blanco	160
▁Restauratie	160
▁Monsters	160
▁Volendam	160
oogst	160
▁Mulder	160
▁persoonlijk	160
▁Servische	160
Fun	160
▁García	160
drank	160
▁WS	160
▁Verg	160
▁Goo	160
▁Titel	160
▁Nun	160
staaf	160
▁Tul	160
aalse	160
fontein	160
	160
▁beer	160
Blanc	160
isk	160
qué	160
▁Ambassadeur	160
▁openen	160
zero	160
▁zetel	160
QUE	160
▁Aankomst	160
IPS	160
▁boor	160
ulus	160
▁Axi	160
SEL	160
▁Lopez	160
▁Beveiligings	160
vac	160
coördinator	160
▁Eurostars	160
DY	160
▁Poet	160
venture	160
▁Isola	160
THE	160
▁stappen	160
▁Fantastic	160
▁elkaar	160
voorziening	160
zalen	160
MES	160
tenten	160
▁Assistant	160
Wo	160
▁Jiu	160
nneke	160
omme	160
▁Gospel	160
economie	160
▁Xvideos	160
▁Harald	160
▁Reggae	160
▁Ethernet	160
elektriciteit	159
▁shar	159
▁Eixample	159
▁Paars	159
▁MTR	159
▁Powered	159
halle	159
▁taylor	159
▁Secretariaat	159
ject	159
▁mechanische	159
verkeer	159
▁functies	159
▁Clenbuterol	159
▁Organische	159
▁Leu	159
▁Broeders	159
spelers	159
▁Thomson	159
▁Iowa	159
MIN	159
motoronderdelen	159
nico	159
krachten	159
▁Eugène	159
tract	159
Brunette	159
▁Viewer	159
▁brood	159
née	159
▁Kogel	159
▁werkgelegenheid	159
▁Protect	159
▁Casablanca	159
▁Leder	159
▁Kath	159
kö	159
maakt	159
▁Happiness	159
▁Paradis	159
▁Binary	159
mmel	159
▁aux	159
Str	159
▁Hiro	159
▁Lassen	159
▁Nur	159
teit	159
Willem	159
▁Roda	159
▁Driehoek	159
▁Feder	159
HN	159
▁Montgomery	159
mannen	159
▁ruimtevaart	159
▁BY	159
houding	159
▁Parlementaire	159
▁Cure	159
snel	159
▁Siren	159
▁formule	159
chart	159
servers	159
▁bungalow	159
tractor	159
▁certificaat	159
▁Knuffel	159
▁Vivian	159
▁Sandberg	159
▁Prior	159
▁Bock	159
Ag	159
Works	159
▁Polder	159
ryu	159
▁Mura	159
▁Laure	159
▁Vogels	159
▁resultaten	159
▁FDA	159
▁Geheim	159
▁animatie	159
▁moeten	159
▁Brouwer	159
itsj	159
▁Jackie	159
▁Marta	159
▁allemaal	159
zé	159
▁Merc	159
▁call	159
▁Museumplein	159
CAP	159
▁Vocal	159
ermeer	159
namen	159
kowski	159
▁Guang	159
baard	159
gd	159
▁Basketball	159
▁Cristian	159
indicator	159
House	159
▁Dha	159
▁Sanders	159
▁Hä	159
deck	159
been	159
▁Espresso	159
▁bonus	159
▁Quer	158
▁Bedford	158
▁Autumn	158
martin	158
▁Mesa	158
optie	158
ieux	158
▁Advance	158
▁Vullen	158
▁Mister	158
Games	158
arab	158
persoonsgegevens	158
▁Hindoe	158
▁Groente	158
▁Interactieve	158
▁lidstaat	158
▁herenhuis	158
▁gek	158
▁KM	158
▁Toni	158
duits	158
MAG	158
corn	158
▁Perla	158
▁boog	158
▁Louisiana	158
▁Prachtig	158
▁Circular	158
▁Consult	158
▁IJzeren	158
▁materialen	158
▁Paleo	158
▁Funk	158
advertenties	158
lini	158
▁Comite	158
Core	158
▁Canterbury	158
DOS	158
▁PD	158
▁MED	158
kocht	158
▁Zang	158
▁Herve	158
▁Paro	158
▁trui	158
▁vergeten	158
isolatie	158
▁Ricardo	158
▁Ic	158
▁Doelen	158
▁pik	158
▁Native	158
▁Daphne	158
dl	158
reiniging	158
▁Babel	158
verbond	158
▁HB	158
schoten	158
landse	158
gom	158
chant	158
▁BTC	158
BLE	158
▁Voeten	158
▁Awareness	158
▁Xu	158
▁Trier	158
▁Equity	158
▁Syr	158
aël	158
▁Lenovo	158
▁Cant	158
▁krijg	158
awn	158
▁Bosco	158
ekken	158
▁puzzel	158
▁Ueno	158
soorten	158
▁Alber	158
utta	158
▁NW	158
▁leeftijd	158
▁Gud	158
▁PG	158
▁Antique	158
▁Hautes	158
▁Triomphe	158
fill	158
rough	158
ignan	158
▁veilig	158
▁Sueno	158
▁Gü	158
▁VL	158
▁Warmte	158
▁Risico	158
finger	158
▁dichter	157
YO	157
▁Natie	157
tribune	157
▁Schaal	157
Cal	157
▁Oneindige	157
▁Him	157
▁achtergronden	157
▁betekent	157
vormen	157
▁Prinsenhof	157
Neill	157
▁Publiek	157
fair	157
▁Frog	157
nich	157
▁Aven	157
▁Tropische	157
▁Mack	157
▁Zor	157
▁Kreuz	157
clar	157
luik	157
▁Lum	157
▁Brave	157
buch	157
▁Andrews	157
▁Logis	157
▁motorfiets	157
bediening	157
▁Jag	157
▁Floral	157
selaar	157
just	157
▁bestanden	157
▁Bullet	157
▁Capo	157
Rijn	157
▁Piece	157
GF	157
kondi	157
donna	157
▁Uber	157
▁Vip	157
▁KIT	157
▁Clarion	157
▁voetbalbond	157
Wood	157
BRE	157
▁vertrek	157
▁mevrouw	157
toom	157
▁Tiel	157
bate	157
▁Borne	157
arius	157
GU	157
▁opgenomen	157
▁Archipel	157
▁Jess	157
▁help	157
▁lief	157
▁Schermen	157
▁Aura	157
secretaris	157
rook	157
roid	157
▁ABB	157
dder	157
telecommunicatie	157
▁Volkeren	157
steken	157
▁Thessaloniki	157
▁Rigid	157
pistool	157
▁Poetin	157
▁Hallen	157
▁Chai	157
enkamp	157
▁mobiel	157
schor	157
▁vermeld	157
▁POP	157
▁Altea	157
örd	157
Print	157
▁Tire	157
▁Criminal	157
▁senior	157
ruil	157
laden	157
▁Immigration	157
▁Ante	157
▁Hengelo	157
▁Without	156
▁Gerecht	156
taille	156
▁Pousada	156
▁Drank	156
▁Frankfurter	156
trie	156
▁blijft	156
reef	156
▁Bezoekers	156
zuki	156
▁Weld	156
▁are	156
nink	156
klassieker	156
▁Ideale	156
▁KS	156
schappen	156
▁vuurtoren	156
cake	156
▁Kousen	156
▁dealer	156
flam	156
▁supermarkt	156
▁Regatta	156
▁Geheugen	156
▁eet	156
wah	156
lox	156
orchester	156
▁Jeremy	156
▁JE	156
▁SDK	156
▁Uitbreiding	156
▁Wandelen	156
▁Nouveau	156
appartement	156
▁Rho	156
▁Indie	156
NX	156
cera	156
▁Christie	156
▁Filipijnen	156
▁Pinterest	156
▁Rembrandtplein	156
buk	156
goot	156
▁Guns	156
richtlijn	156
tabletten	156
▁voetballer	156
▁Size	156
▁Ondernemen	156
Way	156
▁Chim	156
▁omvat	156
▁Yuri	156
▁Velcro	156
▁leider	156
▁handleiding	156
▁Jaume	156
▁ibis	156
▁invasie	156
▁Reykjavik	156
valuta	156
▁Hoi	156
▁domin	156
▁Rondleiding	156
▁Fortis	156
▁Grotten	156
vall	156
▁ACE	156
▁Baar	156
tow	156
spray	156
lü	156
sbibliotheek	156
mist	156
▁ZE	156
onie	156
▁WIN	156
QUI	156
▁Gebed	156
▁Qian	156
▁OVER	156
▁Greenwich	156
ghen	156
Harburg	156
▁Drinken	156
schrijf	156
▁Synode	156
PIN	156
Australië	156
▁Prinsengracht	156
▁Singles	156
ppy	156
▁regiment	156
▁Vink	156
▁Mystic	156
▁Joegoslavië	156
▁Mahal	156
▁Reservering	155
▁Sporting	155
Mel	155
▁Imm	155
▁Vertonings	155
lg	155
Soedan	155
▁draadloos	155
koker	155
▁Geschillen	155
▁Palms	155
▁Fau	155
__	155
kovski	155
KEL	155
▁BIG	155
▁transportband	155
▁Québec	155
▁kenmerken	155
recept	155
▁Aspire	155
▁Geneva	155
▁Mong	155
▁Heemskerk	155
▁NRC	155
▁Salesforce	155
ECO	155
dun	155
▁biljart	155
thers	155
▁Partnerschap	155
▁Dossier	155
▁Avatar	155
▁Geer	155
▁barbecue	155
▁MiG	155
experts	155
Fox	155
▁Gemenebest	155
▁Testing	155
ATT	155
Hard	155
▁Slo	155
gina	155
▁Naked	155
ommel	155
▁Rogier	155
▁Graphic	155
Type	155
▁residentie	155
▁Roxy	155
▁Graphics	155
▁Sessions	155
▁Wadden	155
▁flat	155
arth	155
ONA	155
▁administratieve	155
▁Alibaba	155
malen	155
▁Schle	155
▁Huy	155
Code	155
▁Saudi	155
▁geneesmiddelen	155
poel	155
▁Edo	155
opvang	155
▁Hahn	155
Multifunctionele	155
▁RP	155
inkel	155
▁Junk	155
benz	155
Fre	155
▁Jens	155
ramen	155
▁Twi	155
▁Lausanne	155
▁Gandhi	155
bakkerij	155
▁Krabi	155
▁Artsen	155
▁Machining	155
Luxemburg	155
▁Skyline	155
▁duo	155
rip	155
sbury	155
zingen	155
▁Hessen	155
▁Rope	155
buck	155
rits	155
▁Try	155
qiao	155
▁Unilever	155
▁Nemo	155
▁bont	155
raj	155
▁Unity	155
▁Lia	155
kloof	155
▁geel	155
▁trekt	155
▁Puzzel	155
dour	155
▁Salzburger	155
Wi	155
▁geval	154
▁tips	154
▁Kobe	154
documentatie	154
▁moest	154
▁Palla	154
▁Simpson	154
verenigingen	154
▁Harrison	154
weiler	154
▁Schengen	154
▁Volunteer	154
rone	154
▁Aux	154
▁Democratic	154
▁voel	154
Afgestudeerden	154
▁Jaarlijkse	154
qing	154
igu	154
▁Townhouse	154
▁piramide	154
▁Saigon	154
▁vlam	154
▁Slut	154
▁gotische	154
▁Tray	154
illus	154
▁Garnier	154
stort	154
structure	154
▁Political	154
▁Brig	154
▁Origin	154
clip	154
▁HOME	154
▁Azerbeidzjan	154
cluster	154
▁Strategisch	154
persoon	154
usta	154
resultaten	154
▁podium	154
gym	154
▁Rabbi	154
▁Mountainbike	154
▁Herengracht	154
▁Banque	154
Charles	154
Gate	154
▁Nerja	154
belt	154
▁Glitter	154
▁Verandering	154
▁religie	154
▁GF	154
▁handen	154
▁Wey	154
▁studeerde	154
diploma	154
▁Nha	154
▁Hoofddorp	154
▁Oman	154
celli	154
lijden	154
▁Endurance	154
▁rek	154
vuur	154
fei	154
VAL	154
Part	154
▁afbeelding	154
▁Coastal	154
AVA	154
▁Botanic	154
▁Berlage	154
▁Kosovo	154
▁Randstad	154
beveiligings	154
cano	154
▁Joachim	154
beurt	154
▁Exe	154
lf	154
▁Hoor	154
iglio	154
heimer	154
amt	154
▁Associates	154
biologie	154
▁morgen	154
▁Geestelijke	154
size	154
▁cross	154
▁Olifant	154
tho	154
▁Meiji	154
▁Mollig	154
▁Gaudeamus	154
▁Avon	154
▁toeristische	154
wheel	154
gevoerd	154
▁Jardins	154
waardig	154
▁Condor	154
▁Probeer	154
▁Rive	154
▁Maserati	154
▁Koi	154
▁Edith	154
nation	154
▁Slowaakse	154
▁Wies	154
▁Taw	154
▁Consument	154
▁Roodharige	153
▁Pill	153
▁Moes	153
IQ	153
break	153
▁UM	153
▁Ascentie	153
▁Pula	153
▁trek	153
Sc	153
▁Chap	153
▁geslacht	153
▁vezel	153
▁Fancy	153
School	153
▁Garda	153
▁verandering	153
soep	153
▁Fabian	153
▁Geïntegreerde	153
▁Miner	153
▁bossen	153
vork	153
▁Doen	153
▁Belo	153
ULL	153
▁Nov	153
extensie	153
▁minibar	153
gegeven	153
▁Vert	153
▁Extension	153
▁Goden	153
▁koppeling	153
▁Bisschop	153
metal	153
boro	153
▁Through	153
Juli	153
Google	153
▁system	153
▁massa	153
handboek	153
▁Atomic	153
reserveringen	153
▁Sieb	153
ISH	153
▁HER	153
▁vertaling	153
istori	153
▁Traditionele	153
huid	153
wey	153
▁specialist	153
▁Slovenië	153
NAC	153
▁Petrov	153
▁Rif	153
▁Bakkerij	153
maz	153
▁Saturn	153
brigade	153
▁Bahama	153
▁Wheels	153
▁Uil	153
▁Evelyn	153
▁Copper	153
bestendige	153
▁markies	153
PB	153
▁Ghana	153
vera	153
▁avonturen	153
▁Typ	153
▁Bbq	153
▁sil	153
▁jav	153
▁Held	153
▁Thon	153
▁Pompe	153
tender	153
▁Democracy	153
▁Mig	153
editor	153
▁Fig	153
▁Lina	153
▁Success	153
▁Beverly	153
kirchen	153
▁Catering	153
▁maandag	153
▁Vive	153
Stat	153
▁Voordeel	153
▁cilinder	153
▁Natuurkunde	153
shirts	153
▁digitaal	153
▁rug	153
examen	153
▁Lui	153
▁Robotics	153
Sight	153
▁opent	153
amar	153
▁Anderlecht	153
ulla	153
trommel	153
▁werelderfgoed	153
▁Oktober	153
cloud	153
▁Refugee	153
▁Gemeentelijke	153
▁Actuator	153
▁jack	152
▁wijzigen	152
tours	152
nez	152
graphic	152
Fort	152
▁priester	152
▁Session	152
▁Kama	152
▁basketbal	152
YR	152
taxi	152
▁Doom	152
UA	152
wai	152
▁volg	152
▁Female	152
uhl	152
VIS	152
▁Thé	152
▁Sporten	152
▁blik	152
▁begeleid	152
rø	152
Doc	152
▁Guin	152
▁optie	152
▁ESP	152
▁burcht	152
wek	152
▁Temperatuur	152
erweg	152
▁Carmel	152
cic	152
anja	152
▁Kalf	152
vlees	152
▁geheugen	152
BURG	152
▁Sje	152
▁Urantia	152
shen	152
▁Vacatures	152
▁Poble	152
▁Metropolis	152
▁Wals	152
▁Mathilde	152
▁fles	152
gevecht	152
oplader	152
▁Gymnasium	152
▁Something	152
Phil	152
▁disco	152
gouvernementele	152
spring	152
▁Annette	152
▁Handelingen	152
▁yu	152
deal	152
▁Vinger	152
▁Crossing	152
▁Loe	152
Cut	152
▁Gaudi	152
▁Lauderdale	152
▁coördinatie	152
Württemberg	152
amour	152
Two	152
▁Muse	152
Assad	152
▁Plank	152
▁droog	152
▁Feld	152
▁Schol	152
phor	152
▁Oklahoma	152
OLI	152
▁Cron	152
▁toilet	152
▁Kreek	152
rb	152
▁volwassen	152
▁Mahler	152
▁sep	152
▁Vigo	152
derij	152
Set	151
▁Gl	151
▁voorzieningen	151
Engels	151
▁bataljon	151
▁Pura	151
zeker	151
▁Everything	151
taler	151
▁Joyce	151
▁Inkt	151
▁Beperkte	151
▁Willemstad	151
ischer	151
nek	151
▁Amal	151
abo	151
arr	151
▁Meis	151
▁Kennel	151
▁Lading	151
paard	151
▁GMP	151
Mini	151
▁Één	151
Wind	151
▁Hardy	151
▁mysterie	151
berghe	151
nav	151
▁Zaanse	151
▁Savannah	151
▁Hurricane	151
▁Cascade	151
stedt	151
▁Bolt	151
▁zwaar	151
worm	151
▁Princi	151
richten	151
▁Bodem	151
text	151
▁Dau	151
▁paul	151
▁Forbes	151
▁gravin	151
lique	151
AMI	151
▁geë	151
▁Travelodge	151
▁Ott	151
▁VT	151
▁Insta	151
▁katten	151
▁Toilet	151
▁ingenieurs	151
Spanje	151
maya	151
▁Quiltwinkel	151
Boek	151
▁Selection	151
▁Domina	151
▁export	151
▁klittenband	151
kul	151
agawa	151
▁WWF	151
Trac	151
▁Molino	151
codes	151
▁Remco	151
ahn	151
▁Groepen	151
▁werknemers	151
Train	151
▁Forge	151
activ	151
TOP	151
▁Mirador	151
▁Brigitte	151
▁hoed	151
dica	151
▁Vicente	151
▁Ruhr	151
ATE	151
▁hindoe	151
rito	151
IBA	151
▁DEL	151
▁Boodschap	151
▁Hochschule	151
lees	151
▁Heights	151
▁Filipijnse	151
▁aansluiting	151
brink	151
tzen	151
benodigdheden	151
▁Scheepvaart	151
▁Leefmilieu	151
▁ACS	150
▁Nippon	150
▁Norbert	150
▁volksgezondheid	150
▁gouverneur	150
▁Fantasie	150
AIS	150
▁Sob	150
▁Pand	150
▁Wezen	150
▁Darling	150
▁TL	150
erantwoordelijke	150
asco	150
▁Dries	150
componenten	150
▁https	150
lieden	150
Ardenne	150
▁CG	150
▁dame	150
redacteur	150
▁Buc	150
▁Cervantes	150
WH	150
▁Phillip	150
▁korting	150
▁Elba	150
▁bag	150
▁panel	150
▁Expertise	150
ENDE	150
▁vloeren	150
▁Nieuwstraat	150
▁Bonnie	150
▁Chronograph	150
drone	150
yah	150
▁Suk	150
mg	150
▁vleugel	150
scooter	150
▁Pastor	150
▁Schans	150
▁Andrej	150
▁Bela	150
SY	150
▁Davidson	150
▁combinatie	150
▁hut	150
▁Silo	150
▁Mariner	150
▁Slave	150
▁bijzondere	150
▁Tung	150
maine	150
▁Bayer	150
Serv	150
pair	150
huur	150
▁Remix	150
zelfde	150
mira	150
bec	150
▁Owen	150
gift	150
wijs	150
▁Molly	150
▁Father	150
AVO	150
▁Parent	150
▁snelheids	150
wor	150
▁Prada	150
▁bijbel	150
gordijn	150
▁veilige	150
hulpmiddel	150
▁Version	150
bots	150
▁Plafond	150
▁DMC	150
prototype	150
▁Surinaamse	150
▁poppen	150
▁geweldige	150
▁DER	150
▁Strange	150
▁Jefferson	150
▁Consulaat	150
▁Basketbal	150
hler	150
brouck	150
▁Kooi	150
▁Advisor	150
▁Maxima	150
▁Hughes	150
▁sauna	150
▁troepen	150
▁Hare	150
MEN	150
▁Glove	150
kwekerij	150
▁Camille	150
▁jongens	150
▁Syrisch	150
Catherine	150
▁Cler	150
▁Bijenkorf	150
▁Nex	150
demper	150
▁Hef	150
▁Belgie	150
▁Juwelen	150
▁gevonden	150
eind	150
▁Mechanical	150
▁Wesley	150
▁Trinidad	150
schakel	149
BV	149
kg	149
▁Michelangelo	149
▁Vooruit	149
▁gebruikte	149
▁Carré	149
acion	149
▁ExpressVPN	149
▁pizza	149
presentatie	149
▁Somme	149
poot	149
LOS	149
▁stage	149
▁DK	149
▁Navigation	149
clo	149
patch	149
leder	149
Temp	149
accu	149
vliegtuigen	149
▁vinyl	149
▁Boter	149
▁NG	149
▁Ijzer	149
▁step	149
▁Waves	149
▁Azur	149
▁Varken	149
▁Puur	149
▁Zusters	149
▁Musique	149
▁Physical	149
▁Interreg	149
▁Schil	149
▁Menno	149
▁Leningrad	149
▁bestellen	149
rado	149
▁Fenix	149
▁Baltic	149
yong	149
sluit	149
▁Rox	149
Market	149
▁Bestemming	149
▁Clare	149
bane	149
▁Supplier	149
▁Barceloneta	149
▁Trav	149
▁Winterspelen	149
▁Brandt	149
▁verkeer	149
goud	149
▁Gao	149
▁Tevens	149
oom	149
Cube	149
stammen	149
doo	149
korrels	149
▁Grau	149
specificaties	149
rider	149
groei	149
œ	149
meubel	149
▁Zakynthos	149
▁Goa	149
▁sponsor	149
cky	149
ikki	149
Info	149
▁vroeg	149
▁Spins	149
▁Radical	149
▁Ruimtevaart	149
▁Patri	149
▁Message	149
▁Cement	149
▁Belgrado	149
▁Totale	149
▁totaal	149
▁Busch	149
USA	149
г	149
cula	149
▁Perpetual	149
Grand	149
▁Crowd	149
SAT	149
historie	149
▁Dip	149
verde	149
▁SSD	149
▁bleef	149
▁Verschillende	149
Start	149
REC	149
wijnen	149
▁XII	149
▁peper	149
▁Toner	149
Expo	149
lago	149
▁Platanias	149
▁Polit	149
ummy	149
shoot	149
▁degli	149
caravan	149
▁Apparaten	149
▁overeenkomst	149
▁COR	149
▁Hirsch	149
trofee	149
▁CU	148
Gene	148
▁DD	148
▁HF	148
▁Patriot	148
broeders	148
▁effecten	148
▁elektronica	148
▁rechtbanken	148
▁Properties	148
▁Abram	148
▁welkom	148
▁Venice	148
[...]
