▁the	766000
s	413977
▁	375285
▁-	314154
▁The	278483
▁of	221904
0	154028
1	151170
▁Hotel	134104
▁'	133020
2	128789
▁"	115292
▁and	91549
3	67075
4	59443
5	56882
▁de	54536
e	49075
▁A	47904
▁for	47722
9	46960
▁/	46775
a	44110
▁a	43030
6	42642
8	42359
7	38958
▁(	38532
er	32108
-	31752
o	31011
▁in	30800
▁S	30317
▁International	29889
▁’	29034
y	28068
i	27639
▁)	27415
ing	26250
▁B	26107
▁National	25481
en	25423
▁De	25272
▁Museum	24472
▁University	24273
t	24201
▁World	23755
▁Park	23371
▁Group	22148
▁Center	21879
▁La	21651
▁New	20920
▁House	20563
▁European	20153
▁City	19989
▁“	19583
▁Centre	18898
'	18878
n	18822
▁St	18812
▁M	18811
▁I	18638
▁E	18558
▁D	17717
▁C	17661
▁on	16641
S	16536
▁China	16352
▁Co	16307
d	16047
▁to	15796
ed	15135
▁T	15059
▁L	14903
▁V	14830
▁van	14818
▁Machine	14752
▁Club	14512
▁G	14402
▁Service	14012
▁Association	13883
▁U	13726
▁Beach	13541
▁O	13253
▁Institute	13233
es	13214
▁K	13160
▁P	13060
an	12788
▁Airport	12763
in	12739
▁This	12582
▁Foundation	12543
▁School	12462
▁–	12385
▁Al	12344
▁F	12329
z	12222
▁Festival	12156
▁Council	11936
▁Le	11920
▁Dutch	11883
▁Company	11835
▁System	11831
▁In	11744
▁Air	11743
man	11739
▁N	11554
▁Management	11516
▁Art	11484
▁Royal	11433
al	11362
▁R	11233
▁Station	11188
▁Home	11159
▁Hostel	11114
▁Inn	11108
▁United	11016
▁Saint	10994
▁Day	10928
th	10814
▁H	10741
▁Business	10672
▁J	10555
’	10479
▁Black	10423
▁Van	10312
▁Bar	10202
us	10134
▁San	10117
▁Board	9993
l	9971
▁South	9906
on	9826
▁American	9779
▁Committee	9718
▁Ltd	9619
▁Central	9595
▁War	9553
▁Office	9523
▁Villa	9496
▁Pro	9488
▁Restaurant	9474
r	9454
▁North	9454
▁Room	9451
▁X	9408
u	9392
ia	9382
▁Department	9363
▁Services	9352
▁Amsterdam	9331
▁Resort	9311
▁Green	9158
▁Grand	9082
▁Car	9055
D	9029
▁Bed	8988
▁Best	8961
na	8914
▁Church	8873
▁W	8779
▁Power	8767
A	8699
▁White	8616
▁Water	8567
▁El	8560
▁Europe	8533
▁this	8506
▁West	8479
▁d	8478
m	8472
▁Award	8436
▁All	8432
▁Man	8404
▁Research	8400
▁View	8360
▁River	8355
▁Apartment	8295
▁Health	8295
▁King	8287
▁My	8191
▁with	8120
▁State	8091
▁John	8019
el	7882
▁‘	7862
▁Sea	7862
▁Apartments	7842
k	7819
B	7810
▁One	7794
▁la	7767
▁And	7755
▁Red	7726
▁Blue	7715
▁Academy	7673
▁For	7655
le	7625
▁Technology	7609
▁Free	7591
▁No	7569
ly	7514
▁Design	7511
®	7492
▁Development	7446
▁Our	7434
▁East	7380
▁Music	7364
▁Union	7342
▁Party	7341
C	7325
▁Breakfast	7308
▁Team	7278
▁Conference	7271
▁Life	7234
▁Society	7233
▁Steel	7144
▁Z	7122
▁Garden	7101
▁II	7032
▁Spa	7012
▁Netherlands	6984
ka	6942
▁Bay	6873
▁On	6866
ta	6856
▁Street	6828
▁Light	6823
is	6767
▁Tour	6709
▁Project	6706
/	6694
▁Bank	6692
h	6664
▁Book	6623
▁Data	6604
▁Commission	6582
st	6542
c	6538
▁Cup	6511
▁Love	6508
▁Great	6506
▁Food	6447
▁Network	6417
▁Privacy	6397
x	6339
▁Global	6320
▁Go	6316
▁Port	6311
—	6287
▁Star	6271
▁Hall	6235
▁Open	6186
▁You	6171
▁Holiday	6164
land	6154
▁General	6145
▁States	6138
▁Security	6134
▁Island	6132
▁Year	6105
▁Sun	6094
co	6029
▁Square	6005
▁An	5998
▁du	5966
▁Palace	5965
ma	5955
▁Arts	5935
▁Brussels	5885
▁Time	5873
▁an	5848
▁Science	5837
▁Old	5832
▁High	5827
▁Me	5790
▁Master	5777
▁®	5767
ers	5763
la	5750
▁Lake	5745
te	5735
▁Republic	5724
se	5711
▁Suites	5689
f	5686
▁London	5667
▁Social	5652
or	5643
▁Jan	5636
▁Court	5615
ie	5613
ton	5607
da	5598
to	5581
▁It	5549
▁Road	5546
▁Energy	5541
▁Ministry	5540
ra	5536
▁College	5533
ar	5507
▁Super	5495
▁Castle	5490
▁Women	5487
▁Program	5457
de	5431
▁del	5428
▁Mar	5415
▁News	5415
▁Live	5401
▁Control	5371
▁Film	5371
T	5351
▁Information	5336
g	5313
▁With	5268
▁To	5245
ic	5243
▁des	5243
▁Men	5203
G	5177
▁al	5176
▁Statement	5176
▁Paris	5152
re	5149
▁First	5144
▁Digital	5142
▁Village	5113
▁Studio	5069
ian	5041
▁Top	5017
P	5008
▁Plaza	4982
▁TV	4968
▁Big	4963
▁App	4955
▁Family	4940
▁Paul	4935
▁Games	4925
▁Line	4908
▁Of	4896
et	4873
ne	4828
▁en	4820
▁York	4820
▁Agency	4817
▁Hospital	4812
▁Golden	4786
▁Tower	4775
▁Market	4749
▁Kingdom	4744
▁Battle	4733
▁Re	4720
▁Media	4719
▁Smart	4714
▁Theatre	4685
V	4680
um	4679
▁Suite	4673
▁Casa	4661
▁Education	4660
b	4657
▁Medical	4651
▁Your	4638
▁German	4628
li	4621
▁Post	4619
▁Army	4615
▁Public	4606
▁Jean	4590
▁Gold	4588
▁Show	4565
▁Collection	4561
▁Equipment	4559
p	4556
▁Sports	4531
▁Press	4527
▁Game	4523
▁Peter	4515
son	4505
▁our	4502
▁America	4498
▁David	4477
▁Guest	4474
▁Card	4470
E	4461
▁Fund	4457
▁Box	4452
▁Place	4445
X	4436
▁Mini	4415
ya	4409
▁Golf	4401
F	4398
▁Boutique	4395
▁Guests	4394
▁Special	4368
▁Mac	4358
▁Prize	4356
▁District	4343
▁French	4325
▁US	4323
▁Trade	4313
▁At	4307
▁Series	4280
▁city	4274
▁Town	4262
▁Santa	4261
▁Electric	4254
▁Sport	4242
▁Temple	4242
ko	4226
▁Belgian	4222
▁Valley	4219
▁Les	4217
▁Western	4216
▁Products	4206
▁Real	4201
▁Be	4192
K	4166
▁Community	4161
▁or	4157
os	4141
▁Systems	4112
▁Human	4097
▁Express	4080
as	4079
▁Bridge	4074
ch	4067
▁Championship	4058
ni	4054
▁History	4054
▁Land	4048
▁Online	4040
ke	4040
▁Government	4038
▁Cable	4036
ro	4030
▁Mobile	4014
▁France	3966
▁Software	3948
▁Auto	3942
▁Night	3928
▁Fair	3913
▁Safety	3911
▁Young	3902
▁Q	3902
▁der	3888
▁e	3873
▁Radio	3870
ja	3863
▁Force	3847
▁Travel	3846
▁Google	3845
▁Rotterdam	3837
▁Children	3834
R	3802
▁Support	3799
▁Rooms	3785
▁Area	3778
TM	3778
▁”	3771
▁Gallery	3768
▁Cross	3764
▁Federation	3763
M	3761
▁League	3760
▁Shop	3746
▁James	3736
▁Awards	3736
ina	3728
▁Training	3725
▁Summer	3723
▁Max	3721
▁Do	3721
▁Metal	3707
ca	3702
▁Factory	3697
▁We	3689
j	3687
▁Video	3679
▁Sciences	3679
▁He	3678
▁Michael	3675
▁Martin	3669
no	3667
▁Division	3665
▁Space	3665
▁Assembly	3659
▁Quality	3656
▁Queen	3636
▁By	3629
▁Russian	3627
ry	3625
L	3617
▁TM	3604
▁Plus	3602
▁Inc	3596
▁Windows	3583
▁Forum	3581
▁Earth	3564
▁di	3563
ri	3563
▁Rose	3556
W	3547
▁by	3542
▁Euro	3539
H	3538
é	3537
▁British	3534
▁Belgium	3533
▁Law	3530
N	3529
▁Store	3516
▁Innovation	3512
den	3508
▁Photo	3505
▁Barcelona	3499
▁Site	3495
sen	3476
▁Building	3475
▁Programme	3474
il	3470
▁Berlin	3464
▁Industry	3456
ur	3454
▁God	3449
ine	3449
▁Cathedral	3448
▁Y	3447
▁Aparthotel	3437
▁l	3426
▁Motor	3421
▁George	3419
▁People	3415
▁Fi	3396
▁Metro	3394
straat	3392
▁Library	3387
at	3387
▁Casino	3375
▁+	3374
▁Maria	3371
v	3357
▁Rock	3356
▁Parts	3356
▁Holy	3356
▁Mountain	3352
▁Play	3350
▁HD	3343
▁Engineering	3343
▁Youth	3326
▁Cloud	3326
▁Long	3323
▁Mary	3321
▁Double	3318
▁Christian	3308
▁Oil	3299
▁is	3285
▁Son	3276
▁Set	3267
▁Thomas	3264
▁Natural	3259
▁your	3255
▁Order	3250
ner	3245
ist	3242
▁Holland	3238
▁Platform	3235
▁Culture	3231
ti	3227
▁Classic	3227
▁Customer	3225
go	3215
ga	3214
ley	3212
ge	3207
▁i	3203
lin	3200
▁Congress	3200
berg	3199
ter	3193
▁Robert	3191
▁Industrial	3189
▁Ver	3171
▁Marketing	3170
▁Is	3164
▁Hill	3162
▁Contact	3161
▁Nations	3149
▁Residence	3146
▁Moon	3144
▁Or	3144
▁Convention	3118
▁airport	3114
▁Du	3113
▁Africa	3112
▁Wall	3108
▁UK	3105
▁Watch	3100
▁Asia	3096
▁Roman	3092
▁Up	3088
▁Her	3079
▁Federal	3076
▁Care	3075
▁Product	3073
▁Fashion	3073
▁n	3071
▁Cafe	3062
▁USA	3062
▁Nature	3061
▁Silver	3060
▁Unit	3058
▁Key	3052
▁star	3051
▁Bio	3048
▁Web	3048
_	3045
▁Prince	3045
▁Authority	3043
▁Mark	3038
▁Inter	3038
do	3038
▁Region	3037
▁Charles	3023
▁Organization	3015
it	3009
▁Economic	3008
▁from	3004
▁Fire	3003
▁Report	2997
mar	2997
▁Ben	2978
▁Babe	2977
▁County	2976
▁Mi	2974
▁Camp	2970
▁Islands	2969
▁Guide	2967
▁Peace	2966
me	2941
ion	2941
▁As	2941
▁Hot	2940
▁Antwerp	2939
▁Di	2939
▁Forest	2921
▁Drive	2913
▁Mo	2911
▁Marie	2909
▁Affairs	2898
▁Multi	2894
▁Hilton	2893
▁Marine	2886
▁bar	2883
▁William	2873
▁Professional	2869
▁Baby	2865
▁Winter	2864
▁Wood	2861
▁Camping	2854
▁Journal	2848
lo	2847
▁»	2843
▁Bus	2835
▁Rights	2835
▁Theater	2834
▁Manager	2831
▁BV	2831
▁Exhibition	2830
▁Event	2828
▁Orchestra	2825
▁Anti	2822
▁Pan	2822
▁at	2812
▁Little	2810
▁EU	2808
▁Capital	2802
▁Financial	2797
▁Executive	2796
▁Sales	2794
▁Costa	2793
▁Sky	2791
▁Work	2790
▁Wi	2788
▁Opera	2786
▁Country	2782
▁company	2774
▁Brown	2774
ov	2770
ul	2768
ard	2764
▁Da	2760
▁III	2760
▁Protection	2749
▁Mount	2748
▁Ocean	2748
▁Pre	2748
men	2745
▁HOTEL	2743
▁So	2740
▁Standard	2734
▁Chinese	2732
▁Bag	2729
▁Ball	2727
ten	2725
▁Administration	2723
▁Head	2722
▁African	2713
ak	2708
▁Northern	2707
▁Policy	2703
▁Railway	2700
▁Main	2700
▁Stadium	2699
sa	2688
▁Heritage	2680
ba	2678
▁Transport	2673
ve	2672
va	2670
▁Alliance	2668
▁Spanish	2666
▁Marina	2664
am	2660
▁Li	2659
O	2655
▁Side	2655
▁Band	2653
▁Can	2653
▁Tom	2651
▁Dance	2651
▁Plan	2640
▁Test	2640
▁Sol	2636
▁Good	2632
▁Louis	2624
▁Plastic	2622
▁En	2622
za	2614
▁Stainless	2612
▁Province	2609
je	2606
▁Train	2601
tel	2600
nd	2600
pa	2596
be	2596
▁region	2575
▁Chi	2575
▁Avenue	2569
ville	2568
▁Arab	2567
ism	2560
▁Action	2542
▁Beauty	2539
ki	2537
▁Limited	2527
▁Eastern	2524
▁Paper	2522
▁Christ	2522
ler	2522
▁_	2521
▁Sa	2520
▁Luxury	2519
▁Heart	2517
▁Lady	2507
mi	2505
▁Tech	2504
▁Lodge	2503
▁Christmas	2496
▁Manufacturer	2494
▁Download	2492
▁Regional	2492
▁Model	2490
▁Germany	2489
▁Solutions	2486
▁Dark	2479
mo	2477
▁Spring	2476
▁Val	2474
▁Cat	2473
▁Studies	2468
▁Days	2466
▁Ca	2466
▁Ski	2464
▁Corporation	2464
▁Featuring	2464
▁Pass	2462
▁Kit	2460
▁Technical	2458
▁Micro	2458
▁Brand	2458
sch	2457
▁Shopping	2457
▁Asian	2456
▁Mont	2455
▁More	2453
▁Anne	2450
▁Solar	2447
▁Apple	2447
▁Estate	2443
▁Spirit	2437
▁>	2437
wa	2436
he	2436
▁Week	2435
▁Cultural	2435
ek	2435
▁Southern	2434
chi	2434
▁Wire	2422
▁Motel	2422
▁Gas	2421
▁Engine	2418
▁Den	2414
▁Two	2413
que	2410
▁Private	2407
ce	2406
▁Del	2405
▁Way	2404
▁Point	2401
weg	2400
▁Eco	2394
ty	2394
▁Tube	2393
▁Pacific	2389
J	2389
▁Alexander	2386
▁CO	2380
▁Color	2380
▁Los	2379
ji	2370
un	2365
di	2365
▁Mer	2360
▁His	2357
em	2355
▁Lab	2354
▁Second	2354
▁Joseph	2350
▁LED	2348
▁See	2347
ir	2346
▁Hong	2342
▁Un	2337
▁Lounge	2336
▁Olympic	2334
▁Environment	2330
▁Military	2326
▁Wild	2325
▁Utrecht	2320
▁Ice	2317
▁Edition	2317
▁Gate	2314
der	2313
▁Cap	2312
▁Parliament	2312
by	2312
▁Facebook	2309
bo	2308
▁Am	2307
▁Lee	2306
▁Next	2300
▁Grey	2296
▁Fort	2296
▁Hi	2291
▁Automatic	2289
▁Police	2289
▁Deluxe	2286
▁Expo	2285
▁Stone	2284
▁Ka	2281
▁Jazz	2280
▁Grill	2279
ster	2274
▁May	2272
▁Urban	2271
▁Arena	2269
▁Indian	2267
▁Route	2266
▁Reserve	2266
able	2258
▁Middle	2256
ah	2253
▁Diamond	2252
▁Laser	2250
▁User	2249
ling	2244
ze	2241
▁Bureau	2241
▁India	2240
▁Manufacturers	2239
▁Frank	2239
ha	2239
▁Challenge	2237
park	2237
mann	2237
▁Te	2235
▁Roll	2235
▁Ko	2234
▁Zone	2230
▁Sam	2230
▁Movement	2230
▁Bo	2227
▁Magazine	2225
▁Chamber	2219
▁Medicine	2218
▁Jesus	2215
▁Map	2211
▁Ku	2209
▁PC	2203
▁Australia	2202
▁Revolution	2197
▁Out	2196
jo	2194
w	2189
▁Richard	2187
▁Canal	2186
▁Football	2186
▁PCB	2184
▁Glass	2182
▁Anna	2182
▁Ring	2181
▁Circuit	2179
▁Panel	2178
▁Dream	2177
▁et	2176
▁Farm	2176
▁Future	2173
▁Empire	2171
▁Single	2171
▁Camera	2169
▁Don	2167
▁Non	2165
▁Mother	2164
ol	2164
mer	2164
▁Gardens	2163
▁Universal	2162
▁Aqua	2162
▁Girl	2161
▁Italian	2158
and	2155
▁Mall	2153
▁Finance	2153
▁Experience	2152
Z	2150
▁Review	2149
▁Times	2148
line	2147
im	2132
▁Pierre	2131
▁Studios	2127
▁Summit	2126
▁Zoo	2126
▁Kong	2121
▁Child	2121
▁Sex	2118
▁Coffee	2116
▁com	2116
▁Flower	2113
▁Memorial	2113
▁Full	2109
▁Bel	2107
▁Angel	2104
gen	2103
▁Il	2102
▁Jack	2101
▁Channel	2101
▁Jo	2096
▁UN	2095
▁Victoria	2095
▁Albert	2092
▁GmbH	2091
▁Sofia	2089
▁Washington	2087
▁Small	2087
▁Enterprise	2085
▁Communication	2083
▁Competition	2080
▁Exchange	2078
▁Front	2078
▁Us	2075
▁Jewish	2075
▁Las	2073
▁Na	2072
ver	2071
io	2070
Q	2069
ment	2065
▁Via	2063
▁Field	2059
▁Magyar	2058
▁Coast	2057
▁Body	2057
▁THE	2057
▁Sound	2055
ny	2055
▁Championships	2051
net	2050
▁Tri	2047
▁Screen	2047
▁Blonde	2046
▁Cam	2039
▁Playa	2039
▁Justice	2039
▁Microsoft	2036
▁Meeting	2036
▁Architecture	2035
▁Search	2033
▁Back	2026
▁Duke	2026
▁Insurance	2026
ou	2024
▁Working	2023
ino	2023
ana	2023
▁Orange	2019
▁NL	2017
▁Ma	2015
▁Personal	2015
age	2010
▁Wind	2008
▁Android	2007
▁Japan	2000
▁IT	1998
ation	1997
▁Today	1995
▁Villas	1990
▁Website	1989
▁Official	1985
▁Tu	1983
▁Age	1981
ck	1979
▁Sant	1978
id	1976
▁California	1976
ity	1976
▁Pink	1976
▁Dog	1969
▁From	1969
▁Ad	1966
▁Dick	1966
▁Modern	1965
ant	1963
▁Battery	1963
▁Daniel	1957
▁Ha	1956
ho	1954
▁Canada	1952
▁Mai	1952
▁Now	1952
▁Café	1952
▁Song	1951
▁Tea	1946
sky	1944
▁Democratic	1939
▁Story	1938
▁[	1935
▁Phone	1935
▁Yu	1934
▁Ray	1933
▁Magic	1930
▁Shanghai	1929
▁Read	1928
▁DC	1928
ica	1927
ens	1925
ski	1922
▁Last	1922
▁Speed	1921
í	1921
▁Living	1915
▁Con	1915
▁Case	1914
▁Four	1913
▁Henry	1913
wood	1911
▁Powder	1910
▁Plant	1910
si	1906
▁Environmental	1905
▁Bad	1901
▁Course	1899
▁Internet	1898
▁Per	1898
▁Civil	1897
▁Catholic	1896
▁von	1894
tor	1894
▁Machinery	1892
▁Junior	1892
▁Trans	1891
▁Bike	1889
▁Rue	1889
▁Chat	1888
▁Logistics	1887
▁Organisation	1881
▁Trail	1879
▁Net	1879
▁Access	1878
con	1875
▁Het	1875
ham	1874
▁Kitchen	1873
▁Prix	1872
kin	1871
▁Sale	1865
▁Downtown	1865
▁Tokyo	1864
▁Flanders	1863
▁Fabric	1859
▁Die	1856
▁Ten	1854
▁USB	1853
▁End	1852
ci	1852
▁Aluminum	1851
▁How	1849
▁Su	1849
▁Greek	1847
zi	1847
▁Will	1844
▁Twin	1840
▁Other	1836
▁Cape	1835
▁Ho	1835
▁Spain	1835
▁Foreign	1834
▁da	1830
ung	1829
▁Gran	1828
▁Intelligence	1825
▁Sydney	1822
hof	1820
tra	1819
ik	1819
▁Study	1816
▁Ibis	1813
▁Gay	1812
▁Led	1809
▁Run	1804
▁Comfort	1803
▁Electronic	1802
▁Production	1802
▁Nord	1797
▁Pen	1796
▁Premium	1795
ken	1794
ig	1788
▁Delta	1788
▁Monte	1787
▁Dam	1782
▁Class	1782
▁Mill	1781
▁Imperial	1781
▁Princess	1780
ron	1780
▁List	1779
▁Pack	1778
Y	1778
▁Canadian	1777
▁Mountains	1774
▁Face	1773
▁Walk	1773
▁Local	1770
▁Climate	1770
▁Display	1767
ang	1764
▁Shenzhen	1763
▁Horse	1762
▁Word	1762
▁Trust	1760
▁Operation	1760
▁AC	1758
▁Hague	1758
▁Wine	1757
▁Israel	1756
▁Lu	1755
▁Quick	1754
one	1753
bar	1753
▁Swiss	1753
▁Description	1752
▁Cotton	1752
▁Tourism	1751
▁Pool	1750
up	1750
▁Sweet	1750
▁Tree	1749
▁Dr	1748
▁Han	1748
▁Partners	1746
cha	1745
▁Guesthouse	1745
lu	1741
che	1741
▁Kids	1740
▁Crystal	1733
▁Here	1731
▁Click	1728
▁Gift	1726
ier	1723
▁Navy	1722
▁Porn	1721
▁Fine	1721
don	1721
▁Singapore	1719
▁Freedom	1717
▁Events	1716
▁Wireless	1714
▁LTD	1714
▁Hub	1713
▁Three	1712
▁Hôtel	1712
▁Ass	1711
ite	1710
▁Smith	1709
▁Hans	1707
▁Blu	1707
▁Fu	1706
▁Base	1706
▁England	1705
▁Change	1704
▁Bell	1701
po	1697
▁Pearl	1697
▁Far	1694
vi	1694
▁Rio	1693
less	1689
ius	1689
hotel	1689
▁Ni	1686
▁Moscow	1686
▁Corps	1686
▁Hair	1686
▁Chain	1685
field	1685
▁Nice	1684
▁Sint	1684
▁Sub	1684
▁Packaging	1682
▁Daily	1675
▁Commerce	1673
▁Beer	1672
ita	1672
hi	1671
▁What	1669
▁Paradise	1667
▁Faculty	1666
au	1665
▁Furniture	1664
▁Price	1663
▁Mas	1663
▁Self	1658
gi	1656
▁Vienna	1655
▁Dar	1654
▁Atlantic	1653
the	1652
▁Outdoor	1652
▁Tool	1651
▁Valve	1650
▁Over	1648
▁Forces	1647
▁She	1645
ella	1642
▁Guard	1641
ies	1637
▁Dragon	1636
▁Islamic	1632
▁Account	1630
▁Dubai	1630
▁Hand	1624
▁Sustainable	1623
▁apartment	1623
▁Bedroom	1622
▁Ali	1622
▁Flight	1622
▁Partner	1621
▁Lion	1620
per	1618
▁Pop	1617
▁Most	1615
ut	1612
ad	1612
▁Ge	1611
▁Ghent	1609
▁festival	1606
▁Yoga	1606
▁Built	1604
fa	1602
▁Get	1602
▁Pet	1601
▁Construction	1601
▁Eye	1601
▁Let	1601
bu	1601
▁Records	1598
▁Flemish	1597
▁Iron	1596
car	1594
▁Ireland	1594
ini	1593
▁Fan	1592
▁Supply	1591
▁Storage	1591
▁Yellow	1591
▁Buy	1590
laan	1589
▁Student	1589
▁v	1588
han	1588
▁Soul	1585
ber	1585
▁Bob	1585
▁Boy	1583
▁Galaxy	1583
▁Race	1583
U	1582
q	1582
▁Po	1582
ger	1580
▁CNC	1579
est	1579
▁English	1579
▁Vision	1579
▁Flowers	1578
▁Australian	1577
▁Abbey	1576
▁Polish	1576
ey	1576
ix	1576
▁Table	1574
▁Brunette	1574
▁Supreme	1574
zo	1571
▁Ford	1568
▁SA	1568
pe	1566
▁Beijing	1565
▁Part	1565
les	1560
▁Computer	1559
▁Third	1559
fer	1554
▁Dan	1552
▁Snow	1550
▁Ar	1550
▁Marriott	1549
▁Touch	1548
▁NV	1547
▁Call	1544
▁Simon	1543
▁Chicago	1542
▁FC	1542
ker	1540
▁About	1538
tic	1536
▁Type	1535
du	1535
▁Japanese	1534
▁Campus	1534
▁Initiative	1529
▁Ultra	1527
▁Mission	1527
▁area	1526
ano	1525
house	1525
▁Boat	1524
▁Laboratory	1524
▁den	1522
▁Like	1522
▁war	1518
ish	1516
▁Lord	1514
▁Col	1513
▁Abu	1512
ara	1511
▁Suppliers	1508
▁SS	1508
▁Russia	1507
rd	1506
tal	1505
▁Fast	1503
▁Pipe	1503
▁Pin	1502
▁Harbour	1501
▁Custom	1501
▁Advanced	1495
▁Friends	1495
▁Nova	1495
▁Total	1495
▁Johnson	1495
▁Jet	1492
▁Happy	1488
▁Maison	1488
▁Rod	1486
▁Parc	1484
▁house	1483
lan	1483
▁Win	1481
▁Gen	1480
▁hotel	1479
▁Performance	1479
▁Bird	1475
▁non	1475
▁Adam	1474
▁Joint	1474
▁Secret	1474
▁Jacket	1474
▁Planet	1473
▁Terminal	1472
▁Lo	1466
▁IV	1465
▁Marc	1465
▁Defense	1460
burg	1459
▁Fun	1456
▁Mediterranean	1456
▁Rome	1454
yn	1454
▁Bon	1453
▁«	1453
art	1452
▁Tai	1451
ria	1450
mon	1450
▁sterren	1449
▁Cha	1446
▁Annual	1446
▁Cutting	1445
▁Shi	1444
▁Ya	1442
▁Palm	1441
▁Kim	1441
▁Tank	1440
▁Property	1440
ford	1439
▁Investment	1438
ot	1438
ev	1437
▁Leather	1436
▁Off	1433
▁Mor	1431
way	1430
▁Server	1429
▁Hard	1429
▁Pump	1429
ola	1427
uk	1427
▁Strategy	1425
▁Formula	1424
▁That	1424
▁Boulevard	1424
▁Mon	1424
▁Mode	1423
huis	1421
ach	1420
▁Truck	1418
bel	1417
▁Accessories	1416
▁Maritime	1414
▁March	1413
▁Ban	1413
▁Michel	1411
▁Electronics	1411
▁Economy	1411
▁Corporate	1410
▁Register	1409
▁Page	1409
▁Legal	1408
▁Kar	1407
▁am	1406
▁Girls	1405
▁Za	1403
▁Berg	1402
\\	1402
▁Anal	1400
▁Alex	1397
tech	1397
▁Agriculture	1396
bi	1394
▁Scientific	1394
tec	1393
▁Bi	1392
▁Take	1392
▁Portal	1391
vo	1391
yan	1390
▁Fox	1388
▁le	1387
▁Melbourne	1386
▁Survey	1386
rin	1385
▁Easy	1384
▁Adventure	1383
▁Eindhoven	1382
▁Style	1382
gan	1381
▁Piano	1379
▁Monument	1379
▁Latin	1379
▁Wellness	1377
▁Bill	1377
▁Premier	1377
▁Marathon	1377
▁Core	1376
▁Racing	1376
▁Sha	1375
hu	1375
▁SC	1374
▁Death	1374
▁Si	1373
▁Pi	1373
▁Mega	1372
▁Mc	1370
▁Concert	1370
▁Use	1369
▁Economics	1368
▁Trading	1368
res	1367
▁Truth	1367
cho	1366
▁Har	1364
▁Link	1363
▁Symphony	1363
▁Floor	1362
▁Apart	1361
▁Code	1359
ting	1358
▁Par	1358
▁all	1358
▁Delft	1357
á	1356
▁CD	1354
▁Turkish	1354
▁Irish	1354
▁Manual	1353
sh	1351
ven	1351
ER	1351
▁Cala	1351
▁Disney	1350
▁Nu	1350
▁Maastricht	1349
▁Leiden	1349
ette	1348
▁Scott	1348
▁road	1347
▁Communications	1346
▁Tools	1346
▁world	1345
ts	1345
▁Learning	1345
plein	1344
stra	1342
▁Language	1341
▁Samsung	1339
▁Bal	1338
▁Budapest	1338
qui	1337
▁Carbon	1337
▁Sheet	1337
ness	1337
▁Masters	1335
▁river	1334
▁Are	1334
ska	1333
▁Mat	1332
▁Creative	1332
▁Ana	1332
▁File	1330
▁my	1329
▁Heat	1329
▁WiFi	1327
▁Add	1327
▁Thai	1326
▁Nederland	1326
▁Deep	1325
▁Ro	1323
▁Amazon	1323
▁Down	1321
▁Champion	1321
op	1321
▁Original	1321
▁Joe	1321
▁Des	1321
▁Ke	1320
▁Interior	1320
▁Juan	1319
▁Name	1318
ex	1318
▁Bor	1318
▁Rail	1317
▁Virgin	1316
so	1316
ING	1314
▁After	1313
▁Virtual	1313
▁Museo	1313
ate	1313
▁Shell	1313
▁Member	1312
▁Tours	1311
▁Salon	1310
▁Stars	1309
▁Tor	1308
▁Flat	1306
▁Chris	1305
ru	1305
▁Czech	1304
▁Bosch	1304
▁Dublin	1304
▁Printing	1303
▁Beautiful	1303
ent	1302
▁Francisco	1302
▁Woman	1298
▁]	1297
▁Chair	1297
▁Mad	1297
▁Track	1295
▁Player	1295
nes	1294
ura	1290
tz	1290
ary	1289
▁Rentals	1289
▁AG	1289
▁Switch	1287
▁Supplier	1287
▁Hydraulic	1286
well	1285
▁Together	1285
▁Mail	1283
▁Direct	1282
▁Wolf	1281
▁PVC	1280
▁Ber	1280
▁Animal	1280
▁Connect	1279
▁Lock	1278
▁Circle	1278
▁Ann	1278
▁Works	1277
ong	1276
▁Commercial	1275
▁valley	1274
ich	1273
▁Advisory	1273
▁Caribbean	1273
tu	1273
stein	1272
▁Sand	1272
▁Milan	1271
iya	1270
▁Entertainment	1269
ll	1269
▁Para	1268
▁Wheel	1268
▁Terrace	1268
del	1268
▁no	1267
▁Mal	1267
om	1266
▁Consumer	1262
▁Founded	1262
▁Château	1261
▁Wars	1261
enberg	1261
▁stars	1261
▁Workshop	1260
▁district	1259
▁Es	1259
▁Zuid	1258
▁Brigade	1258
▁sur	1257
▁Stichting	1257
▁Arc	1257
▁Short	1256
▁XL	1254
▁Command	1254
▁Mid	1253
▁Operations	1251
▁Tourist	1251
▁Rental	1251
van	1249
▁Mu	1248
▁Pa	1248
ros	1247
▁Round	1247
▁Door	1246
▁Ba	1246
▁Op	1245
tre	1245
▁beach	1244
▁Ash	1244
▁Europa	1243
▁Seven	1242
▁do	1241
▁Monastery	1240
era	1240
bra	1239
▁Corner	1238
▁Embassy	1237
▁Lighting	1237
▁Hamburg	1237
sk	1235
vin	1234
ó	1234
▁Fish	1234
▁Radisson	1233
▁Client	1232
side	1232
we	1231
▁Lyon	1230
▁Stock	1230
▁Final	1229
▁property	1229
▁Ju	1229
▁Mesh	1229
▁Porto	1228
kan	1226
▁Historical	1226
I	1225
▁Patrick	1225
▁Audio	1224
▁Fiber	1223
▁Bos	1222
▁Brabant	1219
▁Houston	1217
com	1216
▁Vincent	1215
▁Material	1213
▁Ter	1213
bach	1211
▁Info	1211
▁Electrical	1210
ika	1210
▁Movie	1210
▁Dom	1208
ive	1208
▁Technologies	1207
▁Basilica	1205
▁Active	1205
ium	1204
ova	1204
▁Geo	1204
▁DE	1203
val	1203
▁Complex	1202
▁building	1201
▁Chapel	1201
▁Mars	1199
▁Upper	1199
▁Ex	1199
▁Stage	1199
▁Patch	1199
▁Der	1198
▁Min	1197
▁Gulf	1196
▁PRO	1196
ep	1194
▁Italy	1194
▁Sar	1194
▁Independent	1193
ju	1193
▁Not	1192
▁Guangzhou	1192
▁IP	1191
ij	1191
▁Pad	1191
ez	1191
▁Cinema	1191
dy	1190
▁Superior	1189
▁Au	1189
▁Ed	1188
gel	1188
▁Highway	1187
▁Cool	1187
tan	1187
▁Benelux	1186
▁Bags	1185
▁Kings	1185
▁Luxembourg	1184
▁Neo	1183
▁Stand	1182
▁Willem	1182
▁Pension	1182
▁Process	1182
▁Grande	1182
▁June	1182
▁Swedish	1179
▁Skin	1179
▁Eric	1179
▁Version	1179
▁Bath	1179
▁Erasmus	1179
▁Pure	1178
▁Who	1177
▁Cover	1176
▁Brake	1176
ab	1176
▁Pay	1175
▁Er	1175
ac	1175
▁FM	1174
zen	1173
▁Mike	1173
▁Blood	1173
▁Xiaomi	1173
­	1172
▁Flex	1171
▁Companies	1171
▁Discover	1170
▁Replica	1170
▁Medal	1169
▁Brothers	1169
▁Voice	1169
▁Rent	1169
port	1168
▁Automotive	1167
▁Number	1167
▁nl	1166
▁Start	1165
▁Safe	1165
▁Bur	1165
▁Florence	1164
▁Image	1164
▁event	1164
▁Gray	1163
ns	1161
▁Bella	1161
▁Edward	1160
▁Mind	1160
▁Tim	1160
▁Crane	1159
▁Jacob	1159
▁Rain	1159
▁Source	1158
▁Var	1158
▁Select	1158
▁Tax	1157
▁Chemical	1156
▁Pu	1155
▁Cruise	1155
▁Hof	1153
▁Applied	1152
▁Tan	1152
▁Andrew	1152
▁Five	1152
▁Ham	1150
▁Wedding	1150
▁Hills	1149
▁Ken	1148
▁ID	1148
▁Maintenance	1148
▁Philips	1148
▁Karl	1147
bert	1146
▁Manufacturing	1146
▁Cal	1146
ero	1146
▁Diesel	1144
▁Bear	1142
▁Clinic	1142
▁Archives	1141
▁Contemporary	1141
▁Blog	1141
▁Atlas	1141
▁Ger	1140
▁Guy	1139
▁Cyber	1138
box	1138
▁Under	1138
▁Budget	1138
mont	1136
▁Venice	1136
▁Historic	1135
▁DJ	1135
▁Monitor	1134
▁Remote	1133
dal	1133
▁Jane	1132
▁Stop	1131
ran	1130
▁Job	1130
▁Talent	1129
▁Making	1128
▁Transfer	1128
▁Retail	1127
▁Gun	1126
lon	1126
▁Linux	1125
▁Driver	1124
ud	1123
▁Antonio	1123
▁Quartet	1123
▁Gel	1123
ray	1122
▁Device	1121
án	1120
▁Bra	1119
▁Pont	1118
▁Wholesale	1118
▁Cabinet	1118
▁voor	1117
ā	1116
▁Fur	1116
▁Dead	1114
▁Plate	1114
▁Low	1113
▁Novotel	1111
▁Large	1109
▁Find	1109
▁Korean	1109
▁Planning	1108
▁Vintage	1108
▁Jones	1108
dan	1108
▁Ci	1107
gar	1107
▁Jin	1107
▁Aviation	1106
▁Charger	1105
▁Cave	1105
▁that	1104
▁Francis	1104
▁Sierra	1104
▁Triple	1104
▁Turkey	1103
▁Recovery	1103
▁Riad	1103
▁Years	1102
▁Edinburgh	1102
▁Philip	1101
▁Level	1101
▁Kai	1099
nik	1099
▁Mercedes	1099
▁Hat	1098
▁Yo	1098
▁Ron	1097
▁Shoes	1096
▁Solo	1096
▁Boston	1096
ney	1095
▁Books	1095
▁Forming	1094
▁Filter	1094
▁Tar	1094
▁Cold	1094
▁Repair	1093
▁Father	1093
▁Welding	1093
▁Metropolitan	1092
▁Right	1092
▁Knowledge	1091
▁Poly	1089
▁Block	1088
▁Noord	1086
▁Heaven	1086
star	1085
▁Ticket	1084
▁Eva	1084
▁Mass	1083
▁Theme	1083
dar	1083
▁Taylor	1082
ft	1082
ida	1082
▁Relations	1082
▁Nan	1082
▁Flash	1081
▁Lost	1081
▁Kiev	1081
▁party	1081
▁Parking	1081
▁Processing	1080
▁Renovated	1080
▁Mirror	1079
▁Bible	1078
▁Fitness	1078
▁Gar	1078
▁Rice	1078
▁September	1076
▁Sal	1076
▁Vacuum	1076
▁GT	1075
▁Roller	1075
▁x	1074
▁Med	1074
▁el	1074
▁Near	1074
▁Peninsula	1074
▁Campaign	1074
ari	1072
bre	1072
▁Elite	1072
▁Teen	1071
▁Crown	1071
▁Aquarium	1071
▁Silicone	1070
▁Vehicle	1069
▁Madrid	1068
▁Shipping	1067
▁re	1066
cher	1066
▁Joy	1065
▁Salt	1063
ert	1062
▁Cell	1060
▁Trio	1059
if	1059
▁Leave	1059
▁Major	1059
▁Mosque	1059
▁Rosa	1058
▁Marco	1058
ram	1058
ists	1058
▁Squadron	1057
let	1057
▁Tournament	1056
bank	1056
▁Visa	1056
▁book	1056
cia	1056
▁Belt	1055
▁Ferry	1054
▁Cu	1054
▁Steve	1053
▁Prophet	1053
▁Victor	1052
▁Soft	1051
▁Zoom	1051
▁Matt	1050
▁Rubber	1050
▁Texas	1049
ula	1049
▁Ville	1049
▁Sur	1048
▁Municipal	1048
▁Lane	1047
▁Pod	1046
▁Alice	1046
▁Edge	1045
IN	1045
▁Well	1045
▁Application	1044
▁club	1044
▁Foot	1043
▁award	1043
shi	1043
▁Hal	1042
▁Belle	1042
▁Pier	1041
chen	1040
tin	1040
ef	1040
▁Gear	1039
▁Hy	1039
ai	1039
ance	1039
▁mountain	1038
▁Money	1038
ell	1038
à	1038
har	1037
▁Alanya	1037
▁Rob	1036
min	1035
▁Contest	1035
▁Athens	1035
▁True	1035
▁Bull	1035
▁Just	1034
▁Leuven	1034
stone	1033
▁Fly	1033
▁Elizabeth	1033
ku	1032
▁Welcome	1032
wan	1031
▁Ce	1030
▁Defence	1030
▁Zen	1030
▁Lamp	1030
▁Nederlands	1029
▁Controller	1029
▁Turn	1029
▁Cancer	1029
▁Ra	1029
▁Puerto	1027
off	1027
▁Dancing	1027
elle	1027
Bedroom	1026
▁Desk	1026
▁Fall	1025
▁Generation	1025
▁Hack	1024
ú	1022
▁Xi	1022
▁Harry	1022
▁Uni	1021
▁Ram	1021
can	1020
▁Reservation	1020
▁Groningen	1020
▁Cycle	1020
tion	1020
▁Bas	1019
▁Bat	1018
▁Agricultural	1017
▁Credit	1017
▁Berry	1017
▁Meet	1016
▁Orthodox	1016
fi	1016
▁Artist	1016
▁Philippe	1015
kov	1015
▁Mare	1014
▁Profile	1014
▁Basic	1014
▁Labour	1014
▁Cream	1013
▁Com	1013
▁Bachelor	1013
▁Jordan	1013
ee	1013
▁Save	1011
dia	1011
▁Tiger	1011
▁Content	1010
▁Six	1010
▁Jim	1009
▁Manchester	1009
▁Zero	1009
▁Bali	1008
▁Observatory	1008
▁Lou	1008
▁HP	1008
rie	1007
▁Leadership	1007
▁Export	1007
▁BC	1006
▁Regiment	1005
▁Ancient	1005
▁Ship	1005
pi	1004
▁Kon	1003
▁Help	1003
▁Angeles	1003
▁park	1003
▁Fit	1002
jan	1002
–	1001
▁Chateau	1000
▁Visit	1000
▁Kan	1000
▁Leisure	1000
▁Shin	1000
ada	1000
▁Accommodation	999
▁Gor	998
▁Perfect	998
▁Limburg	998
▁Jr	997
▁Tag	996
▁Wing	996
▁Bernard	996
▁Package	996
▁Municipality	995
▁Terra	995
zer	995
▁Made	995
▁Wave	994
▁Path	994
▁m	993
ren	993
ira	993
▁Television	993
▁BMW	993
▁Hu	993
AL	992
shan	992
▁MS	991
board	991
▁Stay	991
▁Gent	990
▁Wu	990
▁Valencia	990
▁Benz	989
▁Branch	989
▁you	988
▁Sen	988
▁Cycling	988
▁July	988
▁Each	987
pen	987
▁Mobility	987
▁Lisbon	985
san	985
OR	985
▁Hart	985
ea	984
▁Terms	984
▁Tele	984
▁Ai	984
▁Cooperation	983
ani	983
▁Ton	982
▁Photography	982
▁Homes	982
▁August	981
▁Scan	980
lis	979
▁Ch	979
▁IN	979
▁Frankfurt	979
▁Consulting	978
sha	978
▁Range	978
▁Tel	978
▁Motion	978
▁Make	977
▁Only	977
▁Vi	976
▁Mercure	976
oni	975
▁Pat	975
▁Lamb	974
▁Yi	974
▁Charlie	974
▁Century	971
▁Renaissance	971
▁Dress	969
IT	969
▁Taxi	968
▁Chiang	968
▁Matthew	968
▁Stephen	967
link	966
▁Muslim	966
more	966
▁Carl	966
▁Bol	966
▁Cooling	966
all	965
▁Poland	964
▁Flame	964
ag	964
▁Walter	963
▁Prague	963
▁Sheraton	962
▁Visual	962
▁Fresh	961
eau	960
▁Chocolate	960
▁Ghost	960
▁b	959
▁Leo	959
town	959
▁Monitoring	959
▁Label	958
▁Generator	958
▁Toronto	957
ena	957
▁Robot	957
dam	956
▁Arthur	955
sol	955
▁Riviera	955
▁Pra	955
cal	954
▁Industries	954
▁Gal	954
▁Ly	953
▁Bach	953
▁Amateur	952
▁Ross	952
▁Alpha	952
▁́s	952
▁Polo	952
dale	952
ous	951
▁Hope	950
▁Underground	950
▁Kunst	950
▁GPS	950
ris	948
▁Baron	948
ow	947
enburg	947
▁Cutter	947
▁Aero	947
▁Bottle	946
ban	946
▁Strategic	946
▁Islam	945
▁Analytics	945
▁Korea	944
▁Hua	944
kar	944
▁Fruit	942
▁Ze	941
▁Divine	941
▁Toys	940
her	940
▁Workers	940
haus	939
▁Jacques	938
▁Ebony	938
▁Sat	938
▁Leon	938
▁Wa	937
▁Ol	936
day	935
▁Mexico	935
▁Partnership	934
▁Centro	934
▁Kara	933
head	933
▁Vista	933
▁Sim	932
ane	932
▁Danish	931
▁Ker	931
▁Print	931
▁Season	931
▁Risk	931
▁Eden	929
▁Township	928
▁Flow	928
▁Sign	927
▁Male	927
▁Clean	926
▁Campsite	926
▁Miami	926
▁Step	925
▁Agencies	925
▁Bucharest	925
▁—	925
▁Markets	924
▁Sara	924
▁Architects	924
▁Date	923
▁Dome	923
ay	922
rs	922
ap	921
▁Quarter	921
▁Weather	920
sin	920
▁Lift	919
▁Communist	919
▁Milk	919
▁village	918
▁Coin	917
▁his	916
▁Ga	916
▁Poker	916
▁school	915
▁Check	915
fe	915
sche	915
▁Pavilion	915
▁EP	914
▁Features	914
▁Bangkok	914
▁Ground	913
▁Outlet	913
▁Luc	913
▁Bou	913
tro	913
▁Machines	913
▁Choice	912
▁Munich	912
▁Knight	911
▁Bu	911
▁Machining	910
▁Desert	910
▁Palais	910
▁Boys	909
▁LA	909
ien	908
▁Dial	908
▁Organic	908
▁Hollywood	908
▁Wat	907
▁Creator	907
▁Tin	907
▁Brewery	907
▁HR	906
▁Sarah	906
▁Kin	906
▁DVD	906
fu	906
▁Pieter	905
▁Ensemble	905
▁Bet	904
▁Rates	904
▁Candle	904
dra	904
▁Se	903
▁Storm	902
▁Doctor	902
▁Bang	901
▁Popular	900
▁Resid	900
▁Char	900
▁Bluetooth	900
▁Socialist	900
▁Healthcare	899
out	899
▁Hook	899
▁Cottage	899
▁Bit	898
▁Zee	898
▁Creek	898
▁Continental	897
▁Valentine	897
▁Bowl	897
▁Emergency	896
▁Customs	896
fo	896
▁Bruges	896
▁Austria	895
▁Logo	895
▁Form	895
len	894
▁Task	894
▁Brass	893
▁Centrum	893
▁these	893
▁Anthony	893
▁Cemetery	893
▁Ballet	892
▁Flag	892
▁Omega	892
▁Was	892
▁Hell	892
▁Housing	891
pu	891
▁Share	891
▁Toy	891
▁Liverpool	890
▁If	890
▁Johan	889
▁Rhine	889
▁Things	888
ans	888
olo	886
af	886
cy	886
▁Analysis	886
ring	885
▁Vin	885
▁Cor	885
▁Ja	884
▁Eve	884
▁Tony	883
▁Ren	883
▁Neu	883
▁Lisa	883
▁Horn	882
▁new	882
▁Williams	881
sson	881
▁Dong	881
▁Flying	881
ding	880
▁AB	879
▁Infantry	879
▁Barbara	878
▁Labor	878
▁Goji	878
▁Sri	878
eng	877
mans	876
ona	876
▁Trip	876
▁Ros	876
▁Buddha	875
▁Lac	875
▁Location	875
long	873
▁Index	873
▁Wal	873
▁Inspection	873
▁Rich	872
▁Journey	872
▁co	872
▁c	871
▁Audi	871
bus	871
▁Follow	870
▁à	870
▁Torre	870
▁Hydro	870
▁Excellence	870
▁province	869
▁Bush	869
▁Fat	869
▁Left	869
▁Courtyard	868
ize	868
▁Resources	868
▁Precision	867
▁Count	867
nia	866
▁VI	865
▁Resolution	865
▁Conditions	865
▁Koh	864
▁OS	864
▁Connector	864
▁Mag	864
â	864
▁Converter	863
▁Luna	863
▁Cleaner	863
▁Directorate	862
▁Jon	862
▁rue	862
▁Dry	861
▁Sensor	860
▁Liberation	860
▁Kelly	860
▁Higher	859
▁Ny	859
▁Explorer	859
▁Instagram	858
▁Grace	858
▁Vol	857
▁Lang	857
▁Nation	857
▁Jam	857
▁Chalet	856
▁Cleaning	856
▁Florida	856
▁José	856
▁Pal	855
▁PDF	855
▁Orlando	854
▁Operating	854
▁Archive	854
▁Lin	854
▁Palazzo	854
▁Loop	854
▁Mask	854
tus	854
▁Log	853
ure	853
▁Latest	852
▁Fleet	852
▁Nobel	852
▁Phoenix	852
▁Coat	852
▁Nest	852
▁anti	852
▁Ta	852
▁Cash	852
ology	851
▁Khan	851
▁Engineer	851
pro	851
▁Towers	850
▁Materials	850
▁Sunday	849
▁Note	849
▁Phil	849
▁Airlines	849
▁Window	848
▁Aid	847
▁MA	847
ping	846
▁Brain	846
▁YouTube	845
▁Jay	845
▁Picture	845
▁Oak	845
▁Soviet	845
ste	844
zel	844
ning	843
▁Falls	843
▁Alpine	843
▁Subway	843
ES	842
▁Roof	842
▁Rotary	842
▁Oxford	842
▁Olive	842
▁Ultrasonic	842
▁Assessment	841
▁Clock	841
air	841
▁Hungarian	841
Re	841
▁Hunter	840
î	840
elli	840
▁Printer	840
▁Tennis	839
ele	839
▁Lower	838
gue	838
yo	838
▁Liberty	838
shop	838
▁Nick	838
▁Automation	837
▁Parade	837
iz	837
▁Carlos	837
▁Sofa	837
▁Kor	837
▁MC	836
pp	835
▁Bond	835
▁Greater	835
▁Louise	835
▁Fountain	835
▁Glen	834
▁Lan	834
for	834
▁Oriental	834
▁Come	833
▁iPhone	833
▁Rescue	833
▁Ivan	832
▁Bart	832
▁Conservatory	832
▁Points	832
dijk	832
▁ISO	831
▁Safari	831
▁Textile	831
▁Nieuwe	830
▁Palma	830
▁Cars	830
▁und	829
▁Half	829
▁Advertising	829
▁Wan	828
▁Nutrition	828
▁Lloyd	828
▁Dual	828
var	828
▁Wo	828
ello	828
▁Rally	827
Ö	827
ela	827
▁Module	827
▁day	827
▁Jar	826
▁Austin	826
▁Kal	826
▁Therapy	826
▁Israeli	826
▁Bin	825
▁Cities	824
▁Henri	824
▁be	824
ón	823
▁Apk	823
▁Brazil	823
▁Discovery	823
▁Schools	823
▁Morgan	822
CO	822
win	822
▁year	822
▁Tulip	821
▁Piazza	821
▁Tre	821
ries	821
▁Earl	821
ok	820
▁Infrastructure	820
▁Foam	820
▁Atelier	819
▁Has	819
▁Ki	819
▁Grant	819
In	818
▁Mel	818
▁Ur	818
▁Memory	818
lot	818
dor	818
▁Cast	817
ijn	817
▁François	817
▁Egg	817
▁Fer	817
▁Roger	817
ated	816
▁Solution	816
▁Close	816
▁Walking	816
▁Pizza	815
▁Every	815
▁Vo	815
▁Panorama	814
▁Shield	814
▁Morning	814
▁Snapshot	814
▁Nicholas	814
▁Fence	813
▁Montreal	813
▁Ji	813
▁Carnival	813
▁Wil	812
bal	812
skaya	812
▁Apollo	811
▁Yacht	811
mark	811
▁Rapid	811
▁Lights	811
▁Petit	811
▁Duo	810
▁Weekend	810
▁Amstel	810
▁Calendar	810
▁Bass	810
▁Laura	810
▁les	810
gu	810
ians	809
▁Silicon	809
▁Bre	809
tte	809
▁Loft	809
ence	809
▁Such	809
su	809
▁Shower	808
tis	808
▁Greece	808
▁André	808
▁Slim	808
▁Ultimate	807
▁Allactionhost	807
▁Copper	806
▁Emirates	806
▁Petersburg	806
▁ING	806
▁Gaming	806
ED	806
des	806
Trains	805
▁Waste	805
▁Drug	805
▁SD	805
▁GB	805
▁Domaine	805
▁Mir	805
▁Charlotte	805
yu	804
▁Boots	804
hua	804
▁Employment	804
▁Copenhagen	804
▁Sacred	804
▁Palestinian	804
ng	803
▁Properties	803
▁Vila	803
▁Hor	802
▁Early	802
▁Indoor	802
▁Talk	801
par	801
▁Cube	800
▁Selection	800
ene	799
ub	799
▁LLC	799
▁Otel	799
▁Twitter	799
uri	798
met	798
▁Sandy	798
light	798
▁Coral	797
▁Oscar	797
▁Geneva	796
▁Restaurants	796
▁Carlton	796
▁Tape	796
▁Cord	796
▁Conservation	795
▁Maas	795
▁Political	795
wi	795
▁Moto	794
ware	794
▁Ladies	794
ff	794
▁Blues	793
▁Renault	793
▁Cookie	793
▁Dame	793
rum	792
ı	792
▁Dinner	792
mat	791
▁Compact	791
▁Concerto	791
end	791
▁Lite	790
▁Expert	790
▁Tur	790
▁any	790
▁Kom	790
▁Java	790
▁These	790
▁Dor	789
▁Canon	789
▁API	789
▁Directors	788
▁Jackson	788
▁Forex	788
▁Bistro	788
vis	788
▁Volvo	788
▁Quest	787
▁Fred	787
tur	787
▁Est	787
▁Located	787
ye	787
▁Surf	786
▁Nylon	786
▁Delivery	785
▁Ober	785
▁Sunny	785
▁Riga	785
▁Tab	784
▁Sin	784
▁CA	784
yl	784
▁Outlook	783
▁Sleep	782
ball	782
▁Backpackers	781
bin	781
▁Vis	781
▁Pride	780
▁Trophy	780
▁Pope	780
▁Cargo	780
▁Polyester	780
▁Internal	780
▁prize	779
▁Cock	779
▁Ser	779
▁Warsaw	778
▁Gym	778
▁Testing	778
▁Both	778
▁Jong	778
▁Cola	778
▁Silk	777
ful	777
▁Cruz	777
▁Shadow	776
ink	776
▁Facility	776
▁Hyatt	776
▁Warehouse	775
▁Coalition	775
▁pro	774
ator	774
▁Pictures	773
▁Universe	773
▁Distribution	772
▁Academic	772
▁Lot	771
▁Certificate	771
▁Zealand	771
▁Portuguese	770
book	770
▁Norwegian	770
▁Douglas	770
▁Host	770
▁Emma	769
▁Inner	769
▁Border	768
▁Ark	767
▁Venus	767
▁Clothing	767
▁Stockholm	766
▁Apartamentos	766
ble	766
▁Pas	766
▁Punta	766
▁g	765
▁Vest	765
▁APK	765
▁Ukraine	765
zu	765
▁Mens	765
sta	764
▁Chang	764
▁Oost	764
▁Maya	764
▁SP	763
▁Blanc	763
▁Congo	763
▁ST	762
hal	762
▁Wilson	762
▁Bot	762
lab	762
tes	761
ship	761
▁Easter	761
▁MP	761
▁Sons	761
▁Jews	760
▁Solid	760
▁Schiphol	760
▁Tunnel	759
▁Alps	759
▁Nike	759
▁Cook	759
▁Also	759
▁Certification	758
▁Istanbul	758
▁Independence	758
▁CC	758
tar	758
▁Kate	757
din	757
▁Bert	757
▁Messe	757
▁Rad	756
▁AM	756
▁Parque	756
▁Author	756
view	755
▁Catherine	755
▁Naval	754
▁Pub	754
▁Thermal	754
▁Manor	754
ization	754
ise	753
▁Columbia	753
▁©	753
▁Aluminium	753
▁Pot	753
▁Menu	753
▁Worldwide	753
▁Chef	753
feld	752
▁Miller	752
▁Jersey	752
▁Look	752
▁Ride	752
▁Sugar	752
▁Gu	752
▁Wool	751
▁Champions	751
▁Cards	751
▁Standards	750
▁Messenger	750
▁ICT	750
▁PP	750
▁Packing	750
sel	749
▁Nor	749
back	749
nie	749
▁PE	749
▁Raw	749
▁Sultan	749
▁Strip	749
pin	748
▁Isle	747
▁Philharmonic	747
▁Senior	746
▁Return	746
bahn	746
▁Join	745
tie	745
▁PA	745
▁Marcel	744
▁Integration	744
▁Dive	744
▁Desktop	744
▁Motors	743
▁Disc	743
▁Nicolas	743
▁Zo	742
▁Zurich	742
▁Brasserie	742
▁Im	742
eh	741
▁Button	741
▁Harbor	741
tos	741
▁Surface	741
▁Pol	740
▁Banking	740
▁Nuclear	740
▁Choir	740
▁Sainte	740
▁Cologne	740
▁Bathroom	740
▁Gateway	739
▁Creation	738
▁Projects	738
▁Ye	738
▁Staff	738
▁Ru	737
▁Expedition	737
▁Roy	737
▁Passion	736
▁Kas	736
▁Kos	736
▁Elisabeth	736
▁Sud	736
▁Monster	736
ico	735
▁Eagle	735
▁Honda	735
▁CH	734
▁Integrated	734
▁Say	734
▁Roma	734
▁Vietnam	734
▁Rural	733
▁Transportation	733
▁Alfa	733
▁Tru	733
▁Born	733
▁Ab	733
Intercontinental	733
▁Tap	732
▁Herman	731
▁Dallas	731
▁Hai	731
▁Meer	731
▁Spot	731
▁Herberg	731
▁Samuel	730
▁Semi	730
▁Optical	730
oli	730
▁Month	729
▁Pattaya	729
▁Bee	729
illa	729
▁Shirt	729
point	729
mel	729
▁Mil	728
▁Teatro	728
▁Carpet	727
▁Ky	727
eck	727
▁Tropical	727
anda	727
▁Testament	726
nis	726
▁Gogh	726
▁Mur	726
▁Wooden	726
lar	726
▁Reg	725
▁Benjamin	725
▁Record	725
▁Lux	724
▁Hero	724
▁Newsletter	724
▁Autumn	723
▁Flooring	723
▁Eu	723
pan	722
▁street	722
▁Robin	721
gate	721
▁Giant	721
tje	721
▁Statistics	720
▁Tro	720
▁Julia	720
▁Syrian	720
▁Sony	720
▁Mono	720
▁Clear	720
ese	719
▁Dur	719
▁Nicole	719
▁Gil	719
▁Carmen	719
▁exit	718
▁Klein	718
▁Mine	718
▁Cho	718
▁Engineers	718
▁Frame	717
▁Domain	717
▁Holidays	717
▁Hop	717
▁Mari	716
▁Gro	716
▁Turbo	716
▁Gospel	715
▁OEM	715
▁Rainbow	715
▁Hay	715
▁Jose	714
▁Guitar	714
eur	714
▁Globe	713
▁Wei	713
▁Erik	713
▁Muhammad	713
▁Hour	713
▁pre	713
▁Nano	713
▁Antalya	713
▁Reviews	712
▁della	712
▁RC	712
▁Concept	712
▁Rat	712
▁Mario	712
▁BBC	711
▁Common	711
▁Condo	711
▁Fa	711
▁Agenda	710
eva	710
▁Portrait	710
fin	710
▁Kid	710
▁Dis	710
▁Massage	710
▁EC	710
▁Arm	710
ische	709
▁Wildlife	708
š	708
▁Frederick	708
▁Boom	708
▁Ever	708
rich	708
▁Nam	708
lock	707
▁Beau	707
▁Oasis	707
▁iOS	707
kel	707
▁Stefan	706
▁Behind	705
▁Mouse	705
▁Kat	704
log	703
▁Liège	703
▁Archaeological	703
▁Scottish	703
▁Steam	702
▁Otto	702
▁Sch	702
▁Settings	701
▁Sweden	701
ale	701
▁Friend	701
▁Ibiza	701
▁AL	701
ther	701
ux	700
▁Sel	700
▁Dave	700
US	700
▁Peak	700
▁Pedro	700
▁Cove	700
▁Lewis	699
▁Blowjob	699
▁Kay	699
▁Swan	699
▁AS	698
mu	698
▁Casting	698
▁Alan	698
tek	697
▁Ak	697
TV	697
▁Letter	697
sia	697
▁April	697
▁TU	697
ū	697
▁Intelligent	696
▁Shoe	696
rat	696
▁Activities	696
rio	695
bos	695
▁Dreams	695
TA	695
▁Frans	695
▁Better	695
ei	695
▁BBQ	695
▁Hammer	695
▁Lily	695
▁Treatment	694
atie	694
▁Spin	694
▁Cannes	694
▁Serviced	694
SA	693
▁Injection	693
▁Penthouse	693
▁Bright	693
+	693
ema	692
etti	692
▁Haag	692
▁Rack	692
▁Bitcoin	692
▁Russell	692
▁Watches	692
▁Ay	691
iv	691
▁Roland	690
lia	690
▁Brian	690
▁Career	690
▁Chu	690
ito	690
▁ex	689
▁Sexy	689
▁Bru	689
▁ON	689
▁Pressure	689
▁Restaurante	689
▁Furthermore	688
▁Balance	688
▁Qu	688
▁Haus	688
▁Mechanical	688
gg	688
▁Bishop	688
werk	688
▁Tattoo	688
cio	687
▁Coco	687
▁Lakes	687
▁it	687
▁Stan	687
▁Scooter	687
▁Headquarters	687
▁Diego	686
▁Pe	686
▁Rolex	686
▁SL	686
▁Impact	686
▁Literature	686
▁Gala	685
▁Sh	685
▁Liquid	685
▁Ne	685
▁Anton	685
▁Heavy	685
▁Alto	685
▁Slot	684
▁Horizon	684
▁Gordon	684
▁Allen	684
▁Musical	684
▁Christopher	684
▁Fe	684
▁Vita	683
▁Yan	683
bro	683
▁Bronze	682
▁Dun	682
▁Inflatable	682
▁Carlo	682
▁BE	682
▁line	682
▁Prime	682
▁GR	681
▁Spray	681
ky	680
▁Atlanta	680
▁Portable	680
▁Psychology	680
▁Fuel	680
▁Galerie	680
▁Pandora	680
▁Croatia	680
▁Networks	680
»	679
time	679
hara	679
OS	678
▁OF	678
▁Counter	678
▁PR	678
Á	678
▁Prevention	678
low	678
▁Folk	677
▁PLC	677
gon	677
▁Circus	677
▁Escape	677
▁Omni	677
▁Traffic	677
hai	677
ID	677
▁Focus	676
▁Complete	676
▁Je	676
ized	676
▁Miss	676
▁Marbella	676
▁UNESCO	676
▁Honor	676
▁castle	675
▁Joan	675
▁Maker	675
▁Champagne	674
my	674
▁Sunset	674
▁Jerusalem	673
▁Minister	673
gy	673
▁Facilities	672
▁restaurant	672
▁October	672
▁Meat	672
▁Printed	672
▁Millennium	672
▁Margaret	672
▁Ti	672
▁Never	672
▁Moore	671
▁Graduate	671
▁up	671
▁Navigation	671
band	671
▁Sophie	671
room	671
▁Hen	670
▁Santiago	670
▁Dirk	670
▁Titanium	670
▁Vladimir	670
▁Gin	669
▁Email	669
lie	669
▁Mix	669
▁Ramada	669
▁Sustainability	669
oo	669
▁Nieuw	669
zon	669
▁Wet	668
tsu	668
▁Cooper	668
water	668
aria	668
▁Healthy	668
▁Electro	667
▁Nestled	667
▁DS	667
▁Quinta	667
▁Hendrik	667
▁Taiwan	667
▁Legend	667
▁Shu	667
red	667
▁Stream	666
▁Universities	666
▁Ryan	666
Tech	666
▁Gare	666
▁AR	666
▁Tam	666
ets	666
▁Wilhelm	666
°	665
▁Norman	665
▁Automobile	665
kerk	664
our	664
▁Seal	664
▁Boot	664
▁Ir	663
▁Dal	663
▁VIP	663
▁Rover	662
▁SM	662
ret	662
▁Georgia	662
▁Trump	662
▁Ste	662
mus	661
▁Extract	661
lé	661
▁Kevin	660
mas	660
▁Dia	660
▁Photos	660
▁bridge	660
med	660
▁Oude	660
lam	660
▁Bruxelles	659
▁Tara	659
▁Mystery	658
▁Mile	658
▁wallpaper	658
▁Von	658
▁Os	657
▁Hours	657
▁Jos	657
▁Update	657
▁conference	657
ue	657
▁Luis	657
▁Davis	656
tter	656
▁Interactive	656
▁Practice	656
▁Leopold	656
ique	656
▁Egyptian	656
▁me	655
▁LC	655
▁Zipper	655
ée	655
▁Tee	654
ves	654
▁Brands	654
▁Adapter	654
▁Mate	653
▁Breda	653
▁Dynamics	653
▁Candy	652
DS	652
▁Pharma	652
CA	652
▁Diet	652
izer	652
DA	652
▁Hidden	651
▁Trinity	651
▁Johannes	650
sport	650
▁Winner	650
▁Resistance	650
▁Maps	650
▁Tal	650
▁Alfred	650
▁Julian	650
▁Shan	649
eo	649
nen	649
ston	649
▁Value	649
▁Introduction	649
tri	649
▁Olympics	649
▁Jun	649
▁Gabriel	648
▁Roses	648
▁Members	648
mor	648
▁EL	648
AM	648
form	648
▁Flora	647
▁Ve	647
▁GO	647
▁Sebastian	646
▁Valle	646
▁Crazy	646
▁Ridge	646
▁Mira	646
▁Lange	646
ery	646
▁Bern	646
▁Anderson	646
▁mountains	646
▁Migration	645
▁Wang	645
▁Provider	645
▁Zi	645
▁AI	645
▁CE	645
horn	645
▁Ost	644
▁Banks	644
▁PS	644
of	644
stad	644
▁Nat	644
▁EA	644
▁Import	644
▁Tram	643
▁Kraft	643
▁Director	643
▁Howard	642
▁Lucky	642
cle	642
max	642
mit	642
ical	642
▁Bicycle	642
▁License	642
▁Blanca	642
▁Sao	641
▁Fin	641
bridge	641
ST	641
▁Scotland	641
▁Ry	641
▁Regency	641
bon	640
▁Know	640
▁Paint	640
▁Lead	640
▁Santo	640
▁Liner	640
▁Switzerland	640
▁Hospitality	640
▁Album	640
▁Hamilton	639
gin	639
FA	639
LE	639
top	639
▁Toky	639
▁Provincial	639
▁Chen	639
▁Britain	638
▁Reef	638
▁EN	638
▁Arabic	638
▁Dildo	638
▁Icon	638
▁Container	638
▁Dental	637
▁GP	637
ä	637
ice	637
▁Ras	637
ske	637
fan	637
▁Vera	637
▁Hampton	636
▁Manhattan	636
▁Dai	636
▁Wide	636
▁Walker	636
▁Steven	635
SE	635
vers	635
▁Drum	635
▁Pri	635
▁Mod	634
▁Linked	634
▁Fri	634
▁Pic	634
▁Devil	634
museum	634
sberg	633
▁Offering	633
▁Alt	633
▁Nh	633
lands	633
▁Bergen	633
ett	633
▁Sei	632
▁Andreas	632
▁Address	632
▁Clinical	632
▁Landscape	632
▁Nordic	632
▁Basel	632
▁Mining	632
▁Secure	632
oma	632
▁Zu	632
▁Alba	632
▁Jason	631
▁Comp	631
cam	631
ben	631
▁Abraham	631
▁Spider	631
▁Franz	631
▁Mol	631
card	630
▁Fantasy	630
▁SE	629
ire	629
▁Andrea	629
yi	628
▁TR	628
ward	628
▁Springs	628
DC	627
▁Document	627
▁Physics	627
over	627
▁Craft	626
ante	626
▁Democracy	626
▁Cylinder	626
▁film	626
▁Volkswagen	625
▁Indonesia	625
▁FX	625
▁Das	625
ide	625
▁Johann	625
▁Holder	624
▁Mercury	624
▁Colour	624
▁Crisis	624
str	624
▁Tang	624
▁Arch	623
▁Retreat	623
▁Armed	623
▁Lille	623
▁Vinyl	623
▁Sands	623
▁Hostal	623
hill	623
▁When	622
ö	622
▁Primary	622
▁Chess	622
▁Wyndham	622
▁Asset	622
▁Dollar	622
▁Lines	622
▁Evening	622
▁Educational	621
▁Sector	621
▁Text	621
lic	621
▁MD	620
▁Mansion	620
▁Battalion	620
▁Bow	620
▁Biennale	620
eta	620
▁Deck	619
IL	619
▁Database	618
▁RS	618
ps	618
▁Kent	618
MO	618
▁NEW	618
pur	618
▁LG	618
▁Xin	617
wo	617
IP	617
▁Denmark	617
▁Connection	617
▁Ave	617
▁Immigration	617
▁Cut	617
▁Growth	617
▁Johnny	616
ado	616
▁Sho	616
▁series	616
▁Wonder	616
è	616
▁Tiffany	615
erie	615
inger	615
▁Lotus	615
▁Rhodes	615
▁Mia	615
▁Ceramic	615
bur	614
▁Blond	614
▁Vegas	614
▁Birthday	614
▁Bars	614
▁Canyon	614
veld	613
are	613
ean	613
▁Deutsche	613
•	613
▁Pit	613
▁Cambridge	613
▁Notre	613
cu	613
▁Miles	613
▁Midi	613
▁Organ	613
IE	613
▁Fest	612
▁Yamaha	612
▁Lincoln	612
▁Burg	612
RO	612
▁Nintendo	612
▁Elephant	612
▁Prison	612
pad	611
▁Tent	611
▁Ferrari	610
▁Vertical	610
▁Exclusive	610
▁Jewelry	610
▁Botanical	610
▁Size	610
▁Tra	609
▁Disease	609
una	609
▁Shuttle	608
▁Carton	608
▁Lucas	608
heim	608
▁Revelation	608
anne	608
▁Crete	608
▁Satellite	607
yuan	607
▁Parker	607
▁Agent	607
▁Students	607
▁Password	607
▁Claude	607
▁p	607
▁Still	607
▁los	606
▁Registry	606
▁Dining	606
kh	606
▁Suzuki	606
▁Virginia	605
▁Alloy	605
▁Dolphin	605
sey	605
▁Extra	605
▁Fame	605
▁Chan	605
enko	605
▁RE	605
▁Bois	604
▁Gi	604
▁SAP	604
▁Nederlandse	604
▁Bis	604
dis	603
▁Amber	603
▁Files	603
▁Baker	603
BA	603
▁Calle	603
PO	603
▁Heroes	603
▁Opening	603
▁Viking	602
straße	602
▁Strand	602
ological	602
▁Fuck	602
master	602
▁Consultancy	602
▁Feed	602
▁Bug	602
▁Mah	602
▁Institut	602
▁Sanctuary	602
▁Heating	601
wei	601
▁Jungle	601
▁Pussy	601
hang	601
▁Grid	601
▁Pocket	601
MS	601
tha	601
▁Promotion	601
▁Chrome	600
itz	600
▁Galactic	600
set	600
zy	599
MA	599
▁Nelson	599
▁Cana	598
▁Had	598
▁AD	598
▁Chiller	598
tex	598
▁Saudi	598
▁Mala	597
▁Sai	597
war	597
▁Match	597
beek	597
▁Malaga	596
ava	596
▁Rembrandt	596
tt	596
▁Vacation	596
yang	596
jar	595
▁degree	595
▁Hole	595
▁Split	595
CE	595
▁Alma	594
▁Seat	594
▁Vancouver	594
bad	594
▁Linda	594
▁Kre	594
▁Mexican	594
ž	593
▁Hockey	593
▁Groot	593
▁Mul	593
▁Ob	592
▁Bruno	592
▁Pepper	592
▁Rou	592
▁Ace	592
los	592
▁Stories	592
▁Philosophy	592
▁Royale	591
▁one	591
▁Oud	591
▁Chicken	591
▁Ritz	591
▁Cart	591
▁Phase	591
▁FR	591
▁Nude	590
tron	590
▁con	590
▁Eyes	589
▁Oliver	589
▁Rick	589
▁Payment	589
etta	589
lite	589
mes	588
Pro	588
▁Stein	588
▁Brazilian	588
▁Maarten	588
▁Screw	588
▁Leonardo	588
▁Parties	588
▁Haven	587
▁coast	587
ore	587
▁Period	587
▁Alarm	587
aya	587
▁Why	587
▁Kiss	587
▁Hosting	587
▁Wales	587
▁Soccer	587
▁Seed	586
▁Westin	586
dom	586
▁Beat	586
▁Explore	586
▁Telecom	586
adi	586
▁Section	586
▁Sonata	586
▁Boer	586
▁Bordeaux	586
wald	585
▁Wim	585
▁Kol	585
pel	585
▁Av	585
▁Method	585
vel	584
▁Hardware	584
▁Gang	584
▁Purple	584
▁Spy	584
▁Crew	584
▁Gre	584
▁are	584
▁Jessica	584
▁Shah	584
▁Escort	584
▁Georges	584
▁Hel	584
▁Cashmere	584
▁Bamboo	583
▁Lawrence	583
▁Knights	583
▁Hunt	583
▁Levi	582
▁their	582
▁Backup	581
▁Angels	581
▁Administrative	581
▁Assistance	581
▁CR	581
▁Clark	581
▁Have	581
▁Porta	581
▁Against	580
▁Din	580
▁VR	580
▁Dean	580
▁Physical	580
▁Theory	580
▁island	580
ala	580
see	580
▁Butterfly	580
▁Sophia	580
	580
▁Certified	580
▁Registration	579
▁Hugo	579
▁Degree	579
▁IJ	579
▁Carolina	579
▁Ran	579
▁Haute	579
mos	579
ín	579
▁Arnhem	579
ré	579
ingen	578
▁Striptease	578
▁Rey	578
▁Lara	578
▁Fourth	578
▁Lynn	578
▁Cum	578
▁Coca	578
▁Piet	578
▁Pilot	578
▁Porsche	578
▁Spare	577
bot	577
▁Duck	577
ME	576
▁Madison	576
▁Buenos	576
▁Consortium	576
▁Tell	576
ato	576
Co	576
sis	576
sma	576
▁Beyond	576
▁Ou	576
SP	576
▁Cebu	576
matic	576
▁Ag	576
▁Nacional	575
▁Enjoy	575
▁Waterproof	575
▁Cherry	574
▁Ph	574
▁Aires	574
▁Ul	574
▁Brussel	574
▁Developer	574
▁Dialogue	574
▁Wash	573
▁Medi	573
▁Res	573
▁Designer	573
▁Hin	573
▁Hon	573
▁Cabin	573
▁Coach	572
▁Austrian	572
▁Billy	572
▁Siemens	572
ama	571
▁Umbrella	571
▁Corn	571
▁Ristorante	571
▁Por	571
ora	571
▁Diana	571
▁Offshore	571
▁Booking	571
▁Rest	571
▁Resorts	570
aux	570
▁Directory	570
▁Verde	570
▁AT	570
▁zone	569
illo	569
▁Hose	569
▁Coil	569
▁Scale	569
▁Cy	569
▁Boss	569
▁aan	569
ō	569
▁Vatican	569
▁season	569
▁Ac	569
▁Translation	568
▁Hongkong	568
▁Va	568
▁Animals	568
▁Resource	568
▁Kur	568
▁Corp	568
▁Mom	568
▁Movies	568
▁Iran	568
ip	567
ph	567
▁Pharmaceutical	567
▁Supervisory	567
▁Dc	567
▁Stick	566
▁Instant	566
▁Ty	566
▁Emperor	566
▁Reader	566
▁Milling	566
▁Era	566
ash	565
▁Origin	565
▁Rim	565
ade	565
▁Allah	565
▁Rugby	564
▁Mara	564
▁Miguel	564
vy	564
▁Arctic	564
▁Blind	564
▁Twente	564
ata	563
▁Friday	563
▁Sunshine	563
▁Ale	563
isation	563
nan	562
club	562
▁NH	562
▁Gy	562
▁lake	562
▁Doll	562
▁Users	562
▁Without	561
▁Petite	561
▁Egypt	561
pack	561
▁Fishing	561
▁Nijmegen	561
PA	561
▁Milano	560
xi	560
ş	560
gal	560
▁Pak	560
▁Jonathan	559
ile	559
▁Cheese	559
▁Cardinal	559
▁Permanent	559
▁Ven	559
▁SPA	559
▁Dell	558
▁Installation	558
▁Paulo	558
tai	558
PI	558
▁Maha	558
ios	558
▁Pine	558
lay	558
az	558
▁Qui	558
▁Prayer	557
▁Wit	557
isch	557
▁Alta	556
▁ABS	556
▁Wizard	556
▁association	556
▁Platinum	556
▁Ferries	556
▁Stella	556
city	556
▁Fortress	556
▁Agri	556
▁Az	555
mp	555
▁can	555
far	555
▁Sofitel	555
▁Gravel	555
▁Adult	555
▁Philadelphia	555
▁Bungalow	555
DR	554
▁Gene	554
list	554
▁Statue	554
bit	554
haven	554
▁Framework	553
▁Pulse	553
▁Mis	553
ax	553
ī	553
▁Kaiser	553
▁Ideal	553
▁String	553
▁Mei	553
▁Basin	553
▁Marble	553
▁Need	553
▁Arte	553
pol	553
▁Sauce	553
TS	552
▁São	552
▁Falcon	552
▁Symposium	552
▁Female	552
▁Rocky	552
mmer	551
▁Weight	551
▁Honey	551
▁Visitor	551
▁Fo	551
lux	551
▁Chip	551
bol	550
▁Kennedy	550
▁EX	550
cor	550
▁Chemistry	550
▁Stra	549
▁Cost	549
▁Ludwig	549
▁Signal	549
ec	549
▁Seminar	548
cent	548
▁Swimming	548
▁Grove	548
▁Naples	548
kamp	548
school	548
▁Professionals	548
▁Authorities	547
▁Jardin	547
▁Andy	547
ovich	547
gra	547
IA	546
▁Beta	546
▁Felix	546
▁Amy	546
hy	546
bet	546
▁Meta	546
▁Grote	546
▁Baltic	545
▁Meter	545
▁Yang	545
▁Echo	545
ör	545
▁Scanner	545
▁Ling	545
▁Mint	545
▁Hou	544
via	544
▁Publishing	544
els	544
▁campsite	544
RE	544
▁Trend	543
▁Nine	543
PC	543
▁Crypto	543
▁É	543
▁Hampshire	543
▁Victory	543
▁Scientology	543
▁Avenida	543
▁ca	543
▁Helsinki	543
RA	543
▁Butt	542
▁service	542
shin	542
▁Dust	542
dos	542
▁Crowne	542
yne	541
▁Musée	541
▁Crime	541
▁Hyper	541
▁Move	541
▁Some	541
▁Anglo	541
▁Revolutionary	541
▁Senate	540
▁Southeast	540
gas	540
▁Motorcycle	540
▁Musee	540
▁Tian	540
▁Stud	540
ati	540
▁Glasgow	540
bell	540
▁Unique	539
▁Mozart	539
▁Silent	539
▁Excel	539
uf	539
tta	539
▁Svenska	539
lyn	538
▁train	538
▁green	538
▁Mons	538
gro	538
▁́	538
use	538
▁Kie	538
yama	538
▁k	537
▁ski	537
▁Dynamic	537
▁Ri	537
▁Finnish	537
▁Bonus	537
▁TC	537
iana	536
ites	536
▁Break	536
▁Mohammed	536
▁Cams	536
▁Deal	536
▁Graham	536
▁Disk	536
jes	536
▁Past	536
▁Wien	536
▁Hybrid	536
▁Isaac	535
▁Tester	535
▁Want	535
▁LP	535
▁Polar	535
CC	535
key	535
▁square	535
▁Lunch	535
▁Catalunya	535
oy	535
▁Hood	535
▁Bro	535
▁Friesland	534
▁Ashley	534
ere	534
▁Et	534
▁Message	534
▁Oz	534
▁Yes	534
▁Chronograph	534
dag	534
▁Seasons	533
▁Manuel	533
▁Burger	533
▁Adams	533
▁Wald	532
▁NA	532
▁Sta	532
▁Territory	532
▁Drop	531
▁MBA	531
▁Mold	531
▁Finland	531
king	531
cer	531
▁TS	531
▁Gem	530
▁Lace	530
FC	530
ić	530
▁Citizens	530
▁Chin	530
▁Thread	530
▁CV	530
▁Songs	529
▁Portugal	529
▁Aircraft	529
▁Conveyor	529
PE	529
▁KG	529
▁Caroline	529
▁Think	529
▁Mae	529
▁CS	529
▁Seattle	529
▁Serra	528
ric	528
▁USS	528
▁Thailand	528
▁Lip	528
▁Alexis	528
▁Ala	528
▁Gerard	527
ture	527
LY	527
▁Papa	527
▁Tong	527
▁Guild	527
▁Shrine	527
▁Ant	527
▁Kha	526
▁Sole	526
▁Compressor	526
▁Qi	526
ière	526
ø	526
EST	526
▁MK	526
ob	526
▁Prestige	526
▁Peugeot	525
▁Beast	525
▁Romeo	525
sion	525
▁Sr	525
▁Hangzhou	525
bor	525
▁Fra	525
▁Caravan	525
lou	525
▁Criminal	525
▁Rein	525
▁Palestine	524
kon	524
ib	524
▁Options	524
▁NS	524
tas	524
▁Claus	524
▁Americas	523
▁Harmony	523
▁Teacher	523
▁Lifestyle	523
kai	523
▁Donald	523
ule	522
▁Pig	522
▁Pac	522
▁Desi	521
▁Düsseldorf	521
▁Persian	521
▁Bruce	521
▁Pick	521
hoff	521
▁into	521
▁Units	521
▁Verona	521
ali	521
▁RF	521
ii	521
▁Welfare	521
cheng	521
▁Cad	520
▁Fortune	520
▁Based	520
▁Jobs	520
▁Inside	520
▁Adventures	520
▁Ukrainian	520
▁Lesbian	519
▁Provence	519
▁Trainer	519
▁Mama	519
▁Agro	519
ON	519
nica	519
zz	519
▁Bristol	519
▁Kill	519
▁Simple	518
▁Hungary	518
cat	518
ities	518
▁Gloves	518
xx	518
eri	518
Al	517
▁Comments	517
▁Gothic	517
▁Gui	517
▁Capitol	517
▁Kok	517
▁UV	517
▁Disco	517
▁Enterprises	517
▁Got	517
▁Cur	516
ox	516
▁Panama	516
od	516
kade	515
SM	515
▁Philippines	515
▁Viva	515
▁Sculpture	515
▁op	515
▁Captain	515
ras	515
▁Rolls	515
▁Stanley	514
▁Lighthouse	514
▁Away	514
Con	514
▁Carbide	513
▁Cheap	513
▁Pyramid	513
▁Heater	513
▁Monkey	513
jin	513
▁Indonesian	513
▁Travelodge	512
æ	512
AS	512
▁Arms	512
▁Rabbit	512
▁Lawyers	512
▁Thor	512
▁Dominican	512
▁Romanian	512
rad	511
eren	511
▁Blade	511
▁Cow	511
▁Transition	511
▁Bir	511
nier	511
▁Tracker	511
▁Bros	510
▁Pur	510
▁Rope	510
▁Pizzeria	510
▁Veterinary	510
▁Maurice	510
▁Finder	510
▁Relax	510
▁Kel	510
▁Specialist	510
ua	510
▁Boxes	509
fit	509
▁Bearing	509
▁Zip	509
▁Huis	509
SI	509
▁Autonomous	509
▁Traditional	509
▁René	508
▁Claire	508
▁Malta	508
bri	508
oc	508
▁External	508
ington	508
▁Anniversary	508
wick	508
▁Ian	508
▁Exit	508
▁Fusion	508
▁Baptist	508
▁Porte	508
▁Elevator	508
▁Rus	507
▁Cro	507
▁November	507
▁DB	507
▁Trek	507
▁Tilburg	507
▁Strong	507
ving	507
▁Gri	507
▁Norway	507
▁Luke	507
▁Met	507
▁Markt	507
ila	507
▁Giovanni	506
▁tram	506
▁Garage	506
old	506
▁Italia	506
▁Broadcasting	506
ral	506
burn	506
▁Ellen	505
▁Bil	505
▁Trailer	505
▁Fal	505
lla	505
▁Buyer	505
▁Drilling	505
ille	505
▁Cher	505
ichi	505
▁Fucking	505
▁Late	505
▁BA	504
▁Kra	504
aï	504
▁Triangle	504
▁Faith	504
▁Dawn	504
▁Susan	504
▁Secretariat	503
▁Bla	503
zan	503
▁Helen	503
borg	503
▁Jennifer	503
▁Artists	502
▁Sul	502
▁Rom	502
▁Hurricane	502
▁Shark	502
▁Broadway	502
▁Bolt	502
sz	502
▁Reality	501
▁Duplex	501
▁Labs	501
hem	501
▁Concrete	501
▁Root	501
▁But	501
esh	501
mun	501
▁Nissan	501
▁Any	501
▁villa	500
▁Wy	500
▁Cra	500
▁Sing	500
▁Nina	500
▁Jeans	500
tti	500
▁Nationale	499
▁Starter	499
▁Denis	499
ili	499
ă	499
▁Birds	499
▁Harley	499
fish	499
▁Ple	498
▁Everything	498
char	498
▁Guardian	498
▁Transit	498
▁Wageningen	498
▁Atlantis	498
▁Tec	498
▁Prof	498
▁Commonwealth	498
▁Doc	498
▁Clip	497
ò	497
▁Hannover	497
▁Flexible	497
▁FIFA	497
▁Jade	496
▁Lovely	496
▁Muslims	496
▁Franklin	496
▁Chart	496
▁Films	495
▁Sor	495
▁Painting	495
ido	495
gui	495
hat	495
▁Marshall	495
▁Target	494
▁Eternal	494
▁Syn	494
aba	494
▁Civic	494
▁car	494
▁Quartz	494
▁Sagrada	494
zh	494
mond	494
▁Act	494
lee	493
▁Sala	493
▁Galvanized	493
▁Residences	493
▁Seeds	493
work	493
▁Nar	493
▁Diving	493
▁Standing	493
▁Mitsubishi	493
▁Af	493
▁Frisian	493
▁Franco	493
▁Abd	492
▁Carrier	492
▁use	492
▁Jing	492
▁Brush	492
▁Tango	491
▁Strap	491
▁Hairy	491
▁Matrix	491
▁Sisters	491
AP	491
▁Chelsea	491
▁Panda	491
▁Row	490
▁Tv	490
life	490
ès	490
▁Sp	490
▁Institution	490
quin	490
▁Marseille	490
▁Rai	490
gre	490
▁Lean	490
▁Carter	490
▁Wester	490
▁Odessa	490
▁Brotherhood	490
put	489
ative	489
▁Feel	489
ense	489
ug	489
▁Own	489
▁Mt	488
▁Reform	488
aki	488
▁BB	488
▁Cer	488
▁Iris	487
▁Morris	487
nova	487
▁Taste	487
▁Alternative	487
▁Lagoon	487
brand	487
▁Tablet	487
RS	486
jer	486
▁Hol	486
▁Dansk	486
▁Julie	486
▁Seoul	486
▁san	486
▁Cyprus	486
onia	486
lina	485
HA	485
▁Vital	485
▁Wallpaper	485
▁Styles	485
▁Woods	485
ami	485
▁Oro	485
▁There	485
▁HQ	485
qu	485
▁dei	484
▁Olivier	484
TER	484
▁Collective	484
▁Bron	484
ç	484
▁Productions	484
▁Laurent	484
▁Driving	484
▁Vitamin	484
▁Wen	484
▁Violet	483
uma	483
▁Dubrovnik	483
▁Spiritual	483
▁Che	483
▁Sad	483
▁BP	483
▁Brother	483
iers	483
▁Vic	483
hen	483
▁Dennis	483
▁Churches	483
▁Pharmacy	483
py	482
▁Him	482
mal	482
markt	482
▁Components	482
▁Caves	482
▁Ronald	482
IM	482
▁Sailing	482
▁Rec	482
▁Optic	481
▁Capsule	481
▁Bakery	481
▁Arabian	481
▁Activity	481
▁Jimmy	481
▁Drag	481
▁Kerk	481
▁Tyre	481
avi	480
▁Interface	480
▁Patent	480
▁Friedrich	480
▁Reference	480
▁Videos	480
▁Kil	480
▁Cole	480
▁Lingerie	480
▁las	480
rah	480
▁Basil	480
lor	480
▁Wife	480
▁Too	480
▁Tomorrow	480
▁Religious	480
▁Fields	479
▁Stretch	479
▁Phantom	479
▁Mills	479
▁Apps	479
▁Cosmic	479
▁tournament	479
wijk	479
▁Northwest	479
▁Rachel	478
▁Ascension	478
▁Jackets	478
▁Krakow	478
▁Tomb	478
▁Townhouse	477
▁Isabel	477
▁Confederation	477
▁Goods	477
▁Pole	477
▁Jump	476
▁Laundry	476
▁Duty	476
SC	476
▁Dresden	476
▁Grass	476
idae	476
▁Editor	476
▁Jules	475
bag	475
▁GS	475
ü	475
▁Mali	475
▁Eng	475
▁Chapter	475
▁Côte	475
rell	475
▁Ginger	475
▁Aurora	475
▁Progress	475
▁motorway	475
▁Toyota	475
▁Rum	475
eda	475
▁Supermarket	474
▁Bud	474
RC	474
▁Agios	474
▁Olympia	474
▁Dot	474
zia	474
▁Regions	474
▁ME	474
▁TOP	474
▁FA	474
▁Plug	473
▁Release	473
polis	473
▁ES	473
▁Ava	473
▁Canton	473
lle	473
▁für	473
▁Shepherd	473
▁Laguna	473
FI	473
ima	472
▁Fuji	472
▁Launch	472
▁IC	472
care	472
▁MSc	472
▁Deco	472
uch	472
fort	471
▁Tribunal	471
▁Ministers	471
▁RT	471
▁DG	471
▁Lemon	471
istic	471
▁Lau	471
`	471
▁Friendly	471
▁Barry	471
TO	471
▁Axel	470
▁Policies	470
▁Oracle	470
vit	470
▁Alexandra	470
▁CAR	470
▁Indigo	470
▁Venture	469
uka	469
▁Raymond	469
▁Copyright	469
▁Images	469
▁VPN	469
▁Reading	469
world	469
ssel	469
née	468
▁Foto	468
▁Lucy	468
▁Catalonia	468
platz	468
kom	468
ander	468
▁Jeff	468
▁Plain	468
▁Legion	468
▁Unity	468
▁Holding	467
sun	467
▁Graphic	467
▁Response	467
▁Healing	467
▁Evolution	467
SO	467
▁Ming	467
▁Where	467
▁Digi	467
▁Queens	467
▁Audit	467
lov	466
ple	466
kou	466
rick	466
▁Linen	466
▁Ari	466
▁Familia	466
▁Magnetic	465
osa	465
▁Milf	465
lik	465
▁Romantic	465
▁Noah	465
ender	465
non	465
▁Volume	465
▁Kali	464
▁Arnold	464
▁Steen	464
rik	464
strasse	464
▁Details	464
▁Bun	464
▁Wharf	464
nu	464
▁Rand	464
▁Antwerpen	464
▁Dou	464
fen	464
▁Bahn	463
▁Marrakech	463
wall	463
▁Deli	463
cht	463
run	463
chu	463
pper	463
▁Concertgebouw	463
elen	463
▁Loire	463
▁Clara	462
pot	462
▁PlayStation	462
▁Clay	462
▁Forever	462
→	462
▁Uncle	462
▁against	462
▁Dj	462
▁Sense	462
û	462
ces	462
▁Monica	462
wal	462
▁Firm	462
SR	461
▁Birth	461
▁Rib	461
▁Tray	461
PS	461
mm	461
▁Extension	461
▁Gur	461
▁MAN	461
▁Sites	461
▁Rouge	460
▁Salzburg	460
▁bin	460
▁Brugge	460
▁Dhabi	460
had	460
▁Rocket	460
▁Eurovision	460
AI	460
stay	460
▁Annex	460
▁NY	460
▁Charm	460
▁Tracking	459
▁Beethoven	459
▁ABC	459
▁Yuan	459
▁Fighter	459
▁Yarn	459
▁Shelf	459
BR	459
▁Nights	459
▁Glacier	459
▁Windsor	458
▁Classics	458
▁Zhong	458
▁Experts	458
▁Switches	458
▁Cab	458
▁Coordination	458
▁Py	458
▁Ferdinand	458
▁Tickets	458
▁Reich	458
▁Amazing	457
▁Circular	457
bed	457
▁Fab	457
qua	457
▁Epic	457
▁Shot	457
▁Owner	457
▁Florist	457
jet	457
▁Colonial	457
▁Terre	457
▁Liu	457
▁Buddhist	457
▁Dana	457
tique	457
lies	457
▁Basketball	456
▁Drink	456
owski	456
LA	455
cast	455
▁Mau	455
soft	455
▁Ward	455
▁Railroad	455
▁Carol	455
▁Champs	455
▁Promenade	455
▁Jacobs	455
aire	455
▁Snack	455
camp	454
ë	454
▁Governance	454
▁Ink	454
▁Hudson	454
▁Mus	454
▁Backpack	454
De	454
▁SK	454
▁Imp	454
▁Castel	454
▁Robinson	454
▁Bai	454
▁Passenger	454
zin	454
ENT	454
▁MB	453
ê	453
▁Scha	453
▁exhibition	453
▁Eraser	453
▁Buck	453
EC	453
▁Pallet	453
▁Moses	452
▁Mould	452
▁Grow	452
▁Guinea	452
▁Detector	452
▁Oslo	452
ori	452
▁Mumbai	452
▁Booster	452
ão	452
▁Ostend	452
▁Que	452
flex	452
EP	452
▁Many	452
BS	451
EE	451
sko	451
▁Baden	451
An	451
▁ma	451
▁Titan	451
▁Elena	451
INE	451
lian	451
▁Republican	451
pas	451
▁LE	451
EN	451
▁Poli	451
▁Shape	450
vor	450
▁Jerry	450
▁Recruitment	450
Link	450
▁Granada	450
▁Fleur	450
▁Fiat	450
▁Liberal	450
▁Bau	450
▁Suriname	450
bia	450
▁Ruby	450
▁Thermo	450
▁AP	450
▁PM	450
▁Formation	449
gang	449
boy	449
▁Cru	449
▁Ribbon	449
▁Dee	449
▁Afro	449
ario	449
enne	449
▁Velvet	449
▁Running	449
▁Giro	448
▁Hello	448
▁Pouch	448
rod	448
▁Hubert	448
▁Mallorca	448
▁Give	448
▁Fen	448
▁Palermo	448
eb	448
▁Wheels	448
▁Aunt	448
č	448
▁Maxi	448
▁Ref	448
ted	448
ici	448
cap	448
▁Models	447
wind	447
▁Brooklyn	447
▁Present	447
▁Baroque	447
int	447
hout	447
▁Watt	447
otel	447
▁Hey	447
▁Noble	447
▁Georg	447
▁Wallet	447
▁Ara	447
▁Luxe	447
▁Ernst	447
▁Kamp	447
▁Antoine	447
ère	447
ivo	447
▁Rhein	447
▁Dongguan	447
gun	446
▁Glory	446
▁Stores	446
▁Frozen	446
▁Volunteer	446
cur	446
▁project	446
▁un	446
▁Solomon	446
▁Birmingham	446
▁Nancy	446
▁Status	446
▁Than	445
▁Nou	445
▁Nun	445
gor	445
chin	445
▁Kun	445
▁Countries	445
▁Antenna	445
▁Create	445
▁Holocaust	445
▁Rider	445
▁Romania	445
▁Epi	444
▁Andre	444
MP	444
hart	444
▁Acid	444
AG	444
lit	444
▁Needle	444
▁Indians	444
▁Jury	443
▁Cosmetics	443
▁Rise	443
▁Tavern	443
▁Violin	443
▁Moncler	443
▁Dash	443
▁Sto	443
▁Shops	443
▁Barber	442
▁Karen	442
▁Rot	442
▁Coordinator	442
eg	442
▁Secrets	442
▁Roche	442
▁Hom	442
▁Cooking	441
media	441
▁Michigan	441
mb	441
bury	441
▁Juice	441
▁Em	441
▁Wisdom	441
▁Lido	441
▁Wise	441
▁Bread	441
sburg	441
▁Retro	440
ped	440
▁Mason	440
▁Distance	440
och	440
▁Architect	440
Ma	440
▁game	440
▁Tub	440
Book	440
▁Flood	440
▁Handle	439
wing	439
▁Harris	439
▁Michelle	439
▁Representatives	439
▁Quadruple	439
▁Relief	439
▁Diver	439
ego	439
▁Railways	439
▁Rabbi	438
▁na	438
▁Pla	438
▁Fifth	438
▁Thompson	438
▁Fisheries	438
▁Nas	438
▁Contract	438
▁Hermitage	438
▁Lions	438
▁Ole	438
▁Hui	438
▁Arabia	438
aro	438
▁Pain	438
▁Rolling	438
pha	438
▁Fittings	437
▁Hang	437
ń	437
▁Appartement	437
▁Josef	437
▁Default	437
mé	437
▁Lens	437
▁Emily	437
▁Els	437
▁art	437
xin	437
▁Mona	437
▁Feature	437
shu	437
▁RAF	437
ks	436
▁Tips	436
▁Dating	436
EA	436
▁Thunder	436
▁BR	436
▁Witte	436
maker	436
▁Trial	436
▁Kam	436
ía	436
vik	436
ering	436
én	435
▁Silva	435
▁Straight	435
▁Balcony	435
▁Br	435
▁Maj	435
▁Being	435
izing	435
▁Rosen	435
▁Programs	434
▁Curacao	434
▁Christine	434
▁Ardennes	434
▁MO	434
▁Cali	434
▁Arizona	434
▁Attack	434
▁Treasure	434
rov	434
▁Savoy	434
▁Christina	434
▁Fisher	434
▁''	434
▁Valk	434
▁Kou	434
▁Players	434
▁Alicante	434
▁Charter	434
OL	433
▁Louvre	433
▁Arrow	433
▁Zeeland	433
▁Rex	433
nic	433
ges	433
▁MX	432
▁Bone	432
▁Sino	432
▁Saba	432
wen	432
▁Dub	432
▁Insulation	432
▁Sy	432
▁Their	432
▁Amp	432
▁Recorder	432
▁Brooks	432
cel	432
▁Adrian	432
▁color	432
▁Argentina	432
▁Taka	431
EM	431
kens	431
tica	431
▁NGO	431
▁Campanile	431
▁Bravo	431
▁Crafts	431
▁Lie	431
CH	431
▁Jaguar	431
▁Ah	431
▁Quay	431
▁Between	430
▁Pillow	430
▁Shore	430
▁Push	430
BC	430
▁Blockchain	430
▁Bend	430
▁Marcus	430
▁Hoog	430
naya	430
she	430
gram	430
WA	430
▁Trucks	429
▁Eat	429
▁Bulgarian	429
▁Tungsten	429
mic	429
▁Sail	429
▁Through	429
▁f	429
NO	429
▁Legends	429
▁Auction	429
▁Dénia	429
bio	429
▁Pau	429
▁Mori	429
▁Feng	428
works	428
▁Thanks	428
col	428
eve	428
▁Gan	428
phe	428
▁Mé	428
▁its	428
▁Burn	428
▁Feast	428
▁Bri	428
▁church	428
▁Crack	428
▁Isla	427
▁Neuro	427
▁Bald	427
▁Tip	427
▁Terry	427
hor	427
▁Rae	427
▁Flo	427
▁Hut	427
MC	427
▁Tallinn	427
uff	427
▁BI	427
▁Investigation	427
▁Guards	426
▁Alert	426
▁Goddess	426
▁Capri	426
▁Ré	426
▁Mora	426
INA	426
▁Before	426
iva	426
▁Instrument	426
▁Dock	426
▁Happiness	426
▁Protector	426
▁Person	426
ý	426
▁Vel	425
▁Novo	425
▁Campo	425
▁Riverside	425
▁Accounting	425
▁Mk	425
▁Sav	425
FT	425
▁Bean	425
▁Identity	425
▁Masterbatch	425
▁Performing	424
▁JR	424
▁Ok	424
▁Magnet	424
▁SH	424
▁TT	424
▁Swing	424
▁Hamster	424
▁Hein	424
▁Kick	424
▁Presidential	423
▁Yobt	423
▁Jeroen	423
ech	423
▁Powered	423
▁Chem	423
▁Contra	423
▁Bul	423
▁Cage	423
▁Hasselt	423
ute	423
▁Drama	423
▁Vinci	423
▁Foods	422
stock	422
Me	422
▁Surgery	422
▁Session	422
OU	422
▁competition	422
hr	422
▁Fix	422
▁Watson	422
nt	422
▁Ibn	422
gard	422
TI	422
▁highway	422
▁Catering	422
▁Iso	422
▁Plastics	422
▁Cute	422
▁Richmond	422
▁Hip	422
▁Wax	421
▁Galleria	421
▁Aa	421
▁Login	421
LM	421
▁Harvard	421
▁PET	421
▁Hil	421
ick	420
rij	420
▁Chemicals	420
▁Send	420
ě	420
tag	420
▁Palacio	420
▁Exporter	420
▁Mechelen	420
▁Bulk	420
lane	420
▁Cartier	420
▁Welded	420
▁Sanitary	420
udi	419
▁Tie	419
▁Dag	419
▁AF	419
cin	419
▁Sweater	419
▁Solidarity	419
▁Coaching	419
▁Steering	419
▁Daisy	419
▁Boris	419
skin	419
▁Lago	419
show	418
▁Medieval	418
ally	418
ador	418
▁Baba	418
▁Cas	418
▁Webshop	418
▁Keep	418
▁Kyoto	418
rent	418
▁Rimini	418
▁Willy	418
zhou	418
▁Wear	417
▁Below	417
▁Lambert	417
▁Ted	417
▁Seafood	417
nor	417
▁Plateau	417
▁Opel	417
▁Craig	417
▁Colorado	417
▁Trolley	417
him	417
▁Vie	416
lift	416
evich	416
▁Azure	416
▁Pants	416
▁Letters	416
▁Orchid	416
▁Om	416
rian	416
▁Trader	416
▁Cnc	416
hon	415
▁Put	415
▁Vlaanderen	415
▁CRM	415
▁Angela	415
uck	415
▁Roe	415
▁Flange	415
▁Scho	415
▁Pico	415
▁Gra	415
VA	415
▁Tenerife	415
ches	415
UN	415
▁Tags	414
▁Gregory	414
▁Mug	414
tang	414
BL	414
▁Campbell	414
▁AA	414
▁Tale	414
aga	414
ende	414
▁Touring	414
▁Mixer	414
▁Madeira	414
▁Sushi	414
▁Collector	414
▁Evans	414
bat	414
kes	413
▁Neck	413
wer	413
▁Benefits	413
▁Seller	413
anta	413
▁Conditioner	413
Or	413
▁AN	413
▁Leader	412
▁Bonaire	412
▁Dogs	412
▁Sc	412
▁Rear	412
▁Coastal	412
▁Finn	412
tier	412
down	412
▁Pellet	412
▁Lobby	412
tian	412
▁Wings	412
▁Meditation	412
chan	412
▁Weekly	412
GB	411
▁Maxim	411
▁Almere	411
▁Saturn	411
eria	411
inga	411
▁Saturday	411
quet	411
▁VII	411
▁Slide	411
▁Kir	411
▁Picasso	411
▁Decoration	411
▁Synagogue	411
▁Demo	411
▁Diagnostic	411
▁Roulette	411
▁Baan	411
▁Genesis	411
but	411
▁Rigid	411
▁Yun	411
▁Fantastic	410
▁Meyer	410
▁Salvador	410
▁Filling	410
▁Saga	410
▁Napoleon	410
▁Mata	410
row	410
▁tower	410
▁Signature	410
▁Riding	410
pet	410
·	410
cke	409
Star	409
▁Ruth	409
▁Emerald	409
▁Jer	409
▁XXX	409
▁Kru	409
plan	409
▁Turner	409
▁Temp	408
▁Eiffel	408
▁Aerospace	408
▁NT	408
▁Sandra	408
▁town	408
▁Aaron	408
ür	408
recht	408
▁Piston	408
▁Leaf	408
dong	408
▁Drone	408
▁Due	408
▁Deutsch	408
▁Again	408
▁MAX	408
▁Petra	408
▁Loss	408
▁Extreme	407
▁Chile	407
▁Font	407
▁Collins	407
▁Ap	407
▁Kitty	407
▁Frei	407
▁Flu	407
▁Dev	407
Š	407
▁Gul	407
▁Marvel	407
▁Intel	407
▁Bac	406
▁Nail	406
stan	406
▁Buffalo	406
▁Dale	406
eira	406
▁Curaçao	406
▁Comedy	406
▁OR	406
▁Pokémon	406
▁Dorm	406
▁Triumph	406
poort	406
▁Orleans	406
berger	406
▁Scheme	406
▁Charge	405
lier	405
Di	405
▁Recycling	405
mis	405
home	405
▁Meetings	405
ár	405
▁Waterfront	405
és	405
▁Managers	405
▁Justin	405
▁Laptop	405
▁Roth	405
▁Exposition	405
▁Patient	405
vet	404
▁Havana	404
uli	404
▁Ferro	404
▁Ontario	404
▁Namur	404
▁Patio	404
▁Gracia	404
▁Beam	404
▁Leeuwarden	404
▁Vent	404
▁Bride	404
▁Slots	404
▁Knife	404
ible	404
▁Rem	403
▁GL	403
▁Holly	403
▁...	403
▁Sep	403
▁Drill	403
▁Religion	403
▁Techno	403
▁Wol	403
▁Another	403
▁Bao	403
▁Rug	403
ui	403
▁Vander	403
aq	403
▁Cine	403
AO	403
▁Venetian	403
tine	402
las	402
▁Bologna	402
▁Vet	402
broek	402
▁Telephone	402
▁Th	402
▁Lauren	402
▁Gary	402
ath	402
▁NC	402
▁Volcano	402
▁Clamp	402
▁Strike	402
▁Groep	402
▁Saab	402
▁Sham	402
lac	402
▁CM	402
▁Bailey	402
iki	402
▁Dos	401
▁Radar	401
DP	401
▁Ranch	401
▁FOR	401
cas	401
▁McDonald	401
▁Molding	401
▁Bloom	401
weather	401
▁Spark	401
▁Mikhail	401
▁Cake	401
▁Arrival	401
ym	401
cut	401
▁Angle	401
▁Bier	401
EF	400
▁CT	400
▁Amanda	400
▁Tiny	400
▁Lind	400
Le	400
ming	400
▁Plants	400
▁Xbox	400
▁Pere	399
▁Snap	399
une	399
▁Saw	399
▁Indo	399
otti	399
▁Oh	399
▁Qur	399
LO	399
ial	399
▁Biology	399
▁Temperature	399
anti	399
▁Ping	399
▁Skills	399
▁Woven	399
▁Rings	398
AGE	398
▁Heineken	398
▁ECO	398
▁Famous	398
▁Stadt	398
▁Lim	398
▁Silence	398
eer	398
▁CITY	398
▁Satin	398
▁Try	398
▁Refugee	397
TE	397
▁Dairy	397
▁sea	397
ridge	397
ř	397
▁Gap	397
▁Column	397
▁Bodrum	397
▁Bungalows	397
▁Bracelet	397
▁Reed	397
▁Charleroi	397
rak	397
▁Catalogue	396
ders	396
▁Thi	396
DE	396
▁Tall	396
▁Pala	396
▁Ear	396
eco	396
▁app	396
▁Tibetan	396
▁Fairy	396
▁Strength	396
▁Current	396
▁Müller	396
sie	395
HS	395
brook	395
▁Lisboa	395
▁Pel	395
▁Tol	395
ock	395
▁Ada	395
▁Petro	395
▁Haarlem	395
isse	395
▁Pom	395
▁Dried	395
boom	395
▁Axis	395
▁Nearby	395
▁Cushion	394
▁Voor	394
▁Relais	394
▁Annie	394
▁Stevens	394
mate	394
▁Charity	394
UR	394
▁Bab	394
▁Organizations	394
▁rights	394
▁Gau	394
nick	394
PL	394
▁Communities	394
wang	393
▁Ang	393
▁Harvest	393
▁Osaka	393
hl	393
▁Assurance	393
▁Kle	393
▁Mouth	393
bay	393
kers	393
▁Riu	393
▁Coating	393
▁Alien	393
kit	393
beck	393
moto	393
▁Heights	393
ants	393
Č	393
▁Bé	393
▁Wel	393
▁Courts	392
▁Cables	392
▁Huang	392
▁Patricia	392
▁Canary	392
▁Operator	392
oro	392
▁Wright	392
▁Mud	392
▁Kh	392
nos	392
▁Congregation	392
▁Delhi	392
▁Herbert	392
▁Medium	392
▁which	392
▁Mercy	392
▁Gates	392
iza	392
▁Sig	392
▁Brick	392
▁Castell	391
▁Mr	391
▁Chambers	391
▁Brun	391
TON	391
▁Copy	391
und	391
▁Quilt	391
▁Fran	391
▁Securities	391
▁Vehicles	391
▁Residency	391
has	391
▁Canvas	390
▁Leonard	390
▁Regent	390
▁Vor	390
TH	390
craft	390
zar	390
▁IS	390
▁Officer	390
▁Jasper	390
▁Chief	390
▁AV	390
▁Pioneer	390
▁Passage	390
core	390
▁Malaysia	390
hoven	390
▁UP	390
ides	390
▁Mann	390
▁Folding	389
▁Prins	389
▁Danube	389
▁Ralph	389
▁McC	389
▁Ernest	389
▁Linear	389
▁Leg	389
▁December	389
▁Danny	389
▁Iraq	389
▁Sandwich	389
▁Toro	389
▁Pakistan	388
▁Gender	388
▁Auckland	388
World	388
▁Sync	388
▁Blanche	388
NA	388
▁Zhang	388
▁Smile	388
rim	388
▁Ask	388
anna	388
▁Lay	388
▁Roos	388
▁Pia	388
▁Later	388
▁Archaeology	387
test	387
ification	387
▁Fender	387
▁Tha	387
▁Tao	387
its	387
▁Builder	387
▁Cummins	387
▁events	387
▁Bib	387
▁Cuba	387
▁Noir	386
▁Henk	386
IO	386
▁Lightning	386
▁Benidorm	386
▁Compliance	386
▁Modular	386
isa	386
▁Slow	386
▁SW	386
To	386
▁Kees	386
▁Scene	386
▁Ready	386
▁Covers	386
▁Moving	386
▁Mun	385
worth	385
▁Chase	385
▁Warm	385
▁Jumbo	385
▁Aston	385
▁Columbus	385
▁Pennsylvania	385
nell	385
▁Gods	385
rel	385
▁KW	385
▁Toulouse	385
▁Yin	385
▁Kinder	385
▁Anchor	384
▁Nut	384
▁Wilhelmina	384
Lab	384
▁Hanoi	384
cing	384
▁Kind	384
▁Runner	384
▁Santos	384
EI	384
▁Binary	384
▁Quad	384
▁Penn	384
▁Ble	384
mei	384
▁Rijn	384
shima	384
▁Pond	384
▁Tsar	384
kawa	384
▁Cancel	383
▁Fight	383
▁XP	383
▁PI	383
▁Kortrijk	383
iq	383
▁WC	383
rt	383
▁Cisco	383
CI	383
▁Sterling	383
▁Rebel	383
▁Ottoman	383
ucci	383
▁Raj	383
▁Anita	383
▁Reservations	383
▁Vos	382
▁Kang	382
▁Pale	382
▁Pie	382
▁Broad	382
▁Academie	382
▁Esther	382
▁Vir	382
▁Teaching	382
▁Ponte	382
ual	382
wear	382
▁Hout	382
▁Potter	382
▁Lid	382
▁Nazi	382
▁Abdul	381
lander	381
kha	381
▁Kurt	381
▁Werk	381
pass	381
▁Classical	381
▁Devices	381
▁CAN	381
▁Sunrise	381
issa	381
▁Artificial	380
▁album	380
▁Jamie	380
▁Adobe	380
▁Herald	380
▁IBM	380
▁Ranger	380
▁Sem	380
▁CL	380
▁CP	380
▁Acrylic	380
▁Minor	380
▁January	380
▁Velo	380
berry	380
▁Moss	380
▁Sigma	379
▁Cooperative	379
▁Croatian	379
▁Enter	379
▁Spe	379
▁Friendship	379
▁Baha	379
tics	379
AF	379
▁Parliamentary	379
▁Success	379
▁CB	379
▁Burgundy	378
▁Sonic	378
▁Pays	378
▁Int	378
BI	378
▁Rush	378
▁Dealer	378
thi	378
▁Pho	378
▁Turin	378
▁Internationale	378
▁Barn	378
▁Shen	378
umi	378
rant	378
▁Puzzle	378
tum	377
▁Champ	377
vu	377
itt	377
SU	377
▁Phuket	377
iko	376
▁Function	376
▁Cookies	376
▁Indies	376
rock	376
▁Kempen	376
▁Cooler	376
bike	376
bird	376
▁Tibet	376
▁Alm	376
▁Museu	376
HD	376
▁Applications	376
▁Cobra	376
▁Horny	376
▁Shared	376
TY	376
▁Reports	376
▁sa	376
▁Greg	376
▁FL	376
▁Mental	376
▁HK	376
Entrepreneurship	376
▁Spacious	376
phone	376
▁Shinjuku	375
▁Janssen	375
▁OK	375
▁Elder	375
▁son	375
▁Pyrenees	375
▁Choose	375
▁Sister	375
EX	375
▁Koen	375
vid	375
ija	375
▁Ceremony	375
oon	375
▁Collections	375
▁Montblanc	375
sten	375
Mo	375
▁IX	375
▁Haze	374
▁Vega	374
▁Lives	374
led	374
▁Waterloo	374
▁Volks	374
▁Davidson	374
uda	374
▁Bod	374
▁Hide	374
uro	374
amp	374
pri	373
▁Places	373
▁Processor	373
▁Germain	373
▁Lam	373
▁Load	373
▁Fre	373
▁Rama	373
▁Loch	373
chy	373
hui	373
▁Gustav	373
▁Astro	373
▁earthquake	373
lum	373
▁Rev	373
▁FI	373
▁Dryer	372
▁Conf	372
ular	372
▁Slovak	372
SL	372
▁Coupe	372
▁Kei	372
fil	372
▁UL	372
▁Scar	372
▁Bei	371
▁Mitchell	371
tik	371
▁Buildings	371
▁TX	371
▁Vall	371
▁Bangalore	371
▁Fear	371
▁Sci	371
▁Combat	371
dt	371
▁Catalan	371
▁Fisherman	371
space	371
etto	371
▁Progressive	371
▁Tsu	371
▁Hands	371
▁Huntington	371
Net	371
ERS	370
▁Spencer	370
▁Hold	370
meer	370
▁SunPorno	370
▁Transmission	370
ago	370
▁Nico	370
▁Blake	370
▁Aruba	370
▁Brit	370
▁Lime	370
▁Rig	370
▁Melia	370
▁Veronica	370
lei	369
cc	369
uga	369
▁Astra	369
▁Nathan	369
▁Sterne	369
▁Este	369
▁Freight	369
fest	369
▁Jewel	369
bee	369
nov	369
▁Diversity	369
▁Qingdao	369
plus	369
▁Nij	369
II	369
▁Yong	369
▁Schneider	369
▁Vereniging	369
▁Stuttgart	368
▁Schu	368
▁Lub	368
▁Vit	368
▁Rag	368
▁Tex	368
▁Herb	368
hou	368
▁Declaration	368
▁Cry	368
▁Basket	368
▁Colombo	368
▁Sheikh	368
▁Mathematics	368
av	368
▁Tobacco	367
▁Monaco	367
▁NO	367
iba	367
EU	367
▁Fro	367
▁Iranian	367
▁Mak	367
chat	367
▁Swim	367
▁Phillips	367
thy	367
▁Bomb	367
▁Lucia	367
▁Kop	367
▁Miracle	366
▁Karel	366
▁Grade	366
▁Webcam	366
▁Beck	366
▁Gua	366
▁Belvedere	366
▁Couple	366
▁Daughter	366
▁Esp	366
▁Lees	366
UM	366
▁Buffet	366
press	366
▁Fernando	366
web	366
ssen	366
IS	366
▁Petr	366
▁Cheng	366
▁Cozy	366
▁Roc	365
▁Majestic	365
▁Distributor	365
▁Transformation	365
▁Edit	365
BT	365
▁Bubble	365
▁Mou	365
holm	365
▁Tile	365
ista	365
vent	365
▁Helena	365
▁Treasury	365
▁Kart	365
▁Frederik	365
▁Shock	365
▁Monetary	365
▁Ceiling	365
▁Bahá	365
bas	365
ovo	364
▁Vries	364
▁Booth	364
tour	364
▁Kho	364
▁Moor	364
▁Quantum	364
▁Cancun	364
▁Rehabilitation	364
▁Whale	364
▁BTS	364
▁Rode	364
▁Notes	364
Ex	364
▁Jas	364
▁Leopard	363
▁Norton	363
▁Dirty	363
▁Wayne	363
▁MG	363
▁dell	363
▁Nishi	363
▁Musk	363
▁Spiral	363
▁Slave	363
▁Mit	363
▁Julius	363
▁München	363
▁MJ	363
▁Brooke	363
▁Ion	363
▁UPS	363
rac	363
▁Wong	363
▁Rik	363
store	363
▁Chal	363
▁Jasmine	363
▁Aachen	362
▁Planetary	362
▁Raja	362
▁Citizen	362
▁Francesco	362
▁Salad	362
lus	362
▁Gourmet	362
▁IM	362
UG	362
▁Eli	362
▁Around	362
▁Flats	362
ige	362
SS	362
▁Royce	362
▁Amusement	362
▁Bram	362
▁Assistant	362
▁Jorge	362
▁Drugs	362
bla	362
yon	361
boat	361
▁Instruments	361
▁Herr	361
▁Wadden	361
▁PARK	361
YS	361
▁Charging	361
▁Depot	361
▁Mandarin	361
▁Utility	361
▁Purchase	361
▁Hit	361
▁Chili	361
▁Groen	361
ome	361
▁Kata	361
▁Jung	361
nal	361
tain	361
▁Stern	360
▁Hogeschool	360
▁Ethics	360
kova	360
▁Peru	360
▁TO	360
▁Shangri	360
▁Phi	360
▁WordPress	360
▁Nassau	360
▁Pitch	360
▁Tales	360
hoek	360
▁Flor	360
▁Diner	360
▁Please	359
▁Bulb	359
▁WA	359
▁Build	359
▁Aka	359
▁Naked	359
enstein	359
kas	359
onne	359
SK	359
▁Pneumatic	359
▁Mirage	359
▁Pascal	359
▁Armenian	359
BO	359
AZ	359
©	359
▁VAN	359
bes	359
ever	358
▁Moulin	358
▁Bak	358
▁center	358
▁Lex	358
▁Azur	358
▁CON	358
▁Psycho	358
▁Pirate	358
▁time	358
▁Airborne	358
▁Banana	358
▁Lor	358
▁Jammer	358
▁Til	358
▁Bold	358
▁Hunting	358
▁Raven	358
ern	358
dic	358
▁Stads	358
▁Snake	358
▁Lar	358
▁Classe	358
▁Iceland	358
OB	358
▁Ox	358
▁Marquis	357
▁BT	357
▁Gorge	357
▁Charming	357
▁Peoples	357
▁Philippine	357
▁Antique	357
▁Christians	357
chon	357
▁Layer	357
▁Ages	357
▁Stones	357
▁Flip	357
▁Teresa	357
▁Overview	356
▁Whole	356
▁Peel	356
▁Bouw	356
▁Vale	356
▁Gilbert	356
stadt	356
▁QC	356
▁Bentley	356
VO	356
▁Jia	356
▁Landing	356
OT	355
▁Whats	355
▁Entrance	355
▁Margarita	355
exact	355
▁Bratislava	355
▁Native	355
▁Vietnamese	355
▁het	355
▁Grip	355
▁Fellowship	355
▁Removal	355
▁Categories	355
▁MV	355
▁Yard	355
▁bus	355
▁Linde	355
▁Nokia	355
▁WE	355
▁Pablo	355
▁Weber	355
▁Cosmetic	355
▁Riva	355
▁Brighton	355
▁Barrier	354
▁Discount	354
anza	354
▁MRT	354
▁Tay	354
tree	354
▁Cricket	354
▁Bottom	354
▁Sil	354
▁Brook	354
gur	354
▁Wells	354
▁Consultants	354
▁Animation	354
▁Ways	354
▁Evo	354
▁Warner	354
▁Combi	354
iro	354
▁Strait	354
▁Temporary	354
even	353
IC	353
▁Zinc	353
iano	353
oka	353
▁Blank	353
▁Sewing	353
▁Corridor	353
▁Alpen	353
▁Merit	353
▁Oss	353
ANT	353
▁Pullman	353
är	353
▁DR	353
site	353
▁Yak	353
wy	352
fire	352
▁SV	352
▁Jackpot	352
▁Sharing	352
▁Corfu	352
▁Million	352
▁KN	352
▁Tyler	352
ement	352
▁Stuart	352
▁Elvis	352
▁Mack	352
vision	352
▁Alpes	352
▁Floating	352
▁Mist	352
▁Sue	352
▁Olivia	352
▁Moreover	352
▁Politics	352
▁WP	352
▁Quiet	351
▁DHL	351
▁Dans	351
rá	351
▁Regina	351
▁free	351
▁Membership	351
▁Schmidt	351
Air	351
▁Rosemary	351
RP	351
horst	351
▁Brava	351
lim	351
▁Factor	351
pra	351
▁Loo	351
dre	351
▁Shows	350
hall	350
▁Rafael	350
▁Shine	350
▁Peri	350
brug	350
▁Vid	350
BB	350
Web	350
▁Clothes	350
▁Witch	350
Contact	350
▁Schloss	350
▁Chinatown	350
gli	350
▁Recreation	350
iel	350
zone	349
▁MM	349
▁Olga	349
▁Amar	349
▁Stat	349
gno	349
▁MT	349
dorf	349
▁PADI	349
▁Halloween	349
▁Gloria	349
CM	349
té	349
▁VW	349
▁Dre	349
agh	349
▁Protestant	349
stand	349
oi	349
abi	349
▁Voyage	349
ï	349
▁Dol	349
▁Siege	349
▁Plage	348
▁Kap	348
▁Kirk	348
▁Shelter	348
TC	348
▁Fletcher	348
▁Penta	348
▁work	348
elaar	348
▁Hardcore	348
▁Thu	348
heid	348
▁CN	348
▁Sword	348
▁Turtle	348
▁Coming	348
▁Sleeve	347
kat	347
▁Vault	347
▁Batt	347
▁Trends	347
alm	347
▁Zell	347
▁Darwin	347
▁Coins	347
▁Vil	347
▁Reporting	347
▁Invest	347
▁Coal	347
▁Caesar	347
▁Guan	347
▁Haut	347
▁Redhead	346
▁Sauna	346
▁Lorenzo	346
▁Ile	346
▁Element	346
tia	346
▁Laboratories	346
▁Sir	346
tani	346
▁Texel	346
get	346
▁Coated	346
▁Wer	346
▁WW	346
▁Oyster	346
Bo	346
roll	346
▁Managed	345
nus	345
cus	345
▁Ramblas	345
▁Pis	345
▁Vegetable	345
▁Opportunities	345
▁Colon	345
▁UNI	345
▁Ohio	345
oul	345
▁Faro	345
▁Connected	345
▁Brittany	345
▁SG	345
▁Combined	345
▁Scheveningen	345
▁Tradition	345
▁Codes	344
▁Flamingo	344
code	344
▁Spice	344
▁Bulletin	344
▁Decision	344
law	344
HI	344
hard	344
▁Seville	344
▁Cork	344
MG	344
▁Biological	344
▁Glas	344
▁Chania	344
▁Holm	344
centrum	344
▁Ned	344
gua	344
AT	344
▁Cham	344
▁Poll	344
lecommunications	343
▁EM	343
▁Pixel	343
een	343
▁Sé	343
▁international	343
▁Shang	343
▁Reis	343
▁Granite	343
▁Conservatoire	343
▁design	343
tone	343
gh	343
▁Denim	343
gie	343
NE	343
▁Lok	343
▁Siam	343
▁However	343
yr	343
▁Linden	343
▁Diary	343
▁Allied	342
▁Dé	342
asi	342
mix	342
▁Rebecca	342
CL	342
▁Zhejiang	342
▁Medina	342
▁Finger	342
KS	342
▁architecture	342
▁Mart	342
▁COM	342
▁EVA	342
court	342
dorp	342
▁February	342
▁SR	342
▁Hugh	342
▁Luigi	342
▁Eau	342
hn	341
mini	341
▁Ships	341
▁Constant	341
▁Rising	341
mine	341
▁Mature	341
▁Cel	341
▁Fairmont	341
▁Xiamen	341
▁Greenland	341
▁Hyde	341
▁Curtain	341
▁Stro	341
▁Pagoda	341
▁Tire	341
▁cat	341
▁Wisconsin	341
▁Mach	341
stre	341
▁Busty	340
▁Samantha	340
▁Plans	340
▁Tommy	340
▁Cohen	340
▁Southwest	340
▁Lanta	340
FS	340
▁Blvd	340
gues	340
▁factory	340
å	340
▁Mos	340
▁Taj	340
▁SI	340
▁Atomic	340
▁Citadel	340
ill	340
▁out	340
▁Cradle	340
▁Jen	340
▁Keith	340
▁Finca	340
▁MAR	340
ANA	339
▁Evil	339
▁Chad	339
▁Zak	339
▁Penguin	339
tail	339
▁Keeper	339
▁CSI	339
▁Inca	339
▁Smoke	339
▁Bathrooms	339
▁Ningbo	339
▁Posted	339
▁KU	339
▁Heinrich	339
tina	339
▁Conrad	339
▁Castello	339
▁Brad	339
▁Rita	339
oise	339
▁Clarion	339
▁Sevilla	339
▁AIR	339
▁Betty	339
uit	339
▁w	339
▁Dynasty	338
▁HA	338
omi	338
▁Stephanie	338
▁Hebrew	338
▁Responsible	338
hoeve	338
▁Claudia	338
▁Cluster	338
▁Melissa	338
▁au	338
▁Leipzig	338
ines	338
▁Wai	338
▁Nickel	338
▁Warrior	338
▁Nes	338
▁Rico	338
▁Bulgaria	338
mura	338
▁Byzantine	338
▁Rules	338
cra	338
▁Hoch	338
▁Walloon	337
▁Fil	337
▁Tractor	337
jia	337
festival	337
▁Baseball	337
play	337
MI	337
▁Swift	337
▁Abel	337
▁Denver	337
▁Midnight	337
▁Aga	337
▁Turk	337
▁Humanitarian	337
pie	337
sac	337
▁Rocks	337
Cam	337
insky	337
mur	337
▁Walt	337
▁Jansen	337
ET	337
OC	337
isi	337
▁Lunar	337
▁Irene	336
▁Dino	336
▁Elegant	336
▁pa	336
▁Ding	336
▁Inspiration	336
▁Comment	336
▁Oranje	336
cum	336
TL	336
sio	336
Ü	336
base	336
▁will	336
▁mar	336
▁Assist	336
▁Newton	336
▁Passport	336
gia	336
▁Peer	336
▁Palmer	336
IG	336
▁Sum	336
▁Castillo	336
nian	336
ovic	335
▁Alexa	335
BE	335
Work	335
▁Luggage	335
▁Stedelijk	335
▁Neil	335
▁style	335
▁Breeze	335
GA	335
▁Badge	335
▁Français	335
▁camp	335
▁Pornstar	335
temperature	335
cker	335
▁Institutions	335
▁Hoge	335
girl	335
▁home	334
▁Affiliate	334
▁Tran	334
bis	334
▁Cre	334
lip	334
▁EV	334
erd	334
▁Perry	334
▁Boon	334
▁Bucket	334
▁Grinder	334
▁CAT	334
cken	334
▁Pins	334
esi	334
▁Qa	334
GP	334
▁Toll	334
AD	334
▁Eclipse	334
▁Walls	334
ude	334
▁Vig	334
▁Neg	334
▁Malt	334
llo	333
gem	333
▁Agents	333
▁Maid	333
tric	333
PR	333
▁Lud	333
▁Cameron	333
pic	333
KA	333
▁Thing	333
▁Protect	333
▁Fonds	333
▁Cuisine	333
DER	333
ange	333
▁Warren	333
▁Diploma	333
▁Gorges	333
▁Its	333
inck	333
▁Crossing	333
▁Frost	333
▁Quebec	333
▁Wake	333
▁Amersfoort	333
▁Object	333
▁Gert	333
▁Actuator	333
ete	332
	332
▁Botanic	332
▁TH	332
▁Bey	332
phon	332
▁Forward	332
▁Koninklijke	332
▁Pete	332
▁Gross	332
▁Bund	332
▁Console	332
jon	332
zhi	332
▁Ris	332
vest	332
▁Whiskey	332
▁Natura	332
▁Innovative	332
▁Porno	332
vir	332
▁Mes	332
▁Butter	332
▁Cannabis	332
serv	332
bb	332
▁Magna	332
▁Gorgeous	332
▁Patrol	331
▁centre	331
▁Folder	331
▁Dra	331
rus	331
mir	331
▁Pumps	331
▁Hire	331
▁Prefecture	331
hausen	331
▁Jumeirah	331
qi	331
▁Kla	331
▁Scuba	331
ppen	331
▁Lund	331
▁Michelin	331
▁Sahara	331
▁Cabo	331
▁Ges	331
▁Trees	330
▁Hannah	330
▁Rub	330
▁Judith	330
enza	330
aj	330
Mar	330
▁Maris	330
▁Kenya	330
▁Marche	330
▁Garni	330
▁Orion	330
▁Advice	330
▁Mango	330
▁Donna	330
▁Zar	330
Box	330
▁Bellevue	330
▁Bahia	330
▁Steps	330
▁report	329
▁Merry	329
wel	329
▁Geert	329
▁Constitutional	329
▁Guarantee	329
▁Palms	329
▁VDL	329
PP	329
▁Rica	329
▁fa	329
▁Destination	329
▁Universiteit	329
▁Tit	329
▁Naughty	329
▁post	329
TP	329
▁Fork	329
▁Chic	329
▁Pisa	329
ois	329
▁HC	329
▁Acropolis	329
Go	329
▁Shakespeare	328
▁Petroleum	328
ß	328
▁Tail	328
▁Beth	328
▁Cote	328
▁Université	328
▁Marketplace	328
▁news	328
front	328
▁Vanessa	328
bek	328
▁Sus	328
▁Roosevelt	328
theater	328
▁Alu	328
▁Stewart	328
▁RO	328
▁Bernhard	328
▁Panasonic	328
UE	328
NC	328
unt	328
▁Rd	328
▁ad	328
▁Regulatory	327
pop	327
▁Philipp	327
▁Liv	327
▁Wish	327
▁Gira	327
▁Hindu	327
▁Punch	327
▁Copa	327
▁Exercise	327
ffer	327
▁Luca	327
▁Gifts	327
▁Apo	327
idi	327
bil	327
▁Premiere	327
vil	327
▁Vessel	327
LAND	327
▁course	327
▁María	327
▁Gr	327
CU	326
AC	326
▁Coconut	326
▁Cartoon	326
▁Ek	326
uta	326
▁Fraser	326
▁Angelo	326
▁Taipei	326
▁CLUB	326
▁Clement	326
nin	326
▁Glow	326
▁Cedar	326
elo	326
▁another	326
▁Jenny	326
rate	326
▁Intellectual	326
▁Nero	325
rea	325
▁Soho	325
▁Szálloda	325
▁Castro	325
▁Towels	325
▁Grain	325
▁Heide	325
sar	325
▁Dijk	325
▁EF	325
▁Goose	325
oso	325
▁RA	325
▁Joost	325
▁Panzer	325
▁Regis	324
▁Rip	324
▁Kis	324
▁Compass	324
▁Poultry	324
▁per	324
▁Camper	324
▁Appeal	324
▁race	324
▁VU	324
▁Gale	324
▁Egmond	324
▁Oyo	324
▁Kala	324
▁Len	324
▁Score	324
SH	324
▁Veterans	324
▁Tau	324
▁Prima	324
▁Xiao	324
▁Hun	324
▁VA	324
▁Fou	324
▁Hei	323
▁Eight	323
SB	323
St	323
▁Sukhumvit	323
▁Nikki	323
▁Leaders	323
▁Cruises	323
▁Legacy	323
mac	323
▁Lao	323
▁Passeig	323
▁Consulate	323
SON	323
bau	323
issen	323
▁Distillery	323
arn	323
UP	323
▁Yves	323
igny	323
▁Worth	323
▁Mushroom	322
HR	322
▁Learn	322
▁Infinity	322
MM	322
▁Appliance	322
▁go	322
▁Assemblies	322
▁Serbia	322
▁KL	322
▁Nile	322
▁Helmet	322
post	322
▁Société	322
▁Wagner	322
▁VILLA	322
RF	322
▁every	322
▁Zebra	321
gaard	321
ain	321
▁Languages	321
▁Sheets	321
▁Sk	321
▁Agreement	321
▁Paw	321
▁Julien	321
▁Cocktail	321
▁Dimension	321
pre	321
▁Sitemap	321
hel	321
▁Nis	321
ct	321
▁Keys	321
reg	321
▁Buch	321
▁Operational	321
ente	321
▁Title	321
▁Balls	321
É	321
▁TA	321
▁Kensington	321
▁Stephan	321
▁Orient	321
▁Christophe	321
▁Bour	321
PT	321
▁Fried	321
FE	320
▁Nurse	320
▁Visitors	320
▁PU	320
ð	320
nar	320
▁Heather	320
FL	320
La	320
▁Chevrolet	320
▁Chopin	320
rk	320
▁Jehovah	320
▁Dylan	320
▁Minutes	320
▁Smoking	320
▁iPad	320
▁head	320
▁Embroidery	320
▁Cairo	320
▁Crow	320
▁Cons	320
cell	320
▁Hersonissos	320
▁Vac	320
▁Tina	320
sley	320
▁Antarctic	319
ration	319
▁Estonian	319
▁Bench	319
▁Omar	319
DB	319
▁Cau	319
▁Trace	319
▁Olympus	319
▁Shaw	319
▁Cité	319
▁Relay	319
▁map	319
▁Cornelis	319
▁Arcade	319
▁LCD	319
▁Butler	319
▁Jubilee	319
▁BW	319
▁UC	319
jiang	318
▁Monuments	318
▁Murray	318
▁Soil	318
▁Individual	318
▁Sit	318
lem	318
▁Sharp	318
uc	318
▁Vers	318
▁Chanel	318
▁Colin	318
▁Numbers	318
▁Paula	318
yard	318
▁Publishers	318
▁Illinois	318
▁Sab	318
tsch	318
inus	318
xa	318
▁Duchess	318
▁Publications	318
▁Killer	318
ça	318
▁Arbitration	317
▁Fed	317
▁Effect	317
DI	317
tim	317
etz	317
▁Planner	317
▁Owners	317
▁Slurry	317
▁nature	317
▁Harold	317
▁Into	317
mie	317
Line	317
eus	317
amba	317
▁Martha	317
▁Heads	317
▁Restoration	317
ović	317
▁Emmanuel	317
▁Warranty	316
▁Bobby	316
▁Archi	316
OK	316
▁Rabobank	316
▁Residential	316
▁Aria	316
▁Plane	316
▁railway	316
ister	316
▁Merchant	316
anga	316
▁department	316
▁Playing	316
▁peninsula	316
mail	316
lamp	316
▁Vogel	316
fabriek	316
▁PayPal	316
▁Rudolf	316
▁her	315
▁HS	315
▁Interest	315
▁Leading	315
eke	315
loo	315
▁Volt	315
assi	315
▁Sleeping	315
pay	315
▁Bleu	315
▁Auberge	315
PM	315
▁Igor	315
▁Tits	315
▁Unlimited	315
▁Sang	315
oud	315
▁Buddy	315
▁Rooftop	315
▁Frequency	315
enhof	315
▁Fucks	315
▁PL	315
rising	315
▁Brink	315
ovsky	315
▁Chick	315
GS	315
▁Og	315
▁Purpose	315
tru	315
▁Edgar	315
▁Exam	315
▁Boxing	315
▁Chance	314
▁Chor	314
▁BL	314
▁IR	314
▁JA	314
GE	314
▁Leeds	314
▁Agnes	314
▁Essen	314
▁Astrid	314
bie	314
▁Syria	314
bouw	314
▁Footwear	314
▁Incident	314
▁Kad	314
born	314
▁Consultant	314
▁Algarve	314
▁Matter	314
▁SMS	314
▁Facial	314
▁Proof	314
▁Mineral	313
▁Rin	313
▁Tropez	313
▁Bonn	313
▁LIMITED	313
skiy	313
ân	313
▁Luz	313
▁fair	313
▁Fle	313
dé	313
▁Barbie	313
ijs	313
▁Alain	313
▁Hitler	313
▁Fischer	313
▁PhD	313
vert	313
▁Favorite	313
▁love	313
zie	313
▁Pil	312
▁Duomo	312
▁Madonna	312
▁Rogers	312
▁Rud	312
▁Raspberry	312
▁Chez	312
▁Prado	312
▁each	312
ô	312
▁Kris	312
▁Seine	312
OUR	312
▁Weiss	312
ault	312
▁Commodore	312
▁Ahmed	312
dell	312
inho	312
ATION	312
ega	312
COM	312
▁Joshua	312
▁Meuse	312
▁Guru	312
▁Berk	312
▁Orchard	312
▁Fern	312
was	312
▁KLM	312
▁Jal	312
▁GC	312
▁Lev	312
▁Servo	312
ort	311
▁Sheng	311
▁Franc	311
vey	311
▁Edwards	311
▁Kost	311
▁Contacts	311
▁Skype	311
▁RAI	311
gat	311
▁Sap	311
▁Canaria	311
meter	311
▁Paseo	311
DF	311
▁Motorsport	311
▁Lottery	310
Point	310
▁Viktor	310
▁Garcia	310
MB	310
▁Brig	310
▁Reply	310
lat	310
▁version	310
▁Jura	310
▁Werner	310
▁Crest	310
▁Sher	310
tern	310
sam	310
vol	310
▁Cuban	310
▁Navi	310
▁Excelsior	310
▁Evaluation	310
▁Bastion	310
▁Pill	309
▁Fritz	309
▁Waal	309
▁Horses	309
oun	309
igo	309
ensis	309
▁Soleil	309
▁MINI	309
MAN	309
▁Synod	309
News	309
hole	309
tive	309
try	309
uni	309
ön	309
host	309
▁Nothing	309
▁Libre	309
ANG	309
▁Croix	309
cott	309
▁Transmitter	309
▁Strasbourg	309
▁Bran	309
eth	309
▁Population	309
▁Bazaar	309
▁Ecole	309
▁ABN	308
ilo	308
▁Disaster	308
▁Porter	308
hir	308
▁Bianca	308
▁Vrije	308
▁Socks	308
ations	308
lich	308
▁Apt	308
▁Singh	308
▁Lys	308
TR	308
▁Dashboard	308
▁Princes	307
IR	307
▁Fingering	307
▁Highland	307
▁Request	307
▁Cameltoe	307
pos	307
▁Wrap	307
▁Metz	307
▁Bala	307
oz	307
eu	307
▁Agua	307
▁Writing	307
▁Currency	307
▁Heng	307
▁Sid	307
▁te	307
▁Adriatic	307
eff	307
▁Lima	307
asso	307
▁Neptune	307
akis	307
▁Darling	306
Live	306
▁Alle	306
▁Stamp	306
▁Scout	306
▁Celtic	306
▁Mitte	306
▁Uniform	306
▁Blossom	306
▁Regulation	306
▁Hung	306
▁Lama	306
uel	306
sum	306
▁Triathlon	306
▁Sharm	306
▁Cay	306
die	306
▁Pages	306
▁Install	306
ğ	306
▁Hyundai	306
ARD	306
fra	306
RY	305
▁Infra	305
roy	305
▁Lands	305
▁Startup	305
▁Pendant	305
▁Role	305
▁Controls	305
▁Flyer	305
▁Barbour	305
▁Bree	305
logic	305
▁Documentary	305
evo	305
▁Erotic	305
▁ten	305
▁Cox	305
ques	304
▁Surveillance	304
▁Hawaii	304
Care	304
▁Sergey	304
imo	304
▁Zwolle	304
pression	304
rey	304
▁Rei	304
▁Conti	304
▁Lloret	304
▁collection	304
▁Sven	304
ld	304
▁RAM	304
▁AK	304
trop	304
▁Yuri	304
eon	304
▁mo	304
▁Awareness	304
▁Hermann	304
▁CF	304
▁Troy	303
▁Platz	303
▁Andro	303
MT	303
rit	303
love	303
▁Roberts	303
▁Hoist	303
▁Soon	303
▁Prat	303
ASS	303
▁Xavier	303
▁Collar	303
▁Channels	303
▁Necklace	303
▁Dip	303
▁Cello	303
▁Essential	302
group	302
▁HI	302
▁Jake	302
▁Massachusetts	302
grad	302
▁Advantage	302
▁Inclusive	302
til	302
iere	302
▁Iz	302
▁Leone	302
fall	302
gle	302
dian	302
IMA	302
ej	302
ís	302
▁Shandong	301
▁Shaft	301
▁Terrier	301
▁Whit	301
bé	301
▁Providers	301
▁Agile	301
lli	301
▁Northeast	301
▁Wonderland	301
▁Corrugated	301
RI	301
▁Remembrance	301
▁Madagascar	301
▁ET	301
▁Must	301
▁Tir	301
▁Comet	301
▁IABR	301
▁Português	301
▁Gibson	301
▁PT	301
▁Shift	301
▁Adults	301
▁Unified	301
▁Farmer	300
▁GROUP	300
▁SME	300
eux	300
▁Biennial	300
▁Clutch	300
▁Licht	300
▁Jesse	300
▁Tarpaulin	300
▁Rap	300
makers	300
▁Hotell	300
name	300
▁Rhe	299
View	299
▁Versailles	299
▁Wallonia	299
Ha	299
▁Towel	299
DM	299
▁Beard	299
▁Vilnius	299
▁Saxon	299
▁Sean	299
▁Evi	299
▁HMS	298
▁Ninja	298
▁Halle	298
▁Yoshi	298
▁Mina	298
▁Sera	298
▁Presentation	298
▁Mickey	298
▁Penny	298
▁Rewards	298
▁Dordogne	298
▁Warning	298
Ro	298
▁SB	298
▁Isabella	298
▁Balkan	298
Coin	298
inn	298
▁Reichs	298
▁Adelaide	298
▁Sprint	298
esse	298
▁Colombia	298
▁Browser	298
erij	298
▁Heer	298
▁Dusseldorf	297
▁Medici	297
shire	297
▁Opéra	297
▁Tune	297
prijs	297
▁Crash	297
▁Cloth	297
aar	297
uba	297
▁BBW	297
▁MI	297
▁DM	297
▁Reel	297
▁BEACH	297
▁Ami	297
▁Jinan	297
▁group	297
▁Covenant	297
▁Farmers	297
▁Morocco	297
▁Cavalry	297
▁Dura	297
▁ibn	297
▁Twist	297
doc	297
▁Burton	297
leg	297
▁Alaska	297
▁Tak	297
scan	297
HC	297
▁Hermes	297
▁Frog	296
▁Ani	296
▁Lung	296
▁Quint	296
▁Paolo	296
▁Fabrics	296
BM	296
▁Parish	296
▁Thin	296
▁Lola	296
lang	296
▁temple	296
▁Caterpillar	296
LP	296
▁Interview	296
ilia	296
▁Shipyard	296
▁Bourbon	296
▁Sessions	296
▁Mut	296
▁Velcro	296
▁Adhesive	296
▁Rab	296
▁Celebration	296
▁Scandic	296
▁Computing	296
▁Schwarz	295
▁Barra	295
og	295
▁Accreditation	295
▁Thousand	295
▁Conflict	295
path	295
▁Landmark	295
FM	295
▁Rijksmuseum	295
▁dos	295
▁Visser	295
▁Smit	295
▁Situated	295
▁XXL	295
▁Sis	295
▁Palau	295
hana	295
ienne	295
▁Jonas	294
▁Cliff	294
tam	294
sat	294
▁LEGO	294
▁Georgian	294
▁Ahmad	294
zio	294
▁Mobil	294
▁Wellington	294
▁Emp	294
▁Domestic	294
uz	294
style	294
▁Hassan	294
▁Floral	294
▁other	294
öl	294
▁Camel	294
▁WD	294
bai	294
▁Vu	294
act	294
▁Sharon	294
▁Nevada	294
place	294
▁Berger	294
▁Yas	294
sys	293
▁Panoramic	293
▁Eaton	293
qa	293
▁Cri	293
▁ALL	293
▁Suspension	293
▁Guides	293
cis	293
▁Fighting	293
TIC	293
sse	293
▁Handbook	293
▁Koch	293
▁Vas	293
ér	293
ICE	293
▁Sotheby	293
▁about	293
umba	293
ough	293
▁ICC	293
▁Drawing	293
▁Klaus	293
NL	293
NI	293
▁Playground	293
▁Guangdong	293
PH	293
oh	293
▁Pers	293
▁Ramon	293
FX	293
▁Writers	293
▁Hem	292
UL	292
▁Sou	292
▁Documentation	292
▁Doo	292
▁Harrison	292
igh	292
▁Adagio	292
▁more	292
Ar	292
▁Wendy	292
▁FREE	292
▁Harvey	292
▁Ey	292
▁Math	292
▁Arn	292
▁Théâtre	292
▁Astoria	292
▁Gallo	292
▁Mohamed	292
▁Tek	292
▁Fiberglass	292
▁Spec	292
▁Zand	292
▁Personnel	292
▁Moh	292
IVE	292
▁Sed	292
▁Sakura	292
▁Grange	292
▁Gong	291
▁Ruhr	291
▁Dolce	291
▁Rep	291
Car	291
▁Articles	291
%	291
▁Shoulder	291
▁Zan	291
▁Kingston	291
▁Lem	291
▁Novi	291
▁Squad	291
▁Tribute	291
▁Shampoo	291
▁Heinz	291
▁Bingo	291
▁Sage	291
ghi	291
dine	291
▁Lei	291
▁Biz	291
▁Splash	291
▁Isa	291
eder	291
▁Wiki	291
▁Chalets	291
▁Cats	291
▁Jupiter	291
▁Torres	291
AB	291
▁Lords	290
▁Infinite	290
eurs	290
▁Takes	290
▁big	290
Be	290
▁Normal	290
▁Vine	290
▁Kro	290
ison	290
▁Expertise	290
cup	290
▁Simone	290
▁Alison	290
▁Prior	290
▁AAA	290
▁Vier	290
▁Once	290
▁Zhi	290
▁Greenhouse	290
▁Kite	290
▁Sie	290
▁Ut	290
▁GM	290
▁Cour	290
ids	290
▁CBD	290
▁Matte	290
▁Som	290
▁Citroën	290
rina	289
won	289
▁Tyrol	289
▁Won	289
▁Pads	289
▁Fol	289
Li	289
▁Bosnia	289
▁Espresso	289
table	289
▁Sander	289
▁Welt	289
▁Asylum	289
▁HE	289
▁Muse	289
▁Doors	289
ł	289
▁Spi	289
▁Lis	289
▁Trains	289
▁Paphos	289
ppe	289
▁Critical	289
▁Words	289
▁Spr	289
▁Lies	289
▁Lotto	289
lex	289
▁Lava	289
IB	289
sim	289
▁Venezia	289
▁Cent	289
▁Fr	289
▁Tactical	289
▁Athletic	289
▁Dunes	288
GN	288
▁Said	288
▁part	288
▁Alexandre	288
▁Harper	288
▁VIII	288
▁Investments	288
▁Vieux	288
▁Holstein	288
▁Katie	288
winkel	288
GO	288
▁NI	288
▁Panels	288
▁Gemini	288
▁Xing	288
▁h	288
▁Trattoria	288
▁Humanity	288
▁Guang	288
VI	288
▁Protocol	288
▁Clash	288
▁Postal	288
▁Commissioner	288
▁Deer	288
sil	288
▁Robo	287
▁iTunes	287
▁Suzhou	287
ole	287
▁Clo	287
ious	287
ave	287
▁Used	287
▁Loader	287
kal	287
▁site	287
▁Links	287
▁INTERNATIONAL	287
Art	287
▁Moroccan	287
▁Rebar	287
▁Elsa	287
▁Families	287
▁Harness	287
▁Recording	287
▁Vino	287
▁Milton	287
ify	287
▁Berkeley	287
▁Crop	287
tino	287
▁Grammy	287
▁Teddy	287
▁Kleine	287
▁Tig	286
▁Gerrit	286
▁Tone	286
Life	286
▁Rolf	286
▁Vy	286
▁Atrium	286
lund	286
▁Enschede	286
▁BVBA	286
ult	286
▁Siberian	286
LS	286
nce	286
▁Yachts	286
sure	286
▁Hum	286
▁Grim	286
▁Pam	286
▁Aya	286
▁Chau	286
▁Jeanne	286
▁Intensive	286
IAN	286
aert	286
vat	286
▁Edwin	286
▁Homestay	286
▁Bunny	286
▁Gad	286
AH	286
▁Nottingham	285
kie	285
▁DX	285
▁Bog	285
▁Bakker	285
▁Fel	285
▁Veluwe	285
▁Reception	285
▁Stranger	285
▁Sheep	285
▁Karma	285
▁Feet	285
▁Owl	285
ating	285
▁Murphy	285
▁Infrared	285
▁Beverage	285
mers	285
TT	285
mmel	285
▁music	285
▁Molen	285
▁Observation	285
▁Elements	285
▁Hull	285
▁Larry	285
Hotel	285
▁GE	285
▁Codex	285
▁Rossi	285
▁Opti	285
▁Pile	285
OP	284
▁name	284
▁Structure	284
▁Boo	284
▁Lap	284
▁Zam	284
sea	284
▁Dressing	284
▁Slav	284
▁Catalog	284
▁Instituut	284
▁Banner	284
▁Lea	284
ART	284
EO	284
▁Isis	284
will	284
sole	284
▁Samui	284
graf	284
▁Ningxia	284
▁Bie	284
▁Girona	284
CP	284
rol	284
▁Journalism	284
▁Kia	284
▁Thinking	284
▁Graf	284
▁Dora	284
▁Aegean	284
▁Kemp	284
DO	284
▁Hue	284
▁Bauer	284
▁Aus	284
illon	284
▁Muscle	284
LF	284
▁Magi	283
▁Sche	283
oord	283
▁Stanford	283
▁Dordrecht	283
▁GA	283
▁Term	283
▁Stallion	283
kra	283
walk	283
▁Same	283
▁Monday	283
▁Bes	283
▁Matsu	283
▁Karin	283
▁Accounts	283
▁EOS	283
▁Dakar	283
▁Moment	283
coin	283
▁Gru	283
▁Victorian	283
▁Kawa	283
▁Dim	283
nk	282
safe	282
▁Keyboard	282
verse	282
kor	282
▁Plasma	282
▁Stre	282
▁top	282
▁Jacuzzi	282
iah	282
▁Indiana	282
alla	282
tong	282
▁bij	282
▁Zoe	282
live	282
▁Stripe	282
▁Washing	282
omo	282
▁Tipard	282
▁Dye	282
▁Antoni	282
hold	282
▁Romance	282
▁Gets	282
▁Soup	282
▁Excavator	282
▁Panther	281
▁Cub	281
▁Verdi	281
▁Hawk	281
mare	281
▁Scholarship	281
▁Roberto	281
▁Humanities	281
▁Lib	281
poli	281
▁Musik	281
▁Calcium	281
▁Hab	281
▁Gouden	281
▁Cen	281
▁Praia	281
▁Adi	281
▁Forte	281
▁Ooster	281
may	281
▁Joel	281
▁BO	281
cross	280
yk	280
▁Handling	280
▁Profit	280
▁Missouri	280
▁TNT	280
fel	280
▁Estates	280
▁Od	280
▁Entry	280
bir	280
dou	280
▁Fore	280
iga	280
RD	280
▁Dodge	280
▁Anonymous	280
▁Nie	280
huizen	280
▁Funds	280
ILL	280
▁Bomber	280
▁Rong	279
▁Benedict	279
▁sub	279
▁Ars	279
▁Brandenburg	279
▁SIM	279
▁Dakota	279
▁Polytechnic	279
▁TB	279
▁Maru	279
▁Nexus	279
▁Dei	279
▁Lit	279
▁Nana	279
▁Article	279
bond	279
▁Edison	279
▁Poster	279
▁KA	279
▁Tablets	279
▁Dominique	279
▁LI	279
▁Very	279
▁Rothschild	279
▁Prices	279
▁Gilles	279
▁Finals	279
▁Colors	279
▁Elle	279
▁Monde	278
▁Vida	278
▁Chuck	278
▁Sims	278
▁Wolfgang	278
vic	278
▁Cement	278
▁Notice	278
▁Bing	278
▁Junction	278
▁Elastic	278
kara	278
▁Getting	278
fonds	278
▁Horizontal	278
▁Jolie	278
▁Hash	278
▁Household	278
▁Rhythm	278
▁Barbecue	278
▁Foil	278
▁Pon	278
▁Jordaan	278
mani	278
▁Decor	278
▁Mayo	278
▁Spectrum	278
▁Fontaine	278
▁Pyrolysis	278
▁Fog	278
▁Clan	278
tten	278
▁OC	278
▁Gut	278
▁Trim	278
▁Macedonia	277
egg	277
▁Avi	277
▁Wilde	277
▁Kyriad	277
case	277
▁BK	277
feng	277
▁SEO	277
▁Straße	277
das	277
▁Braun	277
wu	277
▁Imaging	277
hand	277
yer	277
scher	277
▁Mermaid	277
▁Wuhan	277
▁Ministries	277
▁Using	277
„	277
▁white	277
▁Notebook	277
▁Overseas	277
▁Soldier	277
▁ART	277
▁Ria	277
▁ring	277
▁Swa	277
▁Loc	276
▁Glenn	276
▁Xàbia	276
▁Universidad	276
tch	276
xia	276
▁DAF	276
▁Augustus	276
▁Viewer	276
ters	276
TF	276
▁data	276
▁Ariel	276
▁Replacement	276
▁Sak	276
▁Refrigeration	276
▁Detroit	276
▁Stad	276
▁hill	276
▁Anastasia	276
Guard	276
▁Departure	276
▁Pull	276
LI	276
▁Rust	276
eli	276
▁Boost	276
▁Twelve	275
FP	275
▁Unix	275
chem	275
▁Charcoal	275
spot	275
▁Tr	275
▁Airline	275
khan	275
▁KC	275
bei	275
▁Harp	275
nice	275
▁Stack	275
boot	275
gio	275
▁Did	275
▁Wein	275
▁Terror	275
▁Lena	275
▁Instructor	275
hm	275
▁Zhou	275
▁Vocal	275
▁Wiel	275
▁Monroe	275
▁Convent	275
rei	275
▁Fiesta	275
▁AND	275
▁Spirits	274
▁Teachers	274
fix	274
▁Priest	274
▁Aki	274
AU	274
▁Daddy	274
GC	274
usa	274
▁Marianne	274
dai	274
▁Kawasaki	274
▁Suit	274
▁Jur	274
▁Sabbath	274
▁Sec	274
▁SN	274
▁Kum	274
▁HTC	274
fur	274
▁Whisky	274
xxx	274
▁Cruiser	274
bak	274
▁Publisher	274
▁Mast	274
▁Saddle	273
▁Stor	273
eno	273
IF	273
▁Shake	273
CON	273
▁Magnus	273
▁Sexual	273
▁Asus	273
▁Organisations	273
New	273
▁Aqualand	273
▁Gill	273
▁Extrusion	273
▁Vela	273
guard	273
▁Jiangsu	273
▁Scenes	273
▁Kung	273
ride	273
▁Crescent	273
▁Integrity	273
▁HU	273
▁Peters	273
RIS	273
station	273
▁Augustine	273
▁Companion	273
big	273
▁Syndrome	273
▁XS	273
▁Architectural	272
▁Montana	272
▁Naka	272
▁Doubletree	272
▁Adidas	272
porn	272
▁UCI	272
hoe	272
▁gate	272
dent	272
▁Gia	272
▁Reina	272
▁Fetish	272
▁Marian	272
▁Colorful	272
▁Associates	272
▁Crab	272
▁Louvain	272
▁Zur	272
▁ministry	272
pal	272
▁Bikes	272
ingham	272
▁BLUE	272
▁Como	272
▁Forestry	272
aud	272
TEC	271
nah	271
▁Beirut	271
▁quarter	271
▁BIO	271
▁SUN	271
▁Beech	271
pole	271
▁SEA	271
JA	271
▁PTFE	271
ments	271
▁Derby	271
center	271
▁Gol	271
ae	271
hub	271
▁Comic	271
▁Pip	271
▁Episode	271
▁Hobby	271
▁Auditorium	271
▁Robotics	271
ised	270
gil	270
tou	270
▁Kowloon	270
▁Ivory	270
▁WPC	270
▁Goethe	270
▁Heli	270
▁Tivoli	270
▁Hydra	270
▁Felt	270
▁Domino	270
▁Courses	270
Do	270
▁Gibraltar	270
▁Industrie	270
▁Nigeria	270
gul	270
enbach	270
thal	270
chenko	270
▁Goes	270
▁Latina	270
▁Dad	270
gers	270
▁Clare	270
fon	270
▁Slimming	270
bang	270
▁Brisbane	269
egem	269
▁Strawberry	269
▁Hertogenbosch	269
▁Archer	269
▁HY	269
otto	269
▁great	269
▁Rho	269
OO	269
flow	269
lick	269
▁Starr	269
▁Wallpapers	269
▁Option	269
▁Greatest	269
▁Exp	269
▁EUR	269
▁delle	269
▁Concerts	269
▁Oregon	269
▁Tesla	269
▁Iraqi	269
▁Elise	269
▁Consciousness	269
tura	269
oper	269
▁Hau	269
▁Questions	269
FR	269
▁Zor	269
▁Qing	269
▁Venlo	268
apa	268
▁Skull	268
▁Fry	268
▁Advocaten	268
▁Torch	268
ush	268
rap	268
▁Cleveland	268
▁Midtown	268
▁Pei	268
▁Monk	268
▁Bangladesh	268
▁Ode	268
ál	268
hol	268
LC	268
ao	268
▁UEFA	268
▁Première	268
▁Puy	268
▁Always	268
AW	268
▁Satan	268
▁Liege	268
ory	268
▁organization	268
▁Eugene	268
▁Kenneth	268
DD	268
▁Gam	268
▁Terme	268
▁Arno	268
▁Habitat	268
▁Singer	267
rist	267
▁Kron	267
▁AZ	267
OV	267
ifi	267
AA	267
▁Assassin	267
▁Reformed	267
▁Admiral	267
▁Eddie	267
▁Rie	267
▁EZ	267
cz	267
URA	267
▁IJssel	267
▁Dy	267
ign	267
▁Lil	267
▁Ein	267
rico	267
▁Serge	267
▁Integral	267
Card	267
OD	267
▁Comm	267
EK	267
▁OM	267
▁Xiang	267
▁Skip	267
▁Navigator	267
▁Odyssey	267
▁Billboard	267
▁islands	267
▁Oven	266
▁Albufeira	266
▁Dictionary	266
▁Pré	266
▁Pres	266
▁Centraal	266
▁Saving	266
jun	266
▁Drift	266
▁fi	266
▁Babylon	266
▁Gum	266
▁Kiosk	266
▁Lourdes	266
▁Violence	266
▁Astana	266
▁Poetry	266
▁Zhu	266
▁Emilia	266
▁FAQ	266
mai	266
▁Composite	266
oire	266
ő	266
▁Chrono	266
duc	266
▁Bikini	266
▁Biotechnology	266
kun	266
▁services	266
sem	266
▁Alberto	266
▁Florian	266
VR	266
erhof	265
▁Athletics	265
▁Drawer	265
▁Lust	265
Com	265
▁Strange	265
▁Chloe	265
▁Kansas	265
▁under	265
▁Mob	265
▁Conditioning	265
iger	265
bah	265
▁Dani	265
▁Minh	265
vre	265
▁Mosaic	265
▁Moulding	265
▁WEB	265
lio	265
▁Wij	265
▁Minnesota	265
▁Steak	265
hong	265
▁Neue	265
▁Supplies	265
essen	264
▁Gard	264
▁Ei	264
rab	264
▁Zel	264
ground	264
sho	264
Å	264
▁EURO	264
▁Riley	264
iser	264
▁Lutheran	264
▁Parco	264
ité	264
▁Asa	264
oku	264
▁Beachfront	264
▁Genk	264
endorf	264
ree	264
▁Marion	264
erman	264
▁Literary	264
▁Souls	264
▁Lanka	264
OE	264
trip	264
IX	264
▁Fragrance	264
▁Loyalty	264
▁Yar	264
▁Singles	264
▁Rating	264
▁Eyck	264
agne	264
▁Dow	264
▁Kane	264
▁Router	264
▁Catch	264
▁Fira	263
▁Pos	263
hot	263
▁LO	263
uze	263
▁TF	263
▁Loan	263
▁Pound	263
▁Alone	263
▁Maple	263
▁Cla	263
▁Employee	263
▁Vibrator	263
nou	263
tle	263
▁Inquiry	263
▁Waterfall	263
▁SF	263
▁Heath	263
▁Nepal	263
▁Hearts	263
▁Bishops	263
▁Beverly	263
pers	263
▁Liz	263
American	263
▁Capture	263
▁Pair	263
aid	263
▁Vondelpark	263
guer	263
▁Wilder	262
▁Electricity	262
rine	262
▁Josh	262
▁Rav	262
▁Deutschland	262
▁Abe	262
pool	262
▁Eck	262
kamer	262
▁Duc	262
▁Lig	262
▁Quin	262
▁Lat	262
▁Jakob	262
▁LM	262
rose	262
▁Witt	262
▁Serbian	262
▁Extended	262
▁Angelina	262
with	262
▁Encyclopedia	262
ific	262
▁Essence	262
▁Aba	262
SD	262
App	262
▁Breast	262
▁SAM	262
▁Jamaica	262
ability	262
▁Diocese	262
▁Coupon	262
OST	262
▁Kras	261
iff	261
▁Lovers	261
▁Pitt	261
▁Lick	261
▁Luther	261
▁over	261
▁Multimedia	261
▁Jeffrey	261
▁Lug	261
rug	261
▁España	261
ald	261
▁Cristina	261
▁Gasket	261
▁Potato	261
lau	261
▁Turbine	261
▁Ax	261
▁ver	261
▁ESP	261
▁Taverna	261
▁Dali	261
eaux	261
sheng	261
dem	261
▁Marking	261
▁Ardèche	261
▁Garment	261
▁Steakhouse	261
▁Symbol	261
▁Tres	261
NS	261
joy	261
▁Hughes	261
▁Wand	261
dro	261
▁Cottages	261
ions	261
▁Megan	261
▁Evan	261
▁Tem	261
▁Cle	261
▁full	261
cul	261
▁Tate	261
▁BAR	261
▁Achievement	260
▁Ent	260
▁Oakwood	260
▁Continue	260
leigh	260
SG	260
▁Frederic	260
▁Athena	260
KO	260
▁Italiano	260
lingen	260
pak	260
▁Jou	260
▁Comics	260
num	260
▁Hazel	260
yat	260
▁Wouter	260
▁FS	260
▁Everest	260
▁UT	260
▁Ypres	260
▁Paz	260
food	260
ș	260
▁Lorraine	260
▁Holt	260
rä	260
▁page	259
▁Hercules	259
▁Francois	259
▁Chairs	259
▁Huawei	259
▁Newcastle	259
▁Ciudad	259
▁Decorative	259
▁Strasse	259
▁Medicines	259
▁Diabetes	259
▁Bij	259
sville	259
flower	259
illi	259
▁Ves	259
▁Borg	259
▁Seventh	259
▁Carrer	259
▁Plaça	259
lag	259
▁Nouveau	259
▁Jul	259
▁Manifesto	259
▁Ao	259
call	259
▁Elf	259
▁Usb	259
▁Toon	259
▁Tac	259
gis	259
▁Invisible	259
ept	259
▁École	259
▁Ain	259
▁Archipelago	259
nay	258
▁Aj	258
▁Grinding	258
▁Till	258
ovi	258
▁Vibe	258
▁Artillery	258
▁Sponge	258
gawa	258
▁Uit	258
rier	258
now	258
▁Remember	258
▁Waves	258
▁Cache	258
▁Darkness	258
▁TP	258
▁Scania	258
▁Madeleine	258
pod	258
▁Marino	258
▁Lonsdale	258
▁Aquatic	258
tjes	258
▁Experiment	258
▁Fay	258
ein	258
ania	258
escu	258
▁Buzz	258
▁Marin	258
rang	258
LT	257
▁Negro	257
▁Jewellery	257
▁Gaulle	257
▁AIDS	257
▁Voltage	257
▁Adolf	257
▁Cactus	257
kko	257
ime	257
▁Amor	257
▁Wagon	257
▁Maine	257
▁Martini	257
▁Tomas	257
▁Martinez	257
▁Burning	257
▁MU	257
▁Redmi	257
▁Savings	257
▁ji	257
▁Papers	257
▁Combo	257
▁Kool	257
ñ	257
▁IF	256
gracht	256
▁DP	256
▁Ads	256
MF	256
▁Uganda	256
▁Dresses	256
▁Gris	256
uto	256
▁ML	256
▁Zeus	256
▁Sergei	256
rain	256
▁Burner	256
stat	256
ties	256
▁Bocholt	256
▁IQ	256
▁Goals	256
▁Mohammad	256
nom	256
▁Ellis	256
▁Shooting	256
▁Dune	256
▁Bundle	256
▁Maspalomas	256
▁Jumping	256
rama	256
asia	256
▁Aviv	256
rn	256
▁Wines	255
UT	255
▁Boe	255
▁Procurement	255
▁Abdullah	255
▁Meal	255
▁Idea	255
▁Monique	255
ARA	255
ambo	255
▁Helm	255
▁Lantern	255
▁Funny	255
▁Stade	255
▁Bbq	255
▁live	255
▁Nur	255
▁Marx	255
asse	255
▁Even	255
▁Hara	255
ERA	255
mand	255
▁Stereo	255
▁Farmhouse	255
▁Pillar	255
phi	255
▁Athene	255
▁Rebellion	255
▁Hari	255
aka	255
▁Kits	255
▁Chai	255
▁IKEA	255
▁Myers	255
tuin	255
▁Inland	254
▁Lancaster	254
▁Secondary	254
mah	254
▁Drenthe	254
▁Id	254
stown	254
tana	254
▁Alte	254
▁MAC	254
▁Stress	254
▁ter	254
zing	254
▁TI	254
▁Citroen	254
aco	254
print	254
▁Zagreb	254
▁vs	254
eel	254
dha	254
City	254
▁Marriage	254
commerce	254
inski	254
▁Phillip	254
▁Pattern	254
ION	254
▁Rietveld	254
▁Vibration	254
▁Churchill	254
▁Floris	254
▁Monthly	254
▁Hanna	254
mad	254
▁Fiction	253
▁Rah	253
▁Tetra	253
▁through	253
ouw	253
▁Pretty	253
CR	253
hil	253
▁Telescope	253
lop	253
HU	253
▁Kennel	253
▁Clinton	253
pt	253
eye	253
▁Azerbaijan	253
▁Fill	253
mut	253
▁Skytrain	253
▁Sym	253
hab	253
▁Lawn	253
▁Massif	253
▁Nad	253
▁Joris	253
▁Hoe	253
▁Scala	253
▁Groene	253
Connect	253
▁Pieters	253
▁hand	253
▁Pony	253
schen	253
▁Eleven	253
▁Judicial	253
linger	253
▁Networking	253
vio	253
▁Duchy	253
▁CX	253
jie	253
▁Keychain	253
▁Mattress	253
▁Magnolia	252
OW	252
▁Advance	252
▁Glu	252
▁SO	252
hum	252
▁Timberland	252
service	252
▁Cardboard	252
▁Lecture	252
▁Centrale	252
dome	252
▁MY	252
▁Spo	252
OI	252
lijn	252
kla	252
▁Bullet	252
▁RED	252
▁Hundred	252
▁Hoop	252
▁Appart	252
▁Traveller	252
▁LT	252
▁Detection	252
▁Wrestling	252
▁EB	252
▁Highlands	252
▁Bowling	252
▁Protein	252
isto	252
▁state	252
west	252
▁Niagara	252
▁Rid	252
ów	252
▁Protective	252
FO	252
▁Absolute	252
▁Lars	252
▁route	252
▁Bail	251
▁Alive	251
uw	251
ote	251
kle	251
▁Simulator	251
cola	251
▁Naga	251
IES	251
▁Format	251
▁NEO	251
▁Sharjah	251
▁Maestro	251
▁nv	251
▁Pills	251
▁Iv	251
▁Occupational	251
▁Janeiro	251
▁Earthquake	251
▁Stu	251
▁Aloe	251
▁Siena	251
▁Haz	251
▁PLA	251
▁Corona	251
ved	251
▁Mey	251
▁Roleplay	251
shot	251
▁Lithuanian	251
▁Napoli	251
▁Normandy	251
pon	251
▁Clos	251
isha	251
▁Raphael	251
▁Brief	251
▁Structural	251
▁Johanna	251
▁king	250
▁Bliss	250
▁Lotte	250
fre	250
▁Netflix	250
ike	250
▁Pleasure	250
▁Workshops	250
▁LS	250
▁Geographic	250
▁Revenue	250
▁Engel	250
jen	250
▁INC	250
▁Diamonds	250
uchi	250
loc	250
vier	250
▁Fei	250
▁Marsh	250
▁Boats	250
▁Token	250
ition	250
tube	250
▁Skate	250
▁Chill	250
▁Equality	250
▁Conservative	250
dium	250
▁Creed	250
▁Perfume	250
▁Ard	250
▁Ep	250
▁Contracting	250
▁Lanzarote	250
▁Improvement	250
xo	250
▁off	249
▁Preview	249
▁Inventory	249
▁Sudan	249
▁Seaview	249
▁Simpson	249
▁Pul	249
▁Carmel	249
▁Kö	249
▁Sponsor	249
▁Logic	249
HL	249
▁Radiator	249
▁Ambassador	249
vie	249
▁Technological	249
▁Buiten	249
▁Gram	249
eller	249
▁Equi	249
villa	249
▁Exploration	249
▁Manila	249
▁stop	249
tori	249
▁cookies	249
uca	249
▁Colony	249
▁Plum	249
▁Causeway	249
▁Rhino	249
▁Feather	249
▁forest	249
▁Borders	249
▁Instituto	249
▁Bradley	248
GR	248
▁information	248
VC	248
▁Sac	248
▁Slam	248
▁Schie	248
▁Musica	248
▁Gerald	248
▁APP	248
▁Digest	248
▁Belgique	248
▁Eifel	248
▁Portfolio	248
▁account	248
▁im	248
▁Lithium	248
ashi	248
▁Andrews	248
▁Hilversum	248
▁Graphics	248
▁Bavarian	248
▁Oral	248
▁Capo	248
▁Payments	248
▁HO	248
▁Catalina	248
icht	248
uur	248
▁Hiking	248
▁Mastercard	248
▁Thon	248
▁RX	248
▁Phu	248
kop	248
En	247
▁Poseidon	247
▁Marrakesh	247
▁HOUSE	247
zhen	247
▁DI	247
▁Unknown	247
▁Holdings	247
▁Soap	247
▁Pigeon	247
▁Arsenal	247
▁Engines	247
▁Radical	247
▁Slovenia	247
▁Cai	247
▁Jerome	247
▁Peanut	247
▁Lenin	247
▁play	247
▁Hana	247
kos	247
▁Turks	247
▁Interrail	247
▁Yorkshire	247
HO	247
eština	247
EB	247
▁so	247
▁Yale	247
▁Societies	247
▁Nikolai	246
▁Acer	246
▁Gite	246
rica	246
▁Indigenous	246
▁Representative	246
▁Divers	246
▁Hollow	246
stick	246
▁Scher	246
▁Mariner	246
▁Augusta	246
power	246
lá	246
ew	246
▁Tat	246
▁Jeremy	246
▁Pasta	246
▁Timber	246
▁Bryan	246
▁Ner	246
bashi	246
▁Perth	246
chang	246
pher	246
▁Experimental	246
▁Tou	246
▁Baltimore	246
▁Burr	246
▁Actor	246
motor	246
▁NET	246
▁Sv	246
▁Alkmaar	246
hotels	246
▁Matthias	246
▁JP	246
▁Clarke	246
▁two	246
sell	246
▁Ot	246
▁Mayor	246
▁Filip	246
▁Kant	246
▁Saigon	246
▁Kazakhstan	245
▁Jenna	245
▁Arabs	245
▁PH	245
▁Concorde	245
▁Einstein	245
▁Sketch	245
▁Regular	245
oor	245
▁Professor	245
stream	245
TN	245
▁NP	245
▁Lifting	245
▁Io	245
▁Mole	245
▁Chronicle	245
▁Does	245
tiv	245
▁magazine	245
▁Qatar	245
▁Clipper	245
▁Maximilian	245
▁Thorn	245
▁WTC	245
▁Continuous	245
▁Pir	245
▁Oaks	245
▁Ibrahim	245
belle	245
ehr	245
rem	245
▁Gou	245
▁Def	245
▁Engels	245
▁Skyline	245
▁Suede	245
▁Shaggy	245
tory	244
cri	244
▁Leigh	244
say	244
▁CAM	244
▁Chao	244
▁Enforcement	244
▁Shopify	244
▁Laws	244
▁Mystic	244
▁Aan	244
▁Programmes	244
rou	244
▁Casinos	244
▁Species	244
▁Ach	244
aal	244
▁Venue	244
▁Blo	244
▁Underwater	244
▁Ore	244
eze	244
▁Río	244
▁Hunger	244
▁Excellent	244
▁Foster	244
▁Manu	244
▁UFO	244
▁RV	244
▁song	244
▁ASF	244
▁Nueva	244
▁Crusade	244
▁Mounted	244
▁Ev	244
▁Pr	244
▁CAD	244
▁Paradiso	244
▁SU	244
▁Bene	244
▁Blow	244
▁Beg	243
▁Mull	243
▁Airways	243
mex	243
▁Kri	243
▁Manufacture	243
EV	243
▁Gelderland	243
▁Winning	243
▁Ajax	243
▁Supervision	243
▁Brochure	243
▁Managing	243
Vi	243
▁Intra	243
▁Emile	243
▁Timothy	243
phy	243
rop	243
ways	243
▁Mutual	243
asa	243
▁Collaboration	243
▁Jiang	243
Lo	243
▁Garda	243
▁Admin	243
▁Atom	243
▁Domingo	243
▁Results	243
▁Mixed	243
▁Str	243
teen	243
▁Elliott	243
▁field	243
▁Terrorism	243
wash	243
▁DO	242
▁Remo	242
▁Oliva	242
plant	242
▁Shun	242
▁Cartridge	242
▁BIG	242
▁Apostle	242
▁Entre	242
▁Gon	242
CS	242
▁Masterclass	242
saki	242
graph	242
gni	242
▁Niels	242
▁Kamer	242
▁Brave	242
€	242
▁Unter	242
▁Marshal	242
andra	242
▁trail	242
▁Molly	242
▁Diva	242
▁show	242
▁Aroma	242
▁Election	242
▁Speech	242
▁Iglesia	242
▁Holl	242
▁Wijn	242
▁Exhibitions	242
▁Lease	242
‘	242
tara	242
▁Franck	242
▁Blend	241
▁Sten	241
▁Dru	241
▁McG	241
▁Nomad	241
▁Spatial	241
arian	241
▁Phra	241
cro	241
ional	241
▁Destiny	241
▁Bastille	241
▁Constantine	241
▁Pirates	241
▁Firmware	241
▁Broek	241
Next	241
▁Naomi	241
▁Raz	241
▁Camino	241
▁Nara	241
▁Leeuw	241
▁Orders	241
▁Haas	241
▁Kul	241
▁Sinai	241
cq	241
▁Willems	241
yar	240
Tube	240
▁farm	240
▁Going	240
sdorf	240
chev	240
▁Uprising	240
▁Script	240
▁metro	240
▁Frontier	240
▁view	240
▁Maatschappij	240
▁Armstrong	240
▁Cosy	240
▁Chas	240
▁Busch	240
▁Ecommerce	240
▁Chubby	240
▁Quiz	240
▁Emmy	240
▁Domus	240
▁Puff	240
▁Montenegro	240
▁Woo	240
▁Allan	240
▁Muziek	240
spect	239
▁Sm	239
▁Casey	239
▁Juliana	239
▁Makeup	239
sai	239
IU	239
▁SSL	239
▁Biodiversity	239
▁Raid	239
▁Paste	239
kum	239
▁Hippo	239
▁red	239
arra	239
▁Gand	239
▁Boiler	239
▁side	239
oe	239
▁Stoke	239
▁Zara	239
▁Bremen	239
▁Audience	239
▁Alter	239
▁Orphek	239
▁end	239
▁Something	239
elia	239
▁Sasha	239
EG	239
lant	239
shaw	239
▁Cone	239
▁Scroll	239
▁special	239
uki	239
▁Logistic	239
▁Hare	239
▁XI	238
▁Beef	238
▁Thur	238
▁Bourg	238
Up	238
▁Zon	238
▁Stefano	238
bey	238
polder	238
▁Palo	238
▁Drake	238
▁Alicia	238
▁Cooled	238
▁Kazan	238
▁Futures	238
ssa	238
loop	238
▁PRE	238
▁Breath	238
▁Gio	238
vas	238
▁Beaux	238
UB	238
LU	238
▁SAS	238
▁Apache	238
ONE	238
▁Microwave	238
▁Carnegie	238
▁Powell	238
▁Administrator	238
▁Hanting	238
▁life	238
▁Rodriguez	238
▁www	238
machi	238
hia	237
▁Guidelines	237
lach	237
▁Jab	237
ace	237
kker	237
▁Recover	237
▁Dec	237
▁Hoodie	237
BU	237
▁NK	237
app	237
▁Veen	237
▁Messiah	237
▁Shirts	237
▁Toner	237
▁Areas	237
▁Desire	237
▁Monti	237
oux	237
aw	237
▁Radboud	237
▁NATO	237
jing	237
azi	237
noy	237
Home	237
▁Ella	237
mento	237
▁Curtis	237
▁Values	237
▁LAB	237
▁Exo	237
▁Broadcast	237
▁Customized	237
▁Agia	237
▁Oblast	237
ijk	237
▁Munt	236
▁Logan	236
▁Pittsburgh	236
nam	236
▁Auxiliary	236
▁Molecular	236
▁Berliner	236
▁Effects	236
▁Analyzer	236
wich	236
▁Sz	236
▁Zandvoort	236
▁Fluid	236
▁Devon	236
▁Poor	236
IST	236
▁Elegance	236
coat	236
fold	236
emans	236
▁Schubert	236
▁Fathers	236
▁Reid	236
▁Abi	236
▁Lent	236
▁Puig	236
▁Crusher	236
▁Rua	236
▁Latvia	236
▁SGS	235
▁Sporting	235
▁Nursing	235
▁Demon	235
▁Sovereign	235
▁Thought	235
▁Sey	235
▁Bennett	235
▁Gai	235
▁Ginza	235
▁STS	235
▁Buda	235
▁Equestrian	235
MER	235
▁Beaches	235
▁Wis	235
▁Estonia	235
dog	235
▁Customers	235
▁Aspen	235
▁we	235
▁Packages	235
▁Rate	235
▁Deposit	235
▁Wii	235
▁Galleries	235
▁Mani	235
Qu	235
▁Inge	235
UK	235
gr	235
▁Ecology	235
▁Rite	235
▁Zy	235
▁Bord	235
fly	235
▁Jeep	235
▁Zag	235
yun	235
▁Solenoid	235
▁Duin	235
▁Trinidad	235
▁Sib	234
▁Suzanne	234
▁Finish	234
▁Tapas	234
▁Alabama	234
ICA	234
▁Bundes	234
garten	234
▁MIT	234
▁Beni	234
▁Outstanding	234
fal	234
▁Doctors	234
illy	234
watch	234
▁Lithuania	234
dio	234
▁Compagnie	234
ht	234
▁Programming	234
▁Marne	234
▁Chester	234
▁Oval	234
▁Cosmo	234
▁PO	234
▁Approach	234
▁AX	234
▁Ying	234
▁Armoured	234
terra	234
▁Markus	234
encia	234
▁Marmaris	234
▁Gaz	234
▁Minute	234
cian	234
▁Zwart	234
▁Alumni	234
▁Cassette	233
▁Afghan	233
né	233
stop	233
▁Mika	233
▁Sample	233
▁Stadion	233
▁Mater	233
▁Regal	233
vari	233
▁BY	233
tent	233
▁Statistical	233
▁Outer	233
▁Memories	233
kari	233
▁Beatles	233
▁Adel	233
▁Mick	233
nau	233
▁Landes	233
▁Funk	233
NET	233
▁Blau	233
▁Murder	233
lines	233
▁LIFE	233
▁Disability	233
▁Trojan	233
▁Adriana	233
▁Insert	233
▁Plantation	233
▁Vive	233
▁Ryu	233
grave	232
▁Fee	232
CK	232
▁Regio	232
▁Geological	232
▁Mighty	232
▁VS	232
▁Grave	232
bian	232
▁blue	232
▁Memphis	232
▁Glo	232
moor	232
▁Blackjack	232
▁Agadir	232
▁RD	232
▁Hemp	232
zzo	232
▁Westland	232
▁Ministerial	232
▁Parkway	232
▁Nel	232
pert	232
▁track	232
▁Loon	232
▁Roca	232
▁MTV	232
studio	232
HP	232
▁Apostolic	232
plate	232
▁Shemale	232
wave	232
any	232
▁CCTV	232
▁Lover	232
▁Consumers	232
▁Horst	231
▁NU	231
▁Lombard	231
▁not	231
▁Ful	231
▁Kama	231
▁Sants	231
▁Ronda	231
baan	231
▁Vogue	231
▁Plo	231
▁Cou	231
▁ru	231
▁Toni	231
▁Noise	231
▁Schedule	231
▁Broken	231
▁Jaap	231
▁Serena	231
▁Asakusa	231
VPN	231
▁black	231
▁Krishna	231
▁Jav	231
▁Nin	231
▁Fleece	231
▁Changing	231
GM	231
▁Balloon	231
▁Byron	231
▁Alfonso	231
ardi	231
▁Azul	231
▁Borgo	231
▁Timo	231
▁Dante	231
▁Lavender	231
▁Britannia	231
dress	231
OG	231
AV	231
▁DA	231
▁Dyna	231
▁Quintet	231
▁Worker	230
▁Pes	230
▁Muller	230
▁Rainforest	230
free	230
amo	230
▁Gouda	230
▁Among	230
▁Judgment	230
▁Angkor	230
stal	230
▁Interim	230
oto	230
▁Gaza	230
▁Guinness	230
▁Rambla	230
▁Vue	230
Shop	230
eman	230
▁Dupont	230
▁Flanges	230
▁Masa	230
▁Measurement	230
▁Vocational	230
▁Pets	230
▁pass	230
▁Pé	230
trix	230
onic	230
▁Skirt	230
▁Nautilus	230
▁Romano	230
▁Balm	230
▁three	230
hin	230
▁Xu	230
▁FE	230
▁Immo	230
tner	230
▁Bombay	230
▁Insights	230
▁Luk	230
iche	230
▁Gla	229
▁ED	229
▁Oxygen	229
▁Jesuit	229
seweg	229
HAN	229
▁Zürich	229
▁Rocker	229
▁Perla	229
▁Rog	229
▁Mee	229
▁Mano	229
▁Awakening	229
▁Michele	229
▁Bohemian	229
▁Diagonal	229
▁Almond	229
IV	229
▁Amstelveen	229
gam	229
hul	229
▁Roots	229
stro	229
vita	229
▁Novel	229
▁Fringe	229
▁CHA	229
▁Elia	229
▁Newspaper	229
▁Tier	229
▁Acts	229
▁Merc	229
▁Knokke	229
gl	229
▁FIA	228
▁Ses	228
▁Poort	228
mber	228
▁Spyder	228
▁Birch	228
ography	228
▁Hebei	228
▁Broker	228
▁Filters	228
▁Ueno	228
▁Sphere	228
▁Cause	228
▁Tas	228
wil	228
▁INS	228
▁Sylvia	228
▁Holi	228
kwartier	228
▁Shadows	228
Vision	228
▁Portland	228
arium	228
▁Kuala	228
▁Skinny	228
▁Mic	228
▁Sheffield	228
▁Cure	228
▁Carrera	228
▁Reflective	228
ZO	228
▁Lier	228
mill	228
▁Blackpool	228
iri	228
▁Evangelical	228
▁Jew	228
▁Esplanade	228
▁Item	228
burger	228
▁Barge	227
▁Valves	227
‐	227
▁Citi	227
▁BS	227
▁Giuseppe	227
veen	227
sworth	227
▁Promise	227
▁Ladder	227
▁Vip	227
mia	227
▁Glitter	227
▁Maz	227
▁Signals	227
agua	227
gau	227
▁CI	227
▁Sure	227
▁Avon	227
lation	227
▁NE	227
▁Maze	227
▁place	227
bing	227
▁Aquarius	227
▁BD	227
▁Pun	227
FF	227
▁Todd	227
tr	227
hood	227
gna	227
▁Carte	227
▁Vanden	227
ML	227
ACH	227
▁Jackie	227
mid	227
▁Intermediate	227
▁Fru	227
▁Gaudi	227
von	227
▁Courier	227
▁Macro	227
schap	227
▁Anders	227
▁Chel	227
mori	226
▁Ideas	226
▁Equity	226
iye	226
chet	226
▁Kyle	226
▁Weld	226
▁Tun	226
▁Joker	226
lings	226
neck	226
▁Cumshot	226
▁SAN	226
ubi	226
▁Lili	226
▁Piper	226
▁Rangers	226
▁Avalon	226
▁Hansen	226
▁Garde	226
▁Thy	226
▁Maldives	226
▁Helicopter	226
▁Vat	226
▁Emb	226
▁Yama	226
▁Waterpark	226
cot	226
Big	226
▁Org	226
▁Facts	226
▁Daytona	226
▁Cyclo	226
▁Roofing	226
▁Reykjavik	226
▁Cin	226
▁Lana	226
Bar	226
▁POS	226
mara	226
▁Abbas	226
awi	226
tip	226
▁Tho	226
▁Wheat	226
▁Zorg	226
▁Chun	226
▁Meijer	226
▁Lifetime	225
▁Caster	225
▁Huge	225
▁Blair	225
fy	225
▁Cindy	225
▁Rare	225
▁Tama	225
gt	225
sign	225
▁Cardigan	225
▁Norfolk	225
nel	225
▁Ik	225
▁Warwick	225
▁Grab	225
▁Noor	225
▁direction	225
▁Mayer	225
▁Pag	225
▁Aragon	225
▁Avant	225
▁Coeur	225
▁Albanian	225
▁Kip	225
gus	225
ALL	225
▁Upon	225
br	225
And	225
▁Miniature	225
▁Hauptbahnhof	225
ák	225
share	225
iti	225
Ho	225
▁Requiem	225
cla	225
▁Klu	225
▁Welsh	225
▁Mp	225
▁Nd	225
▁Acapulco	225
▁Christianity	225
▁Atlantik	225
▁Tubes	225
▁Chaos	225
ña	225
▁Bok	225
kirche	225
▁Plata	225
▁Appel	225
▁Miranda	225
▁Moro	224
UC	224
▁Nikon	224
ih	224
▁XT	224
▁Examination	224
▁Thomson	224
▁Gauze	224
zza	224
thon	224
▁Themes	224
▁Constantin	224
▁Kale	224
ging	224
▁das	224
pati	224
▁TE	224
▁Muze	224
nee	224
rode	224
▁Sell	224
▁Milky	224
▁Census	224
▁Random	224
▁Hearing	224
bul	224
▁Jensen	224
▁tunnel	224
▁PV	224
▁Dinosaur	224
▁Brahms	224
▁Sens	224
▁Coll	224
▁Lexi	224
▁Looking	224
▁Since	224
▁Roxy	224
▁Rocco	224
Media	224
bru	224
bl	224
END	224
▁Feeder	223
▁Tiles	223
▁AMRO	223
▁Renewable	223
▁Isabelle	223
▁Giorgio	223
GI	223
▁Rough	223
street	223
▁Refugees	223
▁Mats	223
▁cave	223
gut	223
▁Cult	223
iste	223
▁Lori	223
KK	223
▁Apa	223
▁Beetle	223
mund	223
▁SPC	223
▁RG	223
hut	223
▁Slovakia	223
▁JCB	223
▁COMPANY	223
▁Malaysian	223
hari	223
▁Merlin	223
▁Ley	223
ITA	223
▁Lego	222
▁Direction	222
ddy	222
▁Nasty	222
Ch	222
▁Minerva	222
▁Nik	222
▁Compilation	222
mina	222
▁Gore	222
▁Bry	222
▁RCA	222
▁central	222
▁Hardy	222
lava	222
▁Exotic	222
▁STR	222
▁Cascade	222
▁Hoorn	222
▁SkyTeam	222
▁Gravity	222
▁Youtube	222
▁CMS	222
▁Languedoc	222
▁Blister	222
▁Witness	222
▁Breitling	222
▁Tomato	222
▁Zum	222
▁Rides	222
itis	222
▁Javea	222
▁Engraving	222
▁TD	222
▁Deutz	222
▁Blanket	222
▁Aran	222
xiang	222
▁Faust	222
▁Wier	222
▁Frances	222
gren	222
essa	222
▁Character	222
▁Hiro	222
▁Trent	222
ume	222
▁Dane	222
▁Vampire	222
▁Baz	222
oda	222
▁Aerial	222
▁Bookmark	221
AR	221
▁Indicator	221
chel	221
▁Ivy	221
bao	221
▁Metropole	221
▁Drinks	221
▁Mao	221
▁Rau	221
▁UM	221
▁Manga	221
▁Homo	221
▁Directive	221
▁Apeldoorn	221
▁WS	221
▁Bü	221
▁Scheldt	221
▁Dmitry	221
▁Harz	221
▁Receiver	221
▁Prosecutor	221
BF	221
▁Disneyland	221
▁Sight	221
▁Rethymno	221
▁Ghana	221
force	221
▁Rox	221
▁Sally	221
▁Süd	221
▁Marks	221
▁Bona	221
dex	220
▁Mash	220
▁Rubin	220
▁Magento	220
▁Cerro	220
▁Sana	220
▁Aug	220
WI	220
▁Washer	220
▁Veld	220
▁Advisors	220
ande	220
▁Elias	220
ESS	220
▁Smooth	220
▁BlackBerry	220
▁Ubuntu	220
▁Python	220
zee	220
▁Recoleta	220
▁Flute	220
▁Pointe	220
▁Rene	220
▁Stal	220
▁Shorts	220
ISH	220
Th	220
odo	220
ght	220
▁Hag	220
▁Latvian	220
▁Gazette	220
▁Empress	220
ushi	220
▁Hoi	220
▁Telegraph	220
▁ROM	220
▁KO	220
▁Marta	220
▁Kissimmee	220
▁bo	220
▁Pim	220
▁Curve	220
▁Laurel	220
ANCE	220
week	220
▁Ec	220
awa	220
▁Hoek	219
▁RI	219
▁Surgical	219
pit	219
Scan	219
▁Technique	219
iu	219
zawa	219
lev	219
isco	219
▁Medals	219
▁county	219
inder	219
▁Natalia	219
▁Racer	219
▁Chambre	219
▁JO	219
▁Smartphone	219
▁Guided	219
▁Marti	219
▁Lopez	219
▁Cleopatra	219
▁Ida	219
bill	219
▁Chips	219
▁Michiel	219
▁Isles	219
▁Zion	219
▁BTC	219
▁Pest	219
Power	219
aver	219
▁Within	219
▁Breton	219
▁Salou	219
▁Challenges	219
XL	219
▁Guido	218
▁Arco	218
lene	218
rot	218
Man	218
▁Joyce	218
▁Positive	218
▁Merk	218
EL	218
▁Kari	218
▁Taal	218
ota	218
▁take	218
▁Multiple	218
▁Mot	218
▁Wiener	218
▁Nash	218
▁Alhambra	218
▁Investor	218
▁Copacabana	218
iek	218
▁Chapelle	218
▁Fever	218
▁Countess	218
▁Natalie	218
▁Branding	218
▁Pike	218
▁Pomp	218
▁Rang	218
▁Preston	218
▁INN	218
▁Leslie	218
▁hotels	218
▁Nicola	218
▁Waikiki	218
▁Pasha	218
▁Pilgrim	218
▁Albania	217
rex	217
VP	217
▁Tagged	217
▁Westminster	217
ction	217
dri	217
Brien	217
▁Kota	217
▁Abbot	217
away	217
▁Collect	217
▁Editions	217
▁subway	217
▁Clair	217
▁Slut	217
dol	217
▁Dare	217
Ã	217
▁Governing	217
▁EMS	217
▁Vegan	217
▁Issue	217
▁Ankara	217
▁Missing	217
▁Adler	217
▁SMART	217
▁Mausoleum	217
▁Christie	217
▁Wicker	217
zig	217
▁CENTRE	217
▁Legislative	217
▁Ricardo	217
▁Valentin	217
ttle	217
▁Reach	217
▁Besides	217
▁Bha	217
TG	217
▁Tianjin	217
▁Pharmaceuticals	217
▁Stability	217
▁Tempo	217
▁Archangel	217
▁Cheats	217
jah	217
▁Janet	217
▁Malo	217
▁Organizer	217
▁Crater	217
▁Erwin	217
▁Russo	217
▁Gren	217
STA	216
bier	216
▁Colle	216
▁Laminate	216
▁Corte	216
▁Attractions	216
▁Dear	216
▁Mazda	216
elles	216
▁Nau	216
ATE	216
▁Roque	216
▁Torrent	216
ardo	216
lung	216
▁Aro	216
ect	216
mania	216
▁Chand	216
▁Carr	216
gasse	216
▁Bayer	216
icus	216
▁night	216
▁MH	216
▁Brewing	216
▁Specialists	216
▁WH	216
▁inter	216
▁Kr	216
▁Obama	216
▁Moselle	216
▁Gambling	216
▁Showcase	216
▁Wallonie	216
▁abbey	215
▁Ingrid	215
▁Insider	215
▁Waldorf	215
DL	215
inen	215
▁Vande	215
▁Theology	215
pil	215
▁wall	215
▁ge	215
illion	215
▁Metropolis	215
▁Thames	215
▁Configuration	215
aldo	215
▁Valkenburg	215
▁Trials	215
nder	215
song	215
▁Fortuna	215
▁Filler	215
▁Aix	215
▁Silo	215
▁FPS	215
▁Platja	215
▁Dove	215
▁Toilet	215
▁Etienne	215
▁Practical	215
ller	215
▁NIE	215
▁Socket	215
zaal	215
AN	215
▁Pvc	215
▁Christoph	215
▁Novum	215
▁Barcelo	215
▁Garmin	215
Max	214
tico	214
▁plateau	214
▁Zhen	214
▁Natur	214
▁Shiva	214
▁Baja	214
▁Stylish	214
▁Agora	214
ór	214
Mi	214
▁Connectors	214
▁Toe	214
▁Clients	214
▁Mississippi	214
▁IB	214
▁ben	214
▁Clayton	214
▁Winston	214
▁Magnificent	214
gata	214
▁Miramar	214
lett	214
lib	214
▁Apex	214
▁Lé	214
▁Vallée	214
▁Lut	214
astro	214
▁Eames	214
combe	214
dance	214
▁Bavaria	214
▁Eg	214
▁Frédéric	214
än	214
▁Blok	214
▁Ped	214
▁Careers	214
▁restaurants	213
GU	213
▁Artistic	213
mil	213
▁Ceramics	213
▁Template	213
▁Batman	213
▁Winners	213
▁Associated	213
▁Rockefeller	213
▁Norte	213
▁Seaside	213
▁Overall	213
▁Cardiff	213
▁Yahoo	213
▁Sabine	213
▁Wifi	213
flat	213
▁Sco	213
▁HDMI	213
▁Alban	213
▁Baptiste	213
comp	213
House	213
▁Ripper	213
▁Tonight	213
▁Sava	213
▁AU	213
▁Vanilla	213
hit	213
▁Mines	213
bound	213
▁FT	213
▁Hammock	213
▁Dro	213
rium	213
▁Saver	213
▁Matters	213
chie	213
mount	212
ABLE	212
alo	212
▁Pura	212
▁Insight	212
▁Problem	212
▁Dolls	212
▁boek	212
▁Goat	212
▁Wah	212
▁Tarn	212
▁Methodist	212
kur	212
▁During	212
▁Verdon	212
▁Salle	212
▁Lonely	212
▁Jefferson	212
▁Trouble	212
▁Energie	212
▁Sounds	212
part	212
ando	212
▁Tchaikovsky	212
▁Saar	212
▁Challenger	212
▁Caribe	212
plas	212
▁Reno	212
dad	212
elt	212
nat	212
market	212
ckel	212
▁Toolbox	212
▁Astor	212
▁Puma	212
▁Glasses	211
▁Ele	211
▁Scandinavian	211
▁Practices	211
▁Mila	211
pes	211
litz	211
▁Sterile	211
▁Blom	211
▁Fleming	211
huys	211
▁Dil	211
▁FEI	211
imi	211
▁Fitz	211
▁Territories	211
▁Voices	211
under	211
▁Parallel	211
▁Astronomical	211
▁Butcher	211
esco	211
▁Kunsthal	211
▁Sicily	211
▁Carla	211
▁Vlaamse	211
▁Rubens	211
▁Glove	211
▁Pact	211
▁real	211
▁XV	211
▁Jacquard	211
▁AUTO	211
som	211
▁BU	211
:	211
MV	211
cock	211
ase	211
▁Pharaoh	211
tronic	211
▁Seg	211
PF	211
▁Joachim	211
▁Battlefield	211
IDA	211
▁Malay	210
▁Figure	210
▁Périgord	210
kina	210
▁Beatrix	210
▁Cornell	210
GL	210
▁Dolly	210
hra	210
fight	210
▁ER	210
▁Tide	210
▁Kau	210
▁Plugin	210
▁hall	210
lä	210
▁Demand	210
▁Gat	210
▁Taurus	210
source	210
jima	210
▁Cristal	210
▁Gantry	210
vé	210
▁Bonnie	210
▁Tennessee	210
▁Survival	210
▁Cecilia	210
▁KM	210
aan	210
pine	210
data	210
▁HM	210
▁Ing	210
▁Rijks	210
▁Puerta	210
▁Supplement	210
▁Signs	210
gong	210
▁Guillaume	210
RON	210
▁Bodies	210
PRO	210
raj	210
▁org	210
▁Pant	210
▁Stuff	210
▁Lon	210
▁Preservation	210
race	210
▁Hamburger	210
▁Jag	210
auf	209
▁Kort	209
▁KBC	209
holt	209
▁Mein	209
▁Category	209
ová	209
▁Turning	209
▁Hitachi	209
▁Arenal	209
▁Bead	209
▁Dortmund	209
cic	209
▁Heidelberg	209
▁Vari	209
CB	209
▁Reset	209
▁WHO	209
▁Adventist	209
therm	209
▁Opinion	209
▁Deals	209
face	209
▁BIM	209
▁Boca	209
▁Quan	209
▁DW	209
▁Aging	209
dina	209
operation	209
▁Melanie	209
▁Slip	209
▁Titanic	209
hurst	209
▁Nitro	209
Park	209
▁IL	209
OMA	209
shof	209
slav	209
▁Maryland	209
sei	209
▁Inno	209
▁shi	209
▁NW	209
▁Beit	209
▁Eddy	209
▁Fraud	209
▁Esta	208
ström	208
▁Nah	208
suit	208
▁ONE	208
▁Vapor	208
thin	208
▁Kyo	208
▁foundation	208
▁accommodation	208
PG	208
ako	208
▁Scenic	208
▁Vespa	208
▁Deventer	208
▁Comfi	208
▁Ola	208
▁Aven	208
▁Silvia	208
▁Younger	208
EMA	208
▁Jurassic	208
▁Gearbox	208
science	208
▁SMT	208
▁Subscription	208
▁Functional	208
▁team	208
▁Cran	208
▁Hank	208
▁UAE	208
▁Greco	208
▁Dagblad	208
▁Somerset	208
mag	208
▁Liga	208
▁Lian	208
nikov	208
▁Doug	208
▁Dieu	208
▁Koko	208
▁Inspectorate	208
▁Crush	208
▁ESA	208
▁Wee	208
ør	208
▁Jessie	208
▁resort	208
▁Chrysler	208
▁Accelerator	208
uter	208
keeper	208
▁Trademark	208
sheim	208
▁Establishment	208
▁REHAB	208
▁Kran	208
uan	208
▁Rocca	208
▁Endurance	208
▁Afghanistan	208
nut	208
beke	207
▁Ness	207
▁games	207
▁Jiu	207
▁Labels	207
hee	207
▁Kern	207
Neill	207
▁Mood	207
|	207
▁Kettle	207
▁Pep	207
talk	207
▁Viola	207
▁Regatta	207
▁Galli	207
hair	207
▁Much	207
IK	207
▁Patek	207
▁Treaty	207
oid	207
▁Serial	207
▁Tribune	207
▁Ego	207
▁Vermeer	207
▁Ranking	207
▁edition	207
▁Registered	207
▁Nutri	207
▁IEC	207
▁Guo	207
▁Edo	207
alt	207
▁Drie	207
▁Midden	207
ARC	207
▁Diseases	207
RL	207
▁Brew	207
▁Vendor	207
▁Officers	207
▁Pijp	206
▁Clips	206
▁Rui	206
DU	206
▁Flores	206
▁Nab	206
For	206
▁Pietro	206
borough	206
▁movie	206
▁Brasil	206
▁Bouquet	206
▁Ano	206
rix	206
▁quality	206
▁Nora	206
▁Shui	206
▁Audrey	206
▁Hygiene	206
▁Massacre	206
▁Suisse	206
dienst	206
enia	206
▁wallpapers	206
▁Plains	206
▁Niki	206
wise	206
▁Napa	206
liner	206
▁NBA	206
fine	206
▁Juliet	206
▁Mela	206
vant	206
▁eBay	206
▁Gymnasium	206
▁ho	206
▁Presence	206
you	206
pc	206
▁Nieuws	205
▁watch	205
▁Innsbruck	205
▁Efficiency	205
like	205
▁Assen	205
▁Reserved	205
bund	205
rup	205
▁Jozef	205
▁Internship	205
▁Wealth	205
URE	205
▁Joanna	205
▁Cyr	205
track	205
▁Detail	205
aat	205
▁Natasha	205
ARE	205
▁Milo	205
REN	205
▁Lagos	205
sex	205
▁Piece	205
ENS	205
▁Gli	205
▁Resurrection	205
▁Jor	205
kowski	205
Design	205
▁HDBuzz	205
wheel	205
▁Belge	205
▁Tien	205
▁Perpetual	205
▁Troll	205
▁Wick	204
▁Porcelain	204
▁Eduard	204
▁Hass	204
▁Beaver	204
▁Calculator	204
▁Wonderful	204
pat	204
▁Nose	204
▁Kaya	204
▁Wereld	204
▁Denise	204
hiro	204
MR	204
▁Léon	204
issi	204
▁Buddhism	204
tov	204
▁Restore	204
▁Jill	204
▁Vineyard	204
▁Kimpton	204
▁Tah	204
▁first	204
late	204
▁Kerry	204
TRO	204
▁Bols	204
▁Hond	204
▁Austro	204
ord	204
▁Raad	204
▁Indianapolis	204
▁Woodland	204
▁Eur	204
▁Peterson	204
▁NN	204
▁Apts	204
RB	204
▁Verne	204
▁Montmartre	204
▁Kosovo	204
▁Makers	204
▁Evelyn	204
▁Sentinel	204
▁Thierry	204
▁Boxer	204
Ba	204
▁MacBook	204
Pay	204
▁Schumann	204
▁PD	204
evsky	204
▁Koz	204
▁Colosseum	204
▁Poet	204
▁Nathalie	203
▁Fav	203
▁Schön	203
▁Kurdistan	203
mod	203
erson	203
▁RB	203
▁XX	203
▁Imam	203
▁Paleo	203
Soft	203
▁Weapons	203
▁Yuki	203
eki	203
▁Ombudsman	203
RM	203
▁Handbag	203
▁Depression	203
▁Lever	203
▁je	203
map	203
▁Singing	203
▁Corre	203
▁Calpe	203
▁Nex	203
ode	203
▁Hd	203
▁Knock	203
zak	203
▁Beeg	203
▁Herz	203
▁Auschwitz	203
▁Loud	203
▁Siem	203
▁Mour	202
▁Boulder	202
▁Kemer	202
▁Dragons	202
▁Pencil	202
▁Spit	202
▁aux	202
▁Gain	202
▁Textiles	202
▁Borough	202
arch	202
esta	202
▁Baum	202
▁Llan	202
NY	202
▁Lafayette	202
▁Esca	202
▁Proto	202
▁Elysées	202
▁ERP	202
▁Husband	202
▁garden	202
▁Honour	202
▁Luxemburg	202
▁Kot	202
▁Coo	202
Cams	202
hus	202
MIC	202
Tec	202
▁Fontana	202
lig	202
kow	202
▁Locker	202
▁Culinary	202
▁Traveler	202
▁Zodiac	202
▁Calm	202
▁Virus	202
▁Spins	202
▁Twenty	202
ief	202
ester	202
RAC	202
▁Internacional	202
▁POP	202
▁Samoa	202
▁Crowd	202
▁Baku	202
▁Natal	201
▁OP	201
▁entrance	201
▁Sixth	201
▁Bearings	201
▁Vecht	201
▁DU	201
arrow	201
▁Routes	201
▁Hagen	201
▁Kont	201
▁Artes	201
Ó	201
▁Poverty	201
▁Poe	201
gger	201
▁Fancy	201
rand	201
▁Gone	201
▁reserve	201
piece	201
▁Queensland	201
ISA	201
İ	201
▁Tampa	201
ified	201
▁Tik	201
▁Seb	201
▁Mio	201
▁Cabinets	201
▁Bohemia	201
▁Chest	201
▁Kita	201
▁Zillertal	201
▁Contractor	201
▁horse	201
▁Nic	201
▁Mig	201
▁Beek	201
▁Tribe	201
uti	201
▁Ware	201
▁Bam	201
tab	201
tok	201
▁Pueblo	201
▁Maggiore	201
▁JU	201
▁Vicente	201
dus	201
nig	201
▁Gabriele	201
▁Slu	201
▁Objects	201
▁Mykonos	201
rer	201
▁Grad	200
tit	200
▁Shoot	200
zier	200
dagen	200
WC	200
▁Fiera	200
▁Bari	200
▁Oceania	200
▁Lipo	200
waard	200
▁Shar	200
▁OnePlus	200
▁Asp	200
▁Eff	200
▁Khao	200
▁Lak	200
▁CAP	200
▁Ud	200
▁RFID	200
▁Bent	200
▁Deca	200
▁Pai	200
▁Zhao	200
▁Hind	200
▁water	200
▁Composition	200
▁Zem	200
▁CBS	200
▁Groove	200
Time	200
▁Armenia	200
▁Kurdish	200
▁Yugoslavia	200
▁Kentucky	200
rath	200
▁Workplace	200
▁Pedal	200
▁Mafia	200
▁Alf	200
dah	200
▁Pap	200
▁Parent	200
YC	200
bow	200
▁Affair	200
ebel	200
▁Benefit	200
ALA	200
▁EMEA	200
▁Gao	200
▁Yue	200
▁Kayak	200
▁Belek	200
▁Clouds	200
▁García	200
▁CU	199
shed	199
▁Campina	199
▁Equal	199
WD	199
▁Magdalena	199
inha	199
▁Argent	199
▁Tron	199
▁Mathematical	199
▁Horror	199
▁Greenwich	199
boro	199
▁HOME	199
chter	199
▁Supper	199
Office	199
▁NASA	199
▁Designers	199
▁Ela	199
▁Cougar	199
▁Sapphire	199
▁Strauss	199
rö	199
▁Andrey	199
▁Ching	199
dies	199
▁civil	199
▁Voyager	199
▁Messages	199
▁Barba	199
RT	199
yana	199
▁Macau	199
▁Fundamental	199
▁Cassi	199
▁Aura	199
▁Bid	199
▁Camps	199
vac	199
ural	199
▁Neighbourhood	199
▁Luck	199
▁Lob	199
▁Along	199
Med	199
▁Calvin	199
have	199
▁Distributors	199
▁Wig	199
▁Pipeline	199
kul	198
▁week	198
DT	198
uv	198
▁Consult	198
▁Zwarte	198
▁Tender	198
▁Maritim	198
cial	198
state	198
▁Fake	198
▁Developers	198
▁ju	198
▁Beige	198
▁Chassis	198
▁Maar	198
▁sights	198
▁KV	198
▁Paypal	198
ró	198
▁Aux	198
ISS	198
Master	198
▁Tote	198
witz	198
dock	198
▁Documents	198
▁Alcatraz	198
nea	198
▁Actress	198
▁Conduct	198
vian	198
▁Ferme	198
▁Recognition	198
Online	198
rail	198
▁Haar	198
▁Uber	198
▁Trin	198
▁Loving	198
▁Tailor	198
▁Duncan	198
▁Oman	198
▁Shay	198
▁Beurs	198
▁Dish	198
▁Specialty	198
▁beautiful	198
▁Abuse	198
bha	198
sana	198
▁Auguste	198
▁Polder	198
BK	198
No	198
▁Apartamento	198
▁Outside	198
▁Dungeon	198
OSS	198
▁Pauline	198
▁Abroad	197
ast	197
raw	197
drop	197
punt	197
dera	197
▁Indications	197
▁Monumental	197
▁between	197
ADA	197
▁Arenberg	197
▁Shrink	197
▁Basque	197
▁Casablanca	197
▁Noorder	197
▁Technician	197
▁years	197
▁Becker	197
▁Lebanese	197
▁Names	197
▁CW	197
▁Roel	197
▁Kempinski	197
▁Judah	197
▁Fitting	197
▁False	197
beau	197
obi	197
▁Fiscal	197
ggi	197
▁Montparnasse	197
▁Rehab	197
▁Kunsten	197
▁Manage	197
=	197
uwen	197
▁Oy	197
uy	197
▁Nuts	197
▁Cleaners	197
▁Available	197
▁Elm	197
▁Tudor	197
▁Gö	197
▁Clown	197
▁Voss	197
handel	197
▁Köln	196
▁Stem	196
▁Ama	196
▁Molybdenum	196
▁Straw	196
▁Builders	196
sComfi	196
▁Devi	196
▁Hö	196
esque	196
▁Bale	196
▁Snowboard	196
▁Bridal	196
▁LL	196
enda	196
▁Tuber	196
▁Acquisition	196
▁Stationery	196
therapy	196
▁Owen	196
▁Draw	196
▁Gamma	196
▁Tamil	196
team	196
▁Zin	196
▁Cirque	196
▁Scarlet	196
▁Kab	196
tto	196
▁Nav	196
▁Insta	196
▁Jac	196
▁Bela	196
▁President	196
▁Alley	196
▁Handy	196
▁Teens	196
▁Fries	196
▁min	196
▁some	196
▁own	196
DEN	196
▁Danielle	196
▁Abs	196
▁Iberostar	196
▁Blitz	196
▁Gian	196
▁Zionist	196
▁Updates	196
▁Mahal	196
▁Commons	196
▁Conversion	195
▁Greet	195
IER	195
▁IoT	195
ologie	195
▁Plot	195
fri	195
fair	195
▁Graz	195
▁SOS	195
▁Scarf	195
▁Minds	195
▁Ede	195
PER	195
molen	195
▁Fabrication	195
▁Aleksandr	195
▁Keller	195
▁Nap	195
▁Kato	195
▁Sherman	195
▁Daniels	195
▁Willis	195
▁Mimi	195
sbury	195
▁Acc	195
▁Barrel	195
▁LX	195
▁Drivers	195
▁Zoological	195
▁Knee	195
▁Kami	195
▁Gras	195
▁Fairfield	195
unda	195
▁ACE	195
▁Mrs	195
▁Kwa	195
phil	195
▁Belarus	195
▁municipality	195
▁Ruins	195
▁Pace	195
▁Darts	195
▁FD	195
▁Ft	195
ië	195
scape	195
▁Weg	195
▁Shannon	195
trans	195
▁Hopkins	194
▁Skoda	194
▁Singel	194
▁Fact	194
▁Refuge	194
▁Pakistani	194
One	194
▁was	194
▁like	194
▁Volleyball	194
▁Zal	194
▁Onion	194
▁Forensic	194
▁next	194
meyer	194
▁Promo	194
▁Baldwin	194
▁best	194
▁Feeding	194
▁Maro	194
▁Aman	194
sale	194
▁Mobi	194
jong	194
▁Jaw	194
▁Persia	194
cie	194
▁Wor	194
▁Blanco	194
▁Vert	194
rc	194
▁Situation	194
▁Galway	194
▁Nevsky	194
yah	194
▁Principal	194
▁Thank	194
▁Workout	194
▁AE	194
▁Académie	194
▁Summary	194
▁Argentine	194
▁NORD	194
▁Fuerteventura	194
emon	194
▁Nacht	194
▁museum	194
ghe	194
▁Cesar	194
▁Sev	194
guin	194
▁Cli	194
arm	194
▁Alb	194
Mobile	194
schaft	194
RG	194
▁Omegle	194
▁Seminary	194
tho	194
▁Apply	194
▁Hale	194
▁Wardrobe	194
▁Resin	194
wire	194
▁Montgomery	194
▁Rash	194
tty	194
bourg	194
tract	193
▁Accademia	193
▁Beacon	193
▁Nippon	193
▁Construct	193
▁Nieder	193
▁Exhaust	193
▁Trumpet	193
▁Background	193
▁Pey	193
▁Malin	193
▁Cara	193
▁Cigarette	193
uku	193
oya	193
tse	193
▁Aris	193
atory	193
cate	193
▁Jaime	193
▁Horti	193
▁Martens	193
▁Fuse	193
▁CSR	193
ERN	193
õ	193
xing	193
▁Costume	193
▁Thursday	193
▁Ecological	193
▁Schi	193
▁Gaia	193
▁Moll	193
▁Comb	193
▁Intl	193
▁Fé	193
▁Nielsen	193
▁Nim	193
▁Abdel	193
Porn	193
▁Brug	193
nio	193
uber	193
▁Accountants	193
▁Toggle	193
vec	193
azzo	193
▁Melody	193
▁Warriors	193
▁Voyeur	193
▁Bring	193
▁Een	193
▁Amir	193
night	193
Safe	193
▁Tata	193
▁BM	193
▁Innocent	193
▁Franciscan	193
▁Garten	193
▁Remove	193
▁Bruin	193
tool	192
gene	192
gian	192
indications	192
▁Couch	192
▁Winding	192
▁Wreck	192
▁Hubbard	192
▁Geneve	192
▁Nanjing	192
▁Abba	192
▁Mog	192
▁BLACK	192
▁Vul	192
istan	192
lice	192
▁MR	192
▁Malm	192
TU	192
▁high	192
▁Tamara	192
▁IPL	192
▁Blessed	192
▁Romans	192
MK	192
▁Hir	192
▁Conversation	192
▁Forge	192
uer	192
▁Moral	192
▁Ahoy	192
fjord	192
▁Provinces	192
opa	192
rini	192
▁Lyn	192
IDE	192
▁Jumper	192
ù	192
ène	192
▁Shri	192
▁Hed	192
best	192
▁Apparel	192
rion	192
▁Sucking	192
▁Adria	192
auer	192
rill	192
▁Bahrain	192
Jo	192
▁Espace	191
▁Ichi	191
▁Hear	191
▁Camille	191
▁Spiegel	191
▁pan	191
inda	191
▁Pegasus	191
▁Heren	191
▁Jacqueline	191
▁Gmb	191
▁Sent	191
▁Sealing	191
▁Syr	191
jack	191
▁Ergo	191
▁XIII	191
▁LastPass	191
▁Brunswick	191
▁Reduction	191
▁Cardio	191
ières	191
▁Conc	191
▁Neon	191
▁Londen	191
▁Rhône	191
▁Laure	191
▁Keel	191
▁Sailor	191
qiao	191
▁Sup	191
tl	191
▁Brent	191
▁Ante	191
▁Gathering	191
ege	191
▁Harm	191
▁Highlights	191
▁Morrison	191
▁Genocide	191
▁Edith	191
▁Weed	191
▁Sno	191
▁Beginning	191
lek	191
▁Breeding	191
▁Flags	191
thing	191
▁Stru	191
▁Quinn	191
▁Brett	191
▁Fool	191
▁sign	191
made	191
▁Neb	190
▁Hahn	190
▁Pierce	190
liga	190
▁Flour	190
▁Koi	190
itch	190
▁Pipes	190
▁JD	190
class	190
▁Pru	190
▁Yogi	190
▁Triomphe	190
turm	190
▁Birk	190
▁Dona	190
▁Roi	190
▁Tryp	190
▁Fem	190
▁Employees	190
▁Schwe	190
para	190
▁Pour	190
hur	190
▁Baths	190
▁Competence	190
rator	190
▁Boek	190
▁Javier	190
▁Lilly	190
▁Buses	190
igne	190
tius	190
▁Sweat	190
▁shop	190
▁Guns	190
▁Cameroon	190
▁Salomon	190
▁Rij	190
▁Henderson	190
oko	190
▁Romana	190
rite	190
▁DVR	190
▁Widow	190
jak	190
öll	190
▁Flam	190
▁Mysteries	190
▁Sau	190
▁RTL	190
sur	190
▁Rok	190
▁Prefab	190
▁Afrika	190
INO	190
▁Forms	190
▁Dem	190
itu	190
▁Observer	190
▁Andes	190
▁Persons	190
▁Augustin	190
▁Appeals	190
▁made	190
▁Reunion	189
garden	189
▁Odd	189
▁Medicinal	189
▁bay	189
▁Hob	189
▁Cane	189
▁Holmes	189
▁Faber	189
▁Fabulous	189
▁ATP	189
▁Cop	189
Investor	189
▁Geography	189
nya	189
gala	189
▁Cera	189
▁Derek	189
bourne	189
▁Fabian	189
▁Pyramids	189
▁Ortho	189
▁Huy	189
uth	189
▁Papua	189
▁IA	189
crat	189
▁Stable	189
▁Quote	189
▁Participation	189
▁Ng	189
▁Saul	189
▁Mecca	189
ake	189
AY	189
▁Brexit	189
mak	189
▁ARC	189
▁Remix	189
▁Meridian	189
▁Sardinia	189
▁Tropic	189
▁Antilles	189
▁König	189
▁HB	189
check	189
▁hills	189
▁Málaga	189
rid	189
farm	189
▁mm	189
▁Fortis	189
enti	189
▁Galileo	189
▁Gandhi	189
▁While	189
▁Spike	189
kri	189
▁Fridge	189
▁ICE	189
▁Madame	189
dok	189
▁Daphne	189
▁Utah	189
▁Beanie	189
assa	189
ned	189
eil	189
▁Cass	189
ACE	189
SW	189
▁Bout	189
▁Worm	189
▁Grat	188
▁Sunflower	188
▁Locks	188
▁Rö	188
▁Vice	188
▁Identification	188
▁LIVE	188
▁Bara	188
andi	188
▁such	188
▁Instructions	188
▁Herzegovina	188
IJ	188
▁Utilities	188
▁Quadrant	188
▁Entrepreneurs	188
▁Graph	188
▁Valerie	188
lok	188
▁Tera	188
▁Herbal	188
opoulos	188
duin	188
▁Strategies	188
▁Tess	188
▁Rechargeable	188
▁Canterbury	188
▁Allie	188
▁GI	188
▁Meth	188
▁Canoe	188
tini	188
▁Nursery	188
▁border	188
▁Bien	188
▁Bathtub	188
▁Carry	188
iet	188
▁Cecil	188
dron	188
▁left	188
▁Krabi	188
flor	188
▁Bock	188
▁Koop	188
▁Pluto	188
▁Plu	188
ograph	188
▁Gir	188
SF	188
▁SHA	188
▁Mister	188
▁BEST	188
▁Mechanism	187
▁Pou	187
stead	187
Ad	187
▁Wed	187
▁Needs	187
nz	187
yna	187
▁Tis	187
▁Patriarch	187
CAM	187
design	187
▁Genoa	187
▁Avatar	187
NK	187
▁Hawt	187
\	187
▁MAG	187
ancy	187
▁Salam	187
▁Español	187
▁Eagles	187
kovsky	187
YE	187
pla	187
▁Upgrade	187
▁Denia	187
▁Jizz	187
▁Ronde	187
▁TG	187
▁AW	187
▁Commander	187
▁Aberdeen	187
wara	187
▁Theodor	187
▁Cron	187
▁Kush	187
▁Deborah	187
ket	187
▁WWF	187
kt	187
▁Taking	187
▁Tears	187
▁Wicked	187
▁Una	187
▁Armor	187
▁Alexandria	187
ə	187
▁PG	187
▁Hautes	187
▁Doris	187
▁Wank	187
▁Reggae	187
▁Meadow	186
▁Roo	186
▁ICO	186
▁Tuin	186
▁Diane	186
▁Khu	186
meister	186
▁Ori	186
▁Biomedical	186
CD	186
▁Setup	186
▁Dorothy	186
▁Pestana	186
emann	186
▁Somme	186
pr	186
▁Delight	186
stedt	186
▁Lum	186
idis	186
▁Perm	186
▁Pentecost	186
▁Malcolm	186
▁Lai	186
stall	186
▁Dice	186
▁Blas	186
▁Citizenship	186
ETA	186
▁Chengdu	186
▁Marines	186
▁Magical	186
On	186
▁Arti	186
▁Elementary	186
▁Inch	186
▁Pens	186
▁Luxor	186
▁Francesca	186
▁NYC	186
▁Wedge	186
bh	186
itas	186
smith	186
▁Gazelle	186
▁Stitch	186
▁Quai	185
▁Ducati	185
▁Wend	185
▁McLaren	185
▁Revival	185
then	185
▁Heavenly	185
KER	185
▁Essentials	185
plaats	185
▁Consultation	185
▁four	185
▁Teeth	185
▁Multilayer	185
▁Amen	185
▁Iowa	185
▁Breed	185
guchi	185
▁Capacity	185
ching	185
führer	185
▁Saxony	185
▁COP	185
ehl	185
▁LF	185
▁Curry	185
dig	185
▁Fjord	185
NIC	185
▁Sever	185
▁Mania	185
▁Moraira	185
▁STAR	185
▁Monsters	185
lade	185
▁Wag	185
▁Bosnian	185
▁Riders	185
▁Moi	185
ith	185
▁Kes	185
Sport	185
▁Yvonne	185
▁Occupation	185
▁Hanover	185
lake	185
▁Eduardo	185
▁GF	185
wagen	185
▁Haan	185
ROS	185
▁Mirador	185
▁Fang	185
▁RM	185
▁Jihad	185
rr	185
▁Sonia	185
▁Nino	185
Food	185
▁Maes	185
▁DAM	185
▁Preparation	185
▁Sort	185
▁eu	185
▁Rifle	185
▁Isola	185
▁Feeling	185
▁Cowboy	185
▁Griffin	185
▁Torino	185
▁Quentin	184
▁Speak	184
plat	184
▁MTR	184
...	184
▁Mundo	184
▁Artemis	184
uwe	184
▁FedEx	184
▁Dio	184
itsa	184
▁Scal	184
▁Caps	184
▁Freestyle	184
▁TRI	184
▁Paro	184
YP	184
▁Pieces	184
▁Eis	184
strom	184
▁Toledo	184
▁Responsibility	184
ZA	184
▁Forbes	184
▁Halo	184
▁Purchasing	184
▁Coupé	184
proof	184
▁Gambia	184
▁Willow	184
▁Chronicles	184
▁Harald	184
▁Constitution	184
▁Lamborghini	184
▁Schle	184
foot	184
▁Gerhard	184
▁Overijssel	184
road	184
▁Perkins	184
▁Idler	184
▁Genuine	184
gri	184
vera	184
▁DNA	184
▁Settlement	184
▁Jess	184
▁Tessa	184
CHE	184
▁Hirsch	184
▁Alp	184
▁Andorra	184
▁Barbados	184
▁Yen	184
HE	184
▁Advisor	184
tom	184
▁CHI	184
wolf	184
connect	184
▁Vegetarian	184
▁Keto	184
▁stadium	184
pf	184
WO	184
▁Moe	183
▁Selling	183
▁Bermuda	183
eto	183
▁Academies	183
▁Arche	183
▁Wallace	183
mouth	183
▁Emil	183
bergen	183
▁Yokohama	183
▁Pavel	183
▁KS	183
▁Moy	183
evi	183
▁Oceans	183
▁Nikola	183
▁Dekker	183
▁port	183
▁Dominic	183
▁Anime	183
▁Tanzania	183
▁Prototype	183
▁Different	183
▁Bris	183
▁Tung	183
rl	183
▁Democrats	183
▁Jakarta	183
▁Savannah	183
▁Calgary	183
▁Amadeus	183
▁Petrov	183
dler	183
▁Martijn	183
▁Abby	183
series	183
▁Fonte	183
▁Chant	183
▁same	183
▁Boa	183
▁Serie	183
▁Raf	183
▁Akira	183
aries	183
▁Whitney	183
▁Parrot	183
route	183
ient	183
▁Ionian	183
▁Vlaams	183
▁grand	183
▁Acoustic	183
▁Rapporteur	182
▁Saloon	182
▁Continent	182
Tool	182
▁Pousada	182
▁Boardwalk	182
▁Intervention	182
▁Scandinavia	182
ikon	182
▁Walnut	182
tun	182
▁Ruben	182
▁Thrones	182
ying	182
cil	182
▁Chew	182
▁Koruna	182
▁Bitch	182
system	182
vaart	182
▁Louisiana	182
▁estate	182
▁Roh	182
▁Kera	182
▁Commune	182
▁Acqua	182
▁Knoll	182
▁Kultur	182
▁Extractor	182
▁Celebrity	182
▁Shrimp	182
▁Vivian	182
▁Entrepreneur	182
quo	182
ASH	182
▁Sergio	182
dee	182
▁Stalin	182
▁Amer	182
CV	182
deck	182
▁Recommend	182
▁Sme	182
▁Wies	182
fill	182
▁Were	182
▁ltd	182
▁Handheld	182
▁UI	182
▁Tuscany	182
▁Wuxi	182
Health	182
▁Botel	182
▁Childhood	182
▁Bark	182
raad	182
direct	182
▁Transparency	182
▁Polymer	182
▁Apostles	182
▁Grille	181
▁Tow	181
▁Winery	181
▁Activation	181
oba	181
▁Garlic	181
▁Saxo	181
alis	181
▁Parane	181
▁Amal	181
▁Wadi	181
ANS	181
eiro	181
▁LV	181
▁Braided	181
BN	181
	181
▁Ardenne	181
▁Transparent	181
▁Lore	181
▁Alibaba	181
▁room	181
vara	181
▁Tauern	181
▁Vee	181
metric	181
dr	181
▁Theodore	181
▁Spotlight	181
▁Albergo	181
▁Zig	181
otte	181
▁Slider	181
▁Previous	181
▁Bears	181
▁Sink	181
▁Handels	181
▁Grau	181
▁make	181
Smoking	181
▁Jaume	181
lad	181
▁Engagement	181
▁Randy	181
▁SJ	181
LG	181
▁Tracks	181
▁Fai	181
▁Stout	181
▁NZ	181
real	181
▁Galapagos	181
YO	181
▁Candles	181
▁Principe	181
▁Putin	181
▁Opus	181
▁Scratch	181
▁Rotor	181
▁Graaf	181
▁addition	181
▁Opener	181
zek	181
▁Labyrinth	181
▁Reconstruction	181
▁Bare	181
▁Spar	181
▁Beans	181
▁Governor	181
▁Kry	180
▁Kobe	180
lea	180
▁Mok	180
▁Poel	180
page	180
▁Classification	180
▁Poul	180
thos	180
▁Aut	180
▁Choco	180
cool	180
▁UsCareers	180
▁Veli	180
▁SBS	180
▁Mino	180
▁Vase	180
OLA	180
wig	180
gara	180
▁access	180
▁Commando	180
zorg	180
▁Shy	180
ONG	180
oco	180
▁Plas	180
▁Ade	180
▁Bunker	180
▁VP	180
▁south	180
▁Serb	180
▁Hera	180
▁Aza	180
GF	180
▁Crea	180
▁KIT	180
▁main	180
▁EXPO	180
MU	180
iy	180
▁Chong	180
▁CAL	180
▁Talking	180
slag	180
cour	180
▁Boobs	180
▁Nadia	180
UX	180
WS	180
▁Hosta	180
▁Ally	180
▁Wolfberry	180
gold	180
▁Savior	180
▁Brilliant	180
▁Threesome	180
▁IND	180
▁Waiting	180
▁Ravel	180
▁Sabrina	180
▁Motorway	179
▁Gwen	179
akh	179
▁Shaker	179
▁Gus	179
▁Robertson	179
▁system	179
▁Belly	179
▁Parcel	179
zet	179
ulla	179
▁Halton	179
▁parking	179
▁Moer	179
dek	179
gne	179
▁Sanders	179
speed	179
▁Imagine	179
▁Nautical	179
buch	179
▁Mantra	179
▁Remy	179
▁ALS	179
▁Tight	179
▁Investors	179
▁Hog	179
▁Ural	179
▁Yam	179
▁Traders	179
▁Divi	179
▁Stamping	179
rest	179
▁Pea	179
mination	179
shore	179
▁Whore	179
▁Cervantes	179
▁Fos	179
▁JAV	179
▁Arden	179
▁Nuremberg	179
hay	179
▁ISS	179
▁Lenovo	179
▁Lausanne	179
▁Hul	179
▁Elk	179
▁Grape	179
▁Plat	179
▁IW	179
▁PLUS	179
mph	179
zaki	179
▁Chia	179
▁Adeje	179
▁Granny	179
chuk	179
▁Accident	179
▁Staats	179
▁ha	179
▁Koning	179
block	178
▁Buster	178
▁Sirius	178
LER	178
▁Kruis	178
ANO	178
▁earth	178
▁Indi	178
▁Salesforce	178
▁Winkel	178
▁Cannon	178
My	178
▁table	178
▁print	178
▁Wednesday	178
▁Regulator	178
▁Aar	178
▁Durham	178
HT	178
Ass	178
▁near	178
▁Thijs	178
▁Marais	178
▁Mijn	178
metal	178
▁Sankt	178
TRA	178
▁Lance	178
▁Coaster	178
▁Vosges	178
▁Triton	178
▁Alberta	178
▁Isaiah	178
▁future	178
auw	178
▁Hellenic	178
ación	178
spi	178
▁Hertz	178
▁Valentina	178
nitz	178
▁Berries	178
▁Rosso	178
NU	178
▁Sling	178
▁Astronomy	178
▁Billing	178
▁Chung	178
▁Salvation	178
▁Journalists	178
▁Lebanon	178
▁PAL	178
▁Ska	178
▁Cultuur	178
▁DESIGN	178
▁Agu	178
▁Condor	178
ann	178
▁Roz	177
▁Dunn	177
▁Mesa	177
▁Awesome	177
▁NG	177
▁Soldiers	177
▁Hacienda	177
▁Electoral	177
▁mount	177
▁Dynamo	177
▁Cambodia	177
▁Bareback	177
itta	177
tical	177
▁Deux	177
▁MILF	177
▁Audiovisual	177
▁Fixed	177
▁Lez	177
▁Leap	177
▁Found	177
▁Olympiad	177
▁Concours	177
▁Microfiber	177
▁Twilight	177
yev	177
UAL	177
fun	177
▁Farms	177
▁Liang	177
▁BAM	177
▁Gooi	177
▁Avignon	177
▁Comes	177
▁Dig	177
▁Vrij	177
▁Parka	177
▁Alpe	177
rec	177
belt	177
icon	177
▁Kee	177
mission	177
orum	177
▁Amour	177
▁Mediation	177
OUS	177
▁Koe	177
tera	177
▁Brod	177
▁Wanna	177
ono	177
▁Fig	177
▁ABB	177
▁Afternoon	177
aceae	177
tio	177
▁Tuk	177
▁Geel	177
▁interior	177
▁Hira	177
AIR	177
▁Myth	177
▁Confederate	177
cion	177
▁Bolero	177
▁Pamela	177
▁Bones	177
▁Maserati	177
▁Hae	177
▁Logos	177
▁Composers	176
▁Salmon	176
▁Funeral	176
▁Forklift	176
ugu	176
▁Souvenir	176
▁Maxwell	176
▁Winch	176
▁Meir	176
terre	176
temp	176
▁Musa	176
äl	176
▁Downloader	176
▁Selections	176
▁Checker	176
▁Magnum	176
lak	176
▁Mayfair	176
▁Flexi	176
▁Tala	176
▁Stam	176
▁Swe	176
▁Mayan	176
ffi	176
▁SDK	176
▁Wait	176
▁Splitter	176
▁ACC	176
▁Debt	176
▁Lukas	176
▁Houseboat	176
tation	176
▁Photographer	176
▁Katherine	176
emi	176
▁Khalifa	176
▁Batch	176
emba	176
▁Carriage	176
rider	176
▁Mustang	176
▁Lumin	176
lk	176
▁Quarters	176
imba	176
▁Dao	176
▁Crocodile	176
▁Belgrade	176
▁Kem	176
▁Position	176
▁Brock	176
phor	176
▁Caucasus	176
Works	176
▁Locanda	176
▁Launcher	176
▁Karate	176
WG	176
▁Sept	176
▁Vuelta	176
▁RGB	175
▁Lep	175
▁Mosel	175
▁Sob	175
▁Eb	175
▁trans	175
▁Vector	175
sser	175
▁Kramer	175
OTA	175
▁Goal	175
▁Oncology	175
▁Ere	175
lox	175
▁Authentic	175
▁Onder	175
▁Quer	175
▁Musique	175
tow	175
▁Dion	175
▁Vag	175
▁Additional	175
green	175
▁Various	175
▁Indy	175
dd	175
▁Rattan	175
▁Nava	175
▁Fans	175
▁right	175
▁Penis	175
▁Orchestre	175
wit	175
▁Serum	175
▁Edmund	175
▁Punk	175
▁Nai	175
▁Graves	175
▁Jens	175
▁LU	175
▁Davies	175
▁Tori	175
▁Forbidden	175
▁Annette	175
▁Backpacker	175
alp	175
▁Zheng	175
▁Defender	175
▁Span	175
etter	175
▁Finding	175
vale	175
▁Stil	175
hler	175
▁Barcode	175
▁Pli	175
▁Riot	175
mata	175
▁Filipino	175
▁Artis	175
▁Burj	175
cams	175
▁JJ	175
▁Tyr	175
ELL	175
▁Variety	174
~	174
▁Wins	174
AE	174
▁Furnace	174
▁Brandon	174
▁Farming	174
ulation	174
▁Scouts	174
glass	174
▁Yoko	174
augh	174
ometer	174
▁Tren	174
▁Proximus	174
▁Wilderness	174
▁Sura	174
▁Hao	174
▁Berber	174
▁Katy	174
▁Qua	174
▁Lumpur	174
▁Bash	174
▁Agatha	174
voy	174
VS	174
▁Bora	174
TZ	174
some	174
▁Erin	174
▁Gros	174
▁Münster	174
▁Chemin	174
zoo	174
▁Mijas	174
▁Blocks	174
rida	174
orn	174
▁Congres	174
▁Mechanics	174
▁Lov	174
kunst	174
ider	174
▁Brow	174
▁Veer	174
▁human	174
▁Genetics	174
Cap	174
▁Subject	174
▁Batteries	174
▁Paralympic	174
lish	174
▁Andrei	174
▁Dude	174
▁Alsace	174
ieri	174
▁Nigerian	174
guan	174
▁Fault	174
▁Streaming	174
▁Damme	174
▁Urs	174
▁Myanmar	174
▁Velde	173
▁Libra	173
lah	173
▁Eixample	173
DG	173
▁Gig	173
▁Petrol	173
▁Barometer	173
nak	173
▁Spotify	173
▁Korn	173
▁Testosterone	173
MENT	173
▁Dior	173
▁Ib	173
▁Garnier	173
▁Bah	173
▁Ic	173
▁CG	173
▁Kiel	173
▁Deloitte	173
▁Molo	173
USE	173
bone	173
ebo	173
▁Goo	173
ack	173
▁Chartered	173
▁Freddy	173
▁Sn	173
uh	173
▁palace	173
▁Conde	173
▁Vr	173
▁Arie	173
wij	173
▁Keen	173
▁Illusion	173
▁Automated	173
▁Delegation	173
▁Trusted	173
▁Concierge	173
▁Sullivan	173
▁Prada	173
▁Haydn	173
iani	173
▁Victims	173
type	173
▁Saf	173
▁Serpent	173
vall	173
▁Vanity	173
ede	173
▁Psalm	173
▁Eurostars	173
▁Trick	173
NG	173
▁Montpellier	173
▁development	173
▁Nils	173
hack	173
▁Klo	173
▁only	173
▁Advent	173
jal	173
RES	173
▁Deb	173
ector	173
TX	173
▁Relationship	172
▁Threat	172
euil	172
▁Jian	172
▁Ged	172
▁Um	172
▁Peach	172
▁Typhoon	172
▁Lech	172
TECH	172
▁Ahl	172
▁Convert	172
dder	172
▁Mille	172
▁Hove	172
▁Palmas	172
fran	172
▁Vlad	172
▁video	172
▁Tuning	172
▁BH	172
▁Hits	172
tler	172
ppa	172
▁Amsterdamse	172
▁Avengers	172
▁Massa	172
▁Fau	172
▁Hap	172
att	172
▁Voll	172
ijt	172
▁Which	172
▁Hanger	172
▁Lowe	172
sher	172
▁Kuwait	172
▁Roadster	172
▁Trier	172
lace	172
▁Siri	172
▁Taco	172
▁Fax	172
erland	172
▁Santorini	172
▁Gangbang	172
▁Christa	172
▁Petrus	172
▁Comte	172
trade	172
▁Alber	172
▁Ventures	172
▁Thir	172
▁Sitecore	172
▁Ljubljana	171
▁Aalst	171
▁Jolly	171
▁Alam	171
▁Talks	171
▁Nashville	171
▁Cyril	171
▁Goa	171
MBO	171
▁Cocoa	171
▁Beu	171
▁Aw	171
tria	171
▁Items	171
SN	171
▁Jonge	171
▁Draft	171
▁Missile	171
▁Bengal	171
▁MSC	171
▁Hamm	171
▁Additive	171
▁Contractors	171
▁Wikipedia	171
▁Ferr	171
▁Rath	171
▁dam	171
eni	171
▁Question	171
▁class	171
▁Contour	171
▁Herve	171
▁Partition	171
▁Civilization	171
▁Exodus	171
alia	171
▁Volunteers	171
▁Meteor	171
▁Giulia	171
bureau	171
▁Siren	171
stell	171
▁Personality	171
▁Component	171
quan	171
ogne	171
▁Tsim	171
▁piano	171
▁Kaba	171
▁Monet	171
▁Prospect	171
▁Knit	171
▁Psychiatry	171
▁Demi	171
▁both	171
▁Gle	171
▁SQL	171
▁Reservoir	171
▁Liszt	171
▁Moo	171
▁Sne	171
▁Inverter	171
▁PGA	171
▁Reason	170
▁Rams	170
▁Beats	170
▁Vulcan	170
▁DK	170
▁EMI	170
▁Chol	170
▁Khal	170
▁Gorilla	170
hd	170
▁Mothers	170
▁Rabo	170
▁Nag	170
▁Nouvelle	170
▁Hainaut	170
▁Volta	170
▁Girlfriend	170
▁Leven	170
fl	170
▁Maiden	170
▁without	170
▁Zap	170
Light	170
▁Ket	170
▁TGV	170
▁Ster	170
▁Unicorn	170
▁Templar	170
▁Fontys	170
▁Cort	170
▁su	170
▁Antony	170
sang	170
▁Nemo	170
▁Sedan	170
cord	170
▁Sparta	170
gent	170
▁Chilli	170
▁Trap	170
▁Pana	170
▁Zante	170
▁JW	170
trol	170
sund	170
▁Solvay	170
lect	170
▁Dukes	170
LINE	170
EY	170
▁Genius	170
▁Prairie	170
▁CCC	170
arte	170
▁Kast	170
▁Principality	170
▁Seo	170
CAD	170
▁Rit	170
TION	170
dir	170
▁WI	170
▁crisis	170
▁Polski	170
▁DL	170
▁Recht	170
▁Neutral	170
▁Daimler	170
▁Bournemouth	170
▁Buckle	170
▁LAN	170
por	170
▁Razor	170
▁Martial	169
▁Pater	169
▁Gauge	169
nacht	169
▁Torremolinos	169
▁Moments	169
▁Sidney	169
▁Performer	169
▁Alpin	169
▁NFC	169
▁Hosiery	169
▁Fell	169
▁Pera	169
▁Laurence	169
LOG	169
load	169
▁Conservatorium	169
▁Tirol	169
▁Jude	169
▁Casual	169
▁Belo	169
trum	169
▁Bally	169
mart	169
▁Tubing	169
▁AMC	169
DJ	169
▁Malik	169
▁Offer	169
▁Luka	169
▁Bells	169
▁council	169
▁Couture	169
cou	169
▁Expansion	169
▁Cabaret	169
▁Higashi	169
United	169
▁Nao	169
DK	169
▁Judo	169
mala	169
▁Skating	169
▁Montagne	169
▁website	169
▁Blast	169
▁Whirlpool	169
▁Somer	169
▁Hacker	169
AME	169
shev	169
▁Bulgakov	169
▁Stol	169
▁Brus	169
▁Catalyst	169
▁Edel	169
lica	169
▁Jardins	169
gay	169
wee	169
▁venue	169
RAM	169
eling	169
▁GW	169
▁Mosquito	169
mou	169
▁va	169
▁Nebula	169
blue	168
▁Gothenburg	168
▁Patriot	168
▁Lun	168
WF	168
▁Fatima	168
▁Meg	168
▁Derma	168
▁Doom	168
▁Econo	168
▁Specifications	168
▁Samba	168
▁Dwarf	168
hei	168
peak	168
▁Psychological	168
▁Packs	168
▁Techniques	168
▁Bonne	168
▁Simulation	168
▁TECH	168
▁Pcb	168
▁Driven	168
▁Amphitheatre	168
Base	168
▁Rh	168
chart	168
▁Levante	168
▁Samson	168
▁Impulse	168
hao	168
▁Shutter	168
▁Pontifical	168
▁Irving	168
nard	168
▁Zuidas	168
▁Bez	168
▁Wolff	168
▁Buk	168
aca	168
▁Soy	168
ERT	168
NV	168
▁Bait	168
▁Ret	168
▁Neuve	168
CF	168
▁Recordings	168
▁after	168
▁Yag	168
▁Uk	168
▁Constellation	168
ignan	168
ś	168
mind	168
Ra	168
▁Dmitri	168
▁Griffith	168
▁Paradis	168
fund	168
▁Dept	168
▁Johnston	168
▁Chakra	168
▁Sandberg	167
▁Hasan	167
▁Konstantin	167
▁Upload	167
oil	167
fried	167
▁Ora	167
▁Rena	167
▁Syl	167
▁Asti	167
▁door	167
salon	167
▁Buena	167
▁Estepona	167
▁Fl	167
▁Recent	167
▁Nei	167
▁PB	167
▁Kav	167
▁Funchal	167
▁Arcadia	167
▁Breaking	167
▁Buff	167
▁Sato	167
▁Coats	167
▁Ottawa	167
▁Maggie	167
▁Minsk	167
▁ATM	167
sec	167
▁Biblical	167
centre	167
▁Mess	167
AKE	167
▁body	167
▁Stunning	167
baum	167
▁Ulrich	167
▁Rialto	167
▁turn	167
▁Mormon	167
▁Ether	167
▁Tsui	167
▁BNP	167
utter	167
plex	167
▁Diagnostics	167
▁Kirby	167
▁Granules	167
\\'	167
▁Decade	167
enz	167
▁Residenz	167
CCA	167
▁Liber	167
▁Enc	167
kovic	167
▁Stepmom	167
▁Mahler	167
▁Libert	167
▁Beaufort	167
▁Citrus	167
tap	167
▁Diplomatic	167
▁Hals	167
▁Pula	167
▁Waka	167
elecommunication	167
▁Origins	167
▁Xvideos	167
ache	167
uge	167
▁Noordwijk	167
▁Georgetown	167
▁Bedford	166
▁Mathieu	166
▁Lakeside	166
▁Quo	166
▁Extraordinary	166
▁Cie	166
▁Ventura	166
▁Indie	166
▁Eros	166
▁Mum	166
▁Daan	166
IAL	166
▁Bending	166
dh	166
▁Leer	166
hane	166
▁Fir	166
▁Dyke	166
▁Sack	166
▁Frankie	166
▁Anger	166
▁Correction	166
▁Calais	166
▁Lauri	166
▁Russ	166
▁Hatch	166
▁Sega	166
▁weekend	166
▁Tuesday	166
▁Zombie	166
▁east	166
tig	166
▁but	166
▁Giga	166
burgh	166
▁Implementation	166
▁Pinterest	166
▁Nr	166
▁Oklahoma	166
bala	166
▁Nak	166
hey	166
door	166
bour	166
bella	166
▁Leeuwen	166
▁Vak	166
▁Fla	166
▁Saka	166
▁Essex	166
▁SX	166
aires	166
▁Colours	166
▁Komatsu	166
OLD	166
▁Hur	166
▁disaster	166
etic	166
▁Giu	166
▁Informatics	166
nne	166
▁Insect	166
▁Races	166
▁Morro	166
nn	166
▁Glamour	166
▁Anthropology	166
▁Kuta	166
▁Oto	166
ener	166
▁Colombian	166
▁GNU	166
▁Antica	165
▁DD	165
▁Kasteel	165
▁Blouse	165
▁EG	165
▁CAS	165
▁FP	165
Pornstar	165
▁Solitaire	165
▁Aram	165
▁Crossroads	165
OVE	165
▁Leger	165
▁Virgen	165
▁Ef	165
▁Gour	165
▁Buttons	165
▁Gaul	165
▁Reus	165
▁GMP	165
▁Oli	165
hau	165
▁Autograph	165
▁Dressage	165
▁Yachting	165
▁Operators	165
LL	165
▁tab	165
hoo	165
▁Leu	165
uring	165
▁Orkest	165
▁Thom	165
▁Lindner	165
▁Pyrénées	165
▁OOO	165
SCI	165
▁Cun	165
▁Horta	165
▁Maki	165
▁Drying	165
▁Nea	165
▁Nonwoven	165
▁Marques	165
▁Huss	165
▁Suck	165
▁Dent	165
▁Keukenhof	165
▁Mam	165
▁JB	165
▁Cases	165
▁Dela	165
ENA	165
▁Kathleen	165
▁Shimano	165
kind	165
▁Error	165
active	165
▁Schw	165
bron	165
▁Beloved	165
▁Venezuela	165
▁Merino	165
▁Klaas	165
▁Pianos	165
▁Noel	165
▁Mana	165
▁Dangerous	165
▁Tornado	165
nest	165
▁Adele	165
▁Deere	165
NN	165
▁Kyiv	165
▁Cyclone	165
▁Pokemon	164
▁Chesterfield	164
▁Erika	164
▁Overhead	164
▁Drew	164
around	164
▁Usage	164
▁Schiedam	164
▁Aspire	164
sound	164
▁Lessons	164
▁Newman	164
▁Height	164
▁Stripes	164
▁Taksim	164
▁Caddy	164
▁Dames	164
▁EYE	164
▁Territorial	164
▁Twins	164
▁Rodeo	164
Pad	164
▁Offers	164
▁Nagar	164
damm	164
▁Myrtle	164
▁Debate	164
▁Martyrs	164
rai	164
▁Sami	164
▁Inkjet	164
▁Spoon	164
▁Gina	164
rink	164
▁Furnished	164
▁Enable	164
NER	164
▁Banque	164
▁Skye	164
▁Bic	164
▁Blades	164
akov	164
▁Revue	164
arth	164
▁Altea	164
▁Refrigerator	164
leen	164
rom	164
ishi	164
governmental	164
▁RP	164
▁agency	164
▁Foal	164
▁Pulp	164
tung	164
▁Patriotic	164
dur	164
▁Riet	164
▁Pyr	164
▁Sucks	164
▁Pf	164
▁Meiji	164
▁Feld	164
▁Evergreen	164
steen	164
▁Charlemagne	164
ISE	164
houd	164
▁Dancer	164
▁Richardson	164
▁Ata	164
tham	164
▁Ethernet	164
ged	163
▁Banquet	163
▁Sitges	163
▁Vai	163
hove	163
▁Locations	163
▁Licking	163
ì	163
tiva	163
▁Practitioner	163
▁NAS	163
▁Fokker	163
▁Privilege	163
lö	163
Plus	163
▁Fas	163
fang	163
▁TW	163
▁Honolulu	163
▁Spear	163
▁Bertrand	163
▁HX	163
jay	163
▁Haf	163
▁Hats	163
▁Rak	163
▁Cadet	163
▁Fenix	163
▁Become	163
▁Arthritis	163
▁rock	163
▁Pech	163
▁Soi	163
uil	163
uza	163
▁Achter	163
▁Trang	163
▁Having	163
▁Susanna	163
▁Hé	163
▁Should	163
esia	163
▁Gim	163
▁Jordi	163
boek	163
▁Dahlia	163
▁Skill	163
▁Pl	163
▁Elections	163
▁Cr	163
▁Spell	163
▁Ryder	163
▁Capsules	163
ambi	163
rush	163
▁Fondation	163
▁Guidance	163
jur	163
ullah	163
▁Rudi	163
▁Hesse	163
▁Websites	163
KE	163
▁Done	163
VIS	163
European	163
tea	163
▁COMP	163
▁Clarinet	163
rí	163
lijk	163
sphere	163
▁Creating	163
▁Cul	163
▁Sensi	163
▁Unilever	163
square	163
▁Mandy	163
▁Rank	163
▁Centrifugal	163
▁Dau	163
▁Armored	163
▁Biography	163
groep	163
▁Monarch	163
▁Carrefour	163
▁Chiado	162
▁Delete	162
acco	162
IUM	162
▁Gali	162
▁etc	162
▁Hunk	162
▁Aquapark	162
tank	162
▁Lyceum	162
▁Cranes	162
aku	162
▁Uv	162
riya	162
▁Pee	162
▁Vend	162
▁Leicester	162
yt	162
▁Quant	162
zicht	162
Sign	162
XX	162
▁KPN	162
▁Governors	162
ás	162
▁Brahma	162
▁Sari	162
▁Coop	162
LK	162
▁UPC	162
▁Cava	162
▁Pantheon	162
▁Rhy	162
▁Geoffrey	162
▁Rule	162
▁Laan	162
▁Believe	162
▁APC	162
▁Perez	162
▁Producers	162
▁Colt	162
toren	162
▁XR	162
sung	162
ORA	162
▁Randstad	162
▁Tyres	162
▁Helmond	162
▁UMC	162
▁KR	162
▁DF	162
▁Damen	162
▁Pulley	162
▁Scrum	162
KI	162
▁WM	162
▁Congressional	162
Cloud	162
▁Maxima	162
▁Been	162
spor	162
cene	162
izz	162
▁Tick	162
▁Nang	162
▁Chap	162
▁WO	162
▁Renewal	162
ICK	162
▁date	162
▁Suk	161
▁Bole	161
owitz	161
▁Joey	161
lai	161
gol	161
▁Hex	161
▁Samos	161
HEN	161
Fi	161
▁Gilde	161
▁Splendid	161
▁Acu	161
▁cover	161
▁Growing	161
▁Leidseplein	161
▁Treasures	161
▁Pushkin	161
▁Issues	161
▁Montes	161
▁Pha	161
▁Worship	161
▁Delaware	161
endi	161
▁Moors	161
▁Sof	161
▁Ramp	161
▁Eid	161
ē	161
▁Nicol	161
▁Faucet	161
▁Jour	161
▁Davi	161
▁Akh	161
AVE	161
▁ARM	161
iteit	161
▁Founder	161
got	161
▁Burke	161
▁Seri	161
▁Rive	161
▁Cosmos	161
lom	161
▁Massimo	161
▁Libraries	161
ITE	161
▁image	161
▁Tintin	161
KL	161
▁Servers	161
abba	161
rone	161
▁Anno	161
▁FF	161
▁Nga	161
▁Former	161
oom	161
▁Hanging	161
ates	161
casa	161
▁Curse	161
gou	161
▁Albums	161
▁sports	161
▁Critics	161
desk	161
▁Oostende	161
▁Meteorological	161
▁Whisper	161
▁Length	161
illard	161
▁Lone	161
▁Ina	161
▁Floyd	161
▁Beno	160
▁Missions	160
▁Mauritius	160
zal	160
▁Etoile	160
▁Yourself	160
▁IDFA	160
▁Showroom	160
naut	160
wai	160
▁Admiralty	160
▁TNO	160
▁Squirt	160
▁Valentino	160
▁Mongolian	160
TOR	160
▁Hee	160
▁Pax	160
▁Primo	160
hawk	160
▁Haiti	160
▁Guin	160
▁Hornet	160
▁Concord	160
ALE	160
glo	160
▁Verse	160
MAR	160
▁Ip	160
▁Tet	160
▁Treat	160
▁Juliette	160
▁Hadrian	160
▁Yer	160
strand	160
▁Luci	160
UST	160
▁Opal	160
step	160
▁Climb	160
▁PRINCE	160
▁Hayes	160
▁football	160
▁BMC	160
ops	160
▁Hawaiian	160
▁Polyurethane	160
▁Brandt	160
▁Promotional	160
Group	160
▁Mean	160
▁Bello	160
▁Bilbao	160
▁Leaves	160
▁Lop	160
▁Pinnacle	160
▁Milwaukee	160
▁Behavior	160
▁Firenze	160
Gen	160
▁rental	160
kam	160
▁IG	160
▁Brom	160
▁Rahman	160
▁Cartagena	160
mul	160
▁Homeland	160
▁Greeks	160
▁Meli	160
▁Nantes	160
▁Aesthetic	160
▁SSD	160
▁Fencing	160
urt	160
ENCE	160
▁Mondo	160
▁Baar	160
▁Sui	160
truck	160
mari	160
▁Bates	160
▁Marguerite	160
▁Nationaal	160
▁Kino	160
▁Legs	160
▁Paige	159
script	159
kol	159
▁Cath	159
▁Meadows	159
▁Delfin	159
▁Zanzibar	159
▁Carré	159
▁Aladdin	159
DY	159
▁Lusty	159
▁Git	159
▁Separator	159
▁Ventilation	159
▁Tristan	159
▁Surinam	159
utz	159
MH	159
▁Forecast	159
▁Dak	159
▁Simply	159
kö	159
▁Residencial	159
babe	159
▁Kamen	159
▁Willie	159
Tour	159
▁Rowing	159
▁Paramount	159
▁Maur	159
▁Macedonian	159
▁INTER	159
▁Consultative	159
▁Biosphere	159
ATI	159
▁Corso	159
▁Centennial	159
▁Dentistry	159
VT	159
▁Kumar	159
khov	159
▁Fag	159
▁mu	159
▁AH	159
▁Comprehensive	159
▁Britt	159
▁Vik	159
▁Screening	159
▁Coliseum	159
▁Eggs	159
▁Sensors	159
oph	159
▁Deutsches	159
flu	159
Log	159
▁Kenny	159
tuur	159
)	159
▁Principles	159
▁Gera	159
▁Teflon	159
▁Wonders	159
bush	159
▁Garibaldi	159
rooms	159
▁Stag	159
▁ETH	159
organ	159
▁Listen	159
▁Oakland	159
yong	159
▁Bain	159
bou	159
that	159
▁Binnen	159
▁Coaxial	159
Ver	158
graphic	158
▁Shane	158
▁Pumpkin	158
▁OBD	158
sawa	158
▁Travelling	158
▁Drago	158
▁Logitech	158
He	158
OTO	158
▁Alessandro	158
ción	158
▁Tatar	158
We	158
▁Revenge	158
tman	158
▁Limit	158
▁Manda	158
▁Adjustable	158
▁Tooth	158
chain	158
▁Emmen	158
▁Schm	158
œ	158
▁Antigua	158
▁Agra	158
▁Toshiba	158
yle	158
uela	158
▁GSM	158
ees	158
▁Kirsten	158
aerts	158
▁Yom	158
ė	158
▁Tokio	158
▁Transform	158
▁government	158
▁FIBA	158
▁VM	158
▁Robots	158
▁Horeca	158
nc	158
clip	158
ān	158
▁Appliances	158
▁Michal	158
▁Simons	158
▁Tahoe	158
▁Nazareth	158
▁Babel	158
▁Atoll	158
▁support	158
sail	158
▁Edmonton	158
nation	158
game	158
hardt	158
▁JS	158
▁Zakynthos	158
scope	158
ades	158
▁Molino	158
rita	158
▁Stockings	158
▁Slo	158
mec	158
▁Dixon	158
▁Barranco	158
▁Gha	158
yam	158
▁junction	158
▁Gràcia	158
▁Yosemite	158
▁Woody	158
,	158
▁Timer	158
▁Warfare	158
OM	158
▁Felipe	158
▁AMS	158
▁Allianz	158
▁history	157
▁Pang	157
▁Baking	157
▁Cynthia	157
▁BF	157
ettes	157
▁Manna	157
▁Enduro	157
▁Vasili	157
▁Kwan	157
▁Schengen	157
▁NB	157
▁Goud	157
▁Aletta	157
▁Waltz	157
ager	157
▁Wander	157
▁Oper	157
▁Pek	157
LV	157
▁ESC	157
▁Burns	157
▁Governorate	157
▁Addison	157
trap	157
▁via	157
▁GREEN	157
▁Oster	157
ages	157
▁Hopper	157
▁Planetarium	157
▁Arri	157
▁Picnic	157
▁Fireplace	157
▁Extruder	157
▁Vending	157
bara	157
shen	157
▁Lucerne	157
▁Tilt	157
▁Floors	157
▁Spandex	157
▁Array	157
▁Printers	157
pé	157
▁Dh	157
▁Handbags	157
cip	157
▁Revolt	157
▁Emerson	157
▁Buggy	157
▁Cabal	157
▁Spur	157
LAS	157
rank	157
▁underground	157
▁Flamenco	157
▁Shantui	157
▁Claw	157
▁Feder	157
▁harbour	157
▁Shade	157
Mon	157
▁Bulldog	157
▁Siro	157
▁Zer	157
▁Hohe	157
▁Bosco	157
▁Bloem	157
▁Meri	157
▁Boul	157
▁Tav	157
▁present	157
blick	157
▁Playhouse	157
▁Sommer	157
▁Assad	157
▁desert	157
▁Sung	157
cl	157
▁pen	157
▁neo	157
▁Choi	157
▁Reyn	156
color	156
ographic	156
KG	156
▁Gast	156
▁Kaz	156
▁NPO	156
▁Anglican	156
▁Decker	156
onian	156
▁Badminton	156
ARY	156
▁Episcopal	156
▁Wyn	156
lynn	156
▁Tum	156
▁Trop	156
▁Rood	156
▁Anthem	156
plane	156
▁Prom	156
▁Guer	156
▁Creampie	156
▁Fucked	156
igen	156
▁massif	156
▁Majesty	156
▁FRS	156
▁Clu	156
STER	156
▁Lö	156
▁Laurens	156
▁HT	156
▁Smithsonian	156
▁Morgen	156
▁Elektro	156
▁Quran	156
▁Brut	156
▁Speaker	156
▁Magnesium	156
andro	156
TEL	156
▁Thal	156
aran	156
▁Bild	156
▁VT	156
Si	156
▁León	156
▁Promotions	156
▁Scr	156
▁Irina	156
vig	156
▁Tia	156
▁Habit	156
▁Lathe	156
▁Bloc	156
YL	156
▁ISA	156
▁Cod	156
scale	156
▁Marker	156
▁Lancia	156
cation	156
Travel	156
▁Qin	156
▁Keygen	156
vr	156
▁DMC	156
▁Pilates	156
▁Dimitri	156
▁Helder	156
Pass	156
MAX	156
▁Kiri	156
ection	156
▁Bom	156
▁Lia	156
▁Carrie	156
Key	156
czy	156
▁Pedrera	156
▁Cincinnati	156
rata	156
▁Essay	155
▁Everyday	155
▁Conductor	155
AX	155
▁Thessaloniki	155
▁Photograph	155
▁Lelystad	155
▁Analyst	155
▁Gita	155
▁Doe	155
buri	155
▁AJ	155
dot	155
▁Sunni	155
▁Analog	155
▁Nowadays	155
zil	155
▁Saviour	155
▁Balaton	155
▁Heidi	155
oj	155
Fit	155
▁Hottie	155
LED	155
▁Clifton	155
ency	155
Pa	155
▁Galle	155
boer	155
▁Pals	155
yue	155
uke	155
▁Pebble	155
▁Stables	155
▁EMC	155
Map	155
cole	155
▁Bains	155
▁Ethiopian	155
scheid	155
lini	155
corp	155
kill	155
▁Samo	155
▁community	155
▁Fibre	155
▁Tantalum	155
▁Alla	155
▁Calc	155
▁Shel	155
▁Ironman	155
oir	155
▁Ii	155
vine	155
▁Savage	155
idad	155
▁Arp	155
▁Holst	155
▁Momo	155
kot	155
▁Maud	155
▁Haw	155
mall	155
umb	155
▁Danger	155
▁Fiets	155
Ž	155
▁Maxime	155
▁Caleta	155
fell	155
motion	155
ood	155
screen	155
▁Caro	155
UNG	155
▁Aller	155
▁Kimberly	155
▁Provisional	155
▁Fifty	155
aris	155
yla	155
▁Procedure	155
▁Recommendation	155
▁Stove	155
▁Verint	155
▁Humboldt	155
▁Accord	155
▁Servi	155
▁Aquitaine	155
pia	155
▁degli	155
▁Ziggo	155
▁Schol	155
angel	155
▁Hochschule	155
▁Diamant	155
▁Coma	155
▁Monnaie	154
▁Henne	154
▁Barrio	154
KC	154
▁Shaped	154
▁Zeitung	154
▁Bake	154
▁Icelandic	154
▁Goth	154
▁Radiation	154
▁Lijn	154
▁Romain	154
▁Aziz	154
▁JC	154
emer	154
▁Stabilizer	154
▁Groß	154
▁Amand	154
▁Andersen	154
▁Pulitzer	154
SIA	154
▁Endless	154
yin	154
▁Ecosystem	154
▁Puppet	154
▁Prop	154
▁Boh	154
▁Wid	154
▁Paloma	154
▁Urantia	154
nna	154
ulf	154
▁Snacks	154
▁Andri	154
▁Xtreme	154
Play	154
▁Michelangelo	154
rg	154
yx	154
rig	154
▁Aloha	154
PU	154
iglia	154
▁Tsi	154
▁Poison	154
▁KP	154
▁Geogrid	154
storm	154
▁Deliver	154
▁Sonnen	154
▁Trench	154
▁Sightseeing	154
▁RU	154
▁Voucher	154
▁mini	154
▁Swallow	154
▁Devils	154
RU	154
▁Edmond	154
koop	154
▁Gaudeamus	154
▁Shijiazhuang	154
▁Calypso	154
▁SUP	154
Ko	154
YN	154
Connor	154
▁Cornelia	154
dice	154
▁Brushless	154
nomy	154
▁Anja	154
ope	154
ORT	153
▁Torah	153
▁Scream	153
dle	153
▁Aim	153
▁Fiji	153
▁Eurasian	153
rique	153
NB	153
▁Leah	153
▁Saha	153
nock	153
zl	153
▁Mura	153
▁Fam	153
jian	153
▁Polypropylene	153
▁Armani	153
▁Compare	153
expo	153
▁Booty	153
▁Della	153
▁Thirty	153
Pe	153
▁Sociology	153
clar	153
▁Alexanderplatz	153
ngel	153
▁Sanchez	153
nium	153
▁NetEnt	153
heimer	153
▁Cristo	153
▁Gondola	153
▁Marley	153
▁Borneo	153
▁Princeton	153
▁Kirch	153
▁Kiwi	153
film	153
iron	153
▁Trilogy	153
▁Maja	153
▁Suvarnabhumi	153
LR	153
▁Nederlandsche	153
ress	153
LIC	153
▁Vienne	153
▁Veteran	153
▁Setting	153
lein	153
▁Sources	153
halle	153
lani	153
▁Associate	153
▁Stark	153
NES	153
amine	153
▁Geek	153
buurt	153
▁Transaction	153
▁Spread	153
▁Hate	153
▁Kü	153
▁Dahl	153
▁Selva	153
loos	153
▁XII	153
▁Fernand	153
▁Sussex	153
iyah	153
▁Soo	153
roux	153
▁Tse	153
▁Paddle	153
Watch	153
▁GX	153
▁Biggest	153
blo	153
LB	153
▁Abra	153
▁Kandy	153
▁Salsa	153
ulu	153
▁Seamless	153
pto	153
▁Henrik	153
eiland	153
▁Armchair	153
▁MTB	153
▁Hek	153
▁Ruud	152
nant	152
▁Transformer	152
▁Keizer	152
▁Norbert	152
▁HF	152
▁Chalk	152
▁Throne	152
▁Tamar	152
▁SharePoint	152
GH	152
▁Flint	152
▁Qualification	152
▁Cellar	152
▁Fold	152
▁Conta	152
▁Gaston	152
▁PORT	152
▁Amnesty	152
wold	152
▁Ting	152
jor	152
▁Awa	152
ALI	152
▁Ivo	152
Bus	152
▁Peng	152
▁Kimberley	152
▁mid	152
▁Celestial	152
▁Volendam	152
kay	152
▁Livestock	152
wart	152
▁Hunters	152
ITY	152
▁Charente	152
▁Harlem	152
▁Tijd	152
DIS	152
▁release	152
ARI	152
▁Ales	152
train	152
▁Further	152
▁Fertilizer	152
▁Hendrick	152
▁Olaf	152
▁Presidency	152
wyn	152
▁mine	152
▁Homme	152
▁Condominium	152
▁old	152
▁Anderlecht	152
▁Horticulture	152
shirt	152
▁Vote	152
▁Allison	152
▁Alder	152
▁Doha	152
▁Gall	152
▁Climbing	152
▁Brouwer	152
▁Beuningen	152
▁Pompidou	152
org	152
▁Opportunity	152
▁Published	152
inal	152
Store	152
▁Xian	152
▁Travellers	152
▁Jasmin	152
osh	152
▁Sq	152
▁Handel	152
▁have	152
▁Reynolds	152
▁Arkansas	152
▁Protected	152
▁Ballad	151
▁Gesellschaft	151
▁WooCommerce	151
▁Exc	151
nit	151
Roman	151
▁Arboretum	151
▁Theresa	151
wah	151
USH	151
▁Canberra	151
▁Eri	151
▁Sys	151
▁WIN	151
▁Benalmadena	151
▁Heijn	151
ecker	151
▁Shades	151
▁Above	151
▁Presbyterian	151
▁monastery	151
▁VG	151
taal	151
▁Static	151
▁Viet	151
▁Retailer	151
▁Cayo	151
▁WWE	151
▁Sauvignon	151
▁Pec	151
rü	151
▁Cinnamon	151
▁Cuckold	151
uren	151
▁Sour	151
▁Largest	151
mere	151
▁Marlin	151
▁DIY	151
LD	151
▁Frey	151
▁Sidi	151
▁Held	151
▁Aff	151
▁Albany	151
▁Antivirus	151
lova	151
▁Chestnut	151
▁Berlage	151
▁Infant	151
▁SKY	151
▁BAY	151
▁Himalayan	151
▁floor	151
▁USSR	151
▁DH	151
▁Quattro	151
▁Expat	151
▁RJ	151
▁Changes	151
▁NSW	151
schot	151
▁Bata	151
▁Lieb	151
bac	151
▁Fastener	151
▁Cot	151
▁Nay	151
▁Sic	151
▁Initial	151
▁NVC	151
nette	151
job	151
enna	151
TW	151
▁Sablon	150
▁Sko	150
▁Lager	150
▁Brigitte	150
▁Guil	150
Arc	150
▁Garonne	150
▁Sip	150
▁CZ	150
▁dance	150
▁Rijk	150
▁Nikita	150
▁NM	150
▁Skiing	150
▁Tropicana	150
▁Workforce	150
▁Reverse	150
▁IFA	150
▁Scientists	150
▁Plymouth	150
▁Julio	150
▁Connecting	150
▁Rochester	150
aught	150
▁Chow	150
Cat	150
▁Acacia	150
▁Peruvian	150
▁Volk	150
▁CEN	150
▁Heraklion	150
ffel	150
spiel	150
▁Hungry	150
▁BEL	150
Sex	150
▁TEC	150
▁Problems	150
▁Plates	150
▁Nirvana	150
uve	150
▁Gott	150
▁Intern	150
▁Idol	150
phan	150
udo	150
▁Seychelles	150
maru	150
▁Income	150
▁Kodi	150
eem	150
▁Firewall	150
OVER	150
▁Peking	150
▁Webster	150
fia	150
▁Historia	150
▁Andalucia	150
Arm	150
▁Kissing	150
▁UR	150
Business	150
▁Pix	150
▁UA	150
▁Josephine	150
cture	150
▁Gov	150
▁Cpanel	150
▁Molina	150
▁Alexey	150
sink	150
▁Beings	150
BIT	150
▁Posada	150
▁Ethical	150
sheet	150
▁Miya	150
cini	150
▁Tanks	150
▁Tables	150
▁Adaptation	150
▁Belfast	150
omy	150
▁Cura	150
▁Compound	150
▁Ester	149
▁Halles	149
raz	149
▁Sali	149
▁Cant	149
▁Schoon	149
▁Optics	149
▁Versa	149
▁SY	149
▁station	149
ORE	149
▁Surprise	149
▁Heck	149
▁Painter	149
▁Fila	149
▁Zaan	149
kus	149
▁KB	149
Camp	149
▁see	149
▁RH	149
▁Miracles	149
mobile	149
▁NOW	149
▁Inspector	149
▁CENTER	149
▁Mink	149
▁Benny	149
▁Methods	149
▁Shelving	149
▁Suction	149
CT	149
▁Moonlight	149
ouche	149
▁Swivel	149
server	149
▁Katz	149
voort	149
▁Gis	149
▁Albrecht	149
▁Exe	149
▁Faces	149
▁Alphabet	149
▁Invasion	149
heer	149
sham	149
HN	149
UNA	149
▁Arma	149
▁Knot	149
glio	149
▁AFC	149
▁Shopper	149
▁box	149
▁Kana	149
marine	149
▁Killing	149
▁UCL	149
▁Dorp	149
▁Amigo	149
▁Tug	149
▁Grimm	149
▁toward	149
▁Heist	149
▁Utopia	149
▁Loose	149
thus	149
▁Featured	149
cab	149
▁Homer	149
▁Trips	149
offers	149
▁Pok	149
▁Angry	149
▁Galicia	149
▁Finest	149
bid	149
▁Steiner	149
▁Ghetto	149
▁Hoeve	149
▁Kira	149
▁Shibuya	149
Ju	149
▁Oskar	149
logy	149
Port	149
Space	148
▁Disposable	148
▁Smet	148
▁Because	148
▁Vortex	148
▁Lazy	148
▁Maurits	148
chten	148
▁Mondriaan	148
bath	148
▁Linn	148
▁KH	148
▁Ballon	148
▁Duvet	148
▁Ixelles	148
▁Benoit	148
▁Terminals	148
▁Shirley	148
InterContinental	148
▁Lauderdale	148
sara	148
ignac	148
▁complex	148
▁Therme	148
▁SOL	148
▁Fossil	148
▁Roda	148
GG	148
▁Mulder	148
▁FDA	148
nico	148
▁Konings	148
▁Fukushima	148
▁USD	148
▁pi	148
llah	148
▁López	148
beat	148
▁Hubei	148
▁Melt	148
▁Creativity	148
cover	148
▁Supplements	148
toria	148
▁Eil	148
▁Fiori	148
▁Handball	148
▁Seth	148
▁Coon	148
▁Liveaboard	148
saka	148
▁Computers	148
▁Twi	148
▁Wesley	148
▁Fanta	148
▁Pancake	148
teria	148
oga	148
▁than	148
▁Gemeente	148
▁Aphrodite	148
lette	148
▁Volo	148
▁Mongolia	148
▁Jib	148
ę	148
▁Briggs	148
▁Calf	148
▁Diaphragm	148
▁Swarovski	148
▁XIV	148
clo	147
▁Migrant	147
TB	147
▁Helio	147
bun	147
Bi	147
erne	147
▁Oxy	147
▁Mapping	147
▁Remi	147
▁Leidse	147
▁Institutional	147
▁Huttopia	147
▁DT	147
▁Cinderella	147
brecht	147
▁Zermatt	147
▁photo	147
▁Gara	147
ETS	147
ün	147
▁Electrode	147
ič	147
▁Rancho	147
▁Falling	147
▁Tart	147
▁Nagel	147
▁Mimosa	147
ERO	147
▁Ciutadella	147
▁Strat	147
▁Finally	147
▁Germanic	147
▁Niko	147
▁DOC	147
▁Patches	147
▁Xo	147
▁Folklore	147
▁online	147
▁Expressway	147
▁Rif	147
▁PAR	147
▁Zimmer	147
▁Atomium	147
▁IWC	147
▁Feedback	147
Black	147
tari	147
▁Lydia	147
▁Moody	147
aglia	147
rino	147
ICO	147
▁Kors	147
IFF	147
▁Tobias	147
▁Giants	147
▁Plato	147
rez	147
▁Allegro	147
opolis	147
▁Docklands	147
kk	147
▁Quar	147
▁Tabernacle	147
nagar	147
LON	147
▁Electra	147
▁Khalid	147
▁Eko	147
AND	147
▁Wijk	147
▁Dolby	147
▁Nikolaos	147
▁Antarctica	147
comb	147
IVA	147
Bank	147
▁Tobago	147
▁Longines	147
lva	146
▁Tyrolean	146
▁Vecchio	146
tika	146
▁Trav	146
▁Scope	146
▁Bavaro	146
reau	146
▁Manfred	146
FB	146
▁Zimbabwe	146
petit	146
▁Kli	146
▁Rudy	146
take	146
▁Assault	146
nap	146
▁Inlet	146
▁Pressing	146
▁Schelde	146
▁Cooker	146
▁Staying	146
NP	146
bauer	146
lt	146
▁Karol	146
▁Stork	146
▁NX	146
▁Baxter	146
tape	146
▁Gavin	146
▁Talbot	146
KIN	146
▁Interpretation	146
▁Damian	146
▁Clinics	146
anger	146
▁Nev	146
▁Caffe	146
cino	146
chair	146
▁Hü	146
▁Seals	146
▁Panerai	146
▁Serious	146
leaf	146
▁Avis	146
▁PostNL	146
KEN	146
lied	146
▁Cathar	146
▁Philo	146
▁Donkey	146
▁Edi	146
▁Following	146
wana	146
cco	146
▁Herm	146
eter	146
▁Anima	146
▁Hideaway	146
▁NR	146
▁Nha	146
▁Dat	146
▁HAN	146
▁Conv	146
dry	146
▁Ide	146
tau	146
▁well	146
▁Cercle	146
▁Dobr	146
▁country	146
ijen	146
▁basin	146
maya	146
▁Tracy	146
▁Coro	146
INI	146
osaurus	146
▁Chou	146
▁Groninger	146
▁Corsica	146
▁Refinery	146
gami	145
▁Mö	145
▁Related	145
▁Prussian	145
nec	145
▁Bibliotheek	145
▁Shiba	145
▁Donat	145
▁Dump	145
▁Lieve	145
DH	145
▁Zenith	145
▁Duma	145
▁Pow	145
▁Murcia	145
▁SCH	145
▁control	145
▁Vliet	145
▁Cattle	145
▁Elba	145
▁Traction	145
yoshi	145
▁Roto	145
rag	145
▁Chok	145
▁Colli	145
urg	145
▁Otter	145
▁Controllers	145
▁Onyx	145
▁Faz	145
▁Closing	145
▁Loma	145
ASA	145
▁Arne	145
brücke	145
▁Shiatsu	145
zine	145
▁OECD	145
▁Halal	145
▁Ultimaker	145
▁Marvin	145
kala	145
kunde	145
▁Verlag	145
RIC	145
▁Eleanor	145
▁Genève	145
▁Arb	145
▁Unlock	145
▁Thick	145
▁Sax	145
▁Prophecy	145
▁back	145
▁Cueva	145
▁Qian	145
▁Courthouse	145
▁Woon	145
bull	145
▁Polit	145
▁Bauhaus	145
▁Aida	145
▁Neighborhood	145
▁Crimes	145
lü	145
▁GU	145
▁Cultura	145
▁Teng	145
▁Groote	145
▁Writer	145
▁Oo	145
▁VAT	145
▁during	145
IZ	145
▁Jama	145
▁Martina	145
LIN	145
▁Illustration	145
▁Vasco	145
igi	145
▁Eugène	145
▁Cir	145
▁Pele	144
Press	144
▁Acti	144
▁Roch	144
RR	144
▁Braz	144
▁Vla	144
▁Armour	144
▁Highly	144
▁Parents	144
▁Pleasant	144
thea	144
▁Shining	144
▁Fate	144
quer	144
▁Collier	144
▁QU	144
boo	144
▁Locator	144
▁Packard	144
▁Linssen	144
INK	144
▁Clone	144
▁Inspired	144
▁Jenkins	144
▁Bangs	144
▁SHR	144
ACT	144
ANE	144
aaa	144
▁Anatomy	144
▁Downs	144
▁LZ	144
▁Underwear	144
▁Lieutenant	144
▁Trois	144
▁Gardner	144
▁EUROPE	144
▁Osteria	144
▁GH	144
Day	144
▁LGBT	144
▁Offensive	144
meet	144
Drive	144
Your	144
▁Apocalypse	144
▁Chandra	144
▁Several	144
▁Stroke	144
▁Himself	144
▁Leica	144
▁Submarine	144
zzi	144
▁Grail	144
▁Frits	144
▁Jaya	144
wat	144
dana	144
▁range	144
▁Accountancy	144
▁Univers	144
tat	144
▁Corsa	144
▁Schar	144
▁Herod	144
▁setting	144
▁Combine	144
▁Universität	144
▁Cav	144
▁Nef	144
▁NFL	144
▁Hotspot	144
VV	144
▁Millions	144
▁Eich	144
mile	144
▁Guardians	144
▁TK	144
ugi	144
▁die	144
umer	144
hostel	144
▁Alamo	144
▁Psalms	144
SEN	144
▁Fertility	144
erna	144
bend	144
▁Hess	144
▁Lublin	144
▁Fier	144
▁Abstract	144
▁Scooby	144
▁Camden	144
▁Juli	144
▁Synthetic	144
▁Yao	144
▁Diaz	144
▁Opt	144
▁Antioch	144
▁Joop	144
▁Deutscher	144
ECO	144
▁Eighth	144
▁Mamma	144
▁Esch	143
git	143
zor	143
▁Clarence	143
atha	143
▁Incredible	143
▁Mede	143
▁Kä	143
▁Trevi	143
tress	143
▁CENTRAL	143
▁Lt	143
▁Respond	143
bbe	143
▁market	143
▁Riz	143
▁Cutlery	143
▁Asse	143
▁Marilyn	143
▁Paragon	143
▁Stur	143
▁Jeremiah	143
DIA	143
▁ND	143
▁SDG	143
▁Coen	143
▁Shaving	143
pont	143
▁Resilience	143
▁Sourcing	143
▁Exchanger	143
ème	143
▁Andalusia	143
▁Forgotten	143
▁trade	143
▁Gonzalez	143
▁Rup	143
▁Browse	143
singel	143
▁Elliot	143
▁Bl	143
▁Holz	143
▁MAT	143
LEN	143
▁Auvergne	143
▁Vodafone	143
▁Barrett	143
▁Ghe	143
▁Laval	143
▁Jürgen	143
INT	143
ril	143
▁Coup	143
▁Projector	143
▁Cordoba	143
arts	143
▁Healey	143
lips	143
abe	143
▁Piccadilly	143
Lu	143
▁Viper	143
ijl	143
elman	143
▁Interreg	143
▁engine	143
kki	143
▁CJ	143
wn	143
▁Kreis	143
right	143
▁Yet	143
▁VC	143
▁Gloss	143
▁nr	143
LES	143
nja	143
▁Wellbeing	143
▁Greene	143
▁Ayia	143
rais	143
▁Vigo	143
EZ	143
▁Gartner	143
▁Staybridge	143
ame	143
▁Pelican	143
▁Barre	143
▁Sion	143
ppy	143
▁Belize	143
▁Kylie	143
▁Vito	143
▁Leroy	142
▁Sena	142
▁Franchise	142
lles	142
▁Marius	142
cult	142
chard	142
▁Constance	142
HV	142
▁Colo	142
▁here	142
velo	142
▁Scripture	142
loe	142
zdičkové	142
▁Lindsay	142
aging	142
foto	142
▁Giles	142
▁Cé	142
▁Meaning	142
amb	142
▁Priority	142
▁Miriam	142
▁Barnes	142
▁Dill	142
▁Primavera	142
vice	142
▁Nuestra	142
ignon	142
▁Loco	142
▁Nationalist	142
▁LUX	142
▁SUB	142
▁Digit	142
Studio	142
loft	142
rani	142
enter	142
▁screen	142
▁Editorial	142
▁Senso	142
▁Curie	142
Ni	142
Â	142
▁ACM	142
▁Carre	142
▁Pearson	142
lent	142
▁type	142
ADO	142
▁Yon	142
▁Kennis	142
▁Aries	142
▁Aster	142
▁Nazar	142
▁Laden	142
▁Melan	142
▁Dart	142
lap	142
izen	142
▁Slitting	142
lav	142
jana	142
▁Hortus	142
▁Penang	142
▁Liberties	142
▁Heel	142
▁Cathy	142
▁Wok	142
▁ACT	142
▁Volga	142
▁Gamb	142
▁Yusuf	142
▁Fantasia	142
▁Santi	142
▁Feli	142
▁Rac	142
radi	142
▁Ridder	142
tology	142
▁Bagno	142
▁Retardant	142
kho	141
▁Angelica	141
▁Arlington	141
▁Standardization	141
▁Collaborative	141
Sha	141
▁Karim	141
▁Seaport	141
▁Karp	141
gha	141
▁Corb	141
▁Lynch	141
Posted	141
▁picture	141
▁TOUR	141
▁Dimensions	141
▁Fastening	141
▁Damage	141
▁Vivaldi	141
▁Caramel	141
tv	141
▁Archieven	141
chim	141
▁MiG	141
▁where	141
bosch	141
▁Giving	141
▁Abo	141
ousse	141
▁Elisa	141
Ka	141
▁Assyrian	141
▁Monty	141
kyo	141
ós	141
▁Smash	141
▁Licensing	141
▁Bees	141
▁Poppy	141
LET	141
rib	141
▁dog	141
▁spring	141
▁Ashton	141
cun	141
dhi	141
rano	141
▁Probe	141
▁Biel	141
▁Montréal	141
▁João	141
▁Structures	141
▁Komp	141
▁Reyes	141
XP	141
▁championship	141
▁Eating	141
▁Brest	141
▁Bode	141
▁Trigger	141
▁Mares	141
▁Clit	141
▁waterfall	141
▁SSR	141
▁Rosh	141
▁Thiel	141
▁Huisman	141
▁IK	141
SKA	141
▁Bose	141
▁plc	141
▁Douro	141
▁PK	141
▁Sandals	141
Europe	141
LIS	141
▁GreenGate	140
olli	140
vliet	140
▁Napo	140
▁Centric	140
▁Levy	140
▁Noodles	140
ango	140
schule	140
▁power	140
▁Tyne	140
▁Physiology	140
▁Omi	140
▁Cory	140
▁Yha	140
▁Lectures	140
▁Carson	140
▁Reims	140
▁WORLD	140
HM	140
▁Accu	140
Rates	140
▁Archdiocese	140
OUT	140
▁Reactor	140
▁Catal	140
▁Esprit	140
▁Minneapolis	140
igu	140
▁Hairdryer	140
Da	140
nics	140
▁Novgorod	140
ott	140
nad	140
▁Gh	140
▁Adriaan	140
wie	140
▁Walsh	140
ogen	140
▁Citadines	140
▁Headphones	140
nese	140
rø	140
▁Planck	140
break	140
▁tour	140
▁Dew	140
ook	140
▁Alina	140
▁Schoen	140
giri	140
▁RN	140
▁Jaz	140
▁Geb	140
▁Scarlett	140
▁Brac	140
ská	140
tsev	140
▁cap	140
atori	140
▁Goodman	140
pul	140
▁César	140
▁Sorrento	140
▁Crawler	140
▁Sheriff	140
▁Hymn	140
Per	140
▁Jaeger	140
▁Starting	140
rosa	140
▁Iwa	140
▁xHamster	140
▁FG	140
▁Hail	140
▁Chapman	140
▁Knitting	140
▁Straits	140
▁Peg	140
▁Soda	140
▁Alfredo	140
▁Freeze	140
▁Moran	140
ikki	140
▁Bui	140
▁Jana	140
▁Bound	140
▁Erica	140
▁Nairobi	140
▁Maui	140
▁Loading	140
▁Primera	140
Italia	140
▁Compensation	140
▁Holo	140
▁Avery	140
cina	140
▁Inde	140
▁Fond	140
▁ku	140
▁Sinn	140
▁Sphinx	140
▁Burgers	140
▁Honeymoon	140
▁Tournai	140
Mail	140
poly	140
▁Melon	140
▁Mollie	140
▁Bosphorus	140
▁Damien	140
▁Wey	140
Talk	140
▁Schul	140
▁family	140
▁Chiesa	140
▁Bloody	140
EEN	140
Sea	140
▁Mili	140
▁Horus	140
▁Arbor	140
▁Thong	139
▁Punt	139
▁set	139
Board	139
▁Socialists	139
▁Shira	139
▁Cress	139
▁Orphan	139
▁Mish	139
▁Judy	139
▁Bast	139
▁Reconciliation	139
▁MED	139
▁Kalk	139
▁Nicky	139
▁Wanda	139
▁Damper	139
▁production	139
spin	139
▁Macdonald	139
▁Sacrament	139
▁Tali	139
▁Else	139
▁Juicer	139
▁Ecuador	139
order	139
▁Entity	139
▁Nya	139
tei	139
kka	139
▁VO	139
▁Clever	139
▁Catedral	139
▁Rage	139
▁Jaipur	139
ło	139
▁Cert	139
▁ISP	139
▁Deaf	139
▁Fully	139
▁Banco	139
▁Elbe	139
▁Torture	139
▁Courage	139
▁Citea	139
▁Tranny	139
▁Benson	139
▁Korte	139
▁Eisen	139
▁Astronaut	139
▁Auf	139
▁Mort	139
▁Carroll	139
▁Rossio	139
WE	139
▁Odin	139
▁guide	139
▁MAS	139
▁McK	139
gee	139
▁Jez	139
▁Glue	139
Mu	139
▁Fram	139
▁Stall	139
▁Fare	139
▁Occidental	139
yad	139
▁Lviv	139
▁Jum	139
▁Gasthof	139
▁Ferguson	139
▁Caen	139
▁Putt	139
▁CAC	139
iwa	139
making	139
▁Clearing	139
▁foot	139
hé	139
▁Urb	139
▁organisation	139
▁Lina	139
rien	139
▁WIFI	139
▁Marga	139
▁Freak	139
than	139
▁Lucie	139
▁Kremlin	139
SCH	139
body	139
hav	139
koff	139
▁Vivo	139
▁Hug	139
▁Ylang	139
▁Sinclair	139
▁Democrat	139
▁Atta	138
▁Brokers	138
▁Mural	138
▁Mediterraneo	138
▁Pons	138
▁Kubota	138
▁Elan	138
▁Dijon	138
▁Boll	138
▁Cosmopolitan	138
▁Communion	138
▁Mie	138
▁Debbie	138
graaf	138
▁health	138
sense	138
▁TRA	138
▁Lodging	138
▁KY	138
▁CAI	138
ën	138
▁xxx	138
haya	138
korn	138
▁change	138
▁Tongue	138
▁Pc	138
▁HBO	138
▁Moderne	138
uhl	138
▁Madness	138
▁Rijksakademie	138
▁Prosecution	138
▁Ely	138
▁Aly	138
▁Ease	138
▁Akademie	138
mae	138
▁Genie	138
Video	138
eka	138
▁Ishi	138
gging	138
most	138
▁Counts	138
▁Emerging	138
▁Curly	138
mee	138
▁Mandela	138
▁Biscuit	138
The	138
▁Helios	138
▁BG	138
suke	138
zha	138
▁Blender	138
▁Coul	138
▁Recycle	138
▁Homepage	138
▁Weimar	138
abad	138
▁Milli	138
▁Saskia	138
▁Alzheimer	138
▁Duesseldorf	138
▁Surinamese	138
FU	138
grat	138
▁Poolside	138
▁Bilderberg	138
▁Dour	138
tzen	138
(	138
▁Gers	138
▁Taw	138
▁Marconi	138
▁Patron	138
▁Fanny	138
▁Sherwood	138
▁TECHNOLOGY	138
▁Trad	138
▁Hamlet	138
▁Soprano	138
eph	138
▁technology	138
steel	138
▁Plein	138
▁Titus	138
▁Gant	138
▁gorge	138
main	138
▁Pty	138
▁Federico	138
▁Cobb	138
auto	138
nai	137
▁case	137
▁Malawi	137
▁Koran	137
▁Ameri	137
▁Saffron	137
▁Carp	137
eti	137
▁Hus	137
▁Carpenter	137
▁Psychiatric	137
▁artist	137
▁Amb	137
▁Palat	137
rew	137
▁Dok	137
▁Ghi	137
wijn	137
▁Mondial	137
▁SKI	137
roid	137
▁Cypriot	137
▁Bergh	137
▁Insulated	137
▁Garrison	137
▁Shear	137
ouri	137
[	137
CHA	137
▁Classes	137
cen	137
▁Hurt	137
▁colour	137
▁Jem	137
▁DAY	137
▁Steele	137
▁Estadio	137
▁Strips	137
mada	137
▁Dha	137
▁Witnesses	137
hom	137
llen	137
▁Bacon	137
vista	137
▁Rota	137
▁north	137
ër	137
▁Umm	137
aille	137
anov	137
▁Klim	137
▁Belgi	137
▁Leningrad	137
▁Pastor	137
▁Clem	137
▁Souk	137
▁Corpus	137
enga	137
▁Verte	137
▁Nuit	137
▁Rashid	137
▁Campground	137
▁Figures	137
▁Gull	137
▁Poble	137
▁Kona	137
hak	137
▁Advancement	137
▁Singapur	137
arna	137
▁Française	137
ât	137
▁PCI	137
atu	137
▁Inver	137
BP	137
eum	137
▁Ont	137
▁Tehran	137
▁Dealers	137
ych	137
▁Intercity	137
▁Namibia	137
▁Kham	137
saw	137
▁Jeu	137
chia	137
▁Keylogger	137
▁Segway	137
▁Pornhub	137
▁HW	137
▁VV	137
▁Sca	137
▁Priory	137
▁Tribal	137
WAY	137
lord	137
▁Abigail	137
flo	137
tant	137
raven	137
uu	137
▁Jel	137
▁Rwanda	137
bok	137
▁Could	137
▁Typ	137
▁Sass	137
▁Sparrow	137
▁Ambulance	137
▁Windmill	137
this	137
▁Interstate	137
ending	137
▁Westphalia	137
▁Paulista	137
▁GTA	136
▁Orientation	136
▁Ezekiel	136
▁Immaculate	136
▁Natuur	136
▁Desp	136
Du	136
▁Solaris	136
span	136
▁Slavic	136
▁Stickers	136
OLO	136
▁Henan	136
▁Jug	136
▁Uncategorized	136
▁Brenda	136
▁Affiliates	136
▁Precious	136
rev	136
▁Aron	136
▁Candidate	136
▁Torri	136
Par	136
▁Gelder	136
▁Goldman	136
bling	136
▁paper	136
▁Bitter	136
ryn	136
LAC	136
riot	136
▁mill	136
▁SMD	136
blad	136
retto	136
▁Powerful	136
▁Niger	136
▁Mazar	136
▁//	136
CAP	136
▁Shed	136
▁Poles	136
nais	136
▁Zuider	136
▁Reformation	136
text	136
▁Providence	136
▁Vacances	136
▁Fres	136
ères	136
▁Herengracht	136
tore	136
▁GTX	136
OX	136
▁Paribas	136
▁MIG	136
▁Valencian	136
▁Inspire	136
▁Knitted	136
▁Sluis	136
▁Moritz	136
▁Coffeeshop	136
smart	136
▁Pach	136
▁Broom	136
OA	136
▁Kodak	136
▁Tatiana	136
▁UNICEF	136
▁Lans	136
▁Conte	136
▁FSC	136
▁five	136
▁Hussein	136
▁Botswana	136
▁Crimean	136
▁Konrad	136
▁Foshan	136
RIA	136
▁Ange	136
▁eye	136
lago	136
▁Jig	136
▁Bb	136
▁Fah	136
▁Nigel	136
▁Rift	136
▁Earrings	136
▁Tuscan	136
▁Baia	136
▁Clover	136
isso	136
▁Kernel	136
GT	136
▁Galeries	136
▁Neuroscience	136
▁Activ	136
▁Nyc	136
iš	136
CHR	136
▁Bradford	136
▁Tirana	136
▁SAL	135
outs	135
▁ATS	135
▁Concordia	135
jour	135
▁Fuller	135
éné	135
▁Bianco	135
▁Tei	135
▁Bourse	135
oula	135
▁Pris	135
▁Gems	135
▁Maga	135
▁OFF	135
▁known	135
▁STA	135
▁Ubud	135
▁balls	135
▁Kapit	135
▁Kuro	135
▁Vernon	135
osi	135
▁Vlas	135
▁Loz	135
▁Tham	135
▁Hemingway	135
▁Quart	135
▁Zil	135
▁Connecticut	135
▁Dorian	135
enfeld	135
Mate	135
▁Cognac	135
kap	135
▁Tweet	135
croft	135
JP	135
▁Producer	135
▁Collin	135
WR	135
▁Bibi	135
▁Edu	135
▁Camo	135
▁Kaf	135
▁Staten	135
▁Elo	135
scha	135
▁Damascus	135
▁Shak	135
kken	135
▁Chav	135
▁Towards	135
▁Luv	135
▁Crawford	135
▁west	135
▁Latino	135
▁Ander	135
▁Sensation	135
shita	135
▁Altstadt	135
▁Kristina	135
▁Jedi	135
▁Fasteners	135
▁Durable	135
▁ATV	135
▁Lal	135
▁Clermont	135
leit	135
techniek	135
▁Baa	135
▁Emo	135
▁Rol	135
▁Farewell	135
Girls	135
▁Prinsengracht	135
were	135
▁CPU	135
rijk	135
matsu	135
kke	135
▁Jelly	135
▁PAC	135
AMA	135
▁Revit	135
ló	135
▁Prussia	135
wis	135
▁Tuna	135
ław	135
voi	135
▁Bras	135
▁Claes	134
▁Pinot	134
▁Carlson	134
▁Paola	134
▁Stair	134
▁Wheelchair	134
▁DES	134
feed	134
▁Stirling	134
▁Daniela	134
▁Puja	134
ull	134
▁Rhapsody	134
▁Complaints	134
▁Strukton	134
▁Pino	134
▁Installer	134
▁Fisk	134
▁DMX	134
▁Handmade	134
▁Haired	134
chal	134
▁Leak	134
▁Pio	134
fred	134
▁Avan	134
▁Fury	134
▁OD	134
▁Spoor	134
▁Slag	134
▁Machu	134
monte	134
▁Oktoberfest	134
ovna	134
▁Ruiz	134
▁Fris	134
▁Luce	134
▁Zona	134
▁Zeppelin	134
▁Habsburg	134
▁Cornwall	134
▁Tern	134
▁Nguyen	134
▁Ov	134
▁Gotthard	134
hwa	134
▁Hulk	134
▁Mosk	134
▁bed	134
▁Allies	134
▁Amphi	134
▁Lexington	134
▁Oka	134
▁Cupid	134
▁Iberian	134
▁Mounting	134
▁Doi	134
▁MF	134
▁Lied	134
iber	134
EW	134
▁Guill	134
▁Mariana	134
drive	134
▁Valery	134
▁Spel	134
▁Alcohol	134
▁Ageing	134
▁Foss	134
▁Antonius	134
anka	134
Fin	134
roma	134
▁Motorola	134
▁Cavalier	134
▁Glad	134
▁Voi	134
rack	134
▁Therefore	134
▁Aude	134
▁material	134
▁Angus	134
▁Clyde	134
▁Sier	134
▁Moth	134
▁Boracay	134
▁Caught	134
▁Miner	134
▁Impeller	134
ermann	134
▁Combination	134
▁Nails	134
endra	133
bic	133
oglu	133
ND	133
▁Smits	133
▁Côtes	133
št	133
▁Xtra	133
BOX	133
mish	133
▁Symphonic	133
cade	133
▁Bodega	133
▁Kassel	133
▁Ruin	133
gear	133
▁Zlat	133
▁OV	133
▁Fuengirola	133
▁Flore	133
▁Sacrifice	133
ouille	133
nto	133
▁Realty	133
▁ICA	133
▁Courtney	133
▁Juri	133
▁Beatrice	133
▁grey	133
▁Ascot	133
▁Painted	133
▁Blower	133
▁Pisces	133
▁Lippe	133
▁BOX	133
▁Baal	133
▁Watts	133
▁Niobium	133
▁Rainer	133
bane	133
▁Wrong	133
▁Kilimanjaro	133
▁Elbow	133
▁Zulu	133
▁Maverick	133
▁Sine	133
▁LINK	133
▁Ritual	133
▁Bere	133
▁Sunglasses	133
▁Firefox	133
▁Xia	133
systems	133
▁XVI	133
▁Hoy	133
▁children	133
▁Feyenoord	133
▁Nuevo	133
▁Struggle	133
▁Xhamster	133
▁Noi	133
EAU	133
▁Samurai	133
mode	133
▁Garrett	133
À	133
det	133
▁Alster	133
▁Colored	133
▁Antiquities	133
▁Liaison	133
▁Alec	133
▁Chimay	133
▁Ipanema	133
▁Veeve	133
▁Vink	133
aker	133
ose	133
▁Jai	133
▁Alcazar	133
▁Lamination	133
▁Stator	133
▁UB	133
▁Fallen	133
▁Dik	133
▁Delphi	133
▁Boyfriend	133
finger	133
OUND	133
▁Yat	133
▁Cryo	133
▁Raff	133
▁apos	133
jung	133
▁Pand	133
▁light	133
▁Fellow	133
iot	132
▁Notification	132
▁Automat	132
taro	132
▁Bolshevik	132
lets	132
▁TIME	132
LAB	132
▁Selected	132
▁Bahamas	132
▁Salz	132
▁Thunderbolt	132
▁Auditors	132
▁Flux	132
▁revolution	132
qing	132
▁Cami	132
ffy	132
▁Ladyboy	132
ulus	132
elder	132
WP	132
▁Microscope	132
▁Kō	132
▁Variations	132
zano	132
▁Crossbow	132
pac	132
SY	132
minister	132
ential	132
▁WHITE	132
▁Johannesburg	132
▁Tough	132
▁Verification	132
▁GEN	132
elijk	132
▁Grocery	132
▁Endo	132
▁Nazionale	132
▁CES	132
▁Pius	132
▁Suicide	132
▁Perv	132
athon	132
▁summer	132
▁Temptation	132
▁RESORT	132
▁Sheridan	132
▁Tumblr	132
▁Ord	132
▁Bookings	132
▁Aaliyah	132
cone	132
▁MotoGP	132
seed	132
▁arts	132
ço	132
▁Organizational	132
clean	132
neau	132
▁Sturm	132
SIS	132
▁Paraiso	132
Reilly	132
▁Claudio	132
▁Whistler	132
buck	132
▁location	132
▁Chongqing	132
rek	132
▁Intelli	132
▁Louboutin	132
▁Basse	132
▁Benedictine	132
Site	132
ché	132
▁Dumb	132
▁base	132
▁Changzhou	132
▁Ems	132
▁Drain	132
▁Peeters	132
▁Budd	132
▁Dimensional	132
▁Suez	132
▁EAST	132
Ø	132
▁Crom	132
▁Kah	132
▁Epistle	132
▁Shad	132
ony	132
itic	132
pho	132
▁Hinge	132
▁Mong	131
▁Trash	131
▁Pasteur	131
rios	131
ieux	131
root	131
▁Guys	131
▁Morvan	131
▁Ripple	131
▁Piccolo	131
▁Zeno	131
hala	131
▁Workwear	131
short	131
▁Intro	131
▁Returns	131
▁Eureka	131
▁EY	131
▁Arend	131
▁Sek	131
▁Cantina	131
nte	131
▁Tiki	131
▁Cao	131
▁Masturbation	131
licht	131
▁Chorus	131
▁Armand	131
▁Therapeutics	131
▁Haunted	131
▁terrace	131
EAT	131
▁Crisp	131
▁POV	131
▁Mueller	131
▁Piedmont	131
▁Manon	131
▁now	131
▁Mercado	131
who	131
▁Particle	131
▁Hottest	131
tet	131
▁VAL	131
pura	131
▁Mortgage	131
▁Jerk	131
▁IPA	131
▁Distinguish	131
▁Dine	131
▁Pola	131
▁Bobcat	131
▁Lad	131
YR	131
Check	131
pina	131
▁Optimization	131
▁Latex	131
▁Christchurch	131
wed	131
▁Bard	131
nière	131
heng	131
▁Wir	131
▁Octa	131
news	131
▁Barley	131
▁Coupler	131
▁Katsu	131
▁Shelby	131
ôt	131
▁Blazer	131
imon	131
▁Hypo	131
▁Ingles	131
skoy	131
mpa	131
HAT	131
▁Kne	131
▁Chantal	131
▁POM	131
▁Moldova	131
nh	131
▁Autism	131
jam	131
▁Proton	131
▁Accra	131
lust	131
▁Uno	131
▁Shawn	131
ghan	131
▁Maca	131
‚	131
grove	131
▁SEAT	131
hun	131
▁Huan	131
▁Barton	131
▁IFPUG	131
▁Gypsy	131
tol	131
▁Weil	131
▁Vacations	131
▁WK	131
▁Empty	131
richt	131
▁Leen	131
▁Uri	130
bear	130
▁Lamar	130
▁Meridien	130
▁Allee	130
▁Esperanto	130
▁Dieter	130
▁Norma	130
▁Rez	130
▁ray	130
▁Sik	130
▁Exact	130
Ş	130
tac	130
▁Werf	130
▁Boob	130
▁Deva	130
sted	130
▁TL	130
▁Gabion	130
▁Heerlen	130
▁Evidence	130
xe	130
MD	130
LING	130
▁Bek	130
▁Cré	130
bü	130
▁law	130
▁Taxis	130
nish	130
▁Sofie	130
Control	130
▁Ricoh	130
▁PHP	130
éli	130
▁Eternity	130
▁Mercer	130
▁Bae	130
▁KI	130
JI	130
▁Pali	130
▁Tana	130
▁Nipple	130
▁Munch	130
▁Vere	130
▁Tarot	130
▁KF	130
▁Weis	130
▁Minami	130
▁Istria	130
▁Physicians	130
▁Doggystyle	130
▁Wad	130
▁Gom	130
▁Wasser	130
▁XO	130
▁Shing	130
▁Wie	130
wacht	130
▁Incentive	130
▁Fuchs	130
▁Femme	130
▁Bairro	130
▁Maxx	130
▁Christiaan	130
▁Ravens	130
▁Addiction	130
▁Hanze	130
▁Bea	130
▁Veranda	130
SMA	130
▁Libyan	130
▁Rector	130
▁Legg	130
Su	130
▁Exhibit	130
▁month	130
turn	130
qual	130
▁Hippodrome	130
quier	130
▁Alcudia	130
vast	130
▁BAS	130
ESA	130
▁lounge	130
▁KWPN	130
▁Tombs	130
Land	130
▁Moz	130
▁Gud	130
▁child	130
▁Ethnic	130
▁Falk	130
▁Sabina	130
▁Peck	130
▁Unesco	130
video	130
▁Ballerina	130
▁Kayla	130
▁DEL	130
DW	130
▁Bogota	130
▁Ricky	130
▁Cognitive	130
▁Rosario	130
▁Tad	130
occo	130
tay	130
▁Grounds	130
▁Kora	130
▁Cigar	130
▁Montserrat	130
▁Charts	130
lí	130
▁Marmara	130
▁Blondie	129
technik	129
▁Num	129
edge	129
IQ	129
▁Grün	129
▁ASC	129
▁POWER	129
▁Oldenburg	129
▁DIN	129
▁Pilar	129
▁Harmon	129
▁Consort	129
▁Aloft	129
▁RES	129
nite	129
Read	129
▁Koll	129
UA	129
▁Constantinople	129
▁CIS	129
▁Mankind	129
▁Vä	129
nich	129
▁Trousers	129
▁Spartan	129
zam	129
▁Minecraft	129
▁Wessel	129
▁Amba	129
▁Osiris	129
aldi	129
▁Thunderbird	129
▁Bö	129
▁WWII	129
wand	129
▁Subscribe	129
▁Payroll	129
▁Nuvid	129
▁Humanist	129
volt	129
▁Bazar	129
▁Seduce	129
AVI	129
▁Ultrasound	129
mbo	129
▁Moreno	129
hle	129
▁Omer	129
▁Soli	129
▁Brandy	129
▁Vasa	129
▁Bonaparte	129
▁Kaprun	129
▁Litter	129
▁Midland	129
▁Kruger	129
▁Ballroom	129
jel	129
▁Masha	129
▁Marcos	129
spring	129
▁Drip	129
Share	129
▁Scissor	129
gla	129
▁Ort	129
▁Vene	129
eko	129
▁Schel	129
UI	129
games	129
▁Nightmare	129
▁Mustafa	129
enstraat	129
▁JM	129
▁Yearbook	129
▁Koenig	129
▁Flatbed	129
▁Blackberry	129
▁Scorpio	129
▁Cyan	129
▁Miro	129
bug	129
▁Ved	129
▁Dutchman	129
▁Oku	129
▁Node	129
▁HG	129
▁Grund	129
▁Gomez	129
▁Dyed	129
maa	129
▁Amelia	128
akker	128
▁Theft	128
▁Curt	128
▁Josep	128
▁Esmeralda	128
▁Asphalt	128
▁SNS	128
▁Labrador	128
▁Plex	128
▁Implant	128
▁Blum	128
▁Ike	128
▁Rosary	128
mme	128
prise	128
▁holiday	128
▁Fior	128
singer	128
quest	128
▁Fernandez	128
▁TUR	128
▁Haj	128
▁Barracks	128
▁list	128
▁Roja	128
▁Rodríguez	128
▁Dina	128
▁Blaze	128
▁PJ	128
ising	128
▁RER	128
▁Equinox	128
▁Lage	128
▁Timeline	128
ologist	128
▁Quartier	128
Hub	128
▁Bulls	128
avan	128
▁Heathrow	128
osta	128
▁Panne	128
RED	128
▁Xen	128
▁Principle	128
▁Hector	128
▁Puente	128
▁Liza	128
▁Didier	128
▁air	128
▁Pensions	128
▁Mets	128
▁Aubrey	128
paint	128
▁Liter	128
▁Nep	128
▁Meso	128
▁Ops	128
▁stone	128
Social	128
spel	128
bord	128
▁Newport	128
weiler	128
APP	128
▁Zup	128
▁HAR	128
▁Phen	128
▁Festa	128
▁key	128
Center	128
▁Technics	128
GIS	128
iou	128
ELLE	128
PY	128
▁Doro	128
▁Trapp	128
▁Schwartz	128
meier	128
ningen	128
▁Freezer	128
ikos	128
▁Lond	128
▁Parkinson	128
▁QGIS	128
▁Naturist	128
▁Sheila	128
▁Wrist	128
▁Survivor	128
▁Catharina	128
EAN	128
▁Boulogne	128
idge	128
sala	128
▁Palatine	128
▁ECG	128
▁Argos	128
▁Tasting	128
▁Gé	128
▁heart	128
own	128
Track	128
▁Facing	128
aha	128
▁Coupling	127
vill	127
▁Nasr	127
▁Detox	127
action	127
ovsk	127
JC	127
▁Compression	127
nje	127
▁Disputes	127
▁Porner	127
▁Kreuz	127
▁Residenza	127
▁Demonstration	127
▁Krav	127
▁Coils	127
nath	127
▁Turnhout	127
glia	127
▁Belts	127
pond	127
▁Across	127
human	127
ensee	127
▁Bayern	127
▁Mercator	127
▁Canna	127
▁Nov	127
▁Lulu	127
parti	127
▁products	127
hae	127
▁Rave	127
▁amp	127
Ō	127
▁Antonia	127
nnie	127
▁Refresh	127
▁Kathy	127
▁Lom	127
verband	127
uo	127
▁Vape	127
TOP	127
▁Dys	127
▁Laz	127
nex	127
▁Holes	127
▁Stool	127
▁Elijah	127
ond	127
▁Terri	127
enaar	127
▁Serve	127
▁Uranus	127
▁Sticky	127
▁Veil	127
▁Serrano	127
prof	127
▁Kastel	127
▁Rivera	127
▁Rayon	127
▁Zab	127
▁Studenten	127
▁Heavyweight	127
word	127
▁Everybody	127
▁Springfield	127
FORM	127
▁Vicky	127
start	127
▁DSM	127
▁Fraunhofer	127
▁Sina	127
▁Flavour	127
other	127
nac	127
▁Chit	127
▁Duna	127
▁Begin	127
ț	127
▁Senegal	127
▁Shaun	127
▁Edelweiss	127
▁MasterCard	127
lain	127
▁Therm	127
▁Chur	127
▁Nw	127
▁Partnerships	127
ignano	127
roi	127
VN	127
▁Paddington	127
vej	127
anus	127
dge	127
▁HUB	127
▁Tomo	127
▁FK	127
vard	127
Doping	127
▁Pregnancy	127
▁Trainers	127
Club	127
▁Messi	127
RN	127
▁Translations	127
▁BAG	127
▁Alco	127
VM	127
quist	127
▁Strings	127
▁Grin	127
▁Sick	127
▁PSA	127
▁Dermatology	127
bedrijf	127
▁Familie	127
▁Methyl	127
▁Massager	127
lysis	127
▁Hod	127
▁Ind	127
▁Houten	127
▁Gü	127
▁Misty	127
▁Tij	127
▁Tsilivi	127
ugg	126
ët	126
▁Paintings	126
▁Nespresso	126
▁Sticker	126
▁Vox	126
▁Perimeter	126
▁Valent	126
wet	126
▁Fili	126
▁Renn	126
▁Dorado	126
hero	126
DAP	126
▁Throat	126
▁master	126
▁Nightlife	126
▁Barium	126
▁Maan	126
UNT	126
▁Hoffman	126
▁Weston	126
▁Kaplan	126
▁Tosca	126
▁Tarzan	126
▁Legendary	126
▁MIL	126
▁Abb	126
▁Edouard	126
▁Pew	126
▁Ordinary	126
▁Saal	126
West	126
▁Enamel	126
cious	126
▁Celeste	126
▁SDL	126
▁Clifford	126
eme	126
▁Lü	126
▁FO	126
imov	126
OF	126
▁Pineapple	126
▁protection	126
▁SERVICES	126
▁management	126
▁Orbit	126
▁Feu	126
▁Lesson	126
▁Adaptive	126
weight	126
▁Chilean	126
AMI	126
▁Worst	126
▁STO	126
kaya	126
▁Orléans	126
▁Gérard	126
Ware	126
▁Stapler	126
ermeer	126
▁Halifax	126
▁Cabins	126
▁Qaeda	126
cre	126
▁Boven	126
▁Simeon	126
▁Ankle	126
▁Coke	126
▁pour	126
▁Zach	126
▁Scotch	126
▁Tripod	126
▁Ptolemy	126
rm	126
▁cross	126
beach	126
isan	126
etting	126
DON	126
▁Sniper	126
mona	126
▁Seats	126
▁Fuku	126
▁Vimeo	126
ZZ	126
WM	126
▁Neoprene	126
▁Cypress	126
▁chalet	126
▁Württemberg	126
amt	126
▁Puppy	126
▁Drums	126
▁KPMG	126
▁Torrevieja	126
▁Ignition	126
aru	126
▁Jaco	126
fast	126
▁Representation	126
▁Kik	126
▁Float	126
ried	126
▁article	126
▁Picard	126
▁Zapp	126
▁Frankfurter	126
▁Eem	126
▁Fédération	126
▁Duct	126
REA	126
Start	126
▁Arnaud	126
rière	126
▁Limousine	126
▁Exterior	126
▁Glam	126
▁Boyd	126
▁Pong	126
mati	126
▁Lek	126
▁Composer	126
▁Tanya	126
▁pool	126
▁Enrique	126
▁NWO	126
▁Invoice	126
▁Stain	126
▁Regulations	126
▁Thesis	126
▁Movenpick	126
Back	126
▁VE	126
jit	126
▁Kendall	126
▁Ismail	126
▁Chev	126
▁Calling	125
▁Anaheim	125
▁Onze	125
ROW	125
▁Millionaire	125
▁Trak	125
▁Foldable	125
▁Unite	125
▁hair	125
roos	125
▁Fighters	125
DN	125
▁IDC	125
iso	125
▁Carcassonne	125
▁Mb	125
▁Spectacular	125
▁Rockwell	125
▁Maltese	125
▁XM	125
▁Wakefield	125
▁Catania	125
▁EE	125
tsi	125
▁Ouest	125
▁Jávea	125
▁hu	125
▁Vé	125
▁Donau	125
alle	125
▁Geer	125
▁Hindi	125
▁Rosie	125
▁Gymnastics	125
▁Shima	125
▁Resistant	125
igno	125
▁Bena	125
▁Sammy	125
▁Robe	125
▁Gastro	125
▁Stephens	125
▁Hound	125
Host	125
nberg	125
oog	125
nate	125
ersee	125
▁Axle	125
▁Profiles	125
fla	125
zani	125
▁Mez	125
uyt	125
▁Tournaments	125
▁Francorchamps	125
▁Curl	125
▁Hilde	125
panel	125
▁Leonid	125
▁Speakers	125
▁Och	125
▁Superman	125
kil	125
▁Falkland	125
zhu	125
▁Ney	125
welt	125
▁BRA	125
▁Rever	125
LN	125
▁Uz	125
along	125
▁Padel	125
▁PER	125
buy	125
chak	125
▁COR	125
▁Heil	125
▁Foxx	125
▁Miffy	125
VE	125
▁Robbie	125
▁Zonne	125
rh	125
▁None	125
▁Wagen	125
▁PRI	125
▁Kazu	125
▁Copernicus	125
▁Danse	125
Israel	125
▁Orsay	125
▁Petri	125
▁Lec	125
▁Lamm	125
▁Picchu	125
▁Goodbye	125
Ti	125
▁Chet	125
▁Concepts	125
▁Samara	125
▁KE	125
▁OUR	125
Lin	125
evna	125
▁Soma	125
▁Manta	125
▁Joanne	125
▁Cavern	125
▁Khar	125
▁Saxe	125
BUS	125
▁Mä	125
▁Stir	125
▁IO	125
▁Patagonia	125
Science	125
itsch	125
▁Armada	125
▁Vicar	125
▁button	125
▁MAD	125
▁Designed	125
▁Siberia	124
tsov	124
▁Sneakers	124
▁Mitt	124
▁Antiques	124
▁Sle	124
▁Iveco	124
▁Sind	124
▁Chernobyl	124
▁Webb	124
▁Freiburg	124
▁Taormina	124
ologists	124
▁Sutra	124
▁Ez	124
▁Grenoble	124
arde	124
▁Haley	124
▁Reflection	124
▁Krone	124
▁Meister	124
▁Nikolay	124
american	124
cine	124
hour	124
verein	124
▁Jail	124
▁Eerste	124
holder	124
bler	124
▁Muro	124
▁Alejandro	124
▁Bezel	124
▁Bandit	124
▁Reseller	124
ELA	124
×	124
▁iCloud	124
▁Alameda	124
inne	124
▁research	124
▁Lazare	124
▁Nativity	124
▁Ambassadors	124
▁Vastgoed	124
▁Nerja	124
▁Wrapping	124
▁Doctrine	124
▁Nozzle	124
▁WT	124
▁Prijs	124
▁Understanding	124
donk	124
▁Tigers	124
jac	124
▁Nocturne	124
▁Tegel	124
▁Transporter	124
WT	124
ugh	124
▁Bolts	124
▁Superstar	124
▁Partido	124
▁Bethlehem	124
▁Cliffs	124
▁Karak	124
▁Stellar	124
▁Percy	124
▁Sumatra	124
ARS	124
▁Cler	124
▁Carina	124
▁model	124
hid	124
ICS	124
▁Starbucks	124
▁Ateliers	124
▁Ema	124
zhong	124
▁Soest	124
▁Arduino	124
▁Aldo	124
▁Tramp	124
▁Roermond	124
maria	124
▁Aart	124
gic	124
martin	124
Force	124
gation	124
▁Nikol	124
▁Sah	124
▁Sherry	124
▁national	124
▁Balcon	124
▁Barth	124
Am	124
parc	124
▁Jae	124
▁Thé	124
▁Depth	124
▁Bracket	124
▁Yasu	124
▁Ivanov	124
▁Hydrogen	124
▁Staal	124
▁Drinking	124
▁Fuente	124
▁Reagan	124
▁Parfum	124
ARIA	124
▁Hä	124
▁Cheat	124
▁Stéphane	124
▁Britney	124
▁Duisburg	123
▁Thermostat	123
▁Joke	123
idor	123
▁Coleman	123
▁Cybersecurity	123
▁Anping	123
▁Galilee	123
▁Comité	123
ät	123
▁Rodrigo	123
trian	123
▁Daniël	123
SION	123
▁Agriturismo	123
▁Soto	123
▁Matterhorn	123
tair	123
thel	123
sbergen	123
▁Amos	123
▁Fad	123
▁République	123
▁Breaker	123
▁avenue	123
▁Prelude	123
▁Levin	123
▁Parachute	123
▁Fonda	123
wirt	123
▁Chico	123
cote	123
▁Armin	123
▁Parma	123
▁LNG	123
▁Altar	123
▁RR	123
tower	123
woman	123
▁Trevor	123
▁Escuela	123
▁Rut	123
▁sun	123
chino	123
▁Cockpit	123
▁Pape	123
▁SSI	123
▁Artisan	123
▁Baggage	123
▁Veda	123
▁Telegram	123
▁Luo	123
Pack	123
otta	123
bber	123
▁Boi	123
▁language	123
odi	123
▁Enough	123
▁Triodos	123
bili	123
MY	123
▁Pott	123
▁Closet	123
▁Ecumenical	123
▁Bender	123
▁Volcanic	123
▁Langkawi	123
▁Brady	123
▁Known	123
▁Oc	123
▁Passover	123
▁Liability	123
ní	123
ismo	123
▁Kink	123
▁Snapdragon	123
▁Guadalupe	123
▁Presley	123
days	123
▁open	123
skie	123
uddin	123
▁Centaur	123
▁Wade	123
▁Aztec	123
▁Ninth	123
▁Heal	123
▁VL	123
erra	123
▁Pricing	123
ccio	123
▁ASUS	123
▁Riv	123
▁Purifier	123
▁Elysees	123
vila	123
▁Makes	123
▁Issa	123
▁Fung	123
▁Oakley	123
▁Dalton	123
LAN	122
▁Nicolaas	122
▁Annecy	122
▁Waist	122
▁Keeping	122
▁Peek	122
▁Cairns	122
cloud	122
▁Plantage	122
egen	122
▁Belfry	122
ais	122
▁Freeman	122
▁Andromeda	122
▁Reflex	122
▁Marches	122
▁Favourite	122
ibo	122
▁Pry	122
▁Pastry	122
dore	122
▁Hutt	122
mier	122
naga	122
Chi	122
▁Geographical	122
▁GD	122
▁SZ	122
▁Kashmir	122
tribu	122
▁Susanne	122
▁Gamble	122
idian	122
▁Gaudí	122
Trans	122
▁Northwestern	122
KU	122
CAR	122
▁Pray	122
▁Pepsi	122
Blue	122
▁Lise	122
▁GARDEN	122
eric	122
dl	122
music	122
▁LLP	122
tif	122
▁Tiber	122
clear	122
▁Aver	122
Asian	122
▁Maximus	122
▁Katerina	122
▁Milestone	122
Ne	122
ussi	122
fect	122
ondo	122
chka	122
▁Pérez	122
olin	122
▁Aarhus	122
▁Assumption	122
▁ibis	122
rau	122
▁Flori	122
▁Herzog	122
▁Instruction	122
▁Cadillac	122
▁Montjuïc	122
▁Goldberg	122
▁WITH	122
▁Ota	122
▁Hexagon	122
else	122
▁Postgraduate	122
▁Veri	122
▁Quarterly	122
WL	122
▁Hastings	122
ʻ	122
▁Bartholomew	122
cart	122
▁Né	122
▁Amore	122
▁Netherland	122
▁Pina	122
iest	122
TAN	122
dao	122
▁Gianni	122
▁Paradox	122
ría	122
▁Muscat	122
▁Lesser	122
▁Kell	122
▁Hoover	122
rach	122
▁Legislature	122
▁Drei	122
▁Masjid	122
▁Detective	122
▁Bernie	122
▁Shareholders	122
▁Pare	122
ury	122
▁EQ	122
▁Morton	122
▁Arrangement	122
▁Trunk	122
▁Cortez	122
▁Sumi	122
▁Mekong	122
QUE	122
▁Berne	122
▁Bani	122
▁Manoir	122
▁Plush	122
▁eCommerce	122
BY	122
▁Gregor	122
▁Neuf	122
▁Alana	122
▁Neder	122
▁Kanda	122
▁Fak	122
▁Viscount	122
▁Taman	122
▁Rotana	122
haz	121
▁Adri	121
▁Dunlop	121
▁Zhongshan	121
▁Illustrated	121
▁Syndicate	121
▁Yemen	121
▁Rinpoche	121
▁Padlock	121
ná	121
▁Variable	121
▁Rimba	121
▁Dries	121
ust	121
nius	121
▁Vina	121
▁Jah	121
▁Wahl	121
▁Wiring	121
gaz	121
▁Compassion	121
gies	121
▁Badger	121
▁Honours	121
KW	121
▁Valence	121
oxy	121
▁Maka	121
MIS	121
appa	121
▁Kut	121
▁Zaventem	121
▁VVV	121
▁Tok	121
▁Effective	121
KR	121
▁Renee	121
▁Analytical	121
▁Marxist	121
▁Wink	121
▁Competitiveness	121
▁Novella	121
▁Loup	121
RUN	121
▁Christi	121
▁PAN	121
▁Translators	121
▁González	121
▁ICS	121
▁has	121
uria	121
▁Raise	121
▁IBC	121
▁Garrotxa	121
Spain	121
drag	121
esa	121
eghem	121
assar	121
▁Creole	121
inc	121
▁Sella	121
▁boulevard	121
▁Stealth	121
▁Phosphate	121
▁Homewood	121
▁Monterey	121
ERE	121
▁Cornelius	121
▁AEG	121
Stream	121
Lux	121
▁most	121
▁Piaggio	121
▁Dietrich	121
▁Mang	121
itude	121
Î	121
▁Galeria	121
kaai	121
▁Rado	121
▁Preparatory	121
▁Ape	121
▁Predator	121
▁Psi	121
amour	121
▁Servant	121
▁Middel	121
▁Burgh	121
▁Avia	121
▁Travis	121
Style	121
surf	121
▁Logi	121
ryu	121
▁Carinthia	121
ppo	121
▁Pavlov	121
▁Dios	121
hagen	121
▁download	121
onym	121
▁Condition	121
QM	121
▁Darren	121
▁Savona	121
▁Kessel	121
▁Conquest	121
agan	121
▁super	121
▁Ich	121
dour	121
▁Evert	121
zeit	121
▁Lumi	121
▁Trib	121
▁TomTom	121
gym	120
▁Stiftung	120
anova	120
▁Turf	120
▁Amo	120
▁Pacha	120
▁DUO	120
▁Marko	120
▁Palla	120
STAR	120
cci	120
▁Difference	120
kerke	120
onda	120
▁Cassidy	120
▁Laminated	120
▁Canopy	120
▁arr	120
▁Motocross	120
▁Frames	120
▁Orly	120
▁Varadero	120
▁Curious	120
▁Meng	120
lof	120
ruff	120
▁MQ	120
▁Octopus	120
▁Sébastien	120
hap	120
▁Musicians	120
▁Zentrum	120
▁Polaris	120
▁Spiel	120
▁Chios	120
▁travel	120
werf	120
viz	120
▁Judiciary	120
▁INT	120
▁Bulletproof	120
▁Mauro	120
▁Anarchist	120
▁Salem	120
▁Exeter	120
aard	120
▁Kno	120
▁Litt	120
▁Vario	120
ifer	120
▁Snapchat	120
▁Speedway	120
▁Ira	120
▁Dover	120
▁Sze	120
▁Toyo	120
▁Horticultural	120
▁Attention	120
CN	120
ischer	120
▁Daw	120
▁Hanseatic	120
▁Cartel	120
▁Sins	120
▁Stamford	120
▁Grotto	120
▁Woluwe	120
oral	120
radio	120
▁Comparative	120
iment	120
▁Gable	120
riz	120
▁Technische	120
▁newsletter	120
▁Vauxhall	120
CHI	120
▁Garland	120
▁QA	120
▁chapter	120
lion	120
▁Middelburg	120
▁Lamps	120
▁Belmont	120
▁Aspect	120
▁Lice	120
▁dr	120
▁Slovenian	120
▁Propaganda	120
▁Physiotherapy	120
▁Vec	120
▁Marieke	120
▁Ries	120
▁Sveti	120
▁Mosa	120
▁Phnom	120
▁Racks	120
▁Martino	120
▁Modules	120
▁CHE	120
▁Attraction	120
▁MEN	120
▁Babi	120
▁Belarusian	120
▁Loh	120
▁Headset	120
▁Alloys	120
▁Cayman	120
iglio	120
schel	120
fuck	120
▁NEC	120
▁Rendezvous	120
▁dans	120
emberg	120
▁conflict	120
▁Whi	120
▁Advertiser	120
tunnel	120
▁Sold	120
▁Boijmans	120
▁Nandrolone	120
▁SIG	120
▁DEN	120
ié	120
▁Bumper	120
▁Pinto	120
JS	120
eten	120
▁Summa	120
mok	120
▁carte	120
▁Soph	120
ATO	120
▁number	120
▁Tucker	120
▁Choo	120
LAT	120
▁FPC	119
▁Volker	119
▁Attic	119
▁Hoh	119
▁Dolomites	119
▁Merchants	119
▁Grind	119
▁Cere	119
Rewards	119
▁Twee	119
high	119
▁Cardiology	119
▁Larsen	119
▁Dex	119
sima	119
▁Dup	119
▁Really	119
▁Méri	119
esti	119
▁Marg	119
▁Paramaribo	119
▁Caprice	119
▁TEAM	119
▁Martine	119
tak	119
▁Jef	119
▁Roussillon	119
▁Ilse	119
▁Paco	119
▁Vendée	119
XY	119
nique	119
▁Naz	119
▁Guardrail	119
▁Cretan	119
▁Wrestle	119
▁PACK	119
▁Humphrey	119
▁Nusa	119
▁Dae	119
▁Starlight	119
▁Zadar	119
▁Magdalene	119
fox	119
▁Graphite	119
AKO	119
▁Emotional	119
▁Olsen	119
▁Strada	119
bble	119
ungen	119
▁Came	119
ummer	119
▁WEST	119
▁Neme	119
bij	119
▁Disp	119
▁RAC	119
▁Kitzbühel	119
▁Convertible	119
▁Burma	119
èle	119
▁Prevent	119
RZ	119
creat	119
▁Rivet	119
YA	119
ality	119
▁Eliza	119
▁Arun	119
▁Bulldozer	119
▁Rennes	119
▁Gastronomy	119
beurs	119
KM	119
▁Liam	119
▁Beaumont	119
goed	119
▁Ethiopia	119
utta	119
▁Weapon	119
▁spa	119
▁Feria	119
▁canal	119
▁gold	119
SEL	119
▁Celebrate	119
▁Flagship	119
▁Lighter	119
gast	119
▁Paulus	119
kid	119
▁Saharan	119
▁Rina	119
▁Expression	119
▁YA	119
▁Espana	119
▁Sanne	119
bergh	119
▁Hama	119
▁HV	119
▁Cinque	119
▁Cruyff	119
▁Jewels	119
▁Spout	119
▁Tack	119
▁Sloan	119
▁Watching	119
▁Checkpoint	119
▁Trem	119
▁Turismo	119
▁Locomotive	119
phin	119
▁Clemens	119
▁Brood	119
▁Ursula	119
▁Rosas	118
▁Oswald	118
▁CK	118
▁Ironing	118
▁band	118
▁Emanuel	118
▁Genetic	118
▁Flavor	118
mma	118
▁Solstice	118
▁training	118
▁Clio	118
▁Duque	118
▁Tod	118
EGA	118
▁Vill	118
▁Parkhotel	118
ň	118
▁Vrede	118
round	118
topia	118
obo	118
▁china	118
lv	118
FD	118
▁Checkout	118
mobil	118
▁Martín	118
▁Hongqiao	118
▁Volkskrant	118
▁Corniche	118
▁Seymour	118
▁Italiana	118
pl	118
▁AWS	118
iën	118
▁Avanti	118
▁Borne	118
vang	118
Love	118
jean	118
MIT	118
▁Destruction	118
PON	118
▁Heim	118
▁Metallic	118
▁Phal	118
▁Vella	118
nny	118
▁Grond	118
▁Financing	118
▁Logis	118
bacher	118
YT	118
VB	118
▁PCBA	118
riel	118
▁Bellini	118
NT	118
hov	118
lement	118
azza	118
▁Abella	118
▁Counsel	118
dec	118
▁Chiangmai	118
cliff	118
uver	118
▁Paid	118
▁Wunder	118
▁Grun	118
▁Brace	118
beer	118
▁Waterfalls	118
garh	118
gé	118
lly	118
ZE	118
▁card	118
▁Spui	118
▁DRC	118
lisa	118
jang	118
fabrik	118
▁DV	118
yal	118
▁Elounda	118
▁ESS	118
▁Cris	118
mig	118
▁Sonja	118
cano	118
ül	118
▁Oleg	118
▁Keur	118
▁Forty	118
▁Donor	118
▁Turquoise	118
▁Modul	118
▁Premio	118
▁Orto	118
▁Bowls	118
▁IJsselmeer	118
▁Indus	118
▁Sut	118
▁Margot	118
anse	118
▁Amplifier	118
▁Tgirl	118
▁Jock	118
▁Ferenc	118
▁Wage	118
coast	118
▁Airplane	118
▁Rapalje	118
▁IE	118
LEX	118
Ä	118
yeong	118
chner	118
▁Maat	118
touch	118
▁Arca	118
▁Lionel	118
▁Trailers	118
▁Licensed	118
▁VB	118
▁construction	118
▁Mech	118
Bike	118
▁Schuman	118
TEK	118
▁Glorious	118
▁Castilla	118
▁Interaction	118
▁Incorporated	118
çon	118
▁HDD	118
▁ECB	118
▁Podcast	118
▁Positioning	118
rung	117
▁Pollution	117
▁Blueprint	117
▁Teenage	117
▁Vlissingen	117
▁MPS	117
aves	117
tub	117
▁Empflix	117
▁Disabled	117
▁Guggenheim	117
ELI	117
GY	117
▁Vince	117
▁Aber	117
▁Elector	117
aster	117
fact	117
▁Eugen	117
▁Gentle	117
▁Irma	117
wad	117
▁Thyssen	117
▁Cheer	117
FN	117
▁Gry	117
▁Grandpa	117
▁Flix	117
ITI	117
▁Females	117
▁Coupons	117
Guide	117
▁Surrey	117
▁Peggy	117
bout	117
▁Juniper	117
▁Conscious	117
▁BJ	117
nett	117
azar	117
▁Rogier	117
▁CIO	117
illas	117
▁Fethiye	117
nez	117
▁Karting	117
▁shopping	117
▁Lightweight	117
▁Publication	117
▁Ulu	117
▁Auri	117
liv	117
▁business	117
▁Noire	117
▁MAL	117
illac	117
RV	117
Can	117
▁Wort	117
▁Rapp	117
▁Opposition	117
▁SNCB	117
velt	117
heit	117
▁Langham	117
▁Noodle	117
▁Midway	117
▁Accessory	117
▁Perspective	117
kkel	117
Mark	117
▁Employer	117
▁EVO	117
▁Emotion	117
▁Bastide	117
aine	117
ccia	117
neu	117
Clean	117
▁Spokane	117
▁Changi	117
▁Jie	117
▁FB	117
▁Comfortable	117
▁Motorcycles	117
▁concert	117
▁Kitts	117
▁km	117
dier	117
seat	117
▁Kilo	117
▁Heron	117
▁Balkans	117
▁Dir	117
▁Und	117
▁Majorca	117
▁Conseil	117
▁Boeing	117
▁Throw	117
Server	117
▁Salzburger	117
THER	117
Her	117
▁Output	117
▁Czechoslovak	117
▁Copp	117
▁Acre	117
loch	117
▁Drupal	117
▁Styling	117
leb	117
▁Alexei	117
▁Hooker	117
▁Forget	117
▁LR	117
▁Collegium	117
▁Domina	116
▁Nek	116
culture	116
▁Karlsruhe	116
▁Measuring	116
Date	116
▁Overland	116
▁Rugs	116
▁Yugoslav	116
▁Slicer	116
▁Chopper	116
▁Hansa	116
ucht	116
▁ITS	116
▁Neumann	116
ENE	116
▁Niv	116
▁Kotor	116
dun	116
▁Commodity	116
▁KNX	116
▁AO	116
▁Hav	116
«	116
hip	116
▁Admission	116
▁Retiro	116
▁Hemisphere	116
▁Epson	116
tische	116
▁Autodesk	116
enhuis	116
rous	116
▁Sama	116
▁Bambi	116
oye	116
▁Annals	116
cé	116
▁Thumb	116
cana	116
▁Potsdamer	116
▁Thule	116
▁Limon	116
▁Packaged	116
▁cemetery	116
▁Caritas	116
▁Mada	116
rong	116
vak	116
▁Mello	116
▁Bonita	116
▁Mehr	116
eveld	116
iller	116
▁VER	116
▁Serving	116
▁Saur	116
▁tree	116
▁MON	116
▁Woud	116
chor	116
ffen	116
、	116
▁Scam	116
▁AVI	116
▁InstaForex	116
▁Schell	116
▁EDI	116
▁landscape	116
▁Mik	116
▁Argo	116
▁Obelisk	116
▁Clima	116
borne	116
hammer	116
▁Ericsson	116
uru	116
▁Peppers	116
▁Gmail	116
▁Context	116
▁Panty	116
▁Nobody	116
▁Dixie	116
▁Chevalier	116
▁STE	116
▁Voluntary	116
fei	116
▁Fon	116
just	116
▁Saud	116
▁Ulm	116
INS	116
asco	116
▁Miko	116
▁Strom	116
▁Mem	116
lf	116
dino	116
▁Bastogne	116
▁BAT	116
▁Nevis	116
▁category	116
▁Naxos	116
▁Joomla	116
cultural	116
▁Greta	116
▁Kasbah	116
not	116
control	116
▁Procession	116
▁Advocate	116
▁RedTube	116
▁Toren	116
chun	116
cid	116
▁Tomorrowland	116
▁Luft	116
▁Ott	116
grav	116
▁Muz	116
HK	116
▁Keez	116
▁Luxurious	116
▁Pottery	116
▁Wold	116
▁Pillars	115
▁Subscriber	115
▁Clive	115
▁Dharma	115
▁Britten	115
▁Lucifer	115
▁FV	115
olf	115
lage	115
▁Puller	115
▁XXI	115
▁Lennon	115
▁Universitat	115
▁Sliding	115
UCH	115
▁Lila	115
▁Attitude	115
guet	115
▁Kroon	115
Comp	115
▁Erz	115
▁IFS	115
▁Stab	115
▁Singers	115
▁EK	115
▁Roeselare	115
▁Goed	115
▁Pork	115
[...]
